#version: 0.2
н а
р о
и ̆
с т
о в
р а
н и
і ̈
к о
н о
е р
н і
г о
п о
з а
і д
т и
в а
е н
н я
т а
л и
р и
к а
в и
л а
ц і
л ь
д о
і в
к и
с ь
н е
м а
п ро
т о
м і
в о
м и
к у
т ь
р е
д а
с я
л і
в і
л о
в ід
м о
д и
р і
ст а
л я
щ о
б у
м у
ер е
с у
л е
н у
р у
ч а
ен ня
г а
т у
д і
ч и
п а
к ра
о б
н ня
т е
п ри
к і
с і
д е
п ов
д у
кра ї
б о
о го
ни х
п ра
но го
б а
с а
с и
у краї
н ов
сь ко
т і
м е
ц е
п ід
п ере
б і
ро з
ни й
2 0
ж е
і н
ов а
п и
ть ся
п е
л ю
х о
п і
но ї
ш и
ст і
о р
с е
л у
в е
ов и
з на
ці ї
ст о
з и
я к
к ів
ст и
ш е
пов ід
ки й
ов о
ж а
ц ь
ч е
с о
у ва
ж и
ст ь
п у
ці й
ю ть
б и
ф і
б е
п ре
м ен
с по
1 9
п ер
т ри
т ра
н ь
украї ни
к ла
г і
р я
в ер
сько го
о с
ро ку
ко н
д ля
з у
д ен
т ер
г у
з і
с л
ко м
х а
о д
є ться
ов і
20 1
р ів
ни м
ки х
ва ння
к ри
ві н
с ка
ва ти
ш а
т ів
д ж
д ер
н сь
й сь
сько ї
ча с
т я
г и
ст у
г ра
з о
ко ж
пра в
бе з
с во
ц я
а ль
я кі
повід о
й ого
ч і
ні й
ні ст
й о
ро сі
ста нов
л ення
су д
но ю
в ся
ц и
п ла
а к
ш ення
щ е
бі ль
мо ж
д ні
ч о
з е
ф ор
та кож
в у
а н
0 0
д ів
ни к
но сті
від повід
п ів
т ро
но му
к ре
е к
ста в
ти ся
ни ми
к е
ч у
ти в
і з
ці я
с лу
по лі
д я
го л
а ле
є в
дер жа
то р
в ла
ен ь
ст во
ч ер
па р
г ро
ні сть
об ла
ста н
ко ли
с ер
мі ніст
ст е
ю чи
н ю
ні в
три ма
ви ко
ни ка
ва ли
я ви
на ль
20 0
н к
ос об
да р
д ов
бу ло
на й
ї х
ти ч
ст ва
то го
сл ід
г ля
ра х
кі ль
та к
ш і
за в
мі с
м ер
ці в
повідо м
ді й
ле к
а р
х ід
ере з
1 0
ш о
с ві
с пі
г ру
н ення
ж у
т тя
сь кий
1 1
ко го
ов у
пі с
а в
с пра
ці ю
г е
ц ю
ч ення
л ен
но м
х и
да в
на ро
є ю
с кла
ка р
ма й
ма є
ва в
з мі
ш у
су ду
по зи
ра н
ф о
за ко
рі шення
я кий
єв ро
зи ден
ни ків
то му
ц ен
а бо
пре зиден
пере д
ови х
ї в
ве ли
на д
то м
б ли
ці о
піс ля
ст рі
ли ся
мі ж
го спо
бу де
ор га
з ь
ма н
м ов
щ и
г ово
л ів
e r
держа в
с ере
т ова
ло ся
д ру
бу в
ю ться
1 8
о му
ки м
мо же
кі й
ен ко
госпо дар
а д
ф е
я в
ї ї
по ча
є мо
т рі
т во
н ку
в сі
ла ся
нов и
б ра
за зна
хо ди
пи та
1 2
т ку
г ен
ра з
ро б
слу ж
т ов
во ни
ува ння
т ре
ро м
ж ення
сту п
ні ч
ві йсь
1 5
дж ення
к ов
i n
в же
пре д
при й
по да
с ла
на в
від о
без пе
за яви
ко ї
ни ки
ко му
є м
обла сті
ва р
ць ого
ні ї
д ня
то рі
ви зна
ч ерез
ді я
ро бо
пра во
ко р
ча сти
р н
гро ма
ст ра
ро ці
ст ро
украї н
ко ю
н ні
що до
н д
б ро
міс це
нь ого
фор ма
тер и
го ло
во на
ува ти
к ер
ав то
ли во
я з
к ово
що б
ні ше
сь ка
д же
ві ль
ши х
в се
a n
за ли
ра йо
с пе
бо р
ра ди
ро ків
бу ли
украї ні
про ти
станов и
ря д
ди н
я ка
во ло
1 7
ни ц
о трима
сь ого
до м
ко ро
по ру
о к
повідо ми
ро би
г рн
м л
як що
ст ру
o n
н с
до ро
т р
нов а
ком па
пи са
ж і
сере д
кі н
спо р
за с
ва жа
1 4
й ш
ма р
1 6
вла с
ма га
ка х
наро д
сі б
ба га
ка н
т вер
д ово
б лі
рі ч
ді ї
3 0
т ру
з ви
т ня
т ні
х у
за га
с ша
г ри
щ а
ля є
но к
до по
б ер
ови й
сл ова
сько му
e n
на лі
ста ви
орга ні
s t
ки їв
про це
на ві
с к
лю ди
мініст ра
на ціо
ве д
пра цю
ф а
ло гі
ль ки
ти м
си ла
в я
з ов
пред став
бу ла
пе ра
чи в
зе м
м ови
ка ми
1 3
в ня
я ких
в ів
мо г
г ід
o r
с прав
х ов
нь о
ль та
ри ст
об ов
но мі
a r
ки є
ф у
тери торі
дій с
ста т
д во
ін форма
р ю
е ко
2 5
к рі
х то
сто рі
ка са
о сіб
ля цій
ш ко
бу ти
га да
тер і
х і
ми р
з ни
ска р
ен ер
к ли
й де
пов ер
на да
а пе
ко мі
пра ви
с ів
на се
ле но
бо ро
к ова
ту р
ні я
ли ше
в станов
біль ше
при єм
че м
п ня
т ки
ек с
сво ї
па д
пов і
по р
об о
сь ких
ст я
в ши
на ння
н ер
каса цій
роз гля
19 9
росі йсь
ва ж
т ва
ті льки
за хи
2 2
ви д
ден ь
ку р
по ль
до н
в важа
су вання
гол ов
ш та
ць ому
пу та
б ри
а лі
о хо
пар ті
заяви в
ль но
у ні
ре зу
резу льта
я за
ві й
сього дні
украї на
б ю
бу д
рі з
ра ніше
є ї
та лі
a l
но р
2 1
від кри
ска зав
пу блі
ва ла
об і
ч них
особ а
нсь кий
ч ого
де пута
го ди
пита ння
си сте
с пів
ф ак
те х
під приєм
росі ї
ч но
пра ва
н ки
ту ри
од на
де й
про ек
до гово
за ції
прий ня
пере да
ва н
з во
к лю
бу ду
л ові
r e
роз у
п ло
ма тері
ф ер
не ць
фі на
о лек
о фі
чи н
сві т
еко номі
ко ман
ро н
у ча
є к
ль ного
ши й
ж ов
не за
п ря
е о
ха р
со м
бу дів
то ра
ці єю
мож на
мен т
бу ва
по ка
г ов
з вер
мож у
на ми
при мі
ін стан
го р
та ми
a t
ро бі
лі ння
спра ви
шо ї
лю дей
сь кій
вед ення
ч ні
ніст ю
2 4
те ле
у к
вер хов
і м
ле ж
бли зь
да т
к ві
та м
ч ного
ду же
особ и
це й
ф ран
о з
мі н
м ова
слова ми
мен е
ти н
чо лові
м ку
бага то
війсь к
са мо
l e
на гада
2 6
i t
ово ї
гі о
до ку
в ере
2 3
про ва
о стан
ро ни
та р
лі к
спра ві
ту т
ці аль
сі м
на с
мл н
за хо
не с
є д
ш ого
пре с
пов и
ч ної
зо м
кре ма
ен ні
ре гіо
т ен
г ів
мер и
ле ні
про во
сі ї
ль них
з дійс
нсь ка
ме ні
по станов
мен ту
по ді
ння м
о пера
рах у
щ і
з в
л ід
я с
кер ів
зо крема
б ерез
й те
г ре
кіль ки
ос нов
c o
5 0
к су
по сила
від ео
о дин
ли ві
д ва
г ла
гід но
мі ста
ки ми
про дов
са ме
рі й
б ле
ль ної
мо ги
ту а
грома дя
за й
про те
не об
ви бо
то к
робі т
роз мі
нсь ких
ви да
пу нк
про ку
о н
с вя
можу ть
ло м
ко ш
кла д
бі р
і с
ди в
ра к
у прав
ну ти
на х
мо н
гово ри
са нд
перед ба
ль ний
r a
2 7
зако но
наві ть
ов ого
до ла
мі ся
воло ди
ча є
з гідно
ма ти
рі к
мо ло
e t
пе в
євро пе
є р
ви х
стру к
по з
щ ення
росі й
ін ших
си туа
е лек
с ку
па да
чи ни
у х
близь ко
стат ті
по са
ну в
за раз
2 8
тра н
ви рі
полі тич
ві к
б ере
аль ного
ни ць
га з
ї з
мі ль
ви роб
зу стрі
а мери
у сі
ен е
про гра
i c
р ення
h e
відо мо
за безпе
ч ний
к ро
три му
роз ви
між народ
жи ття
ма т
во д
ди ти
ль ні
ча й
о х
є н
то ю
дж у
вере с
крі м
с ли
ін тер
ви й
фор му
на з
необ хід
го м
ма ють
к ови
ви пад
олек санд
ре є
у час
с ко
доку мен
това ри
р д
ні ме
йо му
з я
со ю
за сто
сь кі
ц ер
ли сто
ка на
жу р
полі ти
ті м
ні ж
жи т
ві р
нов о
об ра
па ра
сі ч
пер і
v i
ла н
я кого
по л
кри мі
сво ю
чи ти
за дово
ве де
r o
го ро
біль ш
2 9
ти с
краї ни
при зна
дія ль
ни ком
за ги
ові р
гра фі
сі й
те й
то ді
на м
по ряд
гри в
р ф
з бро
с про
кіль ка
пре м
ни ти
пар ла
кли ка
сти ту
ст ер
ку ль
п ли
росі я
і сторі
чи на
ко ла
ре к
бо й
ра зі
з обов
пе тро
пла ти
розу мі
ен ка
ба н
4 0
си в
ш енко
ту ра
ба ть
во ю
ч ор
т них
ти х
ве сти
ко ло
га н
ниц тво
догово ру
ба нк
ле г
про да
на ступ
пози ва
б ло
на то
са й
є с
до слід
ви с
a c
з роби
се бе
ниц тва
чо му
бі ло
ре ш
берез ня
зали ши
мож ливо
ко де
зви чай
с від
в ка
х во
ні х
ува ли
си ли
жов тня
ч ів
са м
ми ну
го ю
зако ну
ль вів
ст ю
офі цій
201 4
йде ться
ра ді
ре й
па н
ви со
зас ід
чем пі
на слід
проце су
че но
e s
фо н
то й
е ра
по трі
201 6
о ці
во го
си л
к с
гол ова
ш вид
кре ди
наль ного
i s
ст ів
1 00
19 8
к лі
бі ля
од ного
до зво
про бле
фо то
201 5
одна к
ком п
дні про
буд ь
201 0
гі й
уча сть
но си
ста ння
потрі б
бю дже
ос кільки
по ра
робо ти
кон тро
яз ку
сі ль
кі сть
па м
рі я
елек тро
га р
за хід
ді ля
ме ль
об ме
ш ля
х ів
ді а
к м
с пи
о чі
ти ж
о ку
дж ере
од но
вис нов
січ ня
лен ні
ра зом
по ро
ре жи
зазна чив
вла ди
гру дня
тра вня
то ч
з би
об стави
на ф
з ова
ко ле
фі ль
а л
буду ть
верес ня
ди на
ви сту
до нець
н ен
те м
нов у
о т
то н
грома д
с ю
те ра
ли пня
мініст р
з ер
рі ї
ін ші
сво є
тран спор
су т
за лі
мініст ер
коли ш
по ки
ну ва
те к
екс пер
нь ому
ма с
жур налі
про сто
та ш
під твер
ду к
су м
к ові
сті й
при пи
го тов
по над
пу сти
те ту
кві тня
за ступ
з ло
коде ксу
ува в
всі х
киє ва
201 7
з віль
парті ї
по ло
ря ду
органі за
ди рек
к лу
u s
о де
за трима
чер вня
сі я
чи та
ши м
ль на
да ними
мо р
ни в
л ер
во ро
тися ч
мл рд
ха й
з ро
не має
ча ння
пер шої
ста р
я ку
дер ж
сто ро
ка м
про по
поча тку
киє ві
нов і
пів ніч
ме т
ва т
о на
за по
допо мо
те пер
че ні
про дук
дво х
ву ли
авто мо
да ти
201 8
під писа
ло го
3 1
6 0
лю д
ро ки
ан д
за кон
гов ор
ос ві
да лі
с р
ч на
19 7
сво їх
про тя
ме ди
скла д
безпе ки
ходи ть
o o
сер пня
гол ови
фіна нс
бри та
лю того
вико рист
по ста
примі тки
со н
роз таш
ра м
по ля
ну є
пов а
в да
ньо ї
нсь кі
служ би
д ві
уні ан
20 19
c h
вати ся
я н
по пере
с мі
з му
райо н
ма к
сько ю
па ла
чи ли
сла в
з доро
май же
ру н
до ка
сте й
19 4
т бо
по тім
ч ле
я т
матері а
на р
мі ї
г ли
ні ш
з ві
х ви
ко ри
т ере
від ді
ра зу
за я
20 20
ви мог
протя гом
с мер
бу ди
ї ха
ор ен
e l
за яв
як е
мі р
та х
тре ба
то ри
лі кар
в тра
ово ю
по слу
да ми
грив ень
до к
ча ль
сво го
с ні
є ди
по яс
йш ов
цен тра
та кі
п ле
л ов
спі ль
с хо
ак тив
t he
г нення
ух ва
скла ді
с лі
ці а
ючи сь
гі ї
п ен
до ю
м ере
міль йо
держа ви
змі ни
вико ри
ми кола
ого ло
да є
під ста
a s
пів ден
ту вання
ля в
ж ень
кла де
га зу
громадя н
ф ек
ра да
поряд ку
я ть
компа нія
ма в
бі з
ан ти
де ся
ну ли
т но
ви яви
3 5
фу тбо
ген ера
де мо
ника ми
ден т
ливі сть
наль ної
під три
ви бор
со ціаль
чи ном
і га
па в
с но
рів ня
хар ків
ни ці
на при
з го
гі р
ва є
змі н
ти й
сві ту
жи то
т ю
ба нку
спе к
пода т
ва ль
да ли
вико нав
части ни
ска за
ро к
ци х
са нк
t er
пер ший
ц у
чи м
ці єї
нови й
сь ку
с хід
0 1
гі я
ч енко
к ва
на мага
з бір
t e
201 1
р ід
хо дя
ле ний
ба р
ж ін
ча ється
йш ли
служ ба
д жа
ь ох
i i
та ких
в ну
я кому
по зов
проку ра
к вар
би в
те т
за кін
пра ців
вважа є
ста ти
н є
201 2
сь ке
ре ч
за боро
дру го
лі та
кон кур
зали ша
з ів
ре с
і ва
роз слід
дола рів
бу т
си ль
і сто
ов е
суд дів
пи су
о лі
a m
служ б
ч не
чи х
спо н
до б
ме ш
від зна
чо ї
ґ рун
чо ти
роз ді
на ле
під оз
пита нь
к ни
3 6
ково ї
ді тей
я ну
та ким
ви тра
ков ого
ма ли
ре алі
з да
від бу
ко сті
n et
трі ш
ци віль
пер ше
ти мо
обла с
мі ні
а т
пу ті
се ло
те ро
ї м
за вер
3 4
на у
ці ка
жи ть
міс ця
пов ів
зу пи
си ть
краї н
вій ни
ма ло
ро д
здійс ню
бу р
се кре
м в
ко рист
вну тріш
до ся
хо м
х е
о кре
пози ції
я кої
уні вер
0 4
i l
ме та
дов е
на голо
кан ди
в пли
т ного
но чі
біло ру
ч ну
ре спон
3 8
тич но
н г
ле них
d e
єд на
у ряд
полі ції
u n
ше в
ви м
ну вся
до дат
від мови
о ю
че них
ні м
ре гу
зе лен
б то
на писа
ча ст
шо му
розви тку
пов нова
дон ба
вирі ши
ци м
ван та
з нову
неза леж
ви щи
райо ні
ки та
за мі
проек т
пі з
h t
петро в
украї ну
0 3
му ть
0 5
про фе
г но
спе ціаль
чемпі она
яну кови
щ у
са н
я ким
охо рон
ок ру
німе ч
ч ка
ін тере
с обі
ш ень
ра ми
ова но
0 6
жи те
мі сто
200 8
в зя
3 7
ля р
де ра
н ського
ву л
сь ким
б ла
о зна
ни ця
да ні
ші сть
фі ка
ва лю
с ен
су дом
ови ч
ч ки
201 3
за кри
мо ск
19 6
во ї
пла ну
скла ду
200 9
0 9
су вати
ши ми
o l
і но
пере ві
а ві
кри м
чи ть
нов ого
з біль
ле на
пере бува
фер ен
ови м
мі сті
ля лося
лі ку
а ка
ш ов
ста ні
0 7
жи в
i on
не до
гру пи
ви гля
боро ть
у же
кон ститу
хо ча
с ід
амери ка
ак ти
нови х
комп лек
райо ну
на яв
люди ни
п к
e d
чи й
гра в
зав да
кри му
бо ку
м ки
м ів
ю ри
особ ливо
в клю
по ря
робо ту
сто ли
наві ру
ро ди
ук р
очі ку
по мі
лі ї
ст ри
0 8
зі ї
та н
в станови
а ння
ле й
ри нку
проку ро
жи ти
ту вати
ко мен
не ї
ча су
пи с
п рі
е ль
т ка
на пря
г ер
ро в
ля ється
хо че
кор до
мо ю
0 2
до бу
універ си
я р
сторі н
спра ва
пи в
у го
пері од
систе ми
3 9
жа х
да н
з ня
пропо ну
йсь кий
май на
ч ен
залі зни
ці н
то рів
по го
т ря
а ген
га є
це м
ць кий
ло к
ово му
ст в
фі зи
об ся
en t
вико на
с ов
во ди
па т
т ний
наслід ок
ча сом
цен тр
ова ний
чер ні
ви н
бі й
а е
чи слі
ду мку
потріб но
х ло
й ти
ви бу
розгля ду
ста ло
роз і
ко ру
по ба
пра к
ма ні
то бто
ід е
ст ві
са ми
мен ше
ви ч
т є
об стрі
від сут
ви мага
ста ту
сер гій
200 7
тра в
стра ж
тех ніч
прав да
в чи
лі с
па ли
до дав
сві й
по перед
лід ер
ри ти
с при
фе дера
ціо нер
джере ла
у ряду
ти ки
та рі
му ні
4 5
3 3
вар ті
ви сл
зем лі
йсь ких
д ра
к ло
жито мир
е фек
ac e
in g
при ват
рес публі
s p
се зо
че ний
му зи
нор м
ля ють
ви яв
g ra
сай ті
коман ди
ти ме
00 0
на леж
мі лі
кі но
бі лі
ка пі
ша х
дні в
кла да
200 6
си м
енер го
ста ном
неза кон
ла сь
ма ши
к ру
а налі
ц а
сво бо
ос кар
ду ть
кон тра
гол ову
ми хай
ра дя
чу к
ста ли
лі т
по ши
чолові к
с фер
володи ми
при н
та кий
u r
фор м
по тра
i d
скар ги
ад же
д ові
європе й
а та
ць кого
ця ми
жи ва
ва к
захи с
об и
євро пи
ство м
ро ва
аві а
і ні
ф ра
с обо
ку п
са мі
ни ли
тех ні
не ді
най біль
тра м
ста ла
на чаль
від а
скар гу
пере бу
н ка
ніч ого
ра ке
пи ше
те ж
від носи
ро ю
од ні
ре су
під готов
зо ло
сер і
по мер
до г
депута т
19 5
й м
сто су
вар то
лі й
ну вати
р ен
an d
части ні
д ми
вка за
су час
ова ні
вла да
3 2
че твер
щи ни
д ь
з бере
цій ного
гля ду
ль о
мо м
ку пів
ри сти
кору п
тив ного
і талі
с коро
які й
наф то
лю б
ля ть
по чина
ч ува
не т
чер во
o f
тр ьох
ло сь
бли ж
ль в
ци па
части на
ж ди
та ке
пові тря
під став
політи ки
лю вання
8 0
мет рів
по за
во ду
с бу
не но
t p
мі ну
роз роб
обо рони
тех но
ра д
ка бі
лі я
у спі
цій них
тор гів
по стій
ті й
від нов
че ка
на зи
а б
нав ча
по же
го т
су му
усі х
к ових
раху нок
зав жди
отрима в
у мов
мі ської
пла т
лі тера
спо ді
20 21
u a
зе ме
ма ла
ї й
нсь кій
пови нні
нсь ку
краї ні
до да
кош тів
пи ти
i m
на ші
пор ту
ба й
ба жа
ви мо
лі н
зна ходи
зага ль
на ш
тра нс
ви моги
во г
а реш
шо ю
би ра
особа 1
ха рак
6 5
комі сії
стро ва
тим час
с ло
я ти
поді б
за твер
за лу
ма тич
канди да
за клика
о ди
з бо
ка та
ла ми
кор дон
i v
цен тру
зако ном
ре а
ht tp
бой ови
муні ципа
oo k
переда є
під ви
l a
вод но
а на
мі г
в рах
бо ю
анд рій
най кра
ні би
визна ння
сві ті
о пи
юри ди
вибо рів
тя г
на ка
хви ли
підста ві
бра ти
ін ститу
ве ць
i a
кон ф
фу нк
л ля
г ова
а є
со к
в ен
рів ні
дог овір
да х
га ду
су б
лю є
пу ска
вак ци
мог ли
водно час
пар та
зроби ти
т ної
се лі
зби ра
з м
роз повів
та ль
запо рі
по тре
буди нку
7 0
т ків
бать ків
істо ри
ну вання
жу є
ви клю
b ook
вида ння
ста ну
ф рак
нор ма
у мова
з розумі
ве з
нада ння
роз поча
а ча
t o
л ень
хо ду
ба в
ви клика
справ у
квар ти
демо кра
ва с
л ку
ча сто
від бува
7 5
різ них
co m
історі я
gra m
з но
мож ли
щи ні
обі ця
к ви
захи сту
бан ків
лі ка
ми й
ле га
пар т
гро ші
чи ла
ми сл
фі р
лю вати
ге ро
фон ду
обстави н
відо м
у станов
се ли
ва вся
біз нес
те ги
на горо
ну ла
спор т
збро й
гру па
допо моги
ди ли
ху до
те а
мину лого
рам ках
по страж
та кого
поль щі
реє стра
охо рони
ан ні
цій ний
ч ним
чер ка
у мови
бі ж
фор ми
під ля
ан г
пока з
ж ер
по га
9 0
вали ся
роби ти
до бро
f ace
під кре
май бут
ва ють
справ ді
ко ра
ме тою
тво р
доро ж
се к
ра й
тив но
о публі
од ним
го ту
по м
іно зем
бюдже ту
на разі
у годи
то ром
за р
проек ту
ч я
суд дя
да к
де парта
мо мент
зов ніш
спе ц
з с
по дії
пи ли
ди ви
що сь
х ова
фіна н
кана л
жи вання
чоти ри
сто рони
лер і
д ере
о сь
ре м
яза ння
на дій
4 8
з ні
u t
дру жи
комі тету
па са
не се
чи ну
конф лік
в сього
дозво ли
во лі
face book
графі я
не га
n e
на ук
гла ва
пі ль
аген т
спо ру
ги й
варті сть
в бив
a p
ви що
ту ру
дов го
пи сь
а ф
позива ча
пов ністю
доб ре
обла сть
енер ге
пра ці
з бер
їз д
дав но
й н
історі ї
ника м
зай ма
жит л
х ре
те ль
здоро в
зна чення
щ енко
хло п
міс ці
ни з
а ва
при род
п ля
дирек тор
ка лі
амери кан
ходя ть
ни ж
фран ції
ше но
м пі
з ва
га лу
та ри
по ми
та ка
4 6
продов ж
тем пера
піз ніше
ло н
су спіль
чо ра
у н
вибо ри
се ла
ни цю
ми х
йш ла
а би
ре мон
отрима ли
кін ці
е та
акти ві
по то
ка же
остан ні
під трима
m e
га ран
зі р
х мель
ре аль
ш ли
обме же
ак ціонер
ло ю
цій ної
рішення м
бі о
т в
чо к
о триму
бо м
і гор
коро т
де мон
єд нання
5 5
до ма
вік тор
о ри
за мов
худо ж
пере ко
гу р
ми сте
ли сь
ро ках
хо чу
не в
під триму
ування м
працю є
тур ні
коман ду
ка жу
ови ми
рю ва
хо ді
шта б
про то
4 9
під розді
пода ль
ля ти
не з
мв с
захо дів
ри н
паса жи
ча ють
ч лен
по став
ді ю
вули ці
за кла
ма рі
хо дження
об ґрун
сво єї
не ні
логі ї
ва м
за реє
б ру
люди на
i r
лення м
o p
суд ді
хо ло
по пу
бе ль
орга нів
у тво
скла да
про мисл
тер мі
рі б
розмі рі
послу г
ае ро
наль них
ф ін
контра к
ме д
си н
ф и
роз поді
му зе
ва ло
ово м
ці алі
га зе
на л
меш кан
кін ця
пози ція
а то
регіо нів
най ближ
кош ти
i g
д ба
по рівня
ре дак
ові й
при з
го н
ля ли
сі ю
п си
пови н
і мені
фран цу
на ц
ін те
мак си
зустрі чі
у да
х ер
ову є
за г
мі я
ні хто
т ві
звер ну
мі ст
про веде
m a
дав ства
со л
свої й
бло ку
мо с
vi d
іні ціа
суд ового
наль ний
по ту
ш ту
ст рах
та в
програ ми
ова на
д ю
ін шого
тра ди
пер ші
ад во
роз повід
кон ферен
за па
ле м
йсь кі
200 5
чи нов
ресу р
своє му
мі но
спі р
ди пло
випад ку
сере ди
де які
ста ро
ство ре
бо ри
ух вали
ака де
раді о
зако р
про гно
лі ття
сою зу
пробле ми
шля хом
тив ний
ді є
виснов ку
збер іга
6 4
зу є
не ю
йсь ка
по д
а гре
цен трі
d a
ли й
бор ж
ця м
шу ка
тре ть
су дами
слу ха
не ний
200 4
ге о
черні гів
стер іга
служ бі
ма х
сто я
сою з
мі сти
7 8
ад ре
ш тра
мо де
дні х
проце ду
дово ди
дя ки
ме то
сер йо
ни ні
ли х
зі бра
прово ди
експер ти
кон струк
в перше
олі мпі
ря ту
споді ва
наз ва
20 00
ситуа ція
ко лек
свої м
об а
м ову
во лю
ш ве
прин ци
є ва
ні коли
н ської
чи ні
ме й
за хво
наро ду
ві с
рі шень
4 4
пере вір
ви ді
річ ний
чита йте
та ки
т к
раху н
в нес
бага ть
від но
б ен
су сід
тиж ня
ст вер
мі й
п лю
пор т
ве сь
зви нува
су пер
ста не
німе ць
ж ува
u m
м на
поча ли
ар хі
ри в
висл ови
за ходи
нови ни
від ки
від чу
бу дин
ма ю
пер шого
донба сі
у с
інтер в
ло му
па ді
а м
зав дяки
стра те
поту ж
ши ти
прода жу
ва рі
випад ків
ви ще
уча сті
мере жі
ни ку
л лі
про голо
ді ти
сто м
п лу
пере мо
ду м
в ночі
оку пова
н р
ар ти
ви в
л ки
о па
кому ні
поз бав
пов но
з мен
важ ли
іс па
закор дон
щи на
во но
ч енка
с ки
с це
су ди
цій ні
te le
до сить
я по
co vid
за фі
с пря
ку б
нов е
дми тро
не безпе
тив них
лікар ні
зо к
ме жах
з увати
від со
ме ха
гро ш
чер гу
по серед
не на
зе мель
ін шими
міся ців
гля д
да ле
є ння
ін вести
ка за
ви хід
тро хи
ти ви
b o
ш ки
ва ми
не вели
ча ти
ю рій
ль не
собо ю
пунк ту
ов увати
на к
ці ни
кіль ко
на ших
хо ч
ди тя
депута ти
по годи
гра д
контро лю
сли в
н да
l o
є те
ре чі
зов сім
п ні
об говор
ову ють
клу б
мисте ц
допомо гу
і р
ка те
говор ів
не м
ро ль
т на
стро к
ви ни
ди с
про єк
с ор
вда лося
ч ку
нале жа
чле нів
заяви ла
йм овір
ча тку
ав тор
ри зи
ру ху
м зс
4 7
міль яр
о ста
з до
я кими
роз пові
с х
фе сти
за пи
куль тури
наро ди
ні с
пови нен
ков е
збро ї
осві ти
ючи й
ж од
парті я
поса ду
ве ст
до ступ
зай ня
пол ови
лік віда
о он
9 5
а со
га ми
ва силь
г рі
о че
ку ди
к ня
є ра
рів ень
д ро
за бор
тив ні
о п
о ні
заяви ли
зго дом
рей тин
ка ра
ува ла
ак ції
францу зь
ову ючи
у се
спо чатку
оз бро
капі та
тич них
не су
парті й
па ри
ту реч
кож ен
розгля д
ц к
ві т
ново ї
залиши ти
нер у
нав чання
умова х
пози цію
то ж
вищи й
ті ї
6 6
чор но
втра ти
зага лом
під пису
кер у
ні ю
нале жить
служб ов
че на
о чо
зага лі
200 2
ж ор
ча ть
ту є
м м
говори ти
к в
з дат
9 9
ви пу
дру гий
ра ї
ко респон
ва нні
ста є
чення м
написа в
ви ник
хо дів
чи мо
нсь ким
мо го
відо мі
раз ів
чу є
ві та
до му
ш ла
пере до
8 5
столи ці
я х
гля да
сфер і
с па
ч ному
важа ючи
s e
д ри
пер со
в за
по сту
спі льно
a g
ар мії
повер ну
го ри
кон су
об ли
tele gram
отрима ти
ме діа
ш кі
ни ніш
мар ш
контро ль
обла д
діля нки
нсь ке
охо ро
ванта ж
за цію
4 3
б ід
п п
мі сь
поз овом
від від
г ну
м с
ті ла
d i
па трі
ситуа цію
од ну
від мов
те о
части ною
че ного
дов ід
та ра
до сі
ко л
стан ції
при бли
бо г
справ ж
у кладе
3 00
по чу
у гор
ла х
ко за
з ву
ме тро
полі ція
t h
об л
от же
спи сок
да них
де кла
неру хо
проце с
вигля ді
то що
а ж
зло чин
с п
буде ться
росі єю
до л
до ру
ту рі
рі м
дове де
л ка
ува тися
висту па
с на
тися чі
санк ції
адво ка
моло ді
пер шу
7 6
ува гу
заги нули
спо жива
кре м
єк тів
а ні
білору сі
лу ган
ць кої
но мер
вати ме
части ну
чер г
ш коли
під сум
звер та
ма на
кабі не
жі нок
працю вав
друго ї
асо ціа
ли т
во к
та ції
ши ро
ни ла
за про
вважа ють
позива ч
фа хів
і ван
трима ння
п лення
4 2
од ному
за ува
ш ен
ли в
оку пан
електро н
ру й
філь м
при дба
в загалі
шу є
ще ю
сказа ла
поз ову
нь ю
поча в
реш ті
у точ
я кою
вид но
те бе
од не
багать ох
ці єн
бо к
дина мо
ви ми
од ер
систе ма
ф ло
аль ністю
дока зів
5 00
ми с
путі н
су пере
на мір
п лі
зна чно
сто ліття
не них
у рах
вели ка
за пере
зустрі ч
май но
пов е
кур с
u b
по си
ро ман
суд ових
роз ши
в п
у ря
ві це
с пла
w it
ва лося
о м
u l
p h
d o
бла го
ню є
харак тер
о при
ві ці
зна йо
го дин
коле гія
ві зи
завда ння
парт нер
ру х
секре тар
орен ди
at ion
енер гії
ок рім
тер мін
ру ч
ше й
на передо
з ен
n o
ка б
запорі зь
та ку
меха ні
кори сть
мог ла
пла н
напря мку
то ї
кон цер
ре д
ль ним
ви нува
к п
м овою
са х
ру му
ме тів
7 7
аль ності
вели кої
са д
вибо рах
р р
спо лу
п ру
зая ву
джу є
банк ру
на прав
дж о
ц ар
час но
а у
ти ку
4 1
ф рон
е ле
ле ного
га ли
г ло
ста м
ч ною
на н
шко ду
ж я
фра струк
пока ра
ка ран
за го
кра й
ср ср
f or
за вод
куль тур
попу ляр
захи ст
ція ми
вели ко
повин на
ту вав
з мага
янукови ч
жите лів
про вести
на шої
меш ка
і ра
кра ще
ми т
200 1
ди ві
ти ка
кілько х
важ ливо
стя х
во до
ти сь
вши сь
не й
же ний
лу га
аль ність
до мов
су вали
дя ть
купів лі
гра ду
ві талі
в ра
p o
ч чя
ре комен
ство рю
місце вих
про від
із раї
мо к
їха в
5 8
міся ць
по неді
зна в
стан дар
май дан
авто бу
по те
швид ко
ову ється
з ник
по стави
m o
за прова
бра в
до би
лу ка
г на
іс ну
мо ра
жін ка
з лов
витра ти
г ти
до свід
мат чі
ч ко
відді лу
г пк
ри на
по та
6 8
ю к
чолові ка
ла нд
будів лі
ходи в
гра н
з ор
підля гає
макси ма
ль ну
сл ов
ш енні
марш ру
r i
а ч
ко менту
сай т
з су
мен ти
во ли
опри люд
фрак ції
йте сь
полі це
об ів
смер ті
техні ки
част ково
мі ського
c e
спор ту
l i
спря мова
з яв
н ці
від став
ти на
станови в
мос ков
роз поря
поса ди
га зо
на ша
се ль
спе ціалі
е фі
ефек тив
коман да
пока за
чоти р
гла ви
грив ні
я ко
фак тично
за ція
працю ють
ве чер
пло щею
сказа ти
к овий
с пад
ко лі
це ю
пер ша
ре лі
га л
хі мі
а нато
ви став
мо тив
в сту
буди нок
са ма
a d
ч ними
т ним
га х
вищо го
успі ш
с них
200 3
кана лу
та ря
фо нд
ти ну
ж о
гол овою
футбо лі
на ції
по бли
су тні
дво є
кон так
кам па
яз ків
сто сов
да ють
о гляду
кон кре
ри м
вели кий
ви лу
шля х
са мов
систе м
чи ною
у ві
жін ки
клу бу
су ді
льв ові
конкур ен
п л
під е
ніби то
лі га
ць ка
пробле м
кате го
бю ро
замі сть
ла в
во м
учас ники
ше ні
ри х
сла ва
побли зу
є ш
пере тво
л л
схо ді
ре волю
ко пі
керів ник
горо д
д п
стосов но
ква лі
вияви ли
бо л
ю чого
тер но
ці л
in e
де яких
г ні
ві лі
роз и
т не
нови ч
5 7
яза ні
з може
євро пі
ж жя
при бу
ло г
о стро
бороть би
зазна чає
ко с
навіру су
5 6
пов о
ходи ти
архі тек
пись мен
од я
кар пат
послу ги
w s
аль них
наль не
за пла
отрима ла
ві ру
витра т
га м
плати ти
н бу
ва нь
пер шому
цій но
охорон ці
в ходить
спі лку
з обра
ф ар
ру ки
во є
а х
вій на
к г
ви про
й но
по шко
не дійс
5 9
нав коло
повер х
держа ва
дру ге
теле фо
допо мага
вико ну
хо ро
су ми
пла ту
по чи
т с
у ро
лі ги
особи сто
а пара
міся ці
галу зі
джу ється
за гро
со лю
об слу
від і
мо ї
борж ника
з роб
ри нок
поря док
д т
ш ка
пере ва
годи ни
по шу
за ми
ш енка
їх ні
тя ж
аль ної
війсь ка
ко алі
кі ло
ме ра
ва й
о лег
путі на
мілі ції
s h
пов тор
наз вав
тич ного
7 9
ньо ю
переко на
та кої
олек сій
пер спек
ве ло
фак т
парла мен
завер ши
я кості
о пози
http st
6 3
прий ма
че т
тич ні
мі сть
аб солю
ст ре
зо ні
ючи х
б ре
а ра
здоро вя
я дер
мо но
сь кими
відо мий
ля ції
шу ється
під ня
мо з
в день
о ду
ка з
ст рів
20 22
цер кви
з не
су мі
ко ре
t a
жа н
с с
яз ки
s o
про ха
дока зи
ба ла
робо та
свя то
тич ної
зас обів
буде мо
с кільки
8 8
зна ю
спро бу
6 1
нафто газ
особа 2
бра ли
ч ень
вік тора
ви гу
on d
про сить
шення м
ва лен
середи ні
на т
ли ти
6 9
заги бли
ак цій
наль ні
від разу
ди к
тер пі
суд овому
до р
дже но
комі сія
об винува
вечер і
4 00
сво єю
t wit
го рі
w w
д но
с хе
пере мож
газ про
на бу
тиж день
ду маю
наль ну
тон н
екс плу
с ке
twit ter
ком ер
кажу ть
та й
па цієн
пере важ
u p
ста лося
збір ної
си ти
пунк т
ля н
навіру с
6 2
потре бу
сті льки
ву гі
ни н
на лу
спо сіб
то бі
в би
6 7
систе му
зас нов
мо рі
не ра
роз рах
я м
мо л
різ ні
голо с
кни ж
сту ден
хто сь
д ід
основ і
внес ення
коле гії
іс нує
суд ів
в пев
штра ф
кож ного
мас штаб
ви йшов
ч увати
b er
елек три
важ ко
жу ють
й ор
5 2
д ріб
санк цій
ва ється
по сла
лі нії
лу цен
в чора
в ні
ст ере
в к
вибу х
чи к
торгів лі
про тив
хвили н
ча в
раху нку
моло д
я ми
ста ття
мен тів
режи му
переда чі
то чно
ри ли
по е
199 8
до повід
г лу
мага зи
суд ові
с м
марі у
да ний
бі блі
краї нах
го спі
спри я
ку вати
джере ло
ті к
за ле
о пі
по тен
о рі
краї на
поса д
розви ток
біз несу
а но
гро шей
то рок
місь кра
стати сти
обли ччя
фран ків
відноси н
пере шко
про вів
s s
ка ції
гу бер
як би
зем ле
со ло
о ль
прем єр
михай ло
ст ву
пи ла
поча ток
кита й
кі мна
y o
те пло
пере ви
сь к
с є
варі ан
ін спек
пунк тів
ро сли
ко ор
оку па
ме ти
пло щі
вів торок
і і
страте гі
ре кор
ді зна
да м
ста вся
дома ш
су вав
зафі кс
кла си
ля х
щ ен
вели че
при ва
зу ють
во л
зі тк
ят ницю
повер та
че с
те ю
дві чі
ч ній
ш тов
кло пота
чі т
місце ві
свої ми
шо сті
о форм
л ла
наль на
моло ди
віт чи
сере ду
ін вест
ча х
зі й
а й
у р
я та
5 4
s k
лю ють
е ва
со ц
прави л
ма ми
уча стю
ва лері
зв язку
u k
над то
мо на
ав стрі
199 9
жи ли
збіль ши
на че
швид ше
гру п
на пад
мо ря
варто сті
друго го
сто ї
одні єї
жа ль
стат тею
су бо
воло ді
ва лі
засто с
c i
па ль
роз мов
чотир ьох
озна чає
ну вши
ви кладе
5 1
пер шим
клад ення
мен ш
це п
д вер
ти фіка
вули ця
розмі р
к си
ба х
задово ль
чі р
лю би
уго ду
га ють
ни на
ба л
пі ло
со ль
ре кла
спо кій
джу ють
гот ові
ш увати
обо ро
ку вав
пере вез
бюдже т
ре зер
автомо бі
ниць кої
гу мані
мо менту
сторін ці
сі мей
річ ного
прода ж
вого нь
се й
клю ч
має мо
ва лася
пла нує
зна йти
a b
т ті
переві ря
зу ється
жі но
пода ння
чемпі о
ма лень
від прав
від нови
ництво м
ува ги
ана логі
ходи ли
па ке
ви ста
ка тери
у повнова
тр енер
ж ного
ста біль
5 3
пре тен
режи м
оці нки
од разу
роз від
до рі
пав ло
мо біль
ру б
хар ч
виріши в
нор ми
мат ч
коро лів
са р
ар се
ба чення
ро с
ї ж
ро ма
ра п
сце на
g e
в сю
впли в
захо ду
л ова
само го
се лення
ви ди
ці на
за во
ви гра
висо ко
міся ця
б рю
га й
ство рити
та єм
до стат
обла стях
зна йшли
ру к
7 2
9 8
ов ід
спра вед
цій на
італі ї
хо тів
ова них
ін ший
за д
зни зи
ціл ком
i e
я ті
заги нув
не сти
за леж
ови ща
мі ю
клі єн
това рів
ши н
депута та
зроби в
по ко
ли ст
кор пора
ста ми
при чин
m ar
шта бу
до ходів
трам п
ін ф
ти ву
ран ці
ци ф
ін форму
до ба
нада ти
о те
їз ду
пер ер
ли ка
о чи
тні х
то ні
за слу
сі чні
льв ова
ту вали
стату с
ви готов
зав тра
лен ню
при хи
ве ла
гра ф
на ла
від почи
деся ти
с му
жит тє
с об
о бу
не ма
мо ні
у кла
о да
ра ду
я ро
ми ро
над ця
дру га
ге ть
мі тин
пусти ти
одні єю
пояс нив
си рії
три ває
хо ті
прави ла
прокуро р
ра зи
w e
ю ся
у ть
сере дня
га дав
ф аль
сер гія
ва го
ба ра
ува вся
ре ць
ін шим
вели ких
пар ку
вер х
ви па
p ro
під стави
ф ан
па тру
основ ні
ж ен
ін ци
з ла
хочу ть
ція х
al l
рю вання
одер жа
по дій
іва но
по про
си лу
о ле
тив ної
8 2
фор мі
ви дав
говори ть
мог ти
ль ному
у є
сти й
же ні
зни ження
наро дні
k or
від шкоду
у з
регіо ні
бой ових
ти ми
комі тет
ру вання
ову ються
чи сл
ниць кого
c t
ска с
ч ере
бать ко
і поте
ні єю
т ком
кордо ну
вели кі
ри й
пси хо
ча р
арти лері
прі зви
не прави
під і
на шого
обслу гов
пен сій
дж енні
їха ти
ю щенко
те ті
er s
за су
у сього
пода тку
о то
бі к
ін ше
н енні
голо сів
1 20
ль ність
чу ка
си на
орга ни
га ря
шве й
ля ми
д жи
мв ф
одно раз
чу ють
про він
го д
д с
пол тав
по ле
рист ів
загибли х
с кри
т ну
сі єю
у м
н ню
ран ку
z a
8 9
кабіне ту
щ енка
нар де
ре зо
со т
зем лю
режи сер
бло к
со бу
15 0
яза нь
декла ра
ко лу
хо р
те ст
кри ття
ди ть
ва л
комплек с
про жи
подат ків
при воду
дт п
на ді
ни зь
ти ни
авто ри
берез ні
ти пу
н ы
тов ого
спро ст
ча ючи
наль ному
фе й
ль ній
а чем
ме на
ви ру
ак тор
бу ть
кор пу
спи ску
ва си
а за
тр ен
верхов на
з яви
півден но
регіо ну
лен е
ева ку
дале ко
на гаду
інтер нет
бо є
по ду
пере моги
про па
зага льно
ш т
всі м
ухва лою
зая ві
опи ни
комп ен
у ра
при му
п р
п та
фі кова
гов е
со фі
фак с
граду сів
фі гу
та ж
взя ти
ко льо
ре форми
на решті
час ів
в сти
ова не
окре мих
ві з
при свя
в кла
че й
в ру
на рах
сторо на
бі га
я зок
я цен
сь ому
ін стру
від да
сезо ну
позов них
д з
доро ги
доку мент
лю дя
пря мо
ма буть
оці ню
змі ст
при вати
р б
н ень
у в
від було
7 4
бажа ння
к ову
функ ціо
в тру
ма ль
пі шов
і сла
моск ві
взя ли
ін сти
сл ів
ви но
гру дні
га ль
со тні
холо д
зі я
реч ови
ката стро
суд ове
лід ера
h o
re sp
вог ню
не що
да та
ви кра
в ведення
st a
віталі й
важ ливі
ухва лу
о нов
r u
річ на
м п
вза ємо
ці лому
дов жи
се ва
по терпі
дру ж
ви ня
ar d
сі о
особ ли
з гада
лен ко
ф с
з гаду
on e
де кілька
ви кла
во ль
х лі
проте сту
про сті
по соль
коор дина
сл ово
ю сти
ль ників
ку ле
ла йн
чле ни
д ця
обговор ю
до мо
змі ню
жи ве
пу ск
міс ць
рі ю
в ене
бо ра
х ро
пе тра
во му
g o
хер сон
нови м
дж он
робо ті
ті ло
де ни
да ну
дружи на
ме жі
ре ферен
в ранці
будів е
щи й
висл ов
наф ти
від хи
199 0
з можуть
пу ску
на па
програ м
поча ла
орга ну
прав овід
ос ере
ст ка
свобо да
ге ра
по зна
за ціка
ня ти
трам па
спі ва
зна є
ро лі
лю ва
до наль
по куп
ж ний
перемо гу
в р
мі кро
аль ні
ак ту
су ма
лі так
голов не
філь му
resp ond
реє стру
m an
пе чер
дом ови
ім пері
ж одного
на веде
їха ли
ле т
дж ень
може мо
с ма
сева сто
та кими
сезо н
б р
кови м
па ні
9 7
у су
верес ні
трав ні
са в
зда ється
торі ї
реа г
від повів
i k
г вар
ти ту
фі ло
пре зен
па ки
н в
по при
відкри то
ч ов
аф ри
ува чів
ли м
о ї
міні му
фі ла
ши в
то ру
зо ни
служ бу
пове ді
ко ха
ц пк
графі ї
дозво ляє
смер ть
є ру
ж но
ін ди
т ному
де сь
логі я
а ють
о тру
ча ли
ко ти
адвока т
на мі
рі н
грома ди
но стей
виснов ки
тор г
ві ку
пози цій
пло ща
д нр
мо я
неді лю
інте гра
відбу вся
дво ма
га ла
лік від
c on
орен ду
при сут
ля ться
ме ни
про вели
заклика в
де лега
кі стю
юсти ції
ну ло
вислови в
дж ер
мед вед
лю вав
дійс но
ля ються
серйо з
ви ника
а не
ту ди
со лід
ко п
м ні
воє вод
друго му
орі єн
об шу
за суд
пла не
ува нь
чин ності
пер ших
ви дів
держа д
при ро
не ви
при чини
me kor
бри га
бор гу
ча сті
ін ж
поля гає
7 3
помі ч
пусти ли
ве ден
ле оні
f o
ка фе
бра т
n a
об сє
ста лася
ent net
й дуть
ле в
ін де
бі г
ав стра
жито ми
пере гля
т лі
ви на
й ського
май стер
ні дер
розгля да
цер ква
стя н
пала ти
наслід ки
міні ма
гли бо
і зо
ви кли
ю р
сти ти
інсти тут
с ний
ст року
за купів
бу вання
жер тв
шо у
краї ну
пору шень
вели кого
ува лися
ємо ся
світ ла
справа х
ска нда
кві тні
су ті
по їзд
к к
від прави
шу ють
че сть
ча ми
моск ви
зло чи
b e
гот овий
те ля
підписа в
ви су
п ін
пара ти
ре ні
об єк
в ба
в ті
до дому
9 6
жор ст
тва рин
північ но
будин ків
виріши ли
у дар
ви ро
нсь кими
проте ст
ми м
сі н
їж джа
а гро
в с
тиж ні
8 6
гру зії
контрак т
е лі
захи ща
спро мож
х ристи
ві тер
обся г
ку вання
v e
ло ги
об ер
жод них
по кла
бо ру
v er
стя г
тран зи
во дій
лю ється
йсь ким
при чиною
же но
скла де
9 2
во єн
сер це
вла ду
виснов ок
актив но
ч енні
8 7
бо лі
яз ково
тро є
199 1
особ і
збо рів
с ного
ал кого
по ст
фак том
а да
ш ку
пору ч
жов тні
свід чить
кош тов
по чне
ви ходить
лю к
вій ну
росі ю
вироб ни
е с
ряту валь
ком бі
бо ї
пол ков
чи вся
вимага є
роби ть
різ ня
роз кри
на ли
музе й
медіа на
за карпат
пла та
роз шу
в зяв
ба таль
ст ов
в тім
ста ді
з ували
зас нова
ся ть
примі щ
та нк
до став
свобо ди
зем ля
е м
визна в
дити ни
са на
зна йде
вибор ців
тре тій
лег ко
а с
різ но
дія ти
ження м
виклю чно
адре сою
кра в
кро в
пере лік
лю тому
199 6
дж і
b l
футбо лу
спо дар
фінанс ів
ш ло
по гля
ша н
народ них
8 4
ст ки
при єдна
історі ю
нау ково
f e
пробле ма
ти к
ме да
пере хід
прийня в
ж них
хер со
коли сь
голов ним
бра зи
річ них
за робіт
торі я
програ му
ід ен
бю т
зло чину
ск лика
ше ний
ви бір
по х
мене м
гі ю
л ови
пан де
окру гу
ар бі
би ли
чер вні
банкру т
яза ний
єв ген
нов ому
щу є
s a
йш ло
фіка ції
ван ню
скоро ти
за м
зроби ли
ру ха
право мір
ба зі
а ук
199 7
хво рих
е й
о ке
ді ль
світ ло
роди ни
се сії
скар ж
о строва
у триму
i st
в прова
q u
тич ний
зага льна
на пру
по буд
стра ш
з ли
ти ва
пе т
тер на
вітчи зня
r an
ефі рі
теле фон
дів ча
ресур сів
со ня
ра с
вугі лля
с хи
мо дер
ро во
держав на
шев ченка
11 1
c he
проек тів
ско ри
ли пні
ка ти
ко смі
аук ціо
фізи чних
ви ча
тив на
пі р
пла ті
по їз
сю же
ди ла
зо ру
донба су
гід ро
чемпі он
остан ніх
йо н
пред ме
т ними
від стані
субо ту
ю лія
говори ли
моск ва
гло ба
й мен
спорт с
ter s
с плати
переда ти
тек ст
проце сі
ще ні
вер то
оголо сив
i x
йо м
ши нг
кла су
до триму
ст овір
й с
ори гі
збро ю
де в
т ник
д зер
пе ць
он лайн
8 3
дже ні
генера л
випа док
д ова
ж ні
на бли
9 3
