#version: 0.2
н а
р о
и ̆
с т
о в
р а
н и
і ̈
к о
н о
е р
н і
г о
п о
з а
і д
т и
в а
е н
н я
т а
л и
р и
к а
в и
л а
ц і
л ь
д о
і в
к и
с ь
н е
м а
п ро
т о
м і
в о
м и
к у
т ь
р е
д а
с я
л і
в і
л о
в ід
м о
д и
р і
ст а
л я
щ о
б у
м у
ер е
с у
л е
н у
р у
ч а
ен ня
г а
т у
д і
ч и
п а
к ра
о б
н ня
т е
п ри
к і
с і
д е
п ов
д у
кра ї
б о
о го
ни х
п ра
но го
б а
с а
с и
у краї
н ов
сь ко
т і
м е
ц е
п ід
п ере
б і
ро з
ни й
2 0
ж е
і н
ов а
п и
ть ся
п е
л ю
х о
п і
но ї
ш и
ст і
о р
с е
л у
в е
ов и
з на
ці ї
ст о
з и
я к
к ів
ст и
ш е
пов ід
ки й
ов о
ж а
ц ь
ч е
с о
у ва
ж и
ст ь
п у
ці й
ю ть
б и
ф і
б е
п ре
м ен
с по
1 9
п ер
т ри
т ра
н ь
украї ни
к ла
г і
р я
в ер
сько го
о с
ро ку
ко н
д ля
з у
д ен
т ер
г у
з і
с л
ко м
х а
о д
є ться
ов і
20 1
р ів
ни м
ки х
ва ння
к ри
ві н
с ка
ва ти
ш а
т ів
д ж
д ер
н сь
й сь
сько ї
ча с
т я
г и
ст у
г ра
з о
ко ж
пра в
бе з
с во
ц я
а ль
я кі
повід о
й ого
ч і
ні й
ні ст
й о
ро сі
ста нов
л ення
су д
но ю
в ся
ц и
п ла
а к
ш ення
щ е
бі ль
мо ж
д ні
ч о
з е
ф ор
та кож
в у
а н
0 0
д ів
ни к
но сті
від повід
п ів
т ро
но му
к ре
е к
ста в
ти ся
ни ми
к е
ч у
ти в
і з
ці я
с лу
по лі
д я
го л
а ле
є в
дер жа
то р
в ла
ен ь
ст во
ч ер
па р
г ро
ні сть
об ла
ста н
ко ли
с ер
мі ніст
ст е
ю чи
н ю
ні в
три ма
ви ко
ни ка
ва ли
я ви
на ль
20 0
н к
ос об
да р
д ов
бу ло
на й
ї х
ти ч
ст ва
то го
сл ід
г ля
ра х
кі ль
та к
ш і
за в
мі с
м ер
ці в
повідо м
ді й
ле к
а р
х ід
ере з
1 0
ш о
с ві
с пі
г ру
н ення
ж у
т тя
сь кий
1 1
ко го
ов у
пі с
а в
с пра
ці ю
г е
ц ю
ч ення
л ен
но м
х и
да в
на ро
є ю
с кла
ка р
ма й
ма є
ва в
з мі
ш у
су ду
по зи
ра н
ф о
за ко
рі шення
я кий
єв ро
зи ден
ни ків
то му
ц ен
а бо
пре зиден
пере д
ови х
ї в
ве ли
на д
то м
б ли
ці о
піс ля
ст рі
ли ся
мі ж
го спо
бу де
ор га
з ь
ма н
м ов
щ и
г ово
л ів
e r
держа в
с ере
т ова
ло ся
д ру
бу в
ю ться
1 8
о му
ки м
мо же
кі й
ен ко
госпо дар
а д
ф е
я в
ї ї
по ча
є мо
т рі
т во
н ку
в сі
ла ся
нов и
б ра
за зна
хо ди
пи та
1 2
т ку
г ен
ра з
ро б
слу ж
т ов
во ни
ува ння
т ре
ро м
ж ення
сту п
ні ч
ві йсь
1 5
дж ення
к ов
i n
в же
пре д
при й
по да
с ла
на в
від о
без пе
за яви
ко ї
ни ки
ко му
є м
обла сті
ва р
ць ого
ні ї
д ня
то рі
ви зна
ч ерез
ді я
ро бо
пра во
ко р
ча сти
р н
гро ма
ст ра
ро ці
ст ро
украї н
ко ю
н ні
що до
н д
б ро
міс це
нь ого
фор ма
тер и
го ло
во на
ува ти
к ер
ав то
ли во
я з
к ово
що б
ні ше
сь ка
д же
ві ль
ши х
в се
a n
за ли
ра йо
с пе
бо р
ра ди
ро ків
бу ли
украї ні
про ти
станов и
ря д
ди н
я ка
во ло
1 7
ни ц
о трима
сь ого
до м
ко ро
по ру
о к
повідо ми
ро би
г рн
м л
як що
ст ру
o n
н с
до ро
т р
нов а
ком па
пи са
ж і
сере д
кі н
спо р
за с
ва жа
1 4
й ш
ма р
1 6
вла с
ма га
ка х
наро д
сі б
ба га
ка н
т вер
д ово
б лі
рі ч
ді ї
3 0
т ру
з ви
т ня
т ні
х у
за га
с ша
г ри
щ а
ля є
но к
до по
б ер
ови й
сл ова
сько му
e n
на лі
ста ви
орга ні
s t
ки їв
про це
на ві
с к
лю ди
мініст ра
на ціо
ве д
пра цю
ф а
ло гі
ль ки
ти м
си ла
в я
з ов
пред став
бу ла
пе ра
чи в
зе м
м ови
ка ми
1 3
в ня
я ких
в ів
мо г
г ід
o r
с прав
х ов
нь о
ль та
ри ст
об ов
но мі
a r
ки є
ф у
тери торі
дій с
ста т
д во
ін форма
р ю
е ко
2 5
к рі
х то
сто рі
ка са
о сіб
ля цій
ш ко
бу ти
га да
тер і
х і
ми р
з ни
ска р
ен ер
к ли
й де
пов ер
на да
а пе
ко мі
пра ви
с ів
на се
ле но
бо ро
к ова
ту р
ні я
ли ше
в станов
біль ше
при єм
че м
п ня
т ки
ек с
сво ї
па д
пов і
по р
об о
сь ких
ст я
в ши
на ння
н ер
каса цій
роз гля
19 9
росі йсь
ва ж
т ва
ті льки
за хи
2 2
ви д
ден ь
ку р
по ль
до н
в важа
су вання
гол ов
ш та
ць ому
пу та
б ри
а лі
о хо
пар ті
заяви в
ль но
у ні
ре зу
резу льта
я за
ві й
сього дні
украї на
б ю
бу д
рі з
ра ніше
є ї
та лі
a l
но р
2 1
від кри
ска зав
пу блі
ва ла
об і
ч них
особ а
нсь кий
ч ого
де пута
го ди
пита ння
си сте
с пів
ф ак
те х
під приєм
росі ї
ч но
пра ва
н ки
ту ри
од на
де й
про ек
до гово
за ції
прий ня
пере да
ва н
з во
к лю
бу ду
л ові
r e
роз у
п ло
ма тері
ф ер
не ць
фі на
о лек
о фі
чи н
сві т
еко номі
ко ман
ро н
у ча
є к
ль ного
ши й
ж ов
не за
п ря
е о
ха р
со м
бу дів
то ра
ці єю
мож на
мен т
бу ва
по ка
г ов
з вер
мож у
на ми
при мі
ін стан
го р
та ми
a t
ро бі
лі ння
спра ви
шо ї
лю дей
сь кій
вед ення
ч ні
ніст ю
2 4
те ле
у к
вер хов
і м
ле ж
бли зь
да т
к ві
та м
ч ного
ду же
особ и
це й
ф ран
о з
мі н
м ова
слова ми
мен е
ти н
чо лові
м ку
бага то
війсь к
са мо
l e
на гада
2 6
i t
ово ї
гі о
до ку
в ере
2 3
про ва
о стан
ро ни
та р
лі к
спра ві
ту т
ці аль
сі м
на с
мл н
за хо
не с
є д
ш ого
пре с
пов и
ч ної
зо м
кре ма
ен ні
ре гіо
т ен
г ів
мер и
ле ні
про во
сі ї
ль них
з дійс
нсь ка
ме ні
по станов
мен ту
по ді
ння м
о пера
рах у
щ і
з в
л ід
я с
кер ів
зо крема
б ерез
й те
г ре
кіль ки
ос нов
c o
5 0
к су
по сила
від ео
о дин
ли ві
д ва
г ла
гід но
мі ста
ки ми
про дов
са ме
рі й
б ле
ль ної
мо ги
ту а
грома дя
за й
про те
не об
ви бо
то к
робі т
роз мі
нсь ких
ви да
пу нк
про ку
о н
с вя
можу ть
ло м
ко ш
кла д
бі р
і с
ди в
ра к
у прав
ну ти
на х
мо н
гово ри
са нд
перед ба
ль ний
r a
2 7
зако но
наві ть
ов ого
до ла
мі ся
воло ди
ча є
з гідно
ма ти
рі к
мо ло
e t
пе в
євро пе
є р
ви х
стру к
по з
щ ення
росі й
ін ших
си туа
е лек
с ку
па да
чи ни
у х
близь ко
стат ті
по са
ну в
за раз
2 8
тра н
ви рі
полі тич
ві к
б ере
аль ного
ни ць
га з
ї з
мі ль
ви роб
зу стрі
а мери
у сі
ен е
про гра
i c
р ення
h e
відо мо
за безпе
ч ний
к ро
три му
роз ви
між народ
жи ття
ма т
во д
ди ти
ль ні
ча й
о х
є н
то ю
дж у
вере с
крі м
с ли
ін тер
ви й
фор му
на з
необ хід
го м
ма ють
к ови
ви пад
олек санд
ре є
у час
с ко
доку мен
това ри
р д
ні ме
йо му
з я
со ю
за сто
сь кі
ц ер
ли сто
ка на
жу р
полі ти
ті м
ні ж
жи т
ві р
нов о
об ра
па ра
сі ч
пер і
v i
ла н
я кого
по л
кри мі
сво ю
чи ти
за дово
ве де
r o
го ро
біль ш
2 9
ти с
краї ни
при зна
дія ль
ни ком
за ги
ові р
гра фі
сі й
те й
то ді
на м
по ряд
гри в
р ф
з бро
с про
кіль ка
пре м
ни ти
пар ла
кли ка
сти ту
ст ер
ку ль
п ли
росі я
і сторі
чи на
ко ла
ре к
бо й
ра зі
з обов
пе тро
пла ти
розу мі
ен ка
ба н
4 0
си в
ш енко
ту ра
ба ть
во ю
ч ор
т них
ти х
ве сти
ко ло
га н
ниц тво
догово ру
ба нк
ле г
про да
на ступ
пози ва
б ло
на то
са й
є с
до слід
ви с
a c
з роби
се бе
ниц тва
чо му
бі ло
ре ш
берез ня
зали ши
мож ливо
ко де
зви чай
с від
в ка
х во
ні х
ува ли
си ли
жов тня
ч ів
са м
ми ну
го ю
зако ну
ль вів
ст ю
офі цій
201 4
йде ться
ра ді
ре й
па н
ви со
зас ід
чем пі
на слід
проце су
че но
e s
фо н
то й
е ра
по трі
201 6
о ці
во го
си л
к с
гол ова
ш вид
кре ди
наль ного
i s
ст ів
1 00
19 8
к лі
бі ля
од ного
до зво
про бле
фо то
201 5
одна к
ком п
дні про
буд ь
201 0
гі й
уча сть
но си
ста ння
потрі б
бю дже
ос кільки
по ра
робо ти
кон тро
яз ку
сі ль
кі сть
па м
рі я
елек тро
га р
за хід
ді ля
ме ль
об ме
ш ля
х ів
ді а
к м
с пи
о чі
ти ж
о ку
дж ере
од но
вис нов
січ ня
лен ні
ра зом
по ро
ре жи
зазна чив
вла ди
гру дня
тра вня
то ч
з би
об стави
на ф
з ова
ко ле
фі ль
а л
буду ть
верес ня
ди на
ви сту
до нець
н ен
те м
нов у
о т
то н
грома д
с ю
те ра
ли пня
мініст р
з ер
рі ї
ін ші
сво є
тран спор
су т
за лі
мініст ер
коли ш
по ки
ну ва
те к
екс пер
нь ому
ма с
жур налі
про сто
та ш
під твер
ду к
су м
к ові
сті й
при пи
го тов
по над
пу сти
те ту
кві тня
за ступ
з ло
коде ксу
ува в
всі х
киє ва
201 7
з віль
парті ї
по ло
ря ду
органі за
ди рек
к лу
u s
о де
за трима
чер вня
сі я
чи та
ши м
ль на
да ними
мо р
ни в
л ер
во ро
тися ч
мл рд
ха й
з ро
не має
ча ння
пер шої
ста р
я ку
дер ж
сто ро
ка м
про по
поча тку
киє ві
нов і
пів ніч
ме т
ва т
о на
за по
допо мо
те пер
че ні
про дук
дво х
ву ли
авто мо
да ти
201 8
під писа
ло го
3 1
6 0
лю д
ро ки
ан д
за кон
гов ор
ос ві
да лі
с р
ч на
19 7
сво їх
про тя
ме ди
скла д
безпе ки
ходи ть
o o
сер пня
гол ови
фіна нс
бри та
лю того
вико рист
по ста
примі тки
со н
роз таш
ра м
по ля
ну є
пов а
в да
ньо ї
нсь кі
служ би
д ві
уні ан
20 19
c h
вати ся
я н
по пере
с мі
з му
райо н
ма к
сько ю
па ла
чи ли
сла в
з доро
май же
ру н
до ка
сте й
19 4
т бо
по тім
ч ле
я т
матері а
на р
мі ї
г ли
ні ш
з ві
х ви
ко ри
т ере
від ді
ра зу
за я
20 20
ви мог
протя гом
с мер
бу ди
ї ха
ор ен
e l
за яв
як е
мі р
та х
тре ба
то ри
лі кар
в тра
ово ю
по слу
да ми
грив ень
до к
ча ль
сво го
с ні
є ди
по яс
йш ов
цен тра
та кі
п ле
л ов
спі ль
с хо
ак тив
t he
г нення
ух ва
скла ді
с лі
ці а
ючи сь
гі ї
п ен
до ю
м ере
міль йо
держа ви
змі ни
вико ри
ми кола
ого ло
да є
під ста
a s
пів ден
ту вання
ля в
ж ень
кла де
га зу
громадя н
ф ек
ра да
поряд ку
я ть
компа нія
ма в
бі з
ан ти
де ся
ну ли
т но
ви яви
3 5
фу тбо
ген ера
де мо
ника ми
ден т
ливі сть
наль ної
під три
ви бор
со ціаль
чи ном
і га
па в
с но
рів ня
хар ків
ни ці
на при
з го
гі р
ва є
змі н
ти й
сві ту
жи то
т ю
ба нку
спе к
пода т
ва ль
да ли
вико нав
части ни
ска за
ро к
ци х
са нк
t er
пер ший
ц у
чи м
ці єї
нови й
сь ку
с хід
0 1
гі я
ч енко
к ва
на мага
з бір
t e
201 1
р ід
хо дя
ле ний
ба р
ж ін
ча ється
йш ли
служ ба
д жа
ь ох
i i
та ких
в ну
я кому
по зов
проку ра
к вар
би в
те т
за кін
пра ців
вважа є
ста ти
н є
201 2
сь ке
ре ч
за боро
дру го
лі та
кон кур
зали ша
з ів
ре с
і ва
роз слід
дола рів
бу т
си ль
і сто
ов е
суд дів
пи су
о лі
a m
служ б
ч не
чи х
спо н
до б
ме ш
від зна
чо ї
ґ рун
чо ти
роз ді
на ле
під оз
пита нь
к ни
3 6
ково ї
ді тей
я ну
та ким
ви тра
ков ого
ма ли
ре алі
з да
від бу
ко сті
n et
трі ш
ци віль
пер ше
ти мо
обла с
мі ні
а т
пу ті
се ло
те ро
ї м
за вер
3 4
на у
ці ка
жи ть
міс ця
пов ів
зу пи
си ть
краї н
вій ни
ма ло
ро д
здійс ню
бу р
се кре
м в
ко рист
вну тріш
до ся
хо м
х е
о кре
пози ції
я кої
уні вер
0 4
i l
ме та
дов е
на голо
кан ди
в пли
т ного
но чі
біло ру
ч ну
ре спон
3 8
тич но
н г
ле них
d e
єд на
у ряд
полі ції
u n
ше в
ви м
ну вся
до дат
від мови
о ю
че них
ні м
ре гу
зе лен
б то
на писа
ча ст
шо му
розви тку
пов нова
дон ба
вирі ши
ци м
ван та
з нову
неза леж
ви щи
райо ні
ки та
за мі
проек т
пі з
h t
петро в
украї ну
0 3
му ть
0 5
про фе
г но
спе ціаль
чемпі она
яну кови
щ у
са н
я ким
охо рон
ок ру
німе ч
ч ка
ін тере
с обі
ш ень
ра ми
ова но
0 6
жи те
мі сто
200 8
в зя
3 7
ля р
де ра
н ського
ву л
сь ким
б ла
о зна
ни ця
да ні
ші сть
фі ка
ва лю
с ен
су дом
ови ч
ч ки
201 3
за кри
мо ск
19 6
во ї
пла ну
скла ду
200 9
0 9
су вати
ши ми
o l
і но
пере ві
а ві
кри м
чи ть
нов ого
з біль
ле на
пере бува
фер ен
ови м
мі сті
ля лося
лі ку
а ка
ш ов
ста ні
0 7
жи в
i on
не до
гру пи
ви гля
боро ть
у же
кон ститу
хо ча
с ід
амери ка
ак ти
нови х
комп лек
райо ну
на яв
люди ни
п к
e d
чи й
гра в
зав да
кри му
бо ку
м ки
м ів
ю ри
особ ливо
в клю
по ря
робо ту
сто ли
наві ру
ро ди
ук р
очі ку
по мі
лі ї
ст ри
0 8
зі ї
та н
в станови
а ння
ле й
ри нку
проку ро
жи ти
ту вати
ко мен
не ї
ча су
пи с
п рі
е ль
т ка
на пря
г ер
ро в
ля ється
хо че
кор до
мо ю
0 2
до бу
універ си
я р
сторі н
спра ва
пи в
у го
пері од
систе ми
3 9
жа х
да н
з ня
пропо ну
йсь кий
май на
ч ен
залі зни
ці н
то рів
по го
т ря
а ген
га є
це м
ць кий
ло к
ово му
ст в
фі зи
об ся
en t
вико на
с ов
во ди
па т
т ний
наслід ок
ча сом
цен тр
ова ний
чер ні
ви н
бі й
а е
чи слі
ду мку
потріб но
х ло
й ти
ви бу
розгля ду
ста ло
роз і
ко ру
по ба
пра к
ма ні
то бто
ід е
ст ві
са ми
мен ше
ви ч
т є
об стрі
від сут
ви мага
ста ту
сер гій
200 7
тра в
стра ж
тех ніч
прав да
в чи
лі с
па ли
до дав
сві й
по перед
лід ер
ри ти
с при
фе дера
ціо нер
джере ла
у ряду
ти ки
та рі
му ні
4 5
3 3
вар ті
ви сл
зем лі
йсь ких
д ра
к ло
жито мир
е фек
ac e
in g
при ват
рес публі
s p
се зо
че ний
му зи
нор м
ля ють
ви яв
g ra
сай ті
коман ди
ти ме
00 0
на леж
мі лі
кі но
бі лі
ка пі
ша х
дні в
кла да
200 6
си м
енер го
ста ном
неза кон
ла сь
ма ши
к ру
а налі
ц а
сво бо
ос кар
ду ть
кон тра
гол ову
ми хай
ра дя
чу к
ста ли
лі т
по ши
чолові к
с фер
володи ми
при н
та кий
u r
фор м
по тра
i d
скар ги
ад же
д ові
європе й
а та
ць кого
ця ми
жи ва
ва к
захи с
об и
євро пи
ство м
ро ва
аві а
і ні
ф ра
с обо
ку п
са мі
ни ли
тех ні
не ді
най біль
тра м
ста ла
на чаль
від а
скар гу
пере бу
н ка
ніч ого
ра ке
пи ше
те ж
від носи
ро ю
од ні
ре су
під готов
зо ло
сер і
по мер
до г
депута т
19 5
й м
сто су
вар то
лі й
ну вати
р ен
an d
части ні
д ми
вка за
су час
ова ні
вла да
3 2
че твер
щи ни
д ь
з бере
цій ного
гля ду
ль о
мо м
ку пів
ри сти
кору п
тив ного
і талі
с коро
які й
наф то
лю б
ля ть
по чина
ч ува
не т
чер во
o f
тр ьох
ло сь
бли ж
ль в
ци па
части на
ж ди
та ке
пові тря
під став
політи ки
лю вання
8 0
мет рів
по за
во ду
с бу
не но
t p
мі ну
роз роб
обо рони
тех но
ра д
ка бі
лі я
у спі
цій них
тор гів
по стій
ті й
від нов
че ка
на зи
а б
нав ча
по же
го т
су му
усі х
к ових
раху нок
зав жди
отрима в
у мов
мі ської
пла т
лі тера
спо ді
20 21
u a
зе ме
ма ла
ї й
нсь кій
пови нні
нсь ку
краї ні
до да
кош тів
пи ти
i m
на ші
пор ту
ба й
ба жа
ви мо
лі н
зна ходи
зага ль
на ш
тра нс
ви моги
во г
а реш
шо ю
би ра
особа 1
ха рак
6 5
комі сії
стро ва
тим час
с ло
я ти
поді б
за твер
за лу
ма тич
канди да
за клика
о ди
з бо
ка та
ла ми
кор дон
i v
цен тру
зако ном
ре а
ht tp
бой ови
муні ципа
oo k
переда є
під ви
l a
вод но
а на
мі г
в рах
бо ю
анд рій
най кра
ні би
визна ння
сві ті
о пи
юри ди
вибо рів
тя г
на ка
хви ли
підста ві
бра ти
ін ститу
ве ць
i a
кон ф
фу нк
л ля
г ова
а є
со к
в ен
рів ні
дог овір
да х
га ду
су б
лю є
пу ска
вак ци
мог ли
водно час
пар та
зроби ти
т ної
се лі
зби ра
з м
роз повів
та ль
запо рі
по тре
буди нку
7 0
т ків
бать ків
істо ри
ну вання
жу є
ви клю
b ook
вида ння
ста ну
ф рак
нор ма
у мова
з розумі
ве з
нада ння
роз поча
а ча
t o
л ень
хо ду
ба в
ви клика
справ у
квар ти
демо кра
ва с
л ку
ча сто
від бува
7 5
різ них
co m
історі я
gra m
з но
мож ли
щи ні
обі ця
к ви
захи сту
бан ків
лі ка
ми й
ле га
пар т
гро ші
чи ла
ми сл
фі р
лю вати
ге ро
фон ду
обстави н
відо м
у станов
се ли
ва вся
біз нес
те ги
на горо
ну ла
спор т
збро й
гру па
допо моги
ди ли
ху до
те а
мину лого
рам ках
по страж
та кого
поль щі
реє стра
охо рони
ан ні
цій ний
ч ним
чер ка
у мови
бі ж
фор ми
під ля
ан г
пока з
ж ер
по га
9 0
вали ся
роби ти
до бро
f ace
під кре
май бут
ва ють
справ ді
ко ра
ме тою
тво р
доро ж
се к
ра й
тив но
о публі
од ним
го ту
по м
іно зем
бюдже ту
на разі
у годи
то ром
за р
проек ту
ч я
суд дя
да к
де парта
мо мент
зов ніш
спе ц
з с
по дії
пи ли
ди ви
що сь
х ова
фіна н
кана л
жи вання
чоти ри
сто рони
лер і
д ере
о сь
ре м
яза ння
на дій
4 8
з ні
u t
дру жи
комі тету
па са
не се
чи ну
конф лік
в сього
дозво ли
во лі
face book
графі я
не га
n e
на ук
гла ва
пі ль
аген т
спо ру
ги й
варті сть
в бив
a p
ви що
ту ру
дов го
пи сь
а ф
позива ча
пов ністю
доб ре
обла сть
енер ге
пра ці
з бер
їз д
дав но
й н
історі ї
ника м
зай ма
жит л
х ре
те ль
здоро в
зна чення
щ енко
хло п
міс ці
ни з
а ва
при род
п ля
дирек тор
ка лі
амери кан
ходя ть
ни ж
фран ції
ше но
м пі
з ва
га лу
та ри
по ми
та ка
4 6
продов ж
тем пера
піз ніше
ло н
су спіль
чо ра
у н
вибо ри
се ла
ни цю
ми х
йш ла
а би
ре мон
отрима ли
кін ці
е та
акти ві
по то
ка же
остан ні
під трима
m e
га ран
зі р
х мель
ре аль
ш ли
обме же
ак ціонер
ло ю
цій ної
рішення м
бі о
т в
чо к
о триму
бо м
і гор
коро т
де мон
єд нання
5 5
до ма
вік тор
о ри
за мов
худо ж
пере ко
гу р
ми сте
ли сь
ро ках
хо чу
не в
під триму
ування м
працю є
тур ні
коман ду
ка жу
ови ми
рю ва
хо ді
шта б
про то
4 9
під розді
пода ль
ля ти
не з
мв с
захо дів
ри н
паса жи
ча ють
ч лен
по став
ді ю
вули ці
за кла
ма рі
хо дження
об ґрун
сво єї
не ні
логі ї
ва м
за реє
б ру
люди на
i r
лення м
o p
суд ді
хо ло
по пу
бе ль
орга нів
у тво
скла да
про мисл
тер мі
рі б
розмі рі
послу г
ае ро
наль них
ф ін
контра к
ме д
си н
ф и
роз поді
му зе
ва ло
ово м
ці алі
га зе
на л
меш кан
кін ця
пози ція
а то
регіо нів
най ближ
кош ти
i g
д ба
по рівня
ре дак
ові й
при з
го н
ля ли
сі ю
п си
пови н
і мені
фран цу
на ц
ін те
мак си
зустрі чі
у да
х ер
ову є
за г
мі я
ні хто
т ві
звер ну
мі ст
про веде
m a
дав ства
со л
свої й
бло ку
мо с
vi d
іні ціа
суд ового
наль ний
по ту
ш ту
ст рах
та в
програ ми
ова на
д ю
ін шого
тра ди
пер ші
ад во
роз повід
кон ферен
за па
ле м
йсь кі
200 5
чи нов
ресу р
своє му
мі но
спі р
ди пло
випад ку
сере ди
де які
ста ро
ство ре
бо ри
ух вали
ака де
раді о
зако р
про гно
лі ття
сою зу
пробле ми
шля хом
тив ний
ді є
виснов ку
збер іга
6 4
зу є
не ю
йсь ка
по д
а гре
цен трі
d a
ли й
бор ж
ця м
шу ка
тре ть
су дами
слу ха
не ний
200 4
ге о
черні гів
стер іга
служ бі
ма х
сто я
сою з
мі сти
7 8
ад ре
ш тра
мо де
дні х
проце ду
дово ди
дя ки
ме то
сер йо
ни ні
ли х
зі бра
прово ди
експер ти
кон струк
в перше
олі мпі
ря ту
споді ва
наз ва
20 00
ситуа ція
ко лек
свої м
об а
м ову
во лю
ш ве
прин ци
є ва
ні коли
н ської
чи ні
ме й
за хво
наро ду
ві с
рі шень
4 4
пере вір
ви ді
річ ний
чита йте
та ки
т к
раху н
в нес
бага ть
від но
б ен
су сід
тиж ня
ст вер
мі й
п лю
пор т
ве сь
зви нува
су пер
ста не
німе ць
ж ува
u m
м на
поча ли
ар хі
ри в
висл ови
за ходи
нови ни
від ки
від чу
бу дин
ма ю
пер шого
донба сі
у с
інтер в
ло му
па ді
а м
зав дяки
стра те
поту ж
ши ти
прода жу
ва рі
випад ків
ви ще
уча сті
мере жі
ни ку
л лі
про голо
ді ти
сто м
п лу
пере мо
ду м
в ночі
оку пова
н р
ар ти
ви в
л ки
о па
кому ні
поз бав
пов но
з мен
важ ли
іс па
закор дон
щи на
во но
ч енка
с ки
с це
су ди
цій ні
te le
до сить
я по
co vid
за фі
с пря
ку б
нов е
дми тро
не безпе
тив них
лікар ні
зо к
ме жах
з увати
від со
ме ха
гро ш
чер гу
по серед
не на
зе мель
ін шими
міся ців
гля д
да ле
є ння
ін вести
ка за
ви хід
тро хи
ти ви
b o
ш ки
ва ми
не вели
ча ти
ю рій
ль не
собо ю
пунк ту
ов увати
на к
ці ни
кіль ко
на ших
хо ч
ди тя
депута ти
по годи
гра д
контро лю
сли в
н да
l o
є те
ре чі
зов сім
п ні
об говор
ову ють
клу б
мисте ц
допомо гу
і р
ка те
говор ів
не м
ро ль
т на
стро к
ви ни
ди с
про єк
с ор
вда лося
ч ку
нале жа
чле нів
заяви ла
йм овір
ча тку
ав тор
ри зи
ру ху
м зс
4 7
міль яр
о ста
з до
я кими
роз пові
с х
фе сти
за пи
куль тури
наро ди
ні с
пови нен
ков е
збро ї
осві ти
ючи й
ж од
парті я
поса ду
ве ст
до ступ
зай ня
пол ови
лік віда
о он
9 5
а со
га ми
ва силь
г рі
о че
ку ди
к ня
є ра
рів ень
д ро
за бор
тив ні
о п
о ні
заяви ли
зго дом
рей тин
ка ра
ува ла
ак ції
францу зь
ову ючи
у се
спо чатку
оз бро
капі та
тич них
не су
парті й
па ри
ту реч
кож ен
розгля д
ц к
ві т
ново ї
залиши ти
нер у
нав чання
умова х
пози цію
то ж
вищи й
ті ї
6 6
чор но
втра ти
зага лом
під пису
кер у
ні ю
нале жить
служб ов
че на
о чо
зага лі
200 2
ж ор
ча ть
ту є
м м
говори ти
к в
з дат
9 9
ви пу
дру гий
ра ї
ко респон
ва нні
ста є
чення м
написа в
ви ник
хо дів
чи мо
нсь ким
мо го
відо мі
раз ів
чу є
ві та
до му
ш ла
пере до
8 5
столи ці
я х
гля да
сфер і
с па
ч ному
важа ючи
s e
д ри
пер со
в за
по сту
спі льно
a g
ар мії
повер ну
го ри
кон су
об ли
tele gram
отрима ти
ме діа
ш кі
ни ніш
мар ш
контро ль
обла д
діля нки
нсь ке
охо ро
ванта ж
за цію
4 3
б ід
п п
мі сь
поз овом
від від
г ну
м с
ті ла
d i
па трі
ситуа цію
од ну
від мов
те о
части ною
че ного
дов ід
та ра
до сі
ко л
стан ції
при бли
бо г
справ ж
у кладе
3 00
по чу
у гор
ла х
ко за
з ву
ме тро
полі ція
t h
об л
от же
спи сок
да них
де кла
неру хо
проце с
вигля ді
то що
а ж
зло чин
с п
буде ться
росі єю
до л
до ру
ту рі
рі м
дове де
л ка
ува тися
висту па
с на
тися чі
санк ції
адво ка
моло ді
пер шу
7 6
ува гу
заги нули
спо жива
кре м
єк тів
а ні
білору сі
лу ган
ць кої
но мер
вати ме
части ну
чер г
ш коли
під сум
звер та
ма на
кабі не
жі нок
працю вав
друго ї
асо ціа
ли т
во к
та ції
ши ро
ни ла
за про
вважа ють
позива ч
фа хів
і ван
трима ння
п лення
4 2
од ному
за ува
ш ен
ли в
оку пан
електро н
ру й
філь м
при дба
в загалі
шу є
ще ю
сказа ла
поз ову
нь ю
поча в
реш ті
у точ
я кою
вид но
те бе
од не
багать ох
ці єн
бо к
дина мо
ви ми
од ер
систе ма
ф ло
аль ністю
дока зів
5 00
ми с
путі н
су пере
на мір
п лі
зна чно
сто ліття
не них
у рах
вели ка
за пере
зустрі ч
май но
пов е
кур с
u b
по си
ро ман
суд ових
роз ши
в п
у ря
ві це
с пла
w it
ва лося
о м
u l
p h
d o
бла го
ню є
харак тер
о при
ві ці
зна йо
го дин
коле гія
ві зи
завда ння
парт нер
ру х
секре тар
орен ди
at ion
енер гії
ок рім
тер мін
ру ч
ше й
на передо
з ен
n o
ка б
запорі зь
та ку
меха ні
кори сть
мог ла
пла н
напря мку
то ї
кон цер
ре д
ль ним
ви нува
к п
м овою
са х
ру му
ме тів
7 7
аль ності
вели кої
са д
вибо рах
р р
спо лу
п ру
зая ву
джу є
банк ру
на прав
дж о
ц ар
час но
а у
ти ку
4 1
ф рон
е ле
ле ного
га ли
г ло
ста м
ч ною
на н
шко ду
ж я
фра струк
пока ра
ка ран
за го
кра й
ср ср
f or
за вод
куль тур
попу ляр
захи ст
ція ми
вели ко
повин на
ту вав
з мага
янукови ч
жите лів
про вести
на шої
меш ка
і ра
кра ще
ми т
200 1
ди ві
ти ка
кілько х
важ ливо
стя х
во до
ти сь
вши сь
не й
же ний
лу га
аль ність
до мов
су вали
дя ть
купів лі
гра ду
ві талі
в ра
p o
ч чя
ре комен
ство рю
місце вих
про від
із раї
мо к
їха в
5 8
міся ць
по неді
зна в
стан дар
май дан
авто бу
по те
швид ко
ову ється
з ник
по стави
m o
за прова
бра в
до би
лу ка
г на
іс ну
мо ра
жін ка
з лов
витра ти
г ти
до свід
мат чі
ч ко
відді лу
г пк
ри на
по та
6 8
ю к
чолові ка
ла нд
будів лі
ходи в
гра н
з ор
підля гає
макси ма
ль ну
сл ов
ш енні
марш ру
r i
а ч
ко менту
сай т
з су
мен ти
во ли
опри люд
фрак ції
йте сь
полі це
об ів
смер ті
техні ки
част ково
мі ського
c e
спор ту
l i
спря мова
з яв
н ці
від став
ти на
станови в
мос ков
роз поря
поса ди
га зо
на ша
се ль
спе ціалі
е фі
ефек тив
коман да
пока за
чоти р
гла ви
грив ні
я ко
фак тично
за ція
працю ють
ве чер
пло щею
сказа ти
к овий
с пад
ко лі
це ю
пер ша
ре лі
га л
хі мі
а нато
ви став
мо тив
в сту
буди нок
са ма
a d
ч ними
т ним
га х
вищо го
успі ш
с них
200 3
кана лу
та ря
фо нд
ти ну
ж о
гол овою
футбо лі
на ції
по бли
су тні
дво є
кон так
кам па
яз ків
сто сов
да ють
о гляду
кон кре
ри м
вели кий
ви лу
шля х
са мов
систе м
чи ною
у ві
жін ки
клу бу
су ді
льв ові
конкур ен
п л
під е
ніби то
лі га
ць ка
пробле м
кате го
бю ро
замі сть
ла в
во м
учас ники
ше ні
ри х
сла ва
побли зу
є ш
пере тво
л л
схо ді
ре волю
ко пі
керів ник
горо д
д п
стосов но
ква лі
вияви ли
бо л
ю чого
тер но
ці л
in e
де яких
г ні
ві лі
роз и
т не
нови ч
5 7
яза ні
з може
євро пі
ж жя
при бу
ло г
о стро
бороть би
зазна чає
ко с
навіру су
5 6
пов о
ходи ти
архі тек
пись мен
од я
кар пат
послу ги
w s
аль них
наль не
за пла
отрима ла
ві ру
витра т
га м
плати ти
н бу
ва нь
пер шому
цій но
охорон ці
в ходить
спі лку
з обра
ф ар
ру ки
во є
а х
вій на
к г
ви про
й но
по шко
не дійс
5 9
нав коло
повер х
держа ва
дру ге
теле фо
допо мага
вико ну
хо ро
су ми
пла ту
по чи
т с
у ро
лі ги
особи сто
а пара
міся ці
галу зі
джу ється
за гро
со лю
об слу
від і
мо ї
борж ника
з роб
ри нок
поря док
д т
ш ка
пере ва
годи ни
по шу
за ми
ш енка
їх ні
тя ж
аль ної
війсь ка
ко алі
кі ло
ме ра
ва й
о лег
путі на
мілі ції
s h
пов тор
наз вав
тич ного
7 9
ньо ю
переко на
та кої
олек сій
пер спек
ве ло
фак т
парла мен
завер ши
я кості
о пози
http st
6 3
прий ма
че т
тич ні
мі сть
аб солю
ст ре
зо ні
ючи х
б ре
а ра
здоро вя
я дер
мо но
сь кими
відо мий
ля ції
шу ється
під ня
мо з
в день
о ду
ка з
ст рів
20 22
цер кви
з не
су мі
ко ре
t a
жа н
с с
яз ки
s o
про ха
дока зи
ба ла
робо та
свя то
тич ної
зас обів
буде мо
с кільки
8 8
зна ю
спро бу
6 1
нафто газ
особа 2
бра ли
ч ень
вік тора
ви гу
on d
про сить
шення м
ва лен
середи ні
на т
ли ти
6 9
заги бли
ак цій
наль ні
від разу
ди к
тер пі
суд овому
до р
дже но
комі сія
об винува
вечер і
4 00
сво єю
t wit
го рі
w w
д но
с хе
пере мож
газ про
на бу
тиж день
ду маю
наль ну
тон н
екс плу
с ке
twit ter
ком ер
кажу ть
та й
па цієн
пере важ
u p
ста лося
збір ної
си ти
пунк т
ля н
навіру с
6 2
потре бу
сті льки
ву гі
ни н
на лу
спо сіб
то бі
в би
6 7
систе му
зас нов
мо рі
не ра
роз рах
я м
мо л
різ ні
голо с
кни ж
сту ден
хто сь
д ід
основ і
внес ення
коле гії
іс нує
суд ів
в пев
штра ф
кож ного
мас штаб
ви йшов
ч увати
b er
елек три
важ ко
жу ють
й ор
5 2
д ріб
санк цій
ва ється
по сла
лі нії
лу цен
в чора
в ні
ст ере
в к
вибу х
чи к
торгів лі
про тив
хвили н
ча в
раху нку
моло д
я ми
ста ття
мен тів
режи му
переда чі
то чно
ри ли
по е
199 8
до повід
г лу
мага зи
суд ові
с м
марі у
да ний
бі блі
краї нах
го спі
спри я
ку вати
джере ло
ті к
за ле
о пі
по тен
о рі
краї на
поса д
розви ток
біз несу
а но
гро шей
то рок
місь кра
стати сти
обли ччя
фран ків
відноси н
пере шко
про вів
s s
ка ції
гу бер
як би
зем ле
со ло
о ль
прем єр
михай ло
ст ву
пи ла
поча ток
кита й
кі мна
y o
те пло
пере ви
сь к
с є
варі ан
ін спек
пунк тів
ро сли
ко ор
оку па
ме ти
пло щі
вів торок
і і
страте гі
ре кор
ді зна
да м
ста вся
дома ш
су вав
зафі кс
кла си
ля х
щ ен
вели че
при ва
зу ють
во л
зі тк
ят ницю
повер та
че с
те ю
дві чі
ч ній
ш тов
кло пота
чі т
місце ві
свої ми
шо сті
о форм
л ла
наль на
моло ди
віт чи
сере ду
ін вест
ча х
зі й
а й
у р
я та
5 4
s k
лю ють
е ва
со ц
прави л
ма ми
уча стю
ва лері
зв язку
u k
над то
мо на
ав стрі
199 9
жи ли
збіль ши
на че
швид ше
гру п
на пад
мо ря
варто сті
друго го
сто ї
одні єї
жа ль
стат тею
су бо
воло ді
ва лі
засто с
c i
па ль
роз мов
чотир ьох
озна чає
ну вши
ви кладе
5 1
пер шим
клад ення
мен ш
це п
д вер
ти фіка
вули ця
розмі р
к си
ба х
задово ль
чі р
лю би
уго ду
га ють
ни на
ба л
пі ло
со ль
ре кла
спо кій
джу ють
гот ові
ш увати
обо ро
ку вав
пере вез
бюдже т
ре зер
автомо бі
ниць кої
гу мані
мо менту
сторін ці
сі мей
річ ного
прода ж
вого нь
се й
клю ч
має мо
ва лася
пла нує
зна йти
a b
т ті
переві ря
зу ється
жі но
пода ння
чемпі о
ма лень
від прав
від нови
ництво м
ува ги
ана логі
ходи ли
па ке
ви ста
ка тери
у повнова
тр енер
ж ного
ста біль
5 3
пре тен
режи м
оці нки
од разу
роз від
до рі
пав ло
мо біль
ру б
хар ч
виріши в
нор ми
мат ч
коро лів
са р
ар се
ба чення
ро с
ї ж
ро ма
ра п
сце на
g e
в сю
впли в
захо ду
л ова
само го
се лення
ви ди
ці на
за во
ви гра
висо ко
міся ця
б рю
га й
ство рити
та єм
до стат
обла стях
зна йшли
ру к
7 2
9 8
ов ід
спра вед
цій на
італі ї
хо тів
ова них
ін ший
за д
зни зи
ціл ком
i e
я ті
заги нув
не сти
за леж
ови ща
мі ю
клі єн
това рів
ши н
депута та
зроби в
по ко
ли ст
кор пора
ста ми
при чин
m ar
шта бу
до ходів
трам п
ін ф
ти ву
ран ці
ци ф
ін форму
до ба
нада ти
о те
їз ду
пер ер
ли ка
о чи
тні х
то ні
за слу
сі чні
льв ова
ту вали
стату с
ви готов
зав тра
лен ню
при хи
ве ла
гра ф
на ла
від почи
деся ти
с му
жит тє
с об
о бу
не ма
мо ні
у кла
о да
ра ду
я ро
ми ро
над ця
дру га
ге ть
мі тин
пусти ти
одні єю
пояс нив
си рії
три ває
хо ті
прави ла
прокуро р
ра зи
w e
ю ся
у ть
сере дня
га дав
ф аль
сер гія
ва го
ба ра
ува вся
ре ць
ін шим
вели ких
пар ку
вер х
ви па
p ro
під стави
ф ан
па тру
основ ні
ж ен
ін ци
з ла
хочу ть
ція х
al l
рю вання
одер жа
по дій
іва но
по про
си лу
о ле
тив ної
8 2
фор мі
ви дав
говори ть
мог ти
ль ному
у є
сти й
же ні
зни ження
наро дні
k or
від шкоду
у з
регіо ні
бой ових
ти ми
комі тет
ру вання
ову ються
чи сл
ниць кого
c t
ска с
ч ере
бать ко
і поте
ні єю
т ком
кордо ну
вели кі
ри й
пси хо
ча р
арти лері
прі зви
не прави
під і
на шого
обслу гов
пен сій
дж енні
їха ти
ю щенко
те ті
er s
за су
у сього
пода тку
о то
бі к
ін ше
н енні
голо сів
1 20
ль ність
чу ка
си на
орга ни
га ря
шве й
ля ми
д жи
мв ф
одно раз
чу ють
про він
го д
д с
пол тав
по ле
рист ів
загибли х
с кри
т ну
сі єю
у м
н ню
ран ку
z a
8 9
кабіне ту
щ енка
нар де
ре зо
со т
зем лю
режи сер
бло к
со бу
15 0
яза нь
декла ра
ко лу
хо р
те ст
кри ття
ди ть
ва л
комплек с
про жи
подат ків
при воду
дт п
на ді
ни зь
ти ни
авто ри
берез ні
ти пу
н ы
тов ого
спро ст
ча ючи
наль ному
фе й
ль ній
а чем
ме на
ви ру
ак тор
бу ть
кор пу
спи ску
ва си
а за
тр ен
верхов на
з яви
півден но
регіо ну
лен е
ева ку
дале ко
на гаду
інтер нет
бо є
по ду
пере моги
про па
зага льно
ш т
всі м
ухва лою
зая ві
опи ни
комп ен
у ра
при му
п р
п та
фі кова
гов е
со фі
фак с
граду сів
фі гу
та ж
взя ти
ко льо
ре форми
на решті
час ів
в сти
ова не
окре мих
ві з
при свя
в кла
че й
в ру
на рах
сторо на
бі га
я зок
я цен
сь ому
ін стру
від да
сезо ну
позов них
д з
доро ги
доку мент
лю дя
пря мо
ма буть
оці ню
змі ст
при вати
р б
н ень
у в
від було
7 4
бажа ння
к ову
функ ціо
в тру
ма ль
пі шов
і сла
моск ві
взя ли
ін сти
сл ів
ви но
гру дні
га ль
со тні
холо д
зі я
реч ови
ката стро
суд ове
лід ера
h o
re sp
вог ню
не що
да та
ви кра
в ведення
st a
віталі й
важ ливі
ухва лу
о нов
r u
річ на
м п
вза ємо
ці лому
дов жи
се ва
по терпі
дру ж
ви ня
ar d
сі о
особ ли
з гада
лен ко
ф с
з гаду
on e
де кілька
ви кла
во ль
х лі
проте сту
про сті
по соль
коор дина
сл ово
ю сти
ль ників
ку ле
ла йн
чле ни
д ця
обговор ю
до мо
змі ню
жи ве
пу ск
міс ць
рі ю
в ене
бо ра
х ро
пе тра
во му
g o
хер сон
нови м
дж он
робо ті
ті ло
де ни
да ну
дружи на
ме жі
ре ферен
в ранці
будів е
щи й
висл ов
наф ти
від хи
199 0
з можуть
пу ску
на па
програ м
поча ла
орга ну
прав овід
ос ере
ст ка
свобо да
ге ра
по зна
за ціка
ня ти
трам па
спі ва
зна є
ро лі
лю ва
до наль
по куп
ж ний
перемо гу
в р
мі кро
аль ні
ак ту
су ма
лі так
голов не
філь му
resp ond
реє стру
m an
пе чер
дом ови
ім пері
ж одного
на веде
їха ли
ле т
дж ень
може мо
с ма
сева сто
та кими
сезо н
б р
кови м
па ні
9 7
у су
верес ні
трав ні
са в
зда ється
торі ї
реа г
від повів
i k
г вар
ти ту
фі ло
пре зен
па ки
н в
по при
відкри то
ч ов
аф ри
ува чів
ли м
о ї
міні му
фі ла
ши в
то ру
зо ни
служ бу
пове ді
ко ха
ц пк
графі ї
дозво ляє
смер ть
є ру
ж но
ін ди
т ному
де сь
логі я
а ють
о тру
ча ли
ко ти
адвока т
на мі
рі н
грома ди
но стей
виснов ки
тор г
ві ку
пози цій
пло ща
д нр
мо я
неді лю
інте гра
відбу вся
дво ма
га ла
лік від
c on
орен ду
при сут
ля ться
ме ни
про вели
заклика в
де лега
кі стю
юсти ції
ну ло
вислови в
дж ер
мед вед
лю вав
дійс но
ля ються
серйо з
ви ника
а не
ту ди
со лід
ко п
м ні
воє вод
друго му
орі єн
об шу
за суд
пла не
ува нь
чин ності
пер ших
ви дів
держа д
при ро
не ви
при чини
me kor
бри га
бор гу
ча сті
ін ж
поля гає
7 3
помі ч
пусти ли
ве ден
ле оні
f o
ка фе
бра т
n a
об сє
ста лася
ent net
й дуть
ле в
ін де
бі г
ав стра
жито ми
пере гля
т лі
ви на
й ського
май стер
ні дер
розгля да
цер ква
стя н
пала ти
наслід ки
міні ма
гли бо
і зо
ви кли
ю р
сти ти
інсти тут
с ний
ст року
за купів
бу вання
жер тв
шо у
краї ну
пору шень
вели кого
ува лися
ємо ся
світ ла
справа х
ска нда
кві тні
су ті
по їзд
к к
від прави
шу ють
че сть
ча ми
моск ви
зло чи
b e
гот овий
те ля
підписа в
ви су
п ін
пара ти
ре ні
об єк
в ба
в ті
до дому
9 6
жор ст
тва рин
північ но
будин ків
виріши ли
у дар
ви ро
нсь кими
проте ст
ми м
сі н
їж джа
а гро
в с
тиж ні
8 6
гру зії
контрак т
е лі
захи ща
спро мож
х ристи
ві тер
обся г
ку вання
v e
ло ги
об ер
жод них
по кла
бо ру
v er
стя г
тран зи
во дій
лю ється
йсь ким
при чиною
же но
скла де
9 2
во єн
сер це
вла ду
виснов ок
актив но
ч енні
8 7
бо лі
яз ково
тро є
199 1
особ і
збо рів
с ного
ал кого
по ст
фак том
а да
ш ку
пору ч
жов тні
свід чить
кош тов
по чне
ви ходить
лю к
вій ну
росі ю
вироб ни
е с
ряту валь
ком бі
бо ї
пол ков
чи вся
вимага є
роби ть
різ ня
роз кри
на ли
музе й
медіа на
за карпат
пла та
роз шу
в зяв
ба таль
ст ов
в тім
ста ді
з ували
зас нова
ся ть
примі щ
та нк
до став
свобо ди
зем ля
е м
визна в
дити ни
са на
зна йде
вибор ців
тре тій
лег ко
а с
різ но
дія ти
ження м
виклю чно
адре сою
кра в
кро в
пере лік
лю тому
199 6
дж і
b l
футбо лу
спо дар
фінанс ів
ш ло
по гля
ша н
народ них
8 4
ст ки
при єдна
історі ю
нау ково
f e
пробле ма
ти к
ме да
пере хід
прийня в
ж них
хер со
коли сь
голов ним
бра зи
річ них
за робіт
торі я
програ му
ід ен
бю т
зло чину
ск лика
ше ний
ви бір
по х
мене м
гі ю
л ови
пан де
окру гу
ар бі
би ли
чер вні
банкру т
яза ний
єв ген
нов ому
щу є
s a
йш ло
фіка ції
ван ню
скоро ти
за м
зроби ли
ру ха
право мір
ба зі
а ук
199 7
хво рих
е й
о ке
ді ль
світ ло
роди ни
се сії
скар ж
о строва
у триму
i st
в прова
q u
тич ний
зага льна
на пру
по буд
стра ш
з ли
ти ва
пе т
тер на
вітчи зня
r an
ефі рі
теле фон
дів ча
ресур сів
со ня
ра с
вугі лля
с хи
мо дер
ро во
держав на
шев ченка
11 1
c he
проек тів
ско ри
ли пні
ка ти
ко смі
аук ціо
фізи чних
ви ча
тив на
пі р
пла ті
по їз
сю же
ди ла
зо ру
донба су
гід ро
чемпі он
остан ніх
йо н
пред ме
т ними
від стані
субо ту
ю лія
говори ли
моск ва
гло ба
й мен
спорт с
ter s
с плати
переда ти
тек ст
проце сі
ще ні
вер то
оголо сив
i x
йо м
ши нг
кла су
до триму
ст овір
й с
ори гі
збро ю
де в
т ник
д зер
пе ць
он лайн
8 3
дже ні
генера л
випа док
д ова
ж ні
на бли
9 3
будів ель
b n
від пові
пер ене
ки ри
пунк ти
o m
п д
ді їв
м ові
ста рі
говори в
на багато
мен ко
това но
пита в
кри зи
випад ках
па на
і го
ща стя
людя м
річ чя
пропо нує
лі цен
хі ба
при кла
росія ни
на силь
пере ду
іспа нії
гра ти
7 1
кабі нет
розі р
рів нен
за ареш
і ї
по обіця
біблі оте
ві сім
паді ння
то п
а ти
дження м
стрі ле
пусти в
дже ний
та л
адре са
ве чір
ло ї
су прово
ш ній
199 2
в чені
дов ж
ко стян
се ля
зор я
сері ї
пе да
д вигу
двер і
кар па
од ній
дов у
ниць кий
щи х
пред мет
да ла
ва шинг
мен та
тро м
закла дів
ла бора
лі тет
зна ти
сер пні
що най
влас не
каза х
вели ку
ar t
мо гу
ще но
випад ки
жа р
люб ов
жа ми
ін фек
тен дер
по лу
цій ну
мето ди
лон до
ви добу
ве с
пер шою
в регу
підтри м
a u
ке ль
ак т
воло н
i z
ходя ться
ка д
ар гу
райо нах
брю с
обі й
ю вання
хар кові
та тар
чи ка
боро ни
нау ки
пунк том
p e
a ir
пер и
запо біж
від у
яс кра
re u
пропа ган
анд рія
наз ву
гол ів
вих ова
хі ї
на талі
вантаж ів
фі лі
ст ого
у зго
т ності
єди ний
політи ка
обо х
мі на
9 4
ба ром
ви ходу
є ги
озбро є
до не
інтере си
199 4
p re
се ра
го те
ходя чи
політи ку
ii i
нсь к
зая вою
а гра
від чува
т ові
по раз
патрі ар
8 1
еко логі
але к
всі й
ку вали
в тор
ма ті
ро вич
го ль
жи ву
е піде
н ському
деся ть
точ ки
бо я
скар га
лідер ів
до щ
у п
мі сії
ак тів
при па
ба зи
ле ному
о ну
тари ф
свя тку
за воду
поже жі
рі за
річ ки
в вечері
конкур су
ви ща
на прави
оці нку
ду мки
z n
да ни
ш вілі
мета лу
е кі
сер віс
шо к
мар ке
тич на
програ ма
199 5
кож ному
кита ю
змі ц
ла м
остан нім
пові ту
ве ду
дере в
хо л
захо ді
змага ння
стро ю
іва на
е т
това р
жи ла
бри фін
кі на
поба чив
во сь
кора б
сто к
ман д
плану ють
і нак
стрі й
по ю
нення м
свід чать
ши ли
стя ми
чу ється
това ні
по гір
окупан ти
до хід
спо стере
сут тє
часті ше
лен у
пасажи р
мі ц
ла й
со ра
е пі
буду вати
єди ного
іно ді
ви прав
бо н
куб ка
ц вк
ру ку
держа ві
нагоро ди
в ов
ор ів
пода ру
il l
шко ди
зво ю
компен са
стої ть
по хи
ня ття
до нь
д них
ха н
ка с
лі на
во рі
d er
а зов
пи т
i an
мі сте
вважа ти
на звою
тер ів
належ ним
змі нити
держав ну
i p
ша р
o s
ге ль
дя ться
си ро
ан то
сказа но
у ч
кож на
поса ді
сю ди
впли ву
дола ра
c k
з руй
п ять
ду б
ма ну
м я
a y
аль терна
ово сті
г ле
і менем
ка ла
пе ні
но тарі
вання м
де талі
регу ляр
у ка
ро ві
в несе
ш кіль
мож ливі
ка то
ме три
опа дів
ім пера
міста х
ре сто
x vi
кон гре
са у
зби тків
вбив ство
в лі
ме ж
писа в
да й
reu ters
їх ніх
or t
нада лі
розподі л
орга н
ди м
кни ги
мо є
зві сно
за пев
ви ки
прий шов
бо го
жите лі
інж енер
г не
ю рія
бори с
дій шов
кро к
пов ному
зо н
ці ль
маши ни
ш ів
дина мі
ш тур
e m
га д
ви клада
величе з
рап том
не відомо
ау ди
ізраї ль
з від
с пала
ду хов
ре форму
на зад
нідер лан
пояс ню
ц ере
педа го
фак ти
сла б
моде ль
мона сти
во сті
бать ка
де фі
який сь
н кою
не при
ст ен
ме кси
бро н
аналі з
на сам
ле жа
релі гій
підоз ру
моні тори
ше сти
ареш т
донець ка
ба чив
да на
місця х
сто рон
ь ми
га ні
пере слід
пів ночі
допомо га
май дану
в вп
ре форм
те тя
експер т
пра це
г ін
дов ого
ч ене
конфлік т
му ться
мі стя
ниц тві
ін шої
ри ба
198 9
офі цер
а п
по дорож
ця х
прі ори
на шу
резо лю
сту пу
канди дат
к л
на та
сум ні
оба ми
is bn
ю чі
про зо
сти х
ремон т
су пу
b r
чор ного
с ної
аль ний
дис ци
100 0
екі па
вчи нення
ль ник
заяв ляє
аль но
обся зі
теа тру
ме тра
у ник
не ться
6 00
місти ть
до ско
ти хо
мі ська
треть ої
при сутні
шах тар
ста нням
се парати
в мі
проєк т
в сьому
ку є
пере рах
газе та
по я
чо ю
пада є
жит ті
гов ого
199 3
дніпро в
режи мі
від так
ма ри
об мін
ap p
по диви
суд ової
підоз рю
злов мис
ще ний
ма рія
бува є
шко ла
ко трі
розу м
бо же
ц о
ди ску
о плати
від обра
те тів
при ту
від мову
з вання
оче видно
вла ді
літа ка
основ них
по ли
осві т
ці ліс
ба з
in sta
о лена
луцен ко
які сь
збо ру
рахун ків
держав ні
дс нс
за ра
ва х
ві ком
же на
теро ри
ка ль
олі гар
пе тер
та кому
ка ли
профе сор
по дав
а том
уро чи
модер ні
c a
па спор
діа гно
ю лії
і рина
g oo
ка налі
ня є
ма ра
рн бо
по нен
чи ми
з рі
бе ра
захис ник
оп ти
дів чина
бе зу
гру пова
та кою
че ної
e x
н гу
те рак
інак ше
поль ща
ко но
шля ху
ково му
закін чив
ці ну
відо ма
е кра
l y
люд ьми
щи ну
ча м
фіна лу
анг лій
т ських
стар ших
вбив ства
ві зь
яко сь
t im
кра сно
експер и
ін ь
зале жить
випу ск
яза них
ті н
осві та
гу б
рейтин г
ста білі
c or
ін ша
п с
ду му
r y
пев но
вати муть
визна ти
8 00
194 4
заціка в
по ри
като ли
при чому
оде сі
вияв лено
ча ються
ви плати
особ ою
хво ро
ви йшли
ак ція
в ходять
напря м
9 1
япо нії
гру пу
ра дою
шко лі
же м
наз вали
дове лося
ко пи
рекор д
зу сил
м ю
каран тин
пору ш
бороть ба
спро би
брифін гу
a e
за бу
інди віду
на гадав
акаде мі
е мі
ту ють
дефі ци
ле ю
in ter
ста тей
коман д
в не
ге ор
пере мі
са ні
с ріб
гли би
єк та
кі нець
корот ко
е мо
пре мії
де ль
ча си
логі чних
б рен
можли ве
о ф
ви йшла
мо ре
про йшов
на бра
мі ський
ку ч
та бли
зни щи
ова ного
постав ки
ге й
ти ск
рі зни
фран ція
ту рою
брига ди
по дола
ш ні
я ни
лі то
лю вали
з могли
у групова
ле ген
у крі
до стро
вий ти
к нув
к ен
від віда
єв ге
за пе
проек ти
нака з
ді ть
кла с
інтер не
по єди
чи мало
част ка
a k
дав ством
в дома
з раз
загро жує
това ний
25 0
систе мі
зас оби
са ра
ше на
обо рон
вла дою
поба чити
кі рово
гал ере
роз відки
ст р
ве дуть
під вищи
поль о
авто ном
належа ть
бер г
пев ні
пі ти
части н
стій но
ле ної
чолові ки
га в
рі шенні
бер уть
x x
раху нки
де бю
гра нато
втра т
ад ресу
нор ве
ле ними
мат чу
скла дає
у ль
полі п
сти ки
ру ках
поло жень
управ лі
дж увати
пов сю
p l
об ере
турні р
по нов
си льні
га ти
ла д
се ми
пи сом
дити на
кон цеп
с ну
закри ття
дисци плі
пла ни
се ксу
збір на
арбі тра
же них
зако нів
i f
як ів
фор мова
росія н
го това
чіт ко
прий шли
чо лі
кварти ри
ка мі
скар зі
ди ха
ро ду
вла ш
про ф
у склад
поши рю
об ліку
пере роб
не пода
g u
при че
ти ці
рахун ком
потре би
по кра
ку т
со ро
тив ну
від сутні
поже ж
it y
вог не
во да
нова но
ке й
а ку
дола р
до лу
за то
о стрів
l in
слід чі
нес ення
відно сно
194 1
домов ле
наль ній
ма гі
кон вен
ва лід
го ду
кра си
шев чен
бор г
д ови
нер ів
і гра
ля ція
від різня
фі налі
за л
ль ники
на ти
зи в
ш ер
х мар
нада но
при клад
ково ю
зупи ни
ен я
скар гою
піс ні
я на
д рі
гово ї
роз мови
пері оду
деся тки
зафі ксу
ви ходячи
тора ми
ще м
пра ць
е сто
му р
цій не
де та
металу р
ме нів
бур г
б ів
потріб ні
ф ре
ди зай
цер ков
ті я
зна к
ава рії
че ним
j o
кордо ні
би ти
заува жив
сіль ська
слова ч
я ні
чи тися
єдна них
цере мо
логі й
гол ові
засто сов
ба лан
а ну
су до
наші й
не хай
жи й
мак сим
да ту
ліка ря
ін шому
прав ди
голо су
ді м
ли ли
є ри
цен т
про гре
ж ки
но ги
зова ний
а зер
низ ку
шука ти
перева гу
ль ною
об роб
w or
єк т
по свід
яви вся
роз гор
варіан т
е ць
вимо гам
мар т
пар к
фі ска
потра пив
все світ
оде си
особа 4
щ ад
пів день
зі гра
ар мія
хво роби
те му
мат чів
кур су
ку бок
при най
брита нія
держав не
ру сла
ці лі
ка мер
за крі
вій ні
вла шту
на дія
ре на
хар кова
мо білі
194 5
про йшли
же ного
азер бай
на пів
за пропо
ра ти
місця ми
каб мін
боє припа
лан дії
сер ва
три вали
нега йно
ні к
ді б
зро сла
подіб них
уго д
с не
оби два
до бри
діля нку
мо не
кварти р
ми ру
ка да
ню к
за пис
го тів
особа 3
1 10
фахів ці
сами м
ду р
люди ну
мину лому
ри вши
конкур с
ма те
музе ю
нав паки
тури сти
злочи нів
дорі г
гу н
кордо ном
пали ва
мо роз
ниж че
м ід
сі ння
ва ються
бать ки
тра ге
зна ння
нар ко
по сол
го ли
солід ар
влі тку
с відо
в продовж
ка зав
т ність
197 5
пи ско
продук ти
пре пара
за ку
приму с
пла то
ко три
поро ж
окру зі
198 0
ві ри
валері й
тра к
за ради
амери ки
по гро
змі г
ю щенка
влас ник
єн ко
ля ла
уда ру
чле ном
кова ні
зов ого
яцен юк
ува нні
росли н
фіна л
стан ція
стар ший
сування м
ні н
роз повсю
реш тою
раке ти
оль га
загаль ну
цій ним
одя г
учас ник
джере л
заборо ну
кли чко
не від
дали х
по сили
сум нів
кон тин
ні як
про цен
два дця
гри го
струк тур
фір ма
о пис
сту па
фір ми
до ли
перемо га
ме мо
шта ту
ета п
в веде
ке ра
висту пи
донба с
з див
п я
аза ров
що дня
ли вий
є писко
со ціалі
ну ть
по бу
від мін
ста тут
ін валід
ле ним
ви дат
дж ен
ти п
ження ми
зова ні
ча ла
тво ри
an t
ли ста
про м
на по
прогно з
на бира
виріши ти
ne ws
те пла
до зві
регіо нах
a z
при зупи
ма лю
у станови
ж увати
агра р
суд но
чин ного
офі су
тив ним
білору сь
три бу
чорно мор
анг лі
чи сла
ко ль
с мо
парт не
кі р
змі ну
бол га
по пов
бороть бі
з осере
11 2
со на
моде лі
подіб ні
зова но
йсь кій
пере пису
ма ту
маши н
k o
єд ну
ціка во
g le
супере ч
ве ль
по доба
фа бри
х ра
р с
по кри
кро ві
са ака
фе ро
с форму
швей ца
креди ту
г ові
комуні ка
н ками
ня ть
лікар ня
за не
дні пра
с март
од ру
мере ж
по тік
вакци ни
ку пу
ті єї
ли к
коро ль
госпо да
роб ер
p r
по гляд
сте па
тив не
бру д
чи сель
пів дні
за са
i o
па ру
ак цію
голов ні
те ти
зна ють
мі гран
ек стре
по хова
сфер и
м ною
райо нів
ва ні
дру гій
ар х
ста ють
това ру
три во
http s
c l
годи ну
ні ма
поми л
я ки
вважа ю
дже них
т т
до пов
та цію
патрі о
прав ових
вибу ху
док тор
гру пі
аль на
ww w
ш к
свя того
с в
вар ша
органі з
ля цію
оче вид
стави ти
аф гані
іго ря
геро ї
уго да
мен том
жи х
ру ка
ради ка
s u
сав ченко
ма лі
то сті
на ше
діля нок
ка є
донець ку
а стро
е л
ве ро
визна но
з відки
теа тр
ін ве
інте лек
мільяр да
біж ен
де таль
пере хо
ден тів
ле тів
ни цею
с кі
ла у
йсь ку
живу ть
доско на
імпері ї
x id
по слід
на дав
ті с
пе тен
дія ми
се на
у яв
да ння
і л
уні ка
в ро
ат лан
сі л
обра ння
єк ти
дозво лу
с пу
газпро м
де що
зі зна
функ ції
з рештою
дж ор
за н
ві л
ін ду
си льно
ком петен
при ся
теа тра
ка ло
ку н
ле ра
za xid
футбо л
сели щ
мі гра
о ни
1 30
кін це
стаття ми
на ва
актив ів
окре мі
ст ін
ло гу
до стовір
прави ло
виступа є
хоті ли
влас ні
тор гове
во р
музи кан
т ній
мог ло
що річ
губер на
ба ми
наль но
роз па
ку вала
ні яких
ку бо
ня ється
дні ми
a v
мо ро
аналі зу
ста лі
місце м
ти ли
пам ят
газе ти
телефо ну
до ля
кри ла
з годи
писа ти
мер кель
варті стю
в чини
г пу
відкри ли
дени с
поді ль
ми ть
б рі
мов ляв
рад ник
сто ю
мо то
теле ві
e p
о лега
лит ви
ґрун ту
пер ш
дося г
пі шли
мініму м
ли ва
ста тися
скла дні
яза на
роби ли
зо ну
ру д
фо ру
жор сто
e u
роб лять
у сім
та рів
ек спорт
сезо ні
д ення
7 00
мови в
тр ене
ха ти
си ді
меди ци
їха ла
с ва
за кли
від міну
с ся
роби в
єв ре
ци ми
а ла
перші й
сте ро
11 17
ь о
коман ді
до трима
про йде
розмі ру
склад но
n ation
показ ник
уник нути
пря му
до ходи
су куп
спі кер
9 10
заг розу
a st
стрі ля
дми тра
197 0
су ль
ми коли
осві ту
пд в
голов них
жи во
персо на
залиши в
за ду
му ж
ек спор
розу мів
оста точ
ли вся
запо біга
нова ні
оду жа
креди т
умова ми
бу х
май бу
вакци на
наль ним
а зі
ви ти
арх ео
о зе
со ціо
викона ти
стави ли
о се
пору шено
кова но
бала нс
лі ж
ім овір
з ру
під ряд
каб міну
став ки
b y
ма ма
пу ль
то на
ску ль
сні г
прово ка
особа ми
візи ту
зни щення
кови ми
ден ту
пога но
дж ува
укладе но
ліка рі
п ти
мо сті
за повід
бій ців
відо мих
будин ки
en s
оз ву
пра пор
кра ю
їх ній
ма са
оде са
ро дина
зая ва
при чет
захід них
іде ї
ве тера
ци кло
висту пав
пов ного
ро ком
goo gle
гре ції
и н
во й
сти ка
по спі
ви рок
сто яв
геро їв
iv e
км да
яро слав
uk ra
м но
дово ї
потребу є
ме жами
дово ль
ек спорту
ови ще
наступ ні
створе но
іва нович
до розі
в жи
лі зації
ресто ра
зусил ля
слід ства
сь о
ба чити
ш пи
потріб на
поча т
скуль п
ри нк
жу ється
роз би
с відомо
належа ло
ту вала
ку лі
ціка ви
ов ували
жа є
ми тро
ба ч
ття м
заг роз
ор де
ста рий
тек сті
ль ними
b c
строва но
фрон т
el l
по ма
від ро
т ви
про демон
ну лися
ба нки
чі й
сві ти
кар ти
лідер и
ne w
но ме
v o
свя та
па ле
воро г
ходи ла
го лу
пи шу
у збере
л т
ф к
вер сії
про дав
а лу
свя т
рів на
ці лу
фан та
л ович
за пов
пого да
пока зав
носи ти
со ром
виріши ла
у шко
окре мо
регу ля
19 39
ша нс
ж енні
но с
пов ний
остро ві
194 3
віль но
бог дан
це в
агре сії
ч вер
ціка ві
су хо
мітин г
тиж нів
про сив
інци дент
орен д
yo ut
фа куль
лі ки
при були
ден е
ту ре
йте ся
пен сіо
пере кла
спі лки
о собу
тара с
ч кою
леоні д
ступ еня
ле ті
держа вою
пла в
а ту
ле йте
ти ску
ісла м
тре тє
місто м
па не
ін струк
при го
щ увати
ови ча
бу н
ло с
влас ника
за х
m er
ле та
un d
ши на
оди ниць
наталі я
від пу
h er
сані тар
ме ться
техні ку
отрима є
су спі
успіш но
ризи к
де ба
інтерв ю
тре тя
лі ній
сим волі
тен ден
о гля
чека є
три вають
висо кий
турні ру
19 60
ш но
окру г
бу ль
ка лен
nation al
198 8
що ден
ч ував
орга нами
во зи
стату су
a f
t v
вла сти
кові й
s on
та ція
сі нь
не мов
у каз
на став
де с
ан на
стат тю
прово ду
від би
к ле
ючи м
ко т
в ступ
си рі
і гри
про йти
ду ші
ни ч
p ic
ub e
in fo
смі х
нові й
ю тер
полі т
бо ло
за ва
си но
пси хі
е д
судо чин
бороть бу
позов ні
ка в
шкі л
v ol
дозві л
микола й
дум ка
сти му
об раз
дипло ма
консу ль
ц ова
зе ні
сі ті
при стро
меди чних
тетя на
си г
app le
в з
ка й
ма ючи
пла сти
у кра
чека ти
ма гні
май дані
во ді
ви мі
те ні
ж жі
ко стю
у чи
мере жах
з ю
at e
скла в
сил ови
у продовж
з де
іні цію
го сп
сто й
ст ку
дональ д
ства х
у па
мі л
руму нії
жод ної
те лів
яви лися
вимо гою
бе й
т ву
ля ючи
плю с
енер гію
ур ср
сер ві
об ліга
ши ла
почина є
пі хо
про філь
носи н
а де
аль ну
послід ов
чорно би
ля тися
воло дар
і ран
рі шу
по дру
вік на
ку ляр
198 6
не вико
ін шу
шев ченко
вер сія
уря дом
чи лися
ди тин
слід ство
ремон ту
ре форма
т ками
ми ла
най мен
ді л
і лю
вели ким
лі ю
бан ком
су р
g ro
іде я
хлоп ці
ба ри
на шому
ре ль
ме морі
вер сією
і гро
спри чини
ро дин
пообіця в
в дя
вимо гу
не вда
бом бар
да ній
ува ч
дже на
нів ка
ці ною
по бою
о пита
p er
фахів ців
ні ми
ре гла
політи к
очи ма
кажу чи
аеро порт
ц ук
се ни
до пуска
дня ми
від клю
ма ка
під зем
т ень
інве сто
му ль
закла ду
ком про
х ри
к са
ім пор
при був
г р
сила ми
ує фа
i b
е ска
ха м
11 5
ді н
мешкан ці
ува чі
бро не
p ol
влас ний
ц ов
йо ну
л нр
ба бу
ли тов
пор тре
or g
s y
зь кого
гру зи
нес ли
h a
цій ному
фор те
ли вих
михай ла
бе т
кори сту
сту дент
ще на
води ть
ig ht
доро гу
щи м
ви ду
s ch
бор ту
бар село
з ін
яз ниці
уда рів
дода ла
чита ти
само му
влас них
б л
за о
у трима
к во
at ed
сім феро
се л
ка л
парті ю
вини кла
зна єте
un g
зі ю
недо стат
хоче мо
во дія
ді о
же ю
с фе
лю ються
ма си
ча н
зова ного
жур налу
ава рій
вив чення
спо жив
че ному
нд р
напа ду
фа й
сторо ні
за писа
відді л
про стро
об сте
фло ту
на ванта
нака зом
ата ції
са л
ска я
бі н
ба ло
сх вали
ком пози
p ar
основ ним
змі на
жа ть
поча ти
нада є
раке т
те ма
воло діє
публі ка
шен ню
мо ся
аль бо
не відомі
ви зво
д нем
ін тен
еваку а
пока зали
ер і
про дю
де сан
тя м
ре в
про спек
шко лу
які сть
вез ли
при чина
пода ти
па пер
піс ня
біло го
потре б
ета пі
зова них
в край
літа ків
по дя
різ ними
k e
вияви вся
дити ну
кри тері
житл ових
нав ряд
о пла
ш нього
вищо ї
треть ого
нання м
прості р
19 18
ор ден
під готу
ек спо
титу л
ер го
да сть
yout ube
лі зі
інтере с
ат мо
вели кій
ід ео
іра ну
ми ми
ш лю
пара ле
донець к
по чес
u re
фу нда
анг лії
ане к
за надто
ата ки
те пл
ці ал
не можли
сай ту
за ста
прізви ще
кладе но
лан цю
на певно
ме тр
лит вин
сіль ське
лу ї
довжи на
19 30
кан ц
кора бель
до ступу
па вла
лі су
сторо нні
m in
тре й
наві що
с ви
довід ка
про пуску
ку пити
аль ним
ви кри
з мом
нав колиш
ува лася
198 7
ба к
чи ло
фрон ту
в перед
запе вня
цен тром
їх нього
всі єї
кни га
уч нів
му ра
о коли
місце вим
єди ним
в ря
кі м
нерухо ме
п з
сти лі
підкре с
ши р
котри й
пи ту
філь мів
бе л
їз ді
ри ла
к ля
заг рози
г рози
зупи нити
s er
ку ро
зроб лено
здо був
тер міну
без лі
прибу ток
о л
чи сло
в чин
ць ких
ае с
фін лян
інду стрі
а зії
пробле му
да ного
ї де
бра ла
ан ге
ну лася
ліка рів
логі чні
голо ду
тру д
пев не
завда нь
мі ра
коло мо
та ла
прий має
се мен
носи ть
198 5
вели ке
се м
збере гти
не бо
за пису
ль ності
су вере
дру гу
зар плати
ль д
проха ння
ливо сті
голов на
жите ль
проєк ту
ви пла
п ень
обме жень
ко д
гі мна
ю на
молоди х
щ ук
будів лю
ме ць
го ру
ж ене
ну ті
засто су
ре шта
опера ція
поже жа
ниць кому
ма ке
написа ла
на зви
гра м
йсь ке
ізраї лю
з ми
б лу
това них
худож ник
ба чили
т ною
дія х
буд ови
де м
пам ята
ли ми
земель ну
шо т
до мі
тю р
мар ки
матич них
о позиція
дій шли
ле ва
паке т
аль ян
а ючи
as h
ла тві
19 40
діля нці
р т
10 1
хол дин
ви йде
квар та
гур ту
па ти
почу ття
сті ни
офі с
ж ної
бо га
спір них
надця ть
єги п
пу щення
під пи
дія ч
валю ти
сувере ні
па у
від мі
нова ний
яз нення
повин но
у би
те ми
ни ть
co l
m ic
за ру
пере ки
говор ять
оди но
йор к
по няття
са ло
біль шого
стрі ль
ус відом
опера цію
влас ного
магі стра
гли б
ци вілі
контин ен
гру н
ре ний
випу ску
ав діїв
ле с
хо дом
оці нка
с кор
за ванта
отриму є
f i
сон це
газпро му
помер ли
тва ри
вели кою
у клада
ба чить
уві йшли
яза но
c ar
тич ну
з могу
пи вся
мер і
ні ко
сти чної
існу ють
обстрі ли
сла ви
жит ла
показа ти
не бе
ни я
сами х
с оба
тан цю
ки сло
на гля
пері оди
зна ли
б ов
капі тан
пере кри
ля ка
крем ля
ць кому
ар тем
аль бом
во з
серед ньо
хло пець
схо же
під су
дере ва
бон дар
ри б
ар хів
ухвали в
об ід
ше ль
ро т
зова на
сторо ною
особа м
грош ових
переда чу
бе к
пере ліку
тя ть
робо чих
зна йшов
болі валь
інде кс
по стрі
ду мав
ня в
помер ла
ж ів
ін дії
числ енні
ву гле
усі ма
оби ра
ши сь
де пози
сі зо
дружи ни
зас обами
вибу хів
198 4
зо ю
обра ний
я й
про фі
а ри
збро єю
диві зі
зи р
во сени
ло ка
компа нію
пол та
сели ще
по бут
пере може
ніч них
наф ту
допо може
вар тою
мі рою
пра ві
pre ss
без піло
п яти
на копи
авто ма
ком фор
ви ходив
обстрі лу
запев нив
висту пив
ци тує
нака зу
шве ції
г міні
дове сти
00 00
за рах
бі лий
втра тив
на поля
во дою
і о
не будь
пев них
ro s
бе лі
ба г
пояс нює
ареш ту
ува ло
орга ном
безпе ку
d u
ню вати
по ш
безу мов
ниць ка
ч ували
лід е
коре ї
рів нем
ар ген
мо ле
залі з
зай має
олімпі а
le s
пі шла
ста ра
коро ля
на ци
д ніст
приз вело
скла ла
пере дав
житоми рі
сх ва
фс б
грома да
механі зм
ско є
зві т
жит ло
мільйо н
не у
яви лася
май ном
ве й
сто яти
по би
жін ку
йш лося
шта т
че в
те лі
бі л
че хії
до ки
чи ться
ска зали
свобо ду
по спіль
ви пуска
ква дра
b re
ру р
суд на
соб ор
гну то
а ли
ство рили
пере міг
прото ко
ве б
педаго гі
стоя ння
бере зі
ба чимо
кора блі
анд рі
все бі
зу силь
я чи
ме ту
циф ро
m y
геро й
вибор чих
пі шо
се в
пунк ті
m ent
ку ють
с ові
поз ба
капіта лу
че ними
різ ко
спала х
ни ни
сер ця
на шим
tim es
у ж
ші й
кож ної
кос мо
і гно
діа па
інформу є
b an
петер бур
ac k
стар т
че стер
г лі
гвар дії
мілі ція
ра до
11 6
роз дріб
ска жі
вза єм
не лега
а нь
їх ню
коло нії
ле дь
го стей
ве к
197 9
зако ни
зроби ла
19 20
гру пою
дру зі
хор ва
під ір
може те
за клада
пол ку
тариф ів
італі я
зна чить
воро та
в те
інтен сив
за ки
лі ків
що йно
ку зь
діть ми
o g
сам бле
співа чка
збір ну
ове ць
пов не
наді сла
лі бера
ру ками
ба чу
три чі
ви му
за т
гро йс
жи вся
тор ка
золо та
h y
уточ нив
меда ль
ре ві
ха ту
мор ських
пари жі
ги м
о повід
а по
пла те
стри б
спо с
зброй ні
ту рець
пев ний
низ ки
що правда
коде к
m on
по ради
боро тися
дру зів
сть ся
свідо ц
гар рі
бі ї
спе ци
розроб ки
при сі
філь мі
од них
створе на
термі ни
чо сті
інші й
ї сти
команди р
c y
ку х
ха ми
са ди
адреса 1
доро сли
захо п
в пав
194 2
пер вин
is h
пунк тах
мати ме
слід чого
грав ців
ви ш
ну вав
за стави
поса дов
широ ко
до лі
золо то
у д
поча лася
на годи
дру гою
при зво
k s
програ мі
ча тися
па х
ю ка
не по
австрі ї
штов х
корпу су
as s
хлі б
бой ові
ic h
3 50
ви ну
сі їв
11 19
t ra
ан дже
х рам
біз не
тео ре
жен ню
сол да
особи сті
розгля ді
лі тніх
ска су
ну вали
z e
пів тора
проек том
з бу
техні ка
жите ля
197 6
ве чора
змен ши
па й
а самбле
ш вед
k a
19 50
нен ню
виклика є
ген е
жа ти
автобу с
де шев
кро ки
стосу нки
за руч
я ч
запи т
нарде п
порту га
ря ть
кри тику
утво рю
луцен ка
па ро
наук ових
о пер
заяв ляв
198 1
і ллі
пишу ть
систе мою
з важаючи
від ста
їх ня
ниць кій
со ф
l d
об єдна
по криття
васи ля
визна є
за блоку
бен зи
епіде мі
е в
євро па
ресур си
за би
нада вати
оби дві
пов ну
повно цін
ін нова
п ше
клі ні
про ка
з бага
вось ми
вне сок
пода ла
in t
b a
под роби
при ві
ови щі
зво ро
о чах
ви кон
вигля д
па к
ти ві
цен три
пер шо
бла ки
вка зів
при пуска
ви діля
крі зь
слу га
кра з
лен ерго
ду має
музи ки
фо м
хре ст
ак три
вір ме
us s
вра ження
ма тор
право м
нагаду є
торі ю
ве сі
про веден
угор щини
же ним
при віта
калі бру
пло щу
198 2
ді тям
н ках
з буд
ніч ний
воло сся
за да
9 00
с льо
за пита
обся ги
що би
ле ти
доро в
моно поль
мину лу
грав ця
олек сія
зна ємо
вимага ти
дер и
es s
п то
фаль си
чле нами
усу нення
хі рур
ан тон
воро га
диві ться
зло чини
те том
візи т
нови н
ли сті
ди вер
чет веро
штра фу
житл ово
т ського
мі нську
зи м
жива ють
сами й
ри вся
середи ни
галере я
бага т
о й
до пусти
зова ної
вклю чає
нова них
н ців
за від
катери на
ма кро
чвер ть
l and
заборо ни
чи ки
не про
ва йте
пі сто
гляда чів
бер лі
си ло
бой ко
яку сь
са му
анти теро
зір ки
ба зу
цикло пе
спад щини
рі ння
чор ний
та ї
18 0
ні ших
до рів
у ста
н х
кана ди
ні на
g en
го сті
10 2
кова ль
пого джу
при роди
ля чи
форма ті
світ ових
на ту
вигля дає
від реаг
o t
ба за
ова ної
ща сли
б є
колиш ніх
зі грав
ма пі
річ ної
да рем
12 5
ць ку
заги нуло
бай ден
пре кра
по тя
опера тив
та бо
у вечері
дося гти
на дії
не ними
си лі
брюс селі
дні прі
11 15
дові ри
т ників
ок сана
ова ним
к ндр
за бруд
с сі
є ць
я ли
агре сив
198 3
ва ш
ос на
да ному
чер нів
19 33
роз в
з йо
ва га
набира є
горо ди
люди ною
за ма
розумі ю
ра ун
зага льні
роз поряд
полови ні
в ряту
наз вати
змі сту
нови ми
схе ми
това не
хви лі
ні кого
квар талі
безлі ч
сели ща
числ ен
нау ков
к пк
режи сера
ста ті
гра є
в ша
гі т
визна чає
сті л
чен у
го тувати
кита ї
пі к
вули ць
бух гал
ді ють
14 0
ном ов
свя ще
ви ступ
схід ній
сти м
то ма
ф ф
вико нує
зро стає
прото кол
у чора
това ного
попро сив
на кла
стан цій
m ber
че ві
не ного
дово дів
де тек
алек санд
b ar
іра ку
по мешка
під роб
пар ти
краї ною
вез ення
щ ів
за важа
кварти ру
схід ної
від вер
всти г
ду мати
об серва
містя ть
ж ого
зу б
три валі
моло до
ста ль
жер тва
в хід
трима ти
кольо ру
f in
лондо ні
є дина
кова них
дик та
сприя ння
t on
мен ті
укрі н
10 5
вклю чно
пере вищи
мене джер
без ві
не визна
про йшла
ру кою
виника є
вка зує
літа ки
лів і
тиме ться
уря ді
ту ристів
адво ката
об міну
йо к
мо сту
ню ється
ю ні
у ся
си дів
ство рив
19 17
не зна
m i
му н
рення м
о спор
19 32
ic a
по доро
при ла
ят ник
сто лі
кар то
май ор
мир них
тво рів
плане ти
відчу ття
шта тів
успі ху
га ра
йсь кими
стан цію
сто ять
в клад
зби тки
зда ле
див но
ста дії
ру сі
змі стом
при кра
цій ними
ва дим
по чну
ко ма
за вою
гон ча
d s
дя ку
ти ні
че сно
очо лював
поча тком
лі зи
г к
у т
у си
о гляд
об лік
життє пис
197 2
w ar
оста то
твор чі
рі г
бре х
ці лей
самі ту
біжен ців
ре зиден
знайо ми
остан ню
ві ї
клієн тів
ата цію
охоро на
ходи ло
з нов
мар к
роз стрі
смі т
з розумів
дже йм
кі бер
сту рб
п ка
проек ті
лів ка
ка дро
у тім
вело си
шко ля
сте пан
197 8
обся гу
ду ми
с вер
мистец тв
ке вич
створю є
теж ів
ім порт
поверх ні
шта бі
об єктів
при во
дослід и
st r
сучас них
да вати
лей бу
про гу
роди ні
суд овий
схо ду
вини щ
пози цією
нан т
мі сія
197 4
п по
сто літ
дав ство
мі к
пів року
пі зна
збо ри
при бут
раху нк
ти ків
в лу
те льно
пле й
ба та
се лен
ах ме
кова ний
голо си
п сев
ре чей
ic e
пла тежів
заклика є
поєди нку
пре мія
vi de
диви тися
у строю
нор манд
во допо
ж на
ві я
основ у
спору д
чому сь
аль не
зір ка
пози чаль
фрак ція
сері я
ла с
до кла
сл ове
ве сні
ва ч
потра п
пов стан
v a
n as
стави в
t r
а гі
м к
поста ча
мат чах
полови на
пли в
шк ід
під поряд
о пису
зали шено
від гу
мере жа
по ку
t y
свя щен
розпоча в
пораз ки
обстрі л
пока зує
ва них
потріб ен
с формова
хвили ни
ви тяг
маши на
це ві
ч ці
си гна
ї д
кого сь
ігра х
про яв
лон дон
йо ми
ви грав
re l
l ine
центра лі
ра но
від кла
в нести
ліде ром
сту дії
гур т
ува зі
є ро
по к
їх ньої
гід ь
во дя
те д
речови н
197 7
поста вок
бі лих
хоті лося
сау дів
за дія
ті ле
мемо ран
на пов
f er
ду х
мо ска
вати сь
суб си
швид кої
ю сь
пере ходу
ну то
фу н
необ ґрун
насе лені
сусід ні
вда сться
ва ючи
наро дів
філа к
19 37
робіт ник
трав ми
вкла дів
вали сь
фак ту
авто мати
стану ть
кон тр
роз лу
п ки
s c
ці лий
ха ба
від клика
ві ч
ру ш
теле кана
мас ових
лі нію
пра г
по тяг
дов зі
ру є
о плату
d y
відкри в
сон ця
схід ного
концер т
пов ого
ника х
с прийня
ухвали ла
нев довзі
і ль
кордо нів
d el
з вя
ім порту
своє час
влас ну
бува ють
ган на
ще них
12 2
дово лі
русла н
19 38
t or
я зи
до чка
змага нь
о понен
ба йде
іпоте ки
тич не
прий шла
тич ним
ядер ної
197 1
дока з
просто ру
гра вець
16 0
пре мію
т ових
ва гі
я краз
отру єння
е піз
фак тів
під клю
мину лої
річ ну
пари жа
влас ної
пер віс
за роб
ли с
успі х
ка над
ма рок
зо о
до дали
фа на
да ло
лен д
капі талі
бра та
ніч ні
про вела
гра мо
епіз од
ру с
ва г
жур нал
су л
мов лення
дока зами
уп ц
ukra ine
тар ної
ча ло
c n
доне ч
сол дат
смарт фо
с першу
по сі
шах таря
ар т
народ на
г ек
ле ць
нагоро ду
їв на
про ходив
19 19
к ву
ген т
ше ного
ката ло
рів но
принци п
смі ття
д фс
спе ди
gro up
переда ли
хоче ться
по лег
че слав
переві з
відкри ти
ління м
до щі
і ще
є мець
m ed
про філак
ле жить
лі нія
дні м
іде ю
196 8
схід ний
ді р
b it
ск рі
са ла
тара са
рюва нь
у са
со лі
мо ди
m us
ек стра
піз но
ливо м
ко рін
тре ті
пали в
ре цеп
вули цю
черво но
три ва
н ере
t i
я л
велоси пе
b u
ка но
деся т
ніч ного
за питав
не ві
196 9
наф та
скла ли
196 7
пен сії
зь кий
в ы
ек спеди
сою зом
цент рів
ти муть
учас ника
щ ер
ш ків
б лю
вене су
ня ють
при їхав
очо лив
важли вим
музе ї
присі лок
x ix
без діяль
се стра
до ль
публі чно
б об
зу стрів
моз ку
конкур сі
регіо н
цін них
ґ а
ма тери
p a
см т
в вести
хо тіла
си лою
това на
ми тного
під вод
it e
за ти
альян су
ла ска
вимо гами
маті р
теле м
сто л
само ї
ви ра
бі я
пусти ла
куль тура
сюже т
й ської
реч ник
ча к
христи ян
ба чи
ні кому
197 3
ті нь
ли ши
віль ної
са мови
с хова
стоя ли
ре т
под вій
тари фи
ни ну
за слуха
де вя
бай ду
санк т
всту пу
гер цо
розумі ти
стави ть
vide o
мас ові
проти леж
де ше
доро га
під хід
кар тини
старо го
l l
ті єю
а спек
по чува
wor ld
вищи х
дока зу
торі к
кварти рі
і мен
л є
ска н
пита нні
д ний
макси му
стату ту
ди х
ще плення
догово ри
тра пи
дій шла
гар ні
пома ран
на весні
ре ал
тар них
поря ту
му суль
сто лу
колу м
колек тив
мол дови
това рист
g er
ново сти
рюва ного
низ ка
бра тися
залеж но
ряту ва
че л
ка ди
сек тору
проте сти
переда но
століт ті
озна ки
g r
о подат
ва ги
калі фор
т ово
вказа ні
ближ че
ска жу
при вер
свобо д
кня зь
ro m
а са
ма дри
бу ква
у хи
бі гти
наче бто
дору чив
ден ного
не повно
о податку
піль г
путі ним
кре й
фор д
en ce
ме талі
дів чин
світла на
капіта л
ню ють
дз він
ну тися
пла ні
деся тків
дов гий
за для
молоди й
брон з
прак тики
ле ною
руб лів
ра у
з лі
дефіци т
за мок
за три
ли ша
чи ків
ро ками
ста чання
наступ не
пи ть
опера тор
швей цар
фіка ція
на цій
мані пу
ві ра
зму шені
л лю
тю тю
ни вши
ара б
матич ні
мо га
тися чу
кораб лів
пере гляд
лікар ню
дружи ною
зер на
важли вих
коман дою
об мі
нада ли
проф спі
визна ли
ло гів
полови ни
чека ють
збира ти
дже ного
зь кої
са ль
зні ма
м нс
па с
т лу
ли ш
бі літа
повтор ю
зня ття
ко ме
9 78
мо тор
st er
тек сту
по точ
підоз рою
ови щ
сла ву
від буду
з могла
кри за
креди тів
вка зав
нер в
позива чу
бан ди
пото ку
ска сував
гі ган
чу в
фі ксу
в пора
го ра
бій ці
слав ної
ти ра
яка сь
p s
ш ма
при тяг
ч ками
вилу чили
бер і
ро мана
ле д
що року
віталі я
па ми
кра ді
пала ц
ри ву
цій ною
ви ли
пояс нити
полови ну
11 8
за клад
ра нок
виник ли
у чили
на стро
нала ш
стри му
у ють
ні г
за спо
кален дар
d es
шу ючи
ад мін
си льний
меди ки
апара ту
ли стів
впли ває
проце си
кон стан
річ ка
основ на
земле тру
т ський
ру вати
вияв лені
in a
двадця ть
відсо ток
і сти
звід ти
ор бі
хоче те
скарж ник
ш люб
робо то
196 5
геро я
чор них
да ної
ць кі
ф ла
не ко
євро союз
нази ває
су воро
маши ну
1 200
рюва них
піс ень
поча лися
з добу
суттє во
придба ти
райо ни
те с
ла ти
полі цію
підсу мку
біль шу
зня ти
висо кі
зна мени
po st
мі ських
цій ній
мис не
a w
о стання
пері о
обл ради
д на
псев до
ава ков
та на
по клика
взя ла
спад ко
част ки
по с
ново ю
за ка
піс ню
в то
хі я
рів ка
заги нула
w in
висту пу
спро ба
мі т
торі й
зо на
ц ві
дово ю
гре ко
зу р
акти ви
по клада
іспа нія
ар мі
щи ро
ано н
втрати ли
с ком
ли вим
ви ходити
прий де
ре но
15 00
тру дно
мі нера
сти в
можли вих
б ене
ува ча
к р
прода ти
вирі шено
трі й
ка ні
ор ке
нова на
ли ла
книж ки
пись м
люд мила
ну ють
екіпа жу
під да
ль ника
резер в
при ду
бо гу
сько сті
мо сь
виня тком
киє вом
кня зя
при хова
ливо го
пов тори
ки р
обов яз
рі о
са к
собо м
з д
по сів
ден ний
с платити
ль ський
про су
спо собом
ма рії
поба чили
бу к
комбі нат
196 4
корпу с
it al
спі вав
пам яті
сти ли
пе ти
ми слив
ке т
ме далі
оці нками
ку па
до лю
ступ інь
миро твор
при тя
питання м
ul t
заги белі
фігу ран
т ської
пошу ку
б ран
ге но
това ним
жо ден
прав ові
авто ра
всі ма
закла ди
ка мен
ко тра
мі ла
д ного
ми ти
ст ор
ви йшло
с нд
про ща
стар шого
папер ів
не ба
бо та
музи ка
яви ти
m s
хви лю
відомо го
о щад
ж ка
vi ii
газе ті
за пу
мас ової
йо си
мо ду
пар є
у бив
іс пан
u e
мере жу
g re
ви ши
ні ші
подру жжя
ми ло
матері ал
ци р
опита них
поїзд ки
ви р
ше них
р ср
гі єю
роз ча
віль я
віль ний
кре мен
кня зів
ада п
j e
ста лися
бе сід
є ві
з ував
пода но
в мс
щоріч но
поспі ша
укра и
кодек сом
is s
моно полі
нути й
будів ля
актив них
ті на
мер т
196 6
ляцій ну
мар ка
пе ча
лі тету
тво ю
маршру т
за бив
орга нах
спри яти
стрі м
доро гах
а стеро
про сторі
про шу
сканда л
мі нських
очіку ва
постави в
йор ку
при зер
ді єю
стру вали
ш ми
с питав
та рем
оспор ю
держа ву
ми ра
ля вся
с прий
ку ли
бомбар ду
кон стату
вог нем
фінан су
12 9
фі лії
кож ній
зда тні
ва ша
мо ли
нення ми
ку ла
з ра
жіно чої
і г
заса дах
де ні
дональ да
техніч ні
ле гі
фа ши
прав ду
ur n
фей сбу
вулиця х
ни е
пере гово
вік торія
ки с
чи лася
хвили ні
по дія
зро сли
19 00
захища ти
an g
о та
не ща
m at
кон сер
196 3
па л
бере г
філь ми
ти вою
sp ort
194 6
дав ності
ше м
ти ти
трене ра
п ко
на клад
про би
ли си
прива бли
си мо
10 7
сері алу
11 3
бог дана
проце сів
на тов
зо рі
дозволи в
су валося
є т
гід ності
очіку є
мов ого
продук т
за ве
ре пре
ко ефі
є ли
охоро ну
ген рі
гу би
писа ли
пере вер
тор к
пра ця
зустрі ча
сна ря
да і
в решті
сек тор
к б
шан си
не належ
r en
st re
вала сь
фі к
ви щі
заклада х
іі і
відкри ті
софі ї
ко лег
ли ть
ска же
бо лю
за бира
три вало
о чок
по смі
мета ле
єги пет
досвід у
ol d
ко тре
медици ни
тич ному
роз мова
лу к
тив ними
верто льо
ба б
ви пли
редак тор
діа лог
продю сер
авіа ції
11 7
в раз
ризи ки
за цією
виста чає
спо доба
чи с
дові ря
ризи ку
колі р
оче й
куп увати
част ку
196 1
більш ови
рід кі
су тич
поз ові
обі г
гу є
кни г
ї жі
копі й
пода ли
мо їх
пара фі
гір ни
пи ло
ком понен
полі то
ге с
сто н
ви гід
валері я
i es
коха ння
єк том
en d
куро р
нада ні
сучас ні
диви вся
дь ко
ім я
та ння
10 4
на шими
ви чер
та кій
у весь
ото чення
розшу ку
та ти
r on
спору ди
го ну
загроз ою
нац банку
со с
тив ному
пу р
ю ві
розді лу
функ цій
пов язані
і мена
бі гу
м рія
чен ню
ра ціо
на дію
ро та
пе й
тро ї
солда тів
ва ші
ar y
хви ля
діля нка
чи ку
грош ові
2 20
голов ною
кра є
10 6
три дця
доро го
сели щі
ду шу
чле на
зрі с
196 2
байде на
біль ша
жа й
я зується
свід ків
10 8
дода ток
поже жу
н ене
ли сти
за пуск
фу р
бір жі
19 34
під руч
зна чні
еваку ю
ня ли
пору шили
віль ного
ви тре
ге ні
номе ром
ета пу
остан нє
ре пор
обі гу
хре ща
висту пів
заво ру
т ські
треть ому
ак та
ви раз
уві йшов
ко ня
клі н
д р
пере пис
па спорт
євро пу
соло д
ю рі
збро я
обіця є
вирі ша
лі тети
прожи ває
графі чна
під пис
т кою
з ве
ч ність
кар л
до ста
обу мов
афри ка
дере во
роз мову
мен ка
прак тику
ві кі
op er
у лю
не приєм
195 9
життя м
стру вати
кри ва
ваго нів
теа трі
ac h
ухва лено
ї да
з веде
ра в
d on
ле ви
тні м
чор ному
під при
загро за
а ми
гу сто
влас ники
захо пили
ль от
ка вка
нів на
свер д
яс но
ухвали ти
заги бло
розумі є
наяв ні
пра пора
с ходи
ши ни
ма ш
ст ран
p or
an e
ка мери
ге лі
ре став
n y
полі тв
вере й
залиши ли
з нім
тр ьо
ні ка
опти мі
се стри
є ре
тера пі
т ової
тлу ма
сім ї
пояс нили
n i
ви несе
чив ши
пта хів
при бира
отрима ні
варі анти
ж не
ма то
ли н
17 0
чита в
ба с
у день
д верей
ста те
ко б
особа 5
до дає
фото граф
мешкан ця
есто нії
кер чен
сер жан
жа ють
g l
чу д
щу ють
філо соф
ка нада
їх нє
доросли х
дру гим
мате мати
195 6
ство р
еска ла
ш ся
чор ні
по пит
вида чі
поза черг
сек тора
скажі мо
ви бира
шко лах
кораб ля
північ на
одужа ли
чита нні
d t
о ос
ма кс
дівча т
ж ку
тарі ату
ме те
калі бер
монасти р
пра гне
шко да
над мір
к ват
поми лки
ня к
19 36
ва ча
ат ле
трав му
дж ували
до бра
я нс
фон дом
схо жі
ба сей
гір ше
во дити
де який
претен ду
зна єш
ви плат
про між
y or
колиш ня
вар д
бу да
нац банк
аде кват
по прав
на зем
до с
січ ень
вер сію
кош тує
пере йти
реа німа
ки ян
дро го
галу зе
of t
ку ра
хво рі
ро го
від зи
сер гі
бю ле
ви тя
11 4
кімна ти
ph one
за здале
обся гів
мали й
ля лися
до пу
апара т
прибу тку
вироб ів
m et
хо сь
по н
віру с
тур бу
коштов но
на лів
сі р
or y
форма т
про ник
ро га
валю т
ан дер
фор мою
ан тоні
ка зна
очо лює
я тки
en e
11 111
вимо га
мо єї
сек торі
джа н
тор ги
комі сію
єр ід
мир ного
ек ві
яко мога
по між
реє стрі
треть ою
х х
бли ску
чу ти
ефек т
по гра
ло р
195 7
ло га
захо пле
ней тра
http www
ства ми
ме га
еле менти
несу ть
кри з
оба ма
люби ть
тео рії
сво єрід
195 8
шта ті
кра що
золо тий
чи сто
ни вся
те пері
старо дав
філі п
яза ти
10 3
слід чих
спри чи
з ну
фрак цій
чин ним
безпе ці
нь я
про сять
вав ши
а те
да нії
о це
гі м
конгре су
в часно
сти ль
софі я
трьо ма
ко ні
як ов
шта ти
ті л
латві ї
всту пив
в двічі
а ван
ри ть
дів чи
коле ги
три вала
обшу ки
t s
змі ша
робо тою
мітин гу
че ю
пере ми
роз почне
вчин енні
ч ю
ни ло
тур чинов
дже й
тра гі
го ні
ско рі
поду мав
да ма
на си
ш тей
євге на
робер т
по хід
g al
мину ло
місце ва
ам бі
чу т
кате гори
озна ками
наль ною
194 7
да ря
ха в
роз важа
ніч ної
ми та
маке до
da y
лені н
at a
й ма
логі ю
волон тер
ш ор
са п
показа ла
роз меж
політи ці
m it
12 8
p an
ба ске
не давно
студен ти
атмо сфер
ч чі
опини вся
ля ри
пові ль
а рі
та лан
тру бо
юри с
сою зі
sk y
на брав
супу тник
b i
ціонер ів
ух вала
зане поко
по треба
гра фа
цін ності
х в
да вайте
дра ма
пале сти
10 9
при йому
за те
нар коти
l u
речови ни
пов од
крем ль
кни гу
схід них
ник ові
де льта
ar ch
вчи тель
това ними
фі ку
люди ні
переда ч
ле бе
фра г
п ку
джу ються
ко ст
на гляду
бо їв
c ap
тур бо
ар к
від ступ
en ter
bl oo
з вали
вказа но
позиція х
сторо ну
в супереч
роз ряд
ак том
торгів ля
ль ського
лен ка
фра нк
тан ків
лан дія
ра т
діа логу
у зя
при йом
поло н
п ятницю
попере ду
ін шою
сві то
кова на
вимага ли
де далі
заго ст
комі сій
чита ння
у пев
рей с
бок сер
роди чів
ер и
стя гнуто
ови к
стар ші
ті ю
пара лі
яки хось
f rom
залиша є
при годи
слу жив
ін ді
вої нів
ф рід
ак ци
актив ну
дні сть
шля хи
rel ated
кі т
укр транс
ресур с
житоми ра
цер кві
їв ка
кафе дри
до пит
пред мета
т м
змі нив
земле ю
д бр
дж ував
ди зе
захво рі
ка ва
yor k
лів ії
спіль ну
циф ри
хлоп чик
листо м
за няття
ї н
па ливо
до з
дзер кало
су ть
пору шує
пла нува
стоя ла
лю ючи
вз довж
закри ти
фер мер
ен д
ск ля
за робі
вибо ру
с ків
щення м
моло дь
на ви
єд нує
ро вих
мит ниці
ре пута
набу ття
с єв
ж ок
черка си
s che
ня ються
в вс
від тво
т б
ме ро
st e
лі тетів
19 21
пі ч
eu ro
і ри
сти чних
вважа в
яз нів
мо тиви
крим сько
ли стя
ер до
ос нови
бу л
е ду
ш те
жер тви
від дати
2 30
кер увати
ки да
ува вши
вір ту
кур си
за мку
улю бле
зазна в
ш ере
копі ї
жи м
чу дово
но й
рау нд
ука зом
зна чну
термі ном
змен шити
н ків
сиг нал
про бу
опа лення
дівчин ка
нови ча
носи нах
пое т
зі рок
нія кого
кер ував
зи ти
поча лося
по шт
ф рук
пер у
re d
весі лля
сен су
b us
ко опера
т ники
і рак
бор ги
рин ках
викли к
бі ла
пре зи
балан су
b al
зі брати
обо ло
канц лер
авто рів
робо чої
нада ють
за ві
місь к
до ло
хвили ну
ні кола
ві тру
пода ток
приз веде
як най
p la
по мір
поєди нок
стра й
те ром
навча вся
дов кола
зві ті
різ ного
н п
зго ду
за тяг
є єв
тури зму
зі т
сх овища
st ar
ін вен
в кра
го стро
втрати ла
по рів
ці ло
обра ли
си рій
кру г
пе к
195 4
зва ний
чинов ник
надця ти
ш ник
су тня
гра ни
дося гли
реаль но
ба на
ті ні
заборо на
ри с
ву зь
самі й
ше ним
се ле
id ae
v al
логі чна
єписко п
арсе нал
не вже
мето д
2 15
пові трі
so ci
хи й
зов ні
є рі
кре а
то бою
194 8
w n
помі тив
чер в
ле о
дівча та
влас ним
клу бі
рей си
вказа них
пада ло
уда ри
хре ста
ри нки
роз кра
сі она
ша м
лів ер
т ника
ви щу
ніст ів
ра ції
під бира
транзи т
хра му
лі ф
епі зо
ф рі
обла ш
ванта жу
ban k
арсе ній
во оз
е тно
відкри ла
ту ватися
зна доби
в ві
облас на
фар ма
дру зя
слу ги
ма ж
в друге
сері ал
диві зії
бель гії
ключ ових
ка пе
лячи сь
сце ні
же ної
те чі
ма рина
до мага
ді ли
ма лого
о тож
п ят
розшу к
nas a
пора нені
ціо не
мене дж
бу ха
донь ка
вистав ки
в доскона
тем но
d r
спір ного
c c
я зав
від дав
рід ко
кли чка
різ д
се кун
юрис дик
про пор
в ського
зазна ли
ла ду
від ен
с най
набли жа
яза не
сл овом
остро вів
ці нні
сні гу
си нг
am s
єди не
вихід ні
пере жи
клуб ів
19 29
ана ста
ма ру
f ran
фо п
опі р
ка п
sp ace
по яви
кри зу
транзи ту
манд рів
костян ти
т вій
пу х
ва лу
к з
ко к
нер и
амери ці
над сила
біло к
кі л
каса х
гла в
ба т
12 4
вік но
h n
д ло
доповід і
тов е
се лян
гео графі
xvi ii
лер и
лені на
до чір
угор щина
ду ш
ко роб
карпа ття
лі х
f a
розді л
цен ко
дже к
кра су
ло калі
il y
ки нув
ста й
чер нове
ка ння
дитя чих
19 0
мо розу
ар мію
підсум ки
ч ком
пов ної
при писа
вистав ка
бу лі
op en
дж она
сло бо
півден на
стаді он
f t
маши но
швид кі
розмі ром
полі тен
о ко
о пор
черво ні
сти чного
до судове
бер дя
о ре
за пуску
пере го
куле ба
ди ву
пле нар
куб ку
фран ка
засу дили
хлоп ців
пор тів
о ун
в чених
тів ки
ба ва
пере клад
ли хо
поді ли
прибу ття
геть ман
к років
аукціо ну
ю чої
звід си
ag e
да ції
еду ар
стро ком
н т
n or
істо тно
роз гро
пов з
кар та
пере воро
залу чити
помі тно
від бору
стяг нути
при своє
ата ку
ю ча
20 3
ова ному
сток голь
самі т
ап те
разу м
ро ву
ва гу
норма ми
чер гове
18 64
b bc
запо дія
у ника
глибо ко
стро ки
олі й
люб лю
на рі
ру вав
кілько ма
відста нь
лау ре
не змін
д тек
кра матор
христи я
зроби ть
ма г
фе доро
клі мат
бід ності
а ре
важли ве
земе льні
до дати
від бір
ре зю
і муні
i phone
пода тки
запа си
актив ні
о писа
креди тор
офі сі
ду ма
зна чна
су ден
ста ціо
куч ма
пер шими
k i
ча ю
c an
меди ків
сю к
ща сти
музи ку
фі л
ны й
се ром
да ним
фі ну
v el
наз вала
д вір
ві кон
те ся
іде й
ч ності
о сі
ж ним
посили ти
віру су
ча рів
клі м
ча лося
транс фер
ф ри
у ла
пен та
дніст ров
сю р
маж ори
за сіб
тру б
с цен
де з
с ним
ві зу
мар ку
ко ду
сій них
прав ову
від сту
готу є
к пу
w h
турні рі
ого ро
гра ли
кві ти
фо руму
дяку ю
легі тим
лег ше
дина сті
га нд
19 35
сько м
об тя
ва лось
нувати в
гала к
не ним
висо ка
пере хре
вбив стві
qu e
нада них
во ля
ден ні
магази н
о форми
л ло
осере д
ворі т
c ed
біль ші
різд вя
га зом
діль ниці
очі льник
слід чий
ска ми
й ся
та або
викона ні
кон вер
при в
лі сі
ниця х
it ed
по штов
ха бар
в па
шах рай
h d
на ція
кож ним
цього річ
уго дою
грав цем
г б
спі ра
ливо ю
за ля
но сять
вибу хи
конгре с
па є
вален тин
пре сти
з більш
ни ча
зві ту
в д
па пе
ца ря
ве зе
4 50
се ку
ди ло
впли нути
дося гну
r uss
тро пі
па тро
за чи
бо с
під ні
в пала
вез ти
ка рі
ac t
дові ру
24 0
зна ла
по їхав
з ранку
ре акція
d is
обіця ють
мо ль
с рі
по ла
мі ській
кар тина
нази вали
еле мен
гено ци
єк тами
самі ті
мель ни
чи ї
ло ко
чого сь
фору м
рекла ми
хро мо
поча вся
ци н
говори мо
гур то
я блу
буду чи
одя гу
най ман
за хар
серед нь
нена ви
ле п
си ном
опа люва
мор яків
марке тин
мільяр ди
р ь
гово му
по бі
ова ну
вин них
дола ри
киє во
ян ка
дер ів
же ле
пре це
гер ман
пові т
ські стю
19 28
озе ра
лів на
очіку ють
бо ці
петро вич
кри тики
195 5
ті гі
пле чі
кро пив
d ra
нарде па
є пар
да вид
де від
ува жно
194 9
захід ні
роз біж
замі ну
універ са
ф рн
звіль нив
під літ
ін коли
заво ді
стра ції
єди ної
мо ну
парти за
пі й
спо жи
став ка
рекла м
mber g
став ку
бра тів
пол к
гор ба
при х
актри са
ць ке
квар тал
ма йо
май кл
з гад
пі т
нувати ли
дитя чий
розроб ку
скла сти
закон ним
каза ти
си р
окре мої
й ду
об станов
кре дити
се сій
сфе рах
de ut
припи сів
пере мир
водо й
заги бель
2 14
набра ння
обо м
пси холо
про їзд
рин ків
ще ного
я зує
за володі
ю лі
син те
льта ції
ска х
ща с
почну ть
кампа нія
ж ере
хлоп ця
на са
мо рози
ва ний
дж ене
оз доров
чер ги
ри би
си бі
ме ті
прак тиці
d w
люб ові
г вин
прізви ща
муж ність
запи си
к но
б ы
світ ові
ш ували
цивіль не
ці нами
лі со
жит лові
грав ці
продов жу
знайо м
догово рі
створе ні
роби ла
с прово
жу рі
лед ве
висо ку
р п
фе льд
лі п
від верто
поки нути
кри ворі
засу див
процеду р
прий ти
га рі
озна к
ди ст
сен т
принци пи
ля шко
япо нія
пода чі
мі ни
жи р
орієн тов
госпо ди
вес ня
пала цу
ва на
12 6
са ду
го тель
прем єра
до мог
p ort
вп ливом
лі нг
де кора
ґ вал
пере ка
н енко
да ль
195 3
т ко
кри п
19 23
в ський
леоні да
кампа нію
зни ком
сер б
18 00
дра матич
виклика в
якого сь
су міс
хви ль
геор гій
гав ри
ф ро
но ра
фо ль
заста ву
тис ком
ка ча
валю ті
сим во
партнер и
внесе но
l im
бол гар
ак ва
ведення м
кімна ті
і ко
пе куляр
зе лені
сот ень
з ника
ро же
ч то
ар сен
аль янс
f l
виня т
т ови
ува лося
ви року
ме ло
пу сте
у л
облад на
р к
ен у
дося гла
здо була
s i
зна нь
цер кву
мі ню
в жити
ман дат
ли вими
а га
а ма
с кре
висо кого
бажа нням
ди т
as e
нор му
ди стан
ста рих
ча сі
ве л
куч ми
пов на
знизи ти
нова ного
су а
кож ну
без пере
вір мен
вимага в
ф ос
від тоді
гі бри
се г
ар те
ю най
а чу
наведе ні
о працю
спе ку
кро ком
гра фи
е по
кож ний
моне ти
сері й
у смі
дові ре
коде кс
ре тельно
де хто
до ходу
кі о
кабіне ті
від мова
оці нити
ці ле
ar e
зару біж
леген дар
ще п
кар тки
клі тин
чу ючи
поміч ник
в тік
г роз
стаді оні
клі мату
недо тор
ма у
сти чна
пра т
с пита
суд ячи
вигра ла
у перше
на бере
прак тика
пору шив
природ но
кви тки
19 27
г ю
мар ша
19 25
дипло мат
te ch
бори са
пере су
рі а
готе лі
c r
гла д
м рі
вели кому
фе о
пев ну
то л
чу ття
замов ник
ри лася
д ре
під лі
ло бі
скар г
юнай тед
не дав
ов ував
ся к
ба ш
бар в
член ства
пала та
iv ers
лу б
w a
логі чно
e k
бер ди
19 14
ш тор
спря му
виді лити
ско й
а си
ar s
ж одна
ну ль
vi i
ха х
ме тео
лов е
сан т
ція м
прав ля
пор тал
ск ром
an ce
ци га
g a
на ступа
ак тами
ал гори
нува ло
зи мку
b or
зі о
ку пив
по гли
обра но
дис кримі
не ль
щи к
уж город
тем ря
джейм с
жов тне
ру хо
річ ку
стру є
жо ї
це ва
ре струк
12 1
баске тбо
німець ка
ля лось
за ла
зако ні
хо да
зага рб
ся ться
ме літо
па па
ту ман
кон ди
f re
замі нити
w at
поді ю
хоче ш
зако нами
раз д
чу ються
фіка цію
ж ними
резер ву
вели кими
в в
му ка
генера ла
поїз дів
ді яв
пла нів
кра щих
те пли
13 5
сим пто
жа в
літ ній
си нів
помі тили
тор гов
бу вали
за ря
гру д
пові льно
ре акції
то чок
195 2
веде ться
ка ї
годи ти
вогне па
та бору
тич ними
п лід
поз бу
афри ки
18 5
у сьому
діля нкою
ї дуть
альбо му
га нь
цен тро
cn n
місце зна
шта ми
урочи сто
рі с
мі нь
оди ниці
пояс нила
вакци ну
чел сі
спра вою
зви ча
тре м
o v
річ ниці
само губ
дру г
ціло доб
пре си
ф ен
не сла
яв но
захо плю
ма ї
уль тра
ш на
а ніж
го ді
фло т
3 20
меди чну
ic s
a x
гі пер
заяв ки
c at
колиш ні
акаде мія
обра зи
не мину
повер сі
нія кої
гру ди
t ran
та та
верхов ен
ба рель
теле грам
поль ська
чер касах
ма кі
є ром
орде ном
д зві
скла лася
по кро
ки нувся
бу кови
мова ми
ві три
m or
й ському
за собу
роз пи
важли ва
ви світ
є на
ду на
охоро нні
аза рова
кв т
у неможли
голо домо
фак тичні
вважа ли
перева ги
в гору
від сторо
кла сів
кон фіска
тю к
офіцер ів
нік чем
бо ль
готе лю
ти р
га с
пози ки
анато лія
гер б
зможе мо
ба ли
бере га
мати муть
во діїв
лі чи
тр енко
при єдну
пошу к
довжи ною
пішо хід
ми сли
ка ри
забу дов
жа ю
ны е
та нки
право го
зага д
пада ють
дав чих
в живання
рю ється
зер но
обра в
річ ці
берлі ні
напад ник
гла вою
нема то
ли ву
так сі
нев дово
ка ють
відвід ав
по буду
різни ця
імовір но
у ти
вла д
поку пець
по ни
пов оди
на нс
c d
ень ко
di an
17 00
ж ував
ве т
пере мови
їхні ми
че ною
крі сті
ле сі
зна чний
заго ну
б лука
звер нути
си га
за ряд
ств ен
гали на
тиж неви
бе зо
x t
спо ну
газ ових
по питу
вин ним
спи р
та бір
гол ланд
в зу
al e
або нен
нака зав
а так
мови ч
15 2
оке а
хімі чно
кон тей
по п
с писа
річ ному
за між
ї жу
мініст ри
спа ти
1 19
сі с
ш кою
пор та
кі пр
ане кс
медвед єв
будин ках
ш ня
ней ро
б пп
ва ди
лід и
оборо ну
кар тин
без робі
зар плату
када стро
ва кан
19 26
ц вин
б ря
камі нь
па то
молод ші
хромо со
ді к
по че
b ig
чин ній
нега й
t es
моло да
збере г
по смер
га разд
ае род
польо ту
ниц тву
г тс
номі р
c am
е ла
ба чать
19 24
for m
раке тних
спі льних
єли заве
13 6
авто номі
полі цей
гри пу
кни зі
кар ту
при хо
су к
bo e
гляда ючи
g y
ком со
спри ят
гори зон
сти чні
глу з
шве ція
ч ків
19 22
клу би
зва них
ви ходять
f f
ли ве
віль на
вда ється
штур м
ви правда
про лу
мотив ів
стер и
ко рек
рома ну
за моро
ж ному
2 25
о ра
графі к
коалі ція
ви їз
буд ова
со лом
твер до
суд овими
схо жий
пи вши
де ць
знищи ли
почу в
y s
на завжди
пору шила
ди ри
дода тку
спо собу
при то
at iv
и з
ба лі
повер хів
x it
ши ть
вель ми
ід и
ви до
заверши в
стрі чки
кра с
готу ють
mic ros
ви хов
виклю чає
за брати
вида нню
же ною
додав ши
заслу г
ф рен
ви їхав
зібра в
вилу чено
служ бою
табли ці
зу мів
близь ких
прива тні
т овий
ло у
облас них
на тура
основ ною
те п
жертва ми
дво рі
хлоп чика
чу тки
собо ру
скар жи
ла ри
воєн ного
гри вня
справа ми
регіо ни
зао ща
ас фаль
кі с
сприя є
реє стр
мі сту
в котре
тек ти
специ фі
максиму м
ди сер
ін доне
приз вели
бро ва
чи стий
відмови в
ро сту
знищи ти
рід ною
ло ма
j a
12 7
не к
за ну
ко па
працю ємо
да вали
мови ти
ч с
ба ро
зни щено
лі ва
ви ла
кі немато
покра щи
я рд
дів чину
аль ними
можли вим
су вала
кра щий
ми тної
пі тер
а з
прин ц
всти гли
ахме това
мо тива
тс н
това лю
тич ній
оке ан
ге ном
сце ни
бе лів
ol og
ля ло
стави ла
уз бе
зи ми
h ar
коре я
195 1
ви їжджа
di e
h ist
бри гада
дружи ну
на гляд
за стере
бюдже ті
спо га
зізна вся
зна ки
за прав
ди сло
мон таж
голо м
з гадав
я нець
ви плату
w o
13 2
ко й
слуха ння
шля хів
д б
бер т
лікар ень
ме жею
прогре с
повтор но
ми ха
навча нь
in c
усі єї
змі нами
т ці
доповід ь
си дить
біль них
буда пе
комі сар
зе лений
обслу г
веден е
наук ові
жов тень
зас від
випли ває
ку ку
bre xit
гру зія
н з
k y
єгип ту
робо чий
ува га
по ходить
ди я
об лі
boe ing
дитя чого
перене с
пе ль
ць кій
с кін
бюдже тів
місце ве
о чки
зако ха
домаш нє
при хов
2 10
під суд
при скор
неза дово
су против
зва ної
ко рі
відчу в
зроб лені
від ходів
моє му
ви вести
фе ра
ша є
га рд
ле ді
скрі зь
табли ця
га на
ха бара
робо чого
сер бії
силови ки
г с
кори чне
зу мов
фран ци
ща ми
за брали
суд ова
пово ро
зйо мки
го да
дити ною
кови ч
висо ких
f oo
при стра
н ний
ма ни
дів чини
12 3
чор на
гра ні
ро сти
но н
резю му
фун тів
б б
m ir
околи ці
ба лів
вру чення
зна йшла
ря н
комі сією
юриди чну
гру шев
le t
ж ували
німець кі
раді а
пора нено
ба би
д зе
лауре ат
секу нд
ag en
ви роби
охо ло
примі ром
твари ни
до чки
же ними
світ лі
ім ід
сте жити
ґрун т
15 5
приво дом
ти ші
вір ші
т вір
ги х
19 31
ти кою
ве лі
періо дом
пере мага
ту ється
ic al
копі ю
м б
бур зі
ків ська
лів о
мето дом
в ніс
у явити
впев не
те л
опі ку
поро шен
i re
ма нев
ха зя
бува нь
роз кі
геть мана
іпоте ко
ба ба
бро вар
зар плат
ль ської
мі ру
магази ну
ін фікова
с відомі
підоз ри
дій ний
лі з
u d
визна ла
до пи
ма ха
гра ла
за стре
доро гою
ч ник
i er
мину лий
оде ська
пали ли
ння ми
ту с
w ay
висо та
p t
за бло
яцен юка
ті ли
ар мій
сен цова
гри горо
ніч на
пораз ка
звер нув
га стро
шу ються
у загаль
тич ною
про пуск
в зимку
мані тні
алкого лю
мель ник
коло ні
посту пи
роз бира
спі льні
us e
намі ри
ак тора
заслу ги
ж ва
портре т
захи стом
мали х
парті єю
ри ми
годи ні
мер ії
вець кої
ч ування
ви нні
ва зі
приєм но
щ ування
ш ене
інозем ні
намі ру
лі нд
ны х
ук робо
ові сть
тер мо
рей сів
відо крем
зго дою
за жа
бор гів
p et
по гляду
сві та
потра пля
ме ду
зя ть
мар га
к нр
ф ле
джон сон
по хо
з діб
впев нені
ди ск
не о
w er
ме трі
ma il
ви ходили
реш ту
кер и
за охо
гі ль
спадко єм
по ром
пред мети
а мку
єру са
відо мим
серед зем
автобу са
ка у
e le
від праць
погля ди
резо нанс
мі ха
доведе но
бак тері
ка ме
вибор ча
un ivers
с кий
віль ям
від ремон
рахун ках
до ра
грома ді
роди чі
щ ав
ма л
кви тків
вирі шує
за че
стру вав
тк овий
кон серва
ви пов
золо ті
по єдна
пі клу
ве село
ба чила
скорі ше
сли ла
aw ard
робо чі
при лег
фа х
ні жи
ч ін
екра ні
му т
ціонер и
сті ль
в низ
ша й
аф ро
ба ку
хі й
вияви в
сві това
істо тних
єди ною
що міся
наль ними
су п
пен сію
у я
номов них
v an
став ши
мо менти
борж ник
сти чний
плу та
рей н
експер та
укла сти
їв ська
фо ку
х ін
зь ка
питання х
осе ні
чет вір
16 00
кири ло
gra ph
зня в
остро ви
стру м
трам ва
ня ючи
санк ціо
верес ень
здат на
ура ження
ні куди
рекла му
і т
авто ром
ко сте
розвід ка
окре мий
при падає
хі м
о ла
pla y
зяви вся
сухо пу
си мон
гру день
вла дних
по щасти
на сі
на був
карпа ти
тив ність
при ніс
зав дали
гре ція
ку ба
яскра ві
ства м
t b
мі ли
z su
м р
лис енко
біло му
сен сі
вби ли
голов но
написа ти
ізо ля
нала го
р да
су во
закон них
му сить
під хо
чи сли
ро вий
рос си
жи вий
пере кон
ку вало
фі кувати
ка зали
но гами
ві ст
пору ки
за триму
невели кі
тив ності
об чис
висо ті
в кри
мов чки
джере лом
вп с
поді л
14 5
звя зок
ко штами
і су
від стою
не мож
га у
ш ував
ма ро
підоз рі
зна хід
пла ном
мо ти
ні ть
з більше
слід и
вакци н
розі гра
ду ша
тив ною
ми ли
тала нови
го спу
c al
і я
дні ше
ar i
переда ча
ад міра
реаль ні
важ кі
нов город
вів ся
мі рі
під суму
20 8
викона но
го стри
агре сію
голо сом
експо зи
спі кера
яні ння
xvi i
гу ють
перер в
нх л
сторі нки
аль ному
голов ну
кар тину
oper ativ
динамі ка
шука ють
допо міг
p p
не далеко
чов ен
по сід
c ent
є фре
ха т
бу вати
вважа ємо
нули сь
заяв ку
ва шу
ль од
джа ну
охо п
лі мі
ши ї
право чин
бать ком
ну та
вза є
ба ль
кві т
у сом
зня ли
b s
ра ку
ючи ми
да ру
рі ст
слід ом
а зо
за був
ри т
ви г
p ub
сері ю
при чину
я ток
no zsu
мисл ення
фрон ті
при вести
ні чим
спіль не
австрі я
пле ний
m ac
17 5
анек сії
ри лися
лення ми
прав ді
ша нува
де пре
ак цен
не бі
ко ши
аль фа
э н
чу ть
ке рова
орен дар
чин ний
на бір
у вій
прин це
ску п
вибо рами
жіно ча
кана ді
ing s
переда ні
вла шт
му ля
кому сь
ю го
п єс
щи ною
фо л
st y
науков ці
юві лей
прода жі
стан ні
ло б
кладе ні
мадри д
е волю
он ко
мови ла
тар ного
екс кур
ва таж
до но
ви годи
бог да
ча тиме
гра мів
кир ги
ємо сь
світ ли
роби ться
при сту
гра ді
подола ти
іде ться
схвали в
ухва лене
зу ються
віль них
переда ла
не ста
пря ма
пе с
вес ни
вихід них
3 15
зо ном
примі р
лав ри
буха ре
на ре
пода вати
нада ла
шо се
арти ст
си бір
введе но
p f
ня ми
кові сть
бро нь
при кри
зібра ли
бра к
дефіци ту
ct ion
у мисне
листо пад
м 2
озна йом
s up
о пору
складе но
рен ню
ма зе
лю вала
ко ней
біблі о
со кор
точ ку
пі ке
доступ ні
місте чка
ри тися
і лля
ті сть
полі цією
хо ке
of f
чення ми
ра б
поки нув
всі ля
со ко
бер лін
14 8
то ну
щ енні
заяв ник
дитя чі
ки шені
фло ри
сіль госп
відді лі
ос ла
сиро вини
клім кін
w el
лондо на
візь ме
би тва
ак ре
кому ни
прави ти
ня х
та жу
продаж ів
кух ні
ced es
бли ска
ова ними
in s
візь муть
пуска ти
стро ків
мала й
ар ка
вида но
ск вер
ток си
мину ле
ци кл
шкі ри
молодо го
колиш нім
мо ст
ви хо
ка т
а три
джор дж
принци пі
принци пу
про хід
єд ності
чер вона
при мор
ва гою
11 00
і ро
3 60
гон кон
b ur
програ в
меди чні
ву з
ви трима
б лення
коор ди
ць ким
техніч не
з гор
ш ті
ло зі
збо рах
бі ч
пови й
ал ба
зупи нки
am er
бер ку
бу ря
добри й
скар б
кольо ри
мето дів
зва ні
тів ка
прозо ро
ти но
то кіо
g lo
на стрій
до ці
l b
знизи вся
li fe
єв рей
ова ність
екіпа ж
засід ань
вер тика
рів не
mer cedes
слуха ти
на зар
зар плата
тка ченко
гад зе
о са
енер гія
f b
спів влас
пра гну
ph o
в жива
повер нув
е сте
13 7
мекси ко
зна чних
дер і
пев ної
до держа
кро во
ді ло
шука є
y a
пові ті
місте чко
при влас
стя м
доб рі
належа в
штур му
кош тори
б ля
під уть
22 6
зва ного
е ста
перешко д
зник ли
очи щення
дрого би
ві ро
ха ті
мі неко
диви ться
sp e
тора м
інтере су
рб к
бі ле
дз вони
під німа
се кс
вироб ник
ва шого
дзер жи
відсо т
обра ти
про пу
я ре
дов гі
лів ки
вій сько
спи ски
n at
порт фе
я теро
спра цю
ла р
с пар
віль ні
ра нк
ск ру
заг ін
ва льних
адвока ти
гідро мет
ми на
отрима ло
b ra
я зують
бо дай
зу би
лер ів
ли п
ря ди
бо ях
обме жува
невели ч
суд дю
копі йок
хворо ба
ер у
ді на
u g
г ва
ха нов
запро сив
бата ре
да вав
су дах
ціо нера
корін них
мол дова
пасажи ри
нім ці
за к
зібра ні
ма ле
належ них
ви бра
х т
yo u
роз вя
кад рів
ме с
бать кові
жу ть
сим вол
напря мок
берез ень
основ ою
пам ять
черв ень
ху лі
за декла
b en
мент ські
сторін ка
написа но
фон дів
фінан си
ні де
ви то
у мі
тування м
офі це
сій но
ро ш
лі тні
о пусти
лю тий
2 16
пи ша
стаді ону
ста вок
b m
мас ового
мв т
ic k
по лю
пєс ков
тар ний
вар ту
юриди чні
за ї
за пози
ви веде
хлі ба
роз ь
мно жи
ок си
озе ро
трам вай
ск ло
30 8
27 0
я ний
кві тень
сій ної
торгів лю
за мах
сій ну
кон тен
про вали
h r
від дали
urn al
зам к
ча ни
про сила
єс пл
ша ф
пев ного
ві рити
ухвали ли
ава рія
при від
пе наль
ім піч
льо ту
висо ким
поба чила
най гір
фір м
си діти
гі є
крав чук
еваку й
див ови
агре сора
п но
ґ о
мар тін
ате ста
во ж
запевня є
захід на
обере жно
сльо зи
камер у
кордо ни
металі ст
змі нює
я сувати
жорст кі
бага торі
ли тва
ні ки
юриди чна
7 50
шми галь
сів ер
l t
лідера ми
ано нім
яро слава
на водить
заяв ника
сино п
яви лося
ма з
вияви ла
про яс
наз к
істори к
бере гів
4 16
одер жува
пере т
сусід ів
справж ні
пеналь ті
нау ка
в текти
сько мов
та ту
бі ли
гра ють
набли зи
ше ф
бо городи
черка с
граду си
пере важа
но гу
у ма
б к
г ві
п ф
моск ву
гра да
сте фа
коза ків
вибу хо
покла в
моло ко
дорів нює
ні гер
s w
ст ських
ле ві
окру гах
хов ого
13 3
пор ти
страш но
си па
маши ні
ві зан
воли ні
дос відом
сим па
тра пля
зь кому
по є
стан нє
про їзду
g on
яй ця
нагоро д
аса да
автобу си
по нови
зе лених
т ы
вік тором
нази вати
носи ни
на стання
ни лося
селен ців
оброб ки
я чеслав
зв язків
deut sche
реч ових
по па
ни зу
роз ці
кварти ра
n er
тур них
роз чи
фізи ки
оди ниця
но белів
гон гадзе
прав ова
контак ти
приві тав
ма ном
ші ст
ливо ї
тя ми
уста тку
рас овий
се міна
мешка ло
на ведене
лег ка
ва ше
зби в
сєв єро
згаду є
ш ками
концер ну
по шта
стя ть
у стрій
лі сів
c re
шу м
про ми
ст раху
мо сти
почу ти
зав дав
ри тори
вік овим
нау кова
m l
киє ву
креди том
захід но
та сс
та льний
путі ну
da ily
зяви лися
поши ре
з юк
мініму му
лі теті
шта йн
ка пу
міль ярд
дов ше
га зового
о ся
за ха
тю рем
ві рю
ж ну
пох му
су є
під лег
jo urnal
раке та
i al
ор дло
пови ч
ви ба
26 3
кра щі
рід и
строва ні
пари ж
іден ти
vi e
всебі чно
коза ки
т білі
народ ним
каза ла
вида чу
реаль них
ука зу
чер гою
су ході
дво м
ге нів
на сіння
шах ти
приту лку
тра п
жува ні
по кров
мета ло
яке сь
пре сі
яв лення
зали шки
де якими
13 4
трав ень
че хія
терак ту
на кри
сміт тє
кін г
26 0
точ ка
ту але
уяв лення
замі ни
ко нь
9 66
for d
ме дж
хмель нич
верх ня
рюва ний
хоро ший
к се
річ ні
попу лі
кон стру
публі ку
лю ка
сти ми
дія ли
рішу че
щер ба
ро стов
безпе ка
е ти
про аналі
розгля не
між банку
й т
я со
поши рені
c z
спи ра
від тепер
трене ром
ф д
ка зи
су то
пере тина
лі си
по спілку
ге м
напо лег
метео ро
ти пи
над хо
ли пень
продук ту
сол дати
по сіб
аль ною
візи том
євре їв
без робіт
х ен
l ive
ре акцію
г ови
зу ючи
схе му
ви чу
о пу
il d
кон солід
ко рей
мініст ру
горо ді
ж ність
у доскона
бо ре
цук ру
19 3
подаль ше
клу бом
по лит
тур к
у на
ро ли
слід чо
обіця в
особи сте
дав ньо
при м
ні ший
vi s
ь ом
ш лу
ще ної
н ською
ш ний
чу ли
ба ченні
бі т
варша ві
говори ла
подіб не
дія чів
га ля
у сю
кз пп
капіта на
ха ла
када стру
підня ти
поє дин
стій них
прихи ль
жителя м
хворо бу
тери сти
кана лів
у люб
у до
п є
він ниці
тек сти
ресто ран
від зив
к шта
ля ю
від ми
mar k
н кре
прово див
а фі
та льного
особа 6
рів нів
вчини ти
поми лок
ка лу
пер во
вен ти
тра сі
люк сем
ро ти
зе ль
впли вати
подоро жі
внес ку
з к
мо нар
13 8
чи я
права ми
то мас
школя рів
невели ка
жит тю
нат х
на ради
лит вина
за плати
ки я
особ ливі
обій мав
ара вії
ш ніх
15 4
соб ак
тив ній
на пи
3 000
відкри та
хе й
дитя чої
інф ляція
пош ти
спо ку
є єва
ве тери
обшу ків
ко ліс
ди во
по кій
ш ков
ву ха
ри си
на я
19 15
сан та
під опі
ве ле
шта тах
схе ма
дизай н
во станнє
ба лка
при я
діля нках
гол лів
мен таль
друзя ми
сві том
луга нськ
зна чною
спро б
підста ву
во дять
прави й
потен ціа
важли ву
зяви лася
ти пів
втра чає
нена че
обєк ти
спі вак
вер хів
при ско
в вели
най ма
те плі
мар но
о поло
мін фін
оп з
19 1
аукціо н
ко ля
двигу н
відкри те
ane ws
раді сть
кар т
від е
ло т
паспор ти
шука ли
ка ре
w i
у чні
кшта лт
ін дія
широ кий
не ної
п нев
14 1
дія ла
со лов
ле он
чимо сь
14 4
віль ню
ю рист
го мо
пере веде
c er
не під
мі ському
оке ану
слу х
зова не
точ ніше
дорож ньо
водой ми
шлю бу
бло ків
дже ної
гурто жи
до на
покла сти
бур ш
за бути
тяж кості
висо кою
ак торів
ку ри
керу є
про б
ці ан
ніч но
о ме
поль ські
з біга
купів лю
19 10
куль туру
лав ров
обся гом
ing ton
роз ка
го ре
від сте
д бав
у зяв
маршру ти
кру ти
комі теті
хлі бо
нути х
ро му
ка дри
зе ф
пунк тами
су вер
кож не
ва но
запи сів
д зь
go v
ро нал
а бра
смер те
оста п
яви лись
зовніш ні
форма ту
пря мий
труд ових
ко те
суході л
ґ і
клін тон
зіт х
n g
неу стой
ча вся
ом буд
чека ли
ду мі
ю вен
лі тр
апо сто
роби мо
line ar
й ов
і нав
зму сити
at h
до ну
сутич ки
мас ки
лт д
ят ника
оз ер
холдин г
поми лу
гвар дій
акре ди
s ci
внесе ні
рі ча
коза к
t ro
д к
ні шим
від сутня
14 00
вида нь
пев на
з ґвал
о точ
від ря
ша ра
інав гу
g am
до ти
кори г
карпа тах
мас шта
мар ти
обов язки
жа ли
органі зм
обґрун т
ба ре
зайня в
гла ву
gu ar
за п
довід ки
у крав
нов ови
крем лів
спос оби
украї но
комп ютер
за ло
про яви
кварта лу
тені си
во скре
на щад
ната ля
роз мові
в везення
є дність
про р
та то
направи в
води ться
про мовив
вка зують
прогре су
че ній
ос вя
20 5
кон сал
за став
ди ться
сто ри
оборо на
єди ну
закри ли
хво роб
укр теле
роз ко
чер зі
ль це
поля ків
кер мом
якої сь
згада ти
д нк
омбуд с
села х
да не
ді став
фізи чна
у мвс
ь ов
брюс сель
ле ній
ле ся
ra z
t en
о ка
прямо му
здат ний
тео рія
відсо тки
wit h
по цілу
тур ний
степа нов
ро лях
гірни чо
кла сі
лау реа
вино сила
ли це
трудно щі
да ху
le y
30 9
епідемі о
л лер
сти ла
при ни
держ при
о г
про вину
сму ги
т ська
три вав
ма м
b ro
єв роз
густо та
км год
сучас на
виді лено
е похи
ку ля
дру ку
розмі ри
ганд зюк
новови яв
ал ла
ри а
нови на
стру вала
па пери
вина хід
па пір
рю є
контак т
сти пен
об е
достав ки
фе дір
на буває
в міст
роз бій
сокор ро
на соло
укла в
нів ці
а рені
запа сів
фак тор
чи ю
на лом
вида ти
росли ни
9 04
19 12
пала ці
on g
бі ат
бер га
мак рон
хмар но
ген штабу
моги ла
чи лі
бої ться
єд нав
сен с
стрі чка
пла вання
ті р
за чі
тво ї
ну ться
гля нув
жува них
а ро
14 6
ру ці
імпері я
най ниж
має те
плате жі
ядер ного
де пор
ки яни
ру ють
дво ру
середи ну
мо у
термі нів
верх ній
тур но
чини ти
пі тера
пря мі
о гляда
ри бо
визна ні
в пали
b es
е фір
но сили
вер ш
важ кий
ча лися
13 9
пря мих
кана ли
e st
льта цій
закрі п
з ради
do ws
кра м
при діля
нав чаль
бан ках
18 7
ку би
з мо
ту бер
анг л
мі сію
запа с
на ступу
таєм ниці
да нія
рів нова
ін кримі
лежа в
при гаду
пл р
комі са
чернів ці
гек тарів
куку руд
ризи ків
терак тів
плате жу
вою вати
табо рі
роз суд
ку чер
вер и
особли ву
обме жити
мін лива
га зи
люд ських
20 2
уві йшла
хе м
і мі
вико нува
прогу ля
треті х
гар мо
хо кей
вирі с
воро гів
фа во
пер шості
сер пень
шта м
ру ї
швид кого
пору чи
мешка є
тридця ть
мо кри
недо ліки
їх нім
с мак
ю нк
фак торів
28 0
окре мого
ї ла
без віз
по били
з мів
строва на
до шкіль
ви їхати
дя чи
j u
за ро
справж нє
клі тини
гі л
моде лей
перер ви
редак ція
вір но
від стро
о штраф
особ о
наяв них
залу чено
потріб не
зра зок
ва ного
гі поте
14 9
по су
guar dian
розроб ка
зна ючи
w agen
ек ва
шо кола
дом ів
ниць ких
ря ді
b el
приро до
h or
важ ких
ст ря
рід них
зов е
ка ч
а чів
за будови
po s
коле с
ле гіо
3 17
а дам
гар но
19 13
си льна
втрати ти
буде те
щу ється
it ion
люд ства
єдна ної
свя тий
італі й
vol ks
член ство
ль ц
люб лять
тр ю
схід ному
ку з
воро жих
вчи телів
земель на
су дити
ля ємо
к нула
бор т
фі фа
коле гами
до чека
руму нія
мов ча
на хи
в ходу
сам ові
лю ватися
патріар х
книж ок
t ri
тар ну
оці нює
яви ться
одна ково
скла дати
вік то
валю ту
ка ролі
ро сте
ї жа
пе тру
па лі
те ха
херсо ні
ме м
вигра ти
ха б
моска ль
б н
при була
не правди
при к
ниж ній
38 9
кремен чу
мекси ка
вищо му
g m
ma d
скоє нні
ко зи
яви ще
про стих
s ams
на пада
ж ній
пошу ки
ло па
ну вала
хулі ган
кур сом
е ля
в різа
вищи м
терапі ї
зі єю
йш лися
ви ніс
ш ке
комен дан
бли з
біль шої
док тора
пів дня
зупи нили
голу б
без смер
пода ні
па тен
па ву
бо т
публі чне
анге ла
ди вся
рад ника
у ми
ра ши
слав на
тре тім
ко на
я во
i um
ра тифіка
ma g
ви пустив
но сії
про писа
ду є
впев нено
віри ть
хри ста
ст ром
тво ру
sams ung
у сміх
про сили
пере лі
би тви
36 8
об грун
ша ти
бачи те
нів ська
галу зь
ен ню
мор ські
ве сели
захо пити
чи ма
ад рес
си нд
чор не
ха ри
за йшов
взу ття
ба лу
ць ко
ердо ган
ви гада
двигу на
по ран
3 10
не пога
an n
нер ід
столі ть
тем пи
сиді ли
ск лю
13 00
ід і
ма сив
по де
мі єю
екстра ди
нагада ли
о плата
ва ших
крем лі
подаль ші
торг ових
крає знав
дета льно
до пита
гон чар
да рі
тігі пко
узбе ки
може ш
25 8
лю бив
3 30
резер ви
від несе
написа ли
їз дити
ше ю
перене се
логі чне
мо ту
украв то
се го
до міну
гада ю
у мовою
ch en
трав м
фак тори
y e
ген надія
с пов
фести ва
жи ми
части нах
а зс
ір ланд
фарма цев
актор ка
ау діо
р ене
трав мова
mus ic
кар ла
дав ця
фахів ець
е ли
лю ся
сте ра
леті ли
се йн
над ра
тре тю
пере ді
дже ним
серві су
бе тон
профе сіо
жи ві
викра ли
чер га
ля ль
мас ово
ли цар
оці нкою
ци к
бать ками
ре ва
ін фо
годин ник
аукціо ні
in o
цієн т
сні го
гор ді
вод них
катери ни
ру ко
поза ду
безві сти
сер ці
польо тів
му ста
ста лін
сто с
ту н
тво я
голо д
діль ни
хі мії
об кла
o bo
тяж ко
m en
ян ського
под вір
ме жи
говор ячи
та тари
дізна вся
ма я
ря ння
афри ці
уряд ових
віль ним
сій ний
з бли
19 05
мо їм
мір ку
по но
є б
го сти
і ме
і а
яв ляє
черг ові
дар ма
ше пе
посту па
під пі
слу жити
14 7
вигля дом
в пі
15 8
трі ум
права х
це ля
при належ
роз рив
зов увати
ка к
жін кою
близь кі
р ки
обу рення
спла ту
піхо ти
до чку
реш т
т тів
смер тю
пле мін
з разу
моск вою
жу ються
багать ма
склад них
вияви ти
25 6
ід іл
ан сам
біль шою
полта ва
добро го
руб ль
з ри
ава кова
грі н
рап тово
елек тора
сан ти
кова не
14 2
s an
ру вали
орга нам
особи сту
сумі ш
відсо тка
е ро
спо ри
ство рила
магази ни
дис креди
st and
яр мо
заяв ляли
воло м
о пери
реш ти
холдин гу
держ думи
нь ко
ш пита
не плато
прозо рі
б мп
сусід ніх
ун р
поча ло
коруп цію
род овища
28 6
сцена рі
озброє нь
дешев ше
їх ньому
бабу ся
в містом
істори ко
13 1
опти ма
ша ли
кар ди
ra v
е ш
ли ха
норма м
акци з
па лу
за сту
пох вали
де мі
жу ючи
win dows
ц тва
при дбав
з ляка
ви са
ci al
слід чим
ша нов
виник ло
сій ні
pub l
зазна ла
муль т
є ль
настро ї
си ни
я тий
по глиб
збер іг
ти ла
фір та
di o
ді с
сін га
u anews
інте лі
со ціал
ве ні
єк ту
боя ться
посі ла
ден ко
стів ен
бі лка
уз довж
глиби ні
16 5
ну лась
зро стати
при дат
вис на
лю бо
мо й
нав проти
гри ценко
and ro
ди й
зова ною
лі о
рова ні
s ol
ра си
се сія
ви стави
20 23
герцо г
сувер ен
осві тніх
ю че
ма не
сергі єм
знайо мі
г да
моло ка
є вим
ру сс
еле мент
рі х
по ета
бан ду
припи нив
ціл кови
смі я
зміни ли
фабри ка
не од
or e
и стори
мі стер
поби ття
ше стеро
ч ках
д зи
персо нал
місте чку
тбілі сі
заяви ло
геор гія
ди ка
о зи
вер ши
iz er
функ цію
залиша ти
о лів
лари са
парт нера
кос мос
є ву
на ра
нагоро да
15 7
19 16
ig n
ово ло
ек склю
ро вим
має ш
сте фан
чи лося
ре органі
ба ка
графі ю
слу г
за води
при везли
жи мо
мар ко
по грози
чека в
укла ли
рон то
во ле
плат ника
ову ємо
дов кі
се ць
14 3
bl ack
дипло м
зупи ня
всю ди
r ic
меди ка
st u
про ц
ден ти
фі ні
мен ю
на пис
че хо
мир ний
фору мі
клад но
обшу к
зас обом
польо ти
ло я
за барв
за старі
m al
ов увався
к н
фаль ши
кімна ту
руха тися
звер ху
під ри
пів захис
до питу
сержан т
ро на
кі нь
ка ву
покуп ця
дета лей
діагно ст
кол госп
в ходили
ха на
важливо ю
дже ра
ли на
аль ній
ключ ові
ви їхали
йон ного
ви п
сад овий
ниніш ніх
у му
ф ю
18 8
пле мен
мен у
ак тори
лиси ча
ю чу
на тя
терак т
s ub
у лі
нерід ко
c es
доро слі
ген дер
іра ні
мю нх
гід ність
внес ли
е го
ок са
схе м
as soci
сила х
хре б
то ном
сі к
i le
ню ка
вжи вати
коалі цію
вищо ю
би тві
вчи теля
во рон
те стів
на шою
краї нам
жи вих
ча ться
жі ть
te xt
колі на
пов сяк
відчува є
по ступ
спро бі
аб за
умов но
f r
біо логі
в вів
сто лом
ці ар
зраз ки
ланд шаф
річа рд
гра б
я ру
с кого
ниж ня
клієн та
да вець
ла т
тво є
тро н
цу кор
стол тен
бо ків
обшу ку
па рі
існу вала
сол дата
су ці
ра цію
воло сті
да у
анг лія
ар тур
то талі
постав ку
ско п
ко лії
ре ж
фі зіо
м г
в тори
ден ному
прав у
мар тин
дода ну
оби рати
bo x
ті лі
за порож
ви їзду
літ нього
ши ма
зі а
сум но
на пали
ду ху
книж ку
на га
хаба рі
с ми
змі нено
х рист
ж ому
f il
ш кін
вби ти
вов к
29 6
при бере
анд ре
куди сь
нали вай
танк ових
ї ли
кіль це
ар ку
кі ст
іс нувати
obo z
аб ха
дз ю
не ф
дорож че
ті сно
викона ли
cap ital
зву чить
раун ду
гу ля
гелі коп
у ля
веден ні
фізи чні
гар мат
заяви вши
гай да
чека ємо
ту ванні
кри вий
пере біг
то т
d f
наци ст
бюро кра
та т
шкі на
c u
сад ки
роз кла
о так
от г
по т
активі ст
но са
c ity
з раді
русла на
авто ке
нада на
мо їй
при зем
2 12
га ло
сан дру
15 9
та є
попу ляри
сцен у
єб рр
кліні ки
ков ід
подіб на
дь ка
чи ком
зай мати
шпи гу
приват не
поза чер
ані ма
сь ки
нь ка
довід а
єв ський
са дів
лу на
не ва
різ нови
я сування
ле ром
ті кає
ман да
зі грати
6 25
по ди
з інь
ці лях
сил ових
ро вої
ви пере
s l
слов ник
уряд ові
d en
назва но
пісто лет
с пли
лега лі
воєн ний
ри ч
н ця
а лю
видат ків
18 6
вида тки
мі лан
функ ція
логі єю
о платити
висо кої
фі кс
рід ні
австра лі
банкру та
схід но
ско єння
пацієн та
зер нових
хоро ші
роз тра
єдна ного
кви ток
вид ь
ко не
усу нути
роз голо
че ва
russ ia
ува них
an a
чар ль
снай пер
поду мати
ману ель
б ка
погля дом
ви би
15 6
вози ти
s he
30 1
ра ту
малень кі
зна ків
викри ли
столи цю
до міні
столи ця
дов ів
відо ме
са бо
си к
16 8
па гор
я нська
служ і
про мі
до був
розмі рів
мін фіну
дере вя
слуха в
поми лку
кон сор
прості ше
но мери
екс прес
я но
ні що
да дуть
во че
б рів
ам ні
поя ва
ho use
зігра є
кова ному
не зви
пуска ють
висо ти
мі ські
захища є
почина ти
тру би
зав го
а мі
вед ме
ови ків
я нов
ф ів
нес ко
ку ря
сего дня
ме ссі
б ова
ба рак
гро ю
сту дія
у груп
в чений
теле веду
пори ви
l it
ну р
чле нам
оці нили
не житл
влас ному
тре тини
ін дій
фран ко
зас нував
коло ни
19 11
та ється
lim ited
нова не
траге дія
2 17
єш ся
супер ник
ім пер
ми кита
ра фа
рід ного
д ы
s n
tes la
st em
t al
сті нах
раун ді
s m
при лу
мар кі
вець кій
23 6
ца ри
с бер
t in
повер ху
жере б
ко та
20 7
коро лева
воче видь
ю н
серед ню
пере й
сумні ви
i co
запи ту
май да
яза вся
при су
мо зок
бо ги
yo ta
c enter
приту лок
o d
б лід
верто літ
з га
ци я
схо жа
а бі
по ті
шення ми
еста фе
бер и
с ве
біль ший
скла дом
th er
we b
ен тоні
шере мета
ю щен
пря мого
єв разі
тис нути
під йом
по їхати
3 40
то ронто
тяг не
підня в
ру м
фо ні
розмі рах
те ніс
пев ною
сти ку
ens is
бра кує
боє ць
ресур су
andro id
ак ціоне
євге нія
дав ні
пав лов
емо ції
pf izer
отрима но
воро жі
плану ємо
погір ши
ба нд
право к
ках ов
ше к
pho to
ш па
музикан т
зама ху
ден та
без преце
но жем
форму ли
вок залу
с вар
19 06
o b
малень ка
інж ене
шанс ів
жи ви
ше ної
су дин
інтер пре
обіця нки
ла зар
хі на
фер нан
рай суд
меди чна
над ру
шпи гун
іва нівна
пі рам
лі сть
у ночі
ду вав
покро ви
ме че
пі ро
wat ch
ро вича
трима є
v en
ля к
напо їв
та бач
бун де
чита й
селя ни
викра де
вій ною
м 3
завго дно
спір ні
ф ред
те мати
вибор чі
тем ні
неді лі
з ма
сти хій
ве сна
захо дом
лікарня х
м рії
поран ень
ов ер
справж ня
запа х
під рах
p art
покуп ців
ї дів
зну ща
m c
пі ра
n ik
агре сія
держ гео
уточ нили
25 5
ан дру
да чі
сте пана
віль не
x iv
суп рун
фран суа
обличчя м
сторі нок
підпи сів
m p
ж да
по тер
ду ють
про сте
про ста
поми лка
допо між
памят ник
ака ун
то по
сере дніх
ко мо
ми тних
бай дуже
28 7
від ні
одержа в
jo hn
стов п
мюнх ен
з вір
ти нні
во довід
а тів
to yota
о мель
мо х
оль ги
ви гна
заса ди
ува нню
джу лі
нім ців
не аби
сли ли
lt d
симпто ми
дозво лів
s im
амні сті
бо ки
ц с
го рах
ма ску
при несли
тар к
лізи нг
гу мо
пов ним
здо були
будь те
препара т
срі бло
ни ченко
річ чі
орде на
цивіль ні
зібра ння
п х
мета лів
с пові
бур х
мобіль ні
бе ла
го й
бід а
тур на
но сіїв
воли нь
хор ват
пере мог
норве гія
паке ту
пи ва
рі чок
ри к
чаль ника
по спо
тор гах
ав гу
соба ки
ва нія
сь є
поверх ню
штей н
визна ють
тендер у
жен у
ва шої
ма ска
четвір ки
ди спе
до сту
вислов лю
оціню ють
бюдже тні
вітчи з
показа ло
те сти
б пла
p g
прин ца
розби вся
л с
про йшло
ф бр
сцена рію
ди віден
k ing
ве ра
апара тів
служі ння
з буду
сері алі
четвер те
знав ства
ба ти
сезо ни
техніч ну
2 18
перед час
чува ла
гну ч
прикла ди
ва льні
голо сно
наві га
ми ки
5 26
галузе й
сканда лу
ш н
по се
кри тика
на раді
сій ного
і ти
що місяця
довж ки
прово дів
ґ у
старо ї
кара ба
re s
фі гур
з вони
пов ною
болга рія
хреща тик
верхов ну
нес кін
оці нив
мен шин
нов ов
дав ців
h ol
по сти
га лі
політен у
на ці
викли ки
л єв
комп ю
німець ко
дода мо
ви ло
foo tb
бажа є
ба м
кі ні
про ро
мін но
гре б
викона ла
обі зна
хо се
ник ов
ду вали
на сту
за гу
ні кі
l an
кві тів
і й
яскра во
бо гати
тар ні
20 4
бі с
сті на
брази лія
донь ки
мо тиву
га ну
затри мки
оле ни
сму зі
ба ні
кру гли
бель гія
ту не
х мари
обра ного
is e
заку пов
20 6
прогно зи
ве жі
чика го
бензи н
аб ду
май к
ісла н
tim e
зай це
4 10
st op
че ності
від працю
кри в
за рази
дід у
про жит
не вих
галере ї
напру же
ре пер
га зі
при слуха
захи сті
закри ті
диспе т
бізне сом
золо того
про сити
здо бути
19 07
схід на
влас ними
ch ar
закла ді
зву к
o w
ду вати
сор ти
ши роки
ру сь
ми колу
с ними
со рок
м не
17 6
sh ip
гар ний
23 3
мані тних
k er
наро дом
жа к
big mir
ба ле
кисло т
зем лях
зні мати
зби ли
пи н
єди ному
від во
ос нова
прав ним
ву д
крі сло
спі льна
не са
міц но
спога ди
панде мію
си ну
розу му
бер у
берди чів
я слав
п кс
визна чив
фак тами
укр газ
піль ги
гра нати
пару бій
га зви
вистав ці
лег кої
бро д
ґ ра
право руч
гнення м
ські сть
бло гер
ніко поль
пом пе
під ряду
фоль кло
по стра
поправ ки
відзи ві
мит тє
ядер них
пі о
іва нов
смер тей
ниць ку
гі сть
мі ською
резер вів
марі о
власти во
важ кому
важ кої
пра пори
ради й
ве то
у перед
ку л
ова ною
ково поло
консор ці
піло т
ета пи
ді стали
патріо ти
пор но
ан тарк
довкі лля
m u
у двічі
ви їзд
зна чу
натов п
у е
вати в
єпар хії
що разу
ни ться
кі бера
злов жива
закри то
слове нія
не ному
ти та
36 5
штраф них
ід о
се сію
вказа не
та джи
в м
цен зу
а спі
ф лан
к року
по сміх
л н
ниць кі
катери н
не багато
ї ду
єгип ті
ну вшись
робо к
свя тої
по несе
сере дні
за робити
уря дів
пуска є
нада сть
am p
су між
те сту
пов ній
ниніш ня
моги ли
повер не
немов ля
б лан
ди р
деба льце
тор гово
ж ування
побуд ови
m h
6 50
пла кати
at t
9 16
існу ючих
гри п
ді оз
належа ли
кра щим
15 3
і са
за питань
дивізі он
на певне
дани ло
приче тні
все лен
діагно з
тяж ких
ам стер
en g
ди тися
ль ко
мі нськ
поля ки
від була
з дри
низь кий
ос бб
під рахун
у ру
ус відо
від чував
9 22
віс ник
маршру ту
зни кла
відхи лив
горо да
хре сти
ро дом
віді грав
пе чін
низ ці
за мож
дель фі
м н
footb all
x ii
під у
інде ксу
c ur
біат ло
не х
де ю
місти ти
мі нська
ц тво
екра н
за брав
щення х
а міно
ша в
stre et
нан та
холо ди
d an
ком мер
рад ником
ма д
графі й
брен д
загаль не
le x
о си
g et
ін г
ціка вий
о желе
ста х
пока же
галь му
по їхали
вла штов
дя х
19 08
гляда чі
бу вав
охо че
чу ю
m il
ронал ду
сусід и
кор ні
о нови
заво дів
воле вияв
ви брати
мі шель
чи нів
приз вела
ін три
кори дор
пода є
увати ме
уда ром
у роки
о ст
ме ном
смарт фон
ри мі
снаря дів
вида ми
lin es
17 9
вра зи
не відома
поїз ди
при ча
зи му
мета л
че чен
чере па
ду мають
проєк тів
свя тих
при ді
пояс нень
раке тні
втра та
зи ма
нь йо
с повід
яз нених
гі гіє
вікі мапі
i de
є ван
співа чки
ст ові
поді лу
сало ні
x v
16 7
тра си
річ ним
ду мок
потуж ні
компро мі
бач те
телефо ни
слу хов
від рах
об хід
на перед
co un
пое зії
веду ться
о кла
ve st
збу ту
у а
реаль на
вказа на
бо рів
є рів
плану вав
зміни ла
he l
ше по
апе ляцію
ш ньому
поль щею
збір ній
само ізо
джен ню
стру ють
медж лісу
гра біж
ім пуль
але кс
дій ного
нен у
за ви
s un
кра сного
с ніж
ам була
17 8
ре кві
ду ж
бо ксу
ві сть
держ де
захо че
едуар д
23 5
ню ються
тіле сні
логі чну
лі ть
ск ле
леті ти
ма су
ува чам
трен ува
но сія
припи си
щеп лень
ско чив
зраз ка
пошу ках
існу вали
ата ка
аві ака
трибу ни
діа ман
ю т
w ash
ге т
for bes
тувати ме
p at
зая вок
p al
ри мо
шах ра
прагну ть
ко пали
поде куди
та ру
an o
да вай
тор пе
сим фо
нс к
оф шор
за тя
дя дько
світ л
прода ють
космо нав
робо ча
з дола
е літ
ю вати
пі ща
ро й
с ова
ха є
д овір
буде ш
афри кан
металур г
пода нням
зе леного
с ною
ви пи
ду ба
z y
та стро
та ун
білору с
ви їзді
помер лих
ж одним
не дба
поло ні
бава рія
18 9
ка мера
w ik
тифіка т
5 50
гун п
околи цях
ґ е
поль щу
цін ність
нар ної
ни лася
жа лі
та цій
щ ан
клі п
група ми
кар п
ва гон
поїз да
зна чне
девя ть
ді ла
пере тину
ци фра
фе до
во дії
те ц
d at
ма ск
си ньо
різ два
штра фи
фізи чно
азі атів
19 2
пен я
о крема
ша ть
сти лю
трима ють
sk e
ма нів
скри п
спо рів
анг ло
увати сь
ши ри
ш кар
постра дя
со тня
су ють
жо зе
bm w
ти ть
га не
ба у
сумні ву
піс ку
vi l
проспек т
уя ві
пін г
16 4
в ки
на стоя
sy stem
с прийма
ча ємо
e ur
став лять
академі к
b le
я сували
п лену
16 6
роз яс
підня вся
ї л
бер та
пов ні
робіт ни
про ві
єн ка
геор гі
філ д
ді т
с під
публі ци
форте ці
2 200
ви вер
пі а
к ю
з ведення
бу с
не вий
то менко
мі ри
ма мо
кри тично
ле тіла
поно мар
ли ни
х ру
ю неско
ву лок
га сла
пі л
титу ли
фабри ки
се мі
іден тич
вчини в
м ы
ци клу
держ ком
ві а
стри ма
рен у
трима ли
ду мала
пра пором
дру кар
лі сах
ожеле ди
5 000
коруп ція
книж ка
всту пити
сумнів ів
тво го
бра том
за клю
ме ла
стрі ляли
че ність
про симо
вто ми
t ur
спо кою
змі ною
втру ти
деба ти
са ха
нь ки
не ве
та ман
пода рун
зму шена
това ро
ло ба
бе с
клуб на
брази ль
зайня ли
ка я
зби ток
скла ди
жер твою
ру си
взя ття
ня ла
ш ньої
о праць
про чита
20 9
ізраї лі
від по
звер нень
ку бі
сюже ті
про світ
te d
о сін
ди ва
ляцій не
спи ною
концер ти
ка пли
с мм
камі ння
відгу к
лек ції
яв ка
з руч
аналі тик
оригі нал
хи м
