{"[PAD]":0,"[UNK]":1,"[CLS]":2,"[SEP]":3,"[MASK]":4," ":5,"!":6,"\"":7,"'":8,"(":9,")":10,",":11,"-":12,".":13,"0":14,"1":15,"2":16,"3":17,"4":18,"5":19,"6":20,"7":21,"8":22,"9":23,"?":24,"a":25,"b":26,"c":27,"d":28,"e":29,"f":30,"g":31,"h":32,"i":33,"j":34,"k":35,"l":36,"m":37,"n":38,"o":39,"p":40,"q":41,"r":42,"s":43,"t":44,"u":45,"v":46,"w":47,"x":48,"y":49,"z":50,"̆":51,"̈":52,"а":53,"б":54,"в":55,"г":56,"д":57,"е":58,"ж":59,"з":60,"и":61,"й":62,"к":63,"л":64,"м":65,"н":66,"о":67,"п":68,"р":69,"с":70,"т":71,"у":72,"ф":73,"х":74,"ц":75,"ч":76,"ш":77,"щ":78,"ъ":79,"ы":80,"ь":81,"э":82,"ю":83,"я":84,"є":85,"і":86,"ї":87,"ґ":88,"на":89,"ро":90,"й":91,"ст":92,"ов":93,"ра":94,"ни":95,"ї":96,"ко":97,"но":98,"ер":99,"ні":100,"го":101,"по":102,"за":103,"ід":104,"ти":105,"ва":106,"ен":107,"ня":108,"та":109,"ли":110,"ри":111,"ка":112,"ви":113,"ла":114,"ці":115,"ль":116,"до":117,"ів":118,"ки":119,"сь":120,"не":121,"ма":122,"про":123,"то":124,"мі":125,"во":126,"ми":127,"ку":128,"ть":129,"ре":130,"да":131,"ся":132,"лі":133,"ві":134,"ло":135,"від":136,"мо":137,"ди":138,"рі":139,"ста":140,"ля":141,"що":142,"бу":143,"му":144,"ере":145,"су":146,"ле":147,"ну":148,"ру":149,"ча":150,"ення":151,"га":152,"ту":153,"ді":154,"чи":155,"па":156,"кра":157,"об":158,"ння":159,"те":160,"при":161,"кі":162,"сі":163,"де":164,"пов":165,"ду":166,"краї":167,"бо":168,"ого":169,"них":170,"пра":171,"ного":172,"ба":173,"са":174,"си":175,"украї":176,"нов":177,"сько":178,"ті":179,"ме":180,"це":181,"під":182,"пере":183,"бі":184,"роз":185,"ний":186,"20":187,"же":188,"ін":189,"ова":190,"пи":191,"ться":192,"пе":193,"лю":194,"хо":195,"пі":196,"ної":197,"ши":198,"сті":199,"ор":200,"се":201,"лу":202,"ве":203,"ови":204,"зна":205,"ції":206,"сто":207,"зи":208,"як":209,"ків":210,"сти":211,"ше":212,"повід":213,"кий":214,"ово":215,"жа":216,"ць":217,"че":218,"со":219,"ува":220,"жи":221,"сть":222,"пу":223,"цій":224,"ють":225,"би":226,"фі":227,"бе":228,"пре":229,"мен":230,"спо":231,"19":232,"пер":233,"три":234,"тра":235,"нь":236,"україни":237,"кла":238,"гі":239,"ря":240,"вер":241,"ського":242,"ос":243,"року":244,"кон":245,"для":246,"зу":247,"ден":248,"тер":249,"гу":250,"зі":251,"сл":252,"ком":253,"ха":254,"од":255,"ється":256,"ові":257,"201":258,"рів":259,"ним":260,"ких":261,"вання":262,"кри":263,"він":264,"ска":265,"вати":266,"ша":267,"тів":268,"дж":269,"дер":270,"нсь":271,"йсь":272,"ської":273,"час":274,"тя":275,"ги":276,"сту":277,"гра":278,"зо":279,"кож":280,"прав":281,"без":282,"сво":283,"ця":284,"аль":285,"які":286,"повідо":287,"його":288,"чі":289,"ній":290,"ніст":291,"йо":292,"росі":293,"станов":294,"лення":295,"суд":296,"ною":297,"вся":298,"ци":299,"пла":300,"ак":301,"шення":302,"ще":303,"біль":304,"мож":305,"дні":306,"чо":307,"зе":308,"фор":309,"також":310,"ву":311,"ан":312,"00":313,"дів":314,"ник":315,"ності":316,"відповід":317,"пів":318,"тро":319,"ному":320,"кре":321,"ек":322,"став":323,"тися":324,"ними":325,"ке":326,"чу":327,"тив":328,"із":329,"ція":330,"слу":331,"полі":332,"дя":333,"гол":334,"але":335,"єв":336,"держа":337,"тор":338,"вла":339,"ень":340,"ство":341,"чер":342,"пар":343,"гро":344,"ність":345,"обла":346,"стан":347,"коли":348,"сер":349,"мініст":350,"сте":351,"ючи":352,"ню":353,"нів":354,"трима":355,"вико":356,"ника":357,"вали":358,"яви":359,"наль":360,"200":361,"нк":362,"особ":363,"дар":364,"дов":365,"було":366,"най":367,"їх":368,"тич":369,"ства":370,"того":371,"слід":372,"гля":373,"рах":374,"кіль":375,"так":376,"ші":377,"зав":378,"міс":379,"мер":380,"ців":381,"повідом":382,"дій":383,"лек":384,"ар":385,"хід":386,"ерез":387,"10":388,"шо":389,"сві":390,"спі":391,"гру":392,"нення":393,"жу":394,"ття":395,"ський":396,"11":397,"кого":398,"ову":399,"піс":400,"ав":401,"спра":402,"цію":403,"ге":404,"цю":405,"чення":406,"лен":407,"ном":408,"хи":409,"дав":410,"наро":411,"єю":412,"скла":413,"кар":414,"май":415,"має":416,"вав":417,"змі":418,"шу":419,"суду":420,"пози":421,"ран":422,"фо":423,"зако":424,"рішення":425,"який":426,"євро":427,"зиден":428,"ників":429,"тому":430,"цен":431,"або":432,"президен":433,"перед":434,"ових":435,"їв":436,"вели":437,"над":438,"том":439,"бли":440,"ціо":441,"після":442,"стрі":443,"лися":444,"між":445,"госпо":446,"буде":447,"орга":448,"зь":449,"ман":450,"мов":451,"щи":452,"гово":453,"лів":454,"er":455,"держав":456,"сере":457,"това":458,"лося":459,"дру":460,"був":461,"ються":462,"18":463,"ому":464,"ким":465,"може":466,"кій":467,"енко":468,"господар":469,"ад":470,"фе":471,"яв":472,"її":473,"поча":474,"ємо":475,"трі":476,"тво":477,"нку":478,"всі":479,"лася":480,"нови":481,"бра":482,"зазна":483,"ходи":484,"пита":485,"12":486,"тку":487,"ген":488,"раз":489,"роб":490,"служ":491,"тов":492,"вони":493,"ування":494,"тре":495,"ром":496,"ження":497,"ступ":498,"ніч":499,"війсь":500,"15":501,"дження":502,"ков":503,"in":504,"вже":505,"пред":506,"прий":507,"пода":508,"сла":509,"нав":510,"відо":511,"безпе":512,"заяви":513,"кої":514,"ники":515,"кому":516,"єм":517,"області":518,"вар":519,"цього":520,"нії":521,"дня":522,"торі":523,"визна":524,"через":525,"дія":526,"робо":527,"право":528,"кор":529,"части":530,"рн":531,"грома":532,"стра":533,"році":534,"стро":535,"україн":536,"кою":537,"нні":538,"щодо":539,"нд":540,"бро":541,"місце":542,"нього":543,"форма":544,"тери":545,"голо":546,"вона":547,"увати":548,"кер":549,"авто":550,"ливо":551,"яз":552,"ково":553,"щоб":554,"ніше":555,"ська":556,"дже":557,"віль":558,"ших":559,"все":560,"an":561,"зали":562,"райо":563,"спе":564,"бор":565,"ради":566,"років":567,"були":568,"україні":569,"проти":570,"станови":571,"ряд":572,"дин":573,"яка":574,"воло":575,"17":576,"ниц":577,"отрима":578,"сього":579,"дом":580,"коро":581,"пору":582,"ок":583,"повідоми":584,"роби":585,"грн":586,"мл":587,"якщо":588,"стру":589,"on":590,"нс":591,"доро":592,"тр":593,"нова":594,"компа":595,"писа":596,"жі":597,"серед":598,"кін":599,"спор":600,"зас":601,"важа":602,"14":603,"йш":604,"мар":605,"16":606,"влас":607,"мага":608,"ках":609,"народ":610,"сіб":611,"бага":612,"кан":613,"твер":614,"дово":615,"блі":616,"річ":617,"дії":618,"30":619,"тру":620,"зви":621,"тня":622,"тні":623,"ху":624,"зага":625,"сша":626,"гри":627,"ща":628,"ляє":629,"нок":630,"допо":631,"бер":632,"овий":633,"слова":634,"ському":635,"en":636,"налі":637,"стави":638,"органі":639,"st":640,"київ":641,"проце":642,"наві":643,"ск":644,"люди":645,"міністра":646,"націо":647,"вед":648,"працю":649,"фа":650,"логі":651,"льки":652,"тим":653,"сила":654,"вя":655,"зов":656,"представ":657,"була":658,"пера":659,"чив":660,"зем":661,"мови":662,"ками":663,"13":664,"вня":665,"яких":666,"вів":667,"мог":668,"гід":669,"or":670,"справ":671,"хов":672,"ньо":673,"льта":674,"рист":675,"обов":676,"номі":677,"ar":678,"киє":679,"фу":680,"територі":681,"дійс":682,"стат":683,"дво":684,"інформа":685,"рю":686,"еко":687,"25":688,"крі":689,"хто":690,"сторі":691,"каса":692,"осіб":693,"ляцій":694,"шко":695,"бути":696,"гада":697,"тері":698,"хі":699,"мир":700,"зни":701,"скар":702,"енер":703,"кли":704,"йде":705,"повер":706,"нада":707,"апе":708,"комі":709,"прави":710,"сів":711,"насе":712,"лено":713,"боро":714,"кова":715,"тур":716,"нія":717,"лише":718,"встанов":719,"більше":720,"приєм":721,"чем":722,"пня":723,"тки":724,"екс":725,"свої":726,"пад":727,"пові":728,"пор":729,"обо":730,"ських":731,"стя":732,"вши":733,"нання":734,"нер":735,"касацій":736,"розгля":737,"199":738,"російсь":739,"важ":740,"тва":741,"тільки":742,"захи":743,"22":744,"вид":745,"день":746,"кур":747,"поль":748,"дон":749,"вважа":750,"сування":751,"голов":752,"шта":753,"цьому":754,"пута":755,"бри":756,"алі":757,"охо":758,"парті":759,"заявив":760,"льно":761,"уні":762,"резу":763,"результа":764,"яза":765,"вій":766,"сьогодні":767,"україна":768,"бю":769,"буд":770,"різ":771,"раніше":772,"єї":773,"талі":774,"al":775,"нор":776,"21":777,"відкри":778,"сказав":779,"публі":780,"вала":781,"обі":782,"чних":783,"особа":784,"нський":785,"чого":786,"депута":787,"годи":788,"питання":789,"систе":790,"спів":791,"фак":792,"тех":793,"підприєм":794,"росії":795,"чно":796,"права":797,"нки":798,"тури":799,"одна":800,"дей":801,"проек":802,"догово":803,"зації":804,"прийня":805,"переда":806,"ван":807,"зво":808,"клю":809,"буду":810,"лові":811,"re":812,"розу":813,"пло":814,"матері":815,"фер":816,"нець":817,"фіна":818,"олек":819,"офі":820,"чин":821,"світ":822,"економі":823,"коман":824,"рон":825,"уча":826,"єк":827,"льного":828,"ший":829,"жов":830,"неза":831,"пря":832,"ео":833,"хар":834,"сом":835,"будів":836,"тора":837,"цією":838,"можна":839,"мент":840,"бува":841,"пока":842,"гов":843,"звер":844,"можу":845,"нами":846,"примі":847,"інстан":848,"гор":849,"тами":850,"at":851,"робі":852,"ління":853,"справи":854,"шої":855,"людей":856,"ській":857,"ведення":858,"чні":859,"ністю":860,"24":861,"теле":862,"ук":863,"верхов":864,"ім":865,"леж":866,"близь":867,"дат":868,"кві":869,"там":870,"чного":871,"дуже":872,"особи":873,"цей":874,"фран":875,"оз":876,"мін":877,"мова":878,"словами":879,"мене":880,"тин":881,"чолові":882,"мку":883,"багато":884,"військ":885,"само":886,"le":887,"нагада":888,"26":889,"it":890,"ової":891,"гіо":892,"доку":893,"вере":894,"23":895,"прова":896,"остан":897,"рони":898,"тар":899,"лік":900,"справі":901,"тут":902,"ціаль":903,"сім":904,"нас":905,"млн":906,"захо":907,"нес":908,"єд":909,"шого":910,"прес":911,"пови":912,"чної":913,"зом":914,"крема":915,"енні":916,"регіо":917,"тен":918,"гів":919,"мери":920,"лені":921,"прово":922,"сії":923,"льних":924,"здійс":925,"нська":926,"мені":927,"постанов":928,"менту":929,"поді":930,"нням":931,"опера":932,"раху":933,"щі":934,"зв":935,"лід":936,"яс":937,"керів":938,"зокрема":939,"берез":940,"йте":941,"гре":942,"кільки":943,"основ":944,"co":945,"50":946,"ксу":947,"посила":948,"відео":949,"один":950,"ливі":951,"два":952,"гла":953,"гідно":954,"міста":955,"кими":956,"продов":957,"саме":958,"рій":959,"бле":960,"льної":961,"моги":962,"туа":963,"громадя":964,"зай":965,"проте":966,"необ":967,"вибо":968,"ток":969,"робіт":970,"розмі":971,"нських":972,"вида":973,"пунк":974,"проку":975,"он":976,"свя":977,"можуть":978,"лом":979,"кош":980,"клад":981,"бір":982,"іс":983,"див":984,"рак":985,"управ":986,"нути":987,"нах":988,"мон":989,"говори":990,"санд":991,"передба":992,"льний":993,"ra":994,"27":995,"законо":996,"навіть":997,"ового":998,"дола":999,"міся":1000,"володи":1001,"чає":1002,"згідно":1003,"мати":1004,"рік":1005,"моло":1006,"et":1007,"пев":1008,"європе":1009,"єр":1010,"вих":1011,"струк":1012,"поз":1013,"щення":1014,"росій":1015,"інших":1016,"ситуа":1017,"елек":1018,"ску":1019,"пада":1020,"чини":1021,"ух":1022,"близько":1023,"статті":1024,"поса":1025,"нув":1026,"зараз":1027,"28":1028,"тран":1029,"вирі":1030,"політич":1031,"вік":1032,"бере":1033,"ального":1034,"ниць":1035,"газ":1036,"їз":1037,"міль":1038,"вироб":1039,"зустрі":1040,"амери":1041,"усі":1042,"ене":1043,"програ":1044,"ic":1045,"рення":1046,"he":1047,"відомо":1048,"забезпе":1049,"чний":1050,"кро":1051,"триму":1052,"розви":1053,"міжнарод":1054,"життя":1055,"мат":1056,"вод":1057,"дити":1058,"льні":1059,"чай":1060,"ох":1061,"єн":1062,"тою":1063,"джу":1064,"верес":1065,"крім":1066,"сли":1067,"інтер":1068,"вий":1069,"форму":1070,"наз":1071,"необхід":1072,"гом":1073,"мають":1074,"кови":1075,"випад":1076,"олександ":1077,"реє":1078,"учас":1079,"ско":1080,"докумен":1081,"товари":1082,"рд":1083,"німе":1084,"йому":1085,"зя":1086,"сою":1087,"засто":1088,"ські":1089,"цер":1090,"листо":1091,"кана":1092,"жур":1093,"політи":1094,"тім":1095,"ніж":1096,"жит":1097,"вір":1098,"ново":1099,"обра":1100,"пара":1101,"січ":1102,"пері":1103,"vi":1104,"лан":1105,"якого":1106,"пол":1107,"кримі":1108,"свою":1109,"чити":1110,"задово":1111,"веде":1112,"ro":1113,"горо":1114,"більш":1115,"29":1116,"тис":1117,"країни":1118,"призна":1119,"діяль":1120,"ником":1121,"заги":1122,"овір":1123,"графі":1124,"сій":1125,"тей":1126,"тоді":1127,"нам":1128,"поряд":1129,"грив":1130,"рф":1131,"збро":1132,"спро":1133,"кілька":1134,"прем":1135,"нити":1136,"парла":1137,"клика":1138,"ститу":1139,"стер":1140,"куль":1141,"пли":1142,"росія":1143,"історі":1144,"чина":1145,"кола":1146,"рек":1147,"бой":1148,"разі":1149,"зобов":1150,"петро":1151,"плати":1152,"розумі":1153,"енка":1154,"бан":1155,"40":1156,"сив":1157,"шенко":1158,"тура":1159,"бать":1160,"вою":1161,"чор":1162,"тних":1163,"тих":1164,"вести":1165,"коло":1166,"ган":1167,"ництво":1168,"договору":1169,"банк":1170,"лег":1171,"прода":1172,"наступ":1173,"позива":1174,"бло":1175,"нато":1176,"сай":1177,"єс":1178,"дослід":1179,"вис":1180,"ac":1181,"зроби":1182,"себе":1183,"ництва":1184,"чому":1185,"біло":1186,"реш":1187,"березня":1188,"залиши":1189,"можливо":1190,"коде":1191,"звичай":1192,"свід":1193,"вка":1194,"хво":1195,"ніх":1196,"ували":1197,"сили":1198,"жовтня":1199,"чів":1200,"сам":1201,"мину":1202,"гою":1203,"закону":1204,"львів":1205,"стю":1206,"офіцій":1207,"2014":1208,"йдеться":1209,"раді":1210,"рей":1211,"пан":1212,"висо":1213,"засід":1214,"чемпі":1215,"наслід":1216,"процесу":1217,"чено":1218,"es":1219,"фон":1220,"той":1221,"ера":1222,"потрі":1223,"2016":1224,"оці":1225,"вого":1226,"сил":1227,"кс":1228,"голова":1229,"швид":1230,"креди":1231,"нального":1232,"is":1233,"стів":1234,"100":1235,"198":1236,"клі":1237,"біля":1238,"одного":1239,"дозво":1240,"пробле":1241,"фото":1242,"2015":1243,"однак":1244,"комп":1245,"дніпро":1246,"будь":1247,"2010":1248,"гій":1249,"участь":1250,"носи":1251,"стання":1252,"потріб":1253,"бюдже":1254,"оскільки":1255,"пора":1256,"роботи":1257,"контро":1258,"язку":1259,"сіль":1260,"кість":1261,"пам":1262,"рія":1263,"електро":1264,"гар":1265,"захід":1266,"діля":1267,"мель":1268,"обме":1269,"шля":1270,"хів":1271,"діа":1272,"км":1273,"спи":1274,"очі":1275,"тиж":1276,"оку":1277,"джере":1278,"одно":1279,"виснов":1280,"січня":1281,"ленні":1282,"разом":1283,"поро":1284,"режи":1285,"зазначив":1286,"влади":1287,"грудня":1288,"травня":1289,"точ":1290,"зби":1291,"обстави":1292,"наф":1293,"зова":1294,"коле":1295,"філь":1296,"ал":1297,"будуть":1298,"вересня":1299,"дина":1300,"висту":1301,"донець":1302,"нен":1303,"тем":1304,"нову":1305,"от":1306,"тон":1307,"громад":1308,"сю":1309,"тера":1310,"липня":1311,"міністр":1312,"зер":1313,"рії":1314,"інші":1315,"своє":1316,"транспор":1317,"сут":1318,"залі":1319,"міністер":1320,"колиш":1321,"поки":1322,"нува":1323,"тек":1324,"експер":1325,"ньому":1326,"мас":1327,"журналі":1328,"просто":1329,"таш":1330,"підтвер":1331,"дук":1332,"сум":1333,"кові":1334,"стій":1335,"припи":1336,"готов":1337,"понад":1338,"пусти":1339,"тету":1340,"квітня":1341,"заступ":1342,"зло":1343,"кодексу":1344,"ував":1345,"всіх":1346,"києва":1347,"2017":1348,"звіль":1349,"партії":1350,"поло":1351,"ряду":1352,"організа":1353,"дирек":1354,"клу":1355,"us":1356,"оде":1357,"затрима":1358,"червня":1359,"сія":1360,"чита":1361,"шим":1362,"льна":1363,"даними":1364,"мор":1365,"нив":1366,"лер":1367,"воро":1368,"тисяч":1369,"млрд":1370,"хай":1371,"зро":1372,"немає":1373,"чання":1374,"першої":1375,"стар":1376,"яку":1377,"держ":1378,"сторо":1379,"кам":1380,"пропо":1381,"початку":1382,"києві":1383,"нові":1384,"північ":1385,"мет":1386,"ват":1387,"она":1388,"запо":1389,"допомо":1390,"тепер":1391,"чені":1392,"продук":1393,"двох":1394,"вули":1395,"автомо":1396,"дати":1397,"2018":1398,"підписа":1399,"лого":1400,"31":1401,"60":1402,"люд":1403,"роки":1404,"анд":1405,"закон":1406,"говор":1407,"осві":1408,"далі":1409,"ср":1410,"чна":1411,"197":1412,"своїх":1413,"протя":1414,"меди":1415,"склад":1416,"безпеки":1417,"ходить":1418,"oo":1419,"серпня":1420,"голови":1421,"фінанс":1422,"брита":1423,"лютого":1424,"використ":1425,"поста":1426,"примітки":1427,"сон":1428,"розташ":1429,"рам":1430,"поля":1431,"нує":1432,"пова":1433,"вда":1434,"ньої":1435,"нські":1436,"служби":1437,"дві":1438,"уніан":1439,"2019":1440,"ch":1441,"ватися":1442,"ян":1443,"попере":1444,"смі":1445,"зму":1446,"район":1447,"мак":1448,"ською":1449,"пала":1450,"чили":1451,"слав":1452,"здоро":1453,"майже":1454,"рун":1455,"дока":1456,"стей":1457,"194":1458,"тбо":1459,"потім":1460,"чле":1461,"ят":1462,"матеріа":1463,"нар":1464,"мії":1465,"гли":1466,"ніш":1467,"зві":1468,"хви":1469,"кори":1470,"тере":1471,"відді":1472,"разу":1473,"зая":1474,"2020":1475,"вимог":1476,"протягом":1477,"смер":1478,"буди":1479,"їха":1480,"орен":1481,"el":1482,"заяв":1483,"яке":1484,"мір":1485,"тах":1486,"треба":1487,"тори":1488,"лікар":1489,"втра":1490,"овою":1491,"послу":1492,"дами":1493,"гривень":1494,"док":1495,"чаль":1496,"свого":1497,"сні":1498,"єди":1499,"пояс":1500,"йшов":1501,"центра":1502,"такі":1503,"пле":1504,"лов":1505,"спіль":1506,"схо":1507,"актив":1508,"the":1509,"гнення":1510,"ухва":1511,"складі":1512,"слі":1513,"ціа":1514,"ючись":1515,"гії":1516,"пен":1517,"дою":1518,"мере":1519,"мільйо":1520,"держави":1521,"зміни":1522,"викори":1523,"микола":1524,"оголо":1525,"дає":1526,"підста":1527,"as":1528,"півден":1529,"тування":1530,"ляв":1531,"жень":1532,"кладе":1533,"газу":1534,"громадян":1535,"фек":1536,"рада":1537,"порядку":1538,"ять":1539,"компанія":1540,"мав":1541,"біз":1542,"анти":1543,"деся":1544,"нули":1545,"тно":1546,"вияви":1547,"35":1548,"футбо":1549,"генера":1550,"демо":1551,"никами":1552,"дент":1553,"ливість":1554,"нальної":1555,"підтри":1556,"вибор":1557,"соціаль":1558,"чином":1559,"іга":1560,"пав":1561,"сно":1562,"рівня":1563,"харків":1564,"ниці":1565,"напри":1566,"зго":1567,"гір":1568,"ває":1569,"змін":1570,"тий":1571,"світу":1572,"жито":1573,"тю":1574,"банку":1575,"спек":1576,"подат":1577,"валь":1578,"дали":1579,"виконав":1580,"частини":1581,"сказа":1582,"рок":1583,"цих":1584,"санк":1585,"ter":1586,"перший":1587,"цу":1588,"чим":1589,"цієї":1590,"новий":1591,"ську":1592,"схід":1593,"01":1594,"гія":1595,"ченко":1596,"ква":1597,"намага":1598,"збір":1599,"te":1600,"2011":1601,"рід":1602,"ходя":1603,"лений":1604,"бар":1605,"жін":1606,"чається":1607,"йшли":1608,"служба":1609,"джа":1610,"ьох":1611,"ii":1612,"таких":1613,"вну":1614,"якому":1615,"позов":1616,"прокура":1617,"квар":1618,"бив":1619,"тет":1620,"закін":1621,"праців":1622,"вважає":1623,"стати":1624,"нє":1625,"2012":1626,"ське":1627,"реч":1628,"заборо":1629,"друго":1630,"літа":1631,"конкур":1632,"залиша":1633,"зів":1634,"рес":1635,"іва":1636,"розслід":1637,"доларів":1638,"бут":1639,"силь":1640,"істо":1641,"ове":1642,"суддів":1643,"пису":1644,"олі":1645,"am":1646,"служб":1647,"чне":1648,"чих":1649,"спон":1650,"доб":1651,"меш":1652,"відзна":1653,"чої":1654,"ґрун":1655,"чоти":1656,"розді":1657,"нале":1658,"підоз":1659,"питань":1660,"кни":1661,"36":1662,"кової":1663,"дітей":1664,"яну":1665,"таким":1666,"витра":1667,"кового":1668,"мали":1669,"реалі":1670,"зда":1671,"відбу":1672,"кості":1673,"net":1674,"тріш":1675,"цивіль":1676,"перше":1677,"тимо":1678,"облас":1679,"міні":1680,"ат":1681,"путі":1682,"село":1683,"теро":1684,"їм":1685,"завер":1686,"34":1687,"нау":1688,"ціка":1689,"жить":1690,"місця":1691,"повів":1692,"зупи":1693,"сить":1694,"країн":1695,"війни":1696,"мало":1697,"род":1698,"здійсню":1699,"бур":1700,"секре":1701,"мв":1702,"корист":1703,"внутріш":1704,"дося":1705,"хом":1706,"хе":1707,"окре":1708,"позиції":1709,"якої":1710,"універ":1711,"04":1712,"il":1713,"мета":1714,"дове":1715,"наголо":1716,"канди":1717,"впли":1718,"тного":1719,"ночі":1720,"білору":1721,"чну":1722,"респон":1723,"38":1724,"тично":1725,"нг":1726,"лених":1727,"de":1728,"єдна":1729,"уряд":1730,"поліції":1731,"un":1732,"шев":1733,"вим":1734,"нувся":1735,"додат":1736,"відмови":1737,"ою":1738,"чених":1739,"нім":1740,"регу":1741,"зелен":1742,"бто":1743,"написа":1744,"част":1745,"шому":1746,"розвитку":1747,"повнова":1748,"донба":1749,"виріши":1750,"цим":1751,"ванта":1752,"знову":1753,"незалеж":1754,"вищи":1755,"районі":1756,"кита":1757,"замі":1758,"проект":1759,"піз":1760,"ht":1761,"петров":1762,"україну":1763,"03":1764,"муть":1765,"05":1766,"профе":1767,"гно":1768,"спеціаль":1769,"чемпіона":1770,"янукови":1771,"щу":1772,"сан":1773,"яким":1774,"охорон":1775,"окру":1776,"німеч":1777,"чка":1778,"інтере":1779,"собі":1780,"шень":1781,"рами":1782,"овано":1783,"06":1784,"жите":1785,"місто":1786,"2008":1787,"взя":1788,"37":1789,"ляр":1790,"дера":1791,"нського":1792,"вул":1793,"ським":1794,"бла":1795,"озна":1796,"ниця":1797,"дані":1798,"шість":1799,"фіка":1800,"валю":1801,"сен":1802,"судом":1803,"ович":1804,"чки":1805,"2013":1806,"закри":1807,"моск":1808,"196":1809,"вої":1810,"плану":1811,"складу":1812,"2009":1813,"09":1814,"сувати":1815,"шими":1816,"ol":1817,"іно":1818,"переві":1819,"аві":1820,"крим":1821,"чить":1822,"нового":1823,"збіль":1824,"лена":1825,"перебува":1826,"ферен":1827,"овим":1828,"місті":1829,"лялося":1830,"ліку":1831,"ака":1832,"шов":1833,"стані":1834,"07":1835,"жив":1836,"ion":1837,"недо":1838,"групи":1839,"вигля":1840,"бороть":1841,"уже":1842,"конститу":1843,"хоча":1844,"сід":1845,"америка":1846,"акти":1847,"нових":1848,"комплек":1849,"району":1850,"наяв":1851,"людини":1852,"пк":1853,"ed":1854,"чий":1855,"грав":1856,"завда":1857,"криму":1858,"боку":1859,"мки":1860,"мів":1861,"юри":1862,"особливо":1863,"вклю":1864,"поря":1865,"роботу":1866,"столи":1867,"навіру":1868,"роди":1869,"укр":1870,"очіку":1871,"помі":1872,"лії":1873,"стри":1874,"08":1875,"зії":1876,"тан":1877,"встанови":1878,"ання":1879,"лей":1880,"ринку":1881,"прокуро":1882,"жити":1883,"тувати":1884,"комен":1885,"неї":1886,"часу":1887,"пис":1888,"прі":1889,"ель":1890,"тка":1891,"напря":1892,"гер":1893,"ров":1894,"ляється":1895,"хоче":1896,"кордо":1897,"мою":1898,"02":1899,"добу":1900,"універси":1901,"яр":1902,"сторін":1903,"справа":1904,"пив":1905,"уго":1906,"період":1907,"системи":1908,"39":1909,"жах":1910,"дан":1911,"зня":1912,"пропону":1913,"йський":1914,"майна":1915,"чен":1916,"залізни":1917,"цін":1918,"торів":1919,"пого":1920,"тря":1921,"аген":1922,"гає":1923,"цем":1924,"цький":1925,"лок":1926,"овому":1927,"ств":1928,"фізи":1929,"обся":1930,"ent":1931,"викона":1932,"сов":1933,"води":1934,"пат":1935,"тний":1936,"наслідок":1937,"часом":1938,"центр":1939,"ований":1940,"черні":1941,"вин":1942,"бій":1943,"ае":1944,"числі":1945,"думку":1946,"потрібно":1947,"хло":1948,"йти":1949,"вибу":1950,"розгляду":1951,"стало":1952,"розі":1953,"кору":1954,"поба":1955,"прак":1956,"мані":1957,"тобто":1958,"іде":1959,"стві":1960,"сами":1961,"менше":1962,"вич":1963,"тє":1964,"обстрі":1965,"відсут":1966,"вимага":1967,"стату":1968,"сергій":1969,"2007":1970,"трав":1971,"страж":1972,"техніч":1973,"правда":1974,"вчи":1975,"ліс":1976,"пали":1977,"додав":1978,"свій":1979,"поперед":1980,"лідер":1981,"рити":1982,"спри":1983,"федера":1984,"ціонер":1985,"джерела":1986,"уряду":1987,"тики":1988,"тарі":1989,"муні":1990,"45":1991,"33":1992,"варті":1993,"висл":1994,"землі":1995,"йських":1996,"дра":1997,"кло":1998,"житомир":1999,"ефек":2000,"ace":2001,"ing":2002,"приват":2003,"республі":2004,"sp":2005,"сезо":2006,"чений":2007,"музи":2008,"норм":2009,"ляють":2010,"вияв":2011,"gra":2012,"сайті":2013,"команди":2014,"тиме":2015,"000":2016,"належ":2017,"мілі":2018,"кіно":2019,"білі":2020,"капі":2021,"шах":2022,"днів":2023,"клада":2024,"2006":2025,"сим":2026,"енерго":2027,"станом":2028,"незакон":2029,"лась":2030,"маши":2031,"кру":2032,"аналі":2033,"ца":2034,"свобо":2035,"оскар":2036,"дуть":2037,"контра":2038,"голову":2039,"михай":2040,"радя":2041,"чук":2042,"стали":2043,"літ":2044,"поши":2045,"чоловік":2046,"сфер":2047,"володими":2048,"прин":2049,"такий":2050,"ur":2051,"форм":2052,"потра":2053,"id":2054,"скарги":2055,"адже":2056,"дові":2057,"європей":2058,"ата":2059,"цького":2060,"цями":2061,"жива":2062,"вак":2063,"захис":2064,"оби":2065,"європи":2066,"ством":2067,"рова":2068,"авіа":2069,"іні":2070,"фра":2071,"собо":2072,"куп":2073,"самі":2074,"нили":2075,"техні":2076,"неді":2077,"найбіль":2078,"трам":2079,"стала":2080,"началь":2081,"віда":2082,"скаргу":2083,"перебу":2084,"нка":2085,"нічого":2086,"раке":2087,"пише":2088,"теж":2089,"відноси":2090,"рою":2091,"одні":2092,"ресу":2093,"підготов":2094,"золо":2095,"сері":2096,"помер":2097,"дог":2098,"депутат":2099,"195":2100,"йм":2101,"стосу":2102,"варто":2103,"лій":2104,"нувати":2105,"рен":2106,"and":2107,"частині":2108,"дми":2109,"вказа":2110,"сучас":2111,"овані":2112,"влада":2113,"32":2114,"четвер":2115,"щини":2116,"дь":2117,"збере":2118,"ційного":2119,"гляду":2120,"льо":2121,"мом":2122,"купів":2123,"ристи":2124,"коруп":2125,"тивного":2126,"італі":2127,"скоро":2128,"якій":2129,"нафто":2130,"люб":2131,"лять":2132,"почина":2133,"чува":2134,"нет":2135,"черво":2136,"of":2137,"трьох":2138,"лось":2139,"ближ":2140,"льв":2141,"ципа":2142,"частина":2143,"жди":2144,"таке":2145,"повітря":2146,"підстав":2147,"політики":2148,"лювання":2149,"80":2150,"метрів":2151,"поза":2152,"воду":2153,"сбу":2154,"нено":2155,"tp":2156,"міну":2157,"розроб":2158,"оборони":2159,"техно":2160,"рад":2161,"кабі":2162,"лія":2163,"успі":2164,"ційних":2165,"торгів":2166,"постій":2167,"тій":2168,"віднов":2169,"чека":2170,"нази":2171,"аб":2172,"навча":2173,"поже":2174,"гот":2175,"суму":2176,"усіх":2177,"кових":2178,"рахунок":2179,"завжди":2180,"отримав":2181,"умов":2182,"міської":2183,"плат":2184,"літера":2185,"споді":2186,"2021":2187,"ua":2188,"земе":2189,"мала":2190,"їй":2191,"нській":2192,"повинні":2193,"нську":2194,"країні":2195,"дода":2196,"коштів":2197,"пити":2198,"im":2199,"наші":2200,"порту":2201,"бай":2202,"бажа":2203,"вимо":2204,"лін":2205,"знаходи":2206,"загаль":2207,"наш":2208,"транс":2209,"вимоги":2210,"вог":2211,"ареш":2212,"шою":2213,"бира":2214,"особа1":2215,"харак":2216,"65":2217,"комісії":2218,"строва":2219,"тимчас":2220,"сло":2221,"яти":2222,"подіб":2223,"затвер":2224,"залу":2225,"матич":2226,"кандида":2227,"заклика":2228,"оди":2229,"збо":2230,"ката":2231,"лами":2232,"кордон":2233,"iv":2234,"центру":2235,"законом":2236,"реа":2237,"http":2238,"бойови":2239,"муніципа":2240,"ook":2241,"передає":2242,"підви":2243,"la":2244,"водно":2245,"ана":2246,"міг":2247,"врах":2248,"бою":2249,"андрій":2250,"найкра":2251,"ніби":2252,"визнання":2253,"світі":2254,"опи":2255,"юриди":2256,"виборів":2257,"тяг":2258,"нака":2259,"хвили":2260,"підставі":2261,"брати":2262,"інститу":2263,"вець":2264,"ia":2265,"конф":2266,"функ":2267,"лля":2268,"гова":2269,"ає":2270,"сок":2271,"вен":2272,"рівні":2273,"договір":2274,"дах":2275,"гаду":2276,"суб":2277,"лює":2278,"пуска":2279,"вакци":2280,"могли":2281,"водночас":2282,"парта":2283,"зробити":2284,"тної":2285,"селі":2286,"збира":2287,"зм":2288,"розповів":2289,"таль":2290,"запорі":2291,"потре":2292,"будинку":2293,"70":2294,"тків":2295,"батьків":2296,"істори":2297,"нування":2298,"жує":2299,"виклю":2300,"book":2301,"видання":2302,"стану":2303,"фрак":2304,"норма":2305,"умова":2306,"зрозумі":2307,"вез":2308,"надання":2309,"розпоча":2310,"ача":2311,"to":2312,"лень":2313,"ходу":2314,"бав":2315,"виклика":2316,"справу":2317,"кварти":2318,"демокра":2319,"вас":2320,"лку":2321,"часто":2322,"відбува":2323,"75":2324,"різних":2325,"com":2326,"історія":2327,"gram":2328,"зно":2329,"можли":2330,"щині":2331,"обіця":2332,"кви":2333,"захисту":2334,"банків":2335,"ліка":2336,"мий":2337,"лега":2338,"парт":2339,"гроші":2340,"чила":2341,"мисл":2342,"фір":2343,"лювати":2344,"геро":2345,"фонду":2346,"обставин":2347,"відом":2348,"установ":2349,"сели":2350,"вався":2351,"бізнес":2352,"теги":2353,"нагоро":2354,"нула":2355,"спорт":2356,"зброй":2357,"група":2358,"допомоги":2359,"дили":2360,"худо":2361,"теа":2362,"минулого":2363,"рамках":2364,"постраж":2365,"такого":2366,"польщі":2367,"реєстра":2368,"охорони":2369,"анні":2370,"ційний":2371,"чним":2372,"черка":2373,"умови":2374,"біж":2375,"форми":2376,"підля":2377,"анг":2378,"показ":2379,"жер":2380,"пога":2381,"90":2382,"валися":2383,"робити":2384,"добро":2385,"face":2386,"підкре":2387,"майбут":2388,"вають":2389,"справді":2390,"кора":2391,"метою":2392,"твор":2393,"дорож":2394,"сек":2395,"рай":2396,"тивно":2397,"опублі":2398,"одним":2399,"готу":2400,"пом":2401,"інозем":2402,"бюджету":2403,"наразі":2404,"угоди":2405,"тором":2406,"зар":2407,"проекту":2408,"чя":2409,"суддя":2410,"дак":2411,"департа":2412,"момент":2413,"зовніш":2414,"спец":2415,"зс":2416,"події":2417,"пили":2418,"диви":2419,"щось":2420,"хова":2421,"фінан":2422,"канал":2423,"живання":2424,"чотири":2425,"сторони":2426,"лері":2427,"дере":2428,"ось":2429,"рем":2430,"язання":2431,"надій":2432,"48":2433,"зні":2434,"ut":2435,"дружи":2436,"комітету":2437,"паса":2438,"несе":2439,"чину":2440,"конфлік":2441,"всього":2442,"дозволи":2443,"волі":2444,"facebook":2445,"графія":2446,"нега":2447,"ne":2448,"наук":2449,"глава":2450,"піль":2451,"агент":2452,"спору":2453,"гий":2454,"вартість":2455,"вбив":2456,"ap":2457,"вищо":2458,"туру":2459,"довго":2460,"пись":2461,"аф":2462,"позивача":2463,"повністю":2464,"добре":2465,"область":2466,"енерге":2467,"праці":2468,"збер":2469,"їзд":2470,"давно":2471,"йн":2472,"історії":2473,"никам":2474,"займа":2475,"житл":2476,"хре":2477,"тель":2478,"здоров":2479,"значення":2480,"щенко":2481,"хлоп":2482,"місці":2483,"низ":2484,"ава":2485,"природ":2486,"пля":2487,"директор":2488,"калі":2489,"американ":2490,"ходять":2491,"ниж":2492,"франції":2493,"шено":2494,"мпі":2495,"зва":2496,"галу":2497,"тари":2498,"поми":2499,"така":2500,"46":2501,"продовж":2502,"темпера":2503,"пізніше":2504,"лон":2505,"суспіль":2506,"чора":2507,"ун":2508,"вибори":2509,"села":2510,"ницю":2511,"мих":2512,"йшла":2513,"аби":2514,"ремон":2515,"отримали":2516,"кінці":2517,"ета":2518,"активі":2519,"пото":2520,"каже":2521,"останні":2522,"підтрима":2523,"me":2524,"гаран":2525,"зір":2526,"хмель":2527,"реаль":2528,"шли":2529,"обмеже":2530,"акціонер":2531,"лою":2532,"ційної":2533,"рішенням":2534,"біо":2535,"тв":2536,"чок":2537,"отриму":2538,"бом":2539,"ігор":2540,"корот":2541,"демон":2542,"єднання":2543,"55":2544,"дома":2545,"віктор":2546,"ори":2547,"замов":2548,"худож":2549,"переко":2550,"гур":2551,"мисте":2552,"лись":2553,"роках":2554,"хочу":2555,"нев":2556,"підтриму":2557,"уванням":2558,"працює":2559,"турні":2560,"команду":2561,"кажу":2562,"овими":2563,"рюва":2564,"ході":2565,"штаб":2566,"прото":2567,"49":2568,"підрозді":2569,"подаль":2570,"ляти":2571,"нез":2572,"мвс":2573,"заходів":2574,"рин":2575,"пасажи":2576,"чають":2577,"член":2578,"постав":2579,"дію":2580,"вулиці":2581,"закла":2582,"марі":2583,"ходження":2584,"обґрун":2585,"своєї":2586,"нені":2587,"логії":2588,"вам":2589,"зареє":2590,"бру":2591,"людина":2592,"ir":2593,"ленням":2594,"op":2595,"судді":2596,"холо":2597,"попу":2598,"бель":2599,"органів":2600,"утво":2601,"склада":2602,"промисл":2603,"термі":2604,"ріб":2605,"розмірі":2606,"послуг":2607,"аеро":2608,"нальних":2609,"фін":2610,"контрак":2611,"мед":2612,"син":2613,"фи":2614,"розподі":2615,"музе":2616,"вало":2617,"овом":2618,"ціалі":2619,"газе":2620,"нал":2621,"мешкан":2622,"кінця":2623,"позиція":2624,"ато":2625,"регіонів":2626,"найближ":2627,"кошти":2628,"ig":2629,"дба":2630,"порівня":2631,"редак":2632,"овій":2633,"приз":2634,"гон":2635,"ляли":2636,"сію":2637,"пси":2638,"повин":2639,"імені":2640,"францу":2641,"нац":2642,"інте":2643,"макси":2644,"зустрічі":2645,"уда":2646,"хер":2647,"овує":2648,"заг":2649,"мія":2650,"ніхто":2651,"тві":2652,"зверну":2653,"міст":2654,"проведе":2655,"ma":2656,"давства":2657,"сол":2658,"своїй":2659,"блоку":2660,"мос":2661,"vid":2662,"ініціа":2663,"судового":2664,"нальний":2665,"поту":2666,"шту":2667,"страх":2668,"тав":2669,"програми":2670,"ована":2671,"дю":2672,"іншого":2673,"тради":2674,"перші":2675,"адво":2676,"розповід":2677,"конферен":2678,"запа":2679,"лем":2680,"йські":2681,"2005":2682,"чинов":2683,"ресур":2684,"своєму":2685,"міно":2686,"спір":2687,"дипло":2688,"випадку":2689,"середи":2690,"деякі":2691,"старо":2692,"створе":2693,"бори":2694,"ухвали":2695,"акаде":2696,"радіо":2697,"закор":2698,"прогно":2699,"ліття":2700,"союзу":2701,"проблеми":2702,"шляхом":2703,"тивний":2704,"діє":2705,"висновку":2706,"зберіга":2707,"64":2708,"зує":2709,"нею":2710,"йська":2711,"под":2712,"агре":2713,"центрі":2714,"da":2715,"лий":2716,"борж":2717,"цям":2718,"шука":2719,"треть":2720,"судами":2721,"слуха":2722,"нений":2723,"2004":2724,"гео":2725,"чернігів":2726,"стеріга":2727,"службі":2728,"мах":2729,"стоя":2730,"союз":2731,"місти":2732,"78":2733,"адре":2734,"штра":2735,"моде":2736,"дніх":2737,"процеду":2738,"доводи":2739,"дяки":2740,"мето":2741,"серйо":2742,"нині":2743,"лих":2744,"зібра":2745,"проводи":2746,"експерти":2747,"конструк":2748,"вперше":2749,"олімпі":2750,"ряту":2751,"сподіва":2752,"назва":2753,"2000":2754,"ситуація":2755,"колек":2756,"своїм":2757,"оба":2758,"мову":2759,"волю":2760,"шве":2761,"принци":2762,"єва":2763,"ніколи":2764,"нської":2765,"чині":2766,"мей":2767,"захво":2768,"народу":2769,"віс":2770,"рішень":2771,"44":2772,"перевір":2773,"виді":2774,"річний":2775,"читайте":2776,"таки":2777,"тк":2778,"рахун":2779,"внес":2780,"багать":2781,"відно":2782,"бен":2783,"сусід":2784,"тижня":2785,"ствер":2786,"мій":2787,"плю":2788,"порт":2789,"весь":2790,"звинува":2791,"супер":2792,"стане":2793,"німець":2794,"жува":2795,"um":2796,"мна":2797,"почали":2798,"архі":2799,"рив":2800,"вислови":2801,"заходи":2802,"новини":2803,"відки":2804,"відчу":2805,"будин":2806,"маю":2807,"першого":2808,"донбасі":2809,"ус":2810,"інтерв":2811,"лому":2812,"паді":2813,"ам":2814,"завдяки":2815,"страте":2816,"потуж":2817,"шити":2818,"продажу":2819,"варі":2820,"випадків":2821,"вище":2822,"участі":2823,"мережі":2824,"нику":2825,"ллі":2826,"проголо":2827,"діти":2828,"стом":2829,"плу":2830,"перемо":2831,"дум":2832,"вночі":2833,"окупова":2834,"нр":2835,"арти":2836,"вив":2837,"лки":2838,"опа":2839,"комуні":2840,"позбав":2841,"повно":2842,"змен":2843,"важли":2844,"іспа":2845,"закордон":2846,"щина":2847,"воно":2848,"ченка":2849,"ски":2850,"сце":2851,"суди":2852,"ційні":2853,"tele":2854,"досить":2855,"япо":2856,"covid":2857,"зафі":2858,"спря":2859,"куб":2860,"нове":2861,"дмитро":2862,"небезпе":2863,"тивних":2864,"лікарні":2865,"зок":2866,"межах":2867,"зувати":2868,"відсо":2869,"меха":2870,"грош":2871,"чергу":2872,"посеред":2873,"нена":2874,"земель":2875,"іншими":2876,"місяців":2877,"гляд":2878,"дале":2879,"єння":2880,"інвести":2881,"каза":2882,"вихід":2883,"трохи":2884,"тиви":2885,"bo":2886,"шки":2887,"вами":2888,"невели":2889,"чати":2890,"юрій":2891,"льне":2892,"собою":2893,"пункту":2894,"овувати":2895,"нак":2896,"ціни":2897,"кілько":2898,"наших":2899,"хоч":2900,"дитя":2901,"депутати":2902,"погоди":2903,"град":2904,"контролю":2905,"слив":2906,"нда":2907,"lo":2908,"єте":2909,"речі":2910,"зовсім":2911,"пні":2912,"обговор":2913,"овують":2914,"клуб":2915,"мистец":2916,"допомогу":2917,"ір":2918,"кате":2919,"говорів":2920,"нем":2921,"роль":2922,"тна":2923,"строк":2924,"вини":2925,"дис":2926,"проєк":2927,"сор":2928,"вдалося":2929,"чку":2930,"належа":2931,"членів":2932,"заявила":2933,"ймовір":2934,"чатку":2935,"автор":2936,"ризи":2937,"руху":2938,"мзс":2939,"47":2940,"мільяр":2941,"оста":2942,"здо":2943,"якими":2944,"розпові":2945,"сх":2946,"фести":2947,"запи":2948,"культури":2949,"народи":2950,"ніс":2951,"повинен":2952,"кове":2953,"зброї":2954,"освіти":2955,"ючий":2956,"жод":2957,"партія":2958,"посаду":2959,"вест":2960,"доступ":2961,"зайня":2962,"полови":2963,"ліквіда":2964,"оон":2965,"95":2966,"асо":2967,"гами":2968,"василь":2969,"грі":2970,"оче":2971,"куди":2972,"кня":2973,"єра":2974,"рівень":2975,"дро":2976,"забор":2977,"тивні":2978,"оп":2979,"оні":2980,"заявили":2981,"згодом":2982,"рейтин":2983,"кара":2984,"увала":2985,"акції":2986,"французь":2987,"овуючи":2988,"усе":2989,"спочатку":2990,"озбро":2991,"капіта":2992,"тичних":2993,"несу":2994,"партій":2995,"пари":2996,"туреч":2997,"кожен":2998,"розгляд":2999,"цк":3000,"віт":3001,"нової":3002,"залишити":3003,"неру":3004,"навчання":3005,"умовах":3006,"позицію":3007,"тож":3008,"вищий":3009,"тії":3010,"66":3011,"чорно":3012,"втрати":3013,"загалом":3014,"підпису":3015,"керу":3016,"нію":3017,"належить":3018,"службов":3019,"чена":3020,"очо":3021,"загалі":3022,"2002":3023,"жор":3024,"чать":3025,"тує":3026,"мм":3027,"говорити":3028,"кв":3029,"здат":3030,"99":3031,"випу":3032,"другий":3033,"раї":3034,"кореспон":3035,"ванні":3036,"стає":3037,"ченням":3038,"написав":3039,"виник":3040,"ходів":3041,"чимо":3042,"нським":3043,"мого":3044,"відомі":3045,"разів":3046,"чує":3047,"віта":3048,"дому":3049,"шла":3050,"передо":3051,"85":3052,"столиці":3053,"ях":3054,"гляда":3055,"сфері":3056,"спа":3057,"чному":3058,"важаючи":3059,"se":3060,"дри":3061,"персо":3062,"вза":3063,"посту":3064,"спільно":3065,"ag":3066,"армії":3067,"поверну":3068,"гори":3069,"консу":3070,"обли":3071,"telegram":3072,"отримати":3073,"медіа":3074,"шкі":3075,"ниніш":3076,"марш":3077,"контроль":3078,"облад":3079,"ділянки":3080,"нське":3081,"охоро":3082,"вантаж":3083,"зацію":3084,"43":3085,"бід":3086,"пп":3087,"місь":3088,"позовом":3089,"відвід":3090,"гну":3091,"мс":3092,"тіла":3093,"di":3094,"патрі":3095,"ситуацію":3096,"одну":3097,"відмов":3098,"тео":3099,"частиною":3100,"ченого":3101,"довід":3102,"тара":3103,"досі":3104,"кол":3105,"станції":3106,"прибли":3107,"бог":3108,"справж":3109,"укладе":3110,"300":3111,"почу":3112,"угор":3113,"лах":3114,"коза":3115,"зву":3116,"метро":3117,"поліція":3118,"th":3119,"обл":3120,"отже":3121,"список":3122,"даних":3123,"декла":3124,"нерухо":3125,"процес":3126,"вигляді":3127,"тощо":3128,"аж":3129,"злочин":3130,"сп":3131,"будеться":3132,"росією":3133,"дол":3134,"дору":3135,"турі":3136,"рім":3137,"доведе":3138,"лка":3139,"уватися":3140,"виступа":3141,"сна":3142,"тисячі":3143,"санкції":3144,"адвока":3145,"молоді":3146,"першу":3147,"76":3148,"увагу":3149,"загинули":3150,"спожива":3151,"крем":3152,"єктів":3153,"ані":3154,"білорусі":3155,"луган":3156,"цької":3157,"номер":3158,"ватиме":3159,"частину":3160,"черг":3161,"школи":3162,"підсум":3163,"зверта":3164,"мана":3165,"кабіне":3166,"жінок":3167,"працював":3168,"другої":3169,"асоціа":3170,"лит":3171,"вок":3172,"тації":3173,"широ":3174,"нила":3175,"запро":3176,"вважають":3177,"позивач":3178,"фахів":3179,"іван":3180,"тримання":3181,"плення":3182,"42":3183,"одному":3184,"заува":3185,"шен":3186,"лив":3187,"окупан":3188,"електрон":3189,"руй":3190,"фільм":3191,"придба":3192,"взагалі":3193,"шує":3194,"щею":3195,"сказала":3196,"позову":3197,"нью":3198,"почав":3199,"решті":3200,"уточ":3201,"якою":3202,"видно":3203,"тебе":3204,"одне":3205,"багатьох":3206,"цієн":3207,"бок":3208,"динамо":3209,"вими":3210,"одер":3211,"система":3212,"фло":3213,"альністю":3214,"доказів":3215,"500":3216,"мис":3217,"путін":3218,"супере":3219,"намір":3220,"плі":3221,"значно":3222,"століття":3223,"нених":3224,"урах":3225,"велика":3226,"запере":3227,"зустріч":3228,"майно":3229,"пове":3230,"курс":3231,"ub":3232,"поси":3233,"роман":3234,"судових":3235,"розши":3236,"вп":3237,"уря":3238,"віце":3239,"спла":3240,"wit":3241,"валося":3242,"ом":3243,"ul":3244,"ph":3245,"do":3246,"благо":3247,"нює":3248,"характер":3249,"опри":3250,"віці":3251,"знайо":3252,"годин":3253,"колегія":3254,"візи":3255,"завдання":3256,"партнер":3257,"рух":3258,"секретар":3259,"оренди":3260,"ation":3261,"енергії":3262,"окрім":3263,"термін":3264,"руч":3265,"шей":3266,"напередо":3267,"зен":3268,"no":3269,"каб":3270,"запорізь":3271,"таку":3272,"механі":3273,"користь":3274,"могла":3275,"план":3276,"напрямку":3277,"тої":3278,"концер":3279,"ред":3280,"льним":3281,"винува":3282,"кп":3283,"мовою":3284,"сах":3285,"руму":3286,"метів":3287,"77":3288,"альності":3289,"великої":3290,"сад":3291,"виборах":3292,"рр":3293,"сполу":3294,"пру":3295,"заяву":3296,"джує":3297,"банкру":3298,"направ":3299,"джо":3300,"цар":3301,"часно":3302,"ау":3303,"тику":3304,"41":3305,"фрон":3306,"еле":3307,"леного":3308,"гали":3309,"гло":3310,"стам":3311,"чною":3312,"нан":3313,"шкоду":3314,"жя":3315,"фраструк":3316,"покара":3317,"каран":3318,"заго":3319,"край":3320,"срср":3321,"for":3322,"завод":3323,"культур":3324,"популяр":3325,"захист":3326,"ціями":3327,"велико":3328,"повинна":3329,"тував":3330,"змага":3331,"янукович":3332,"жителів":3333,"провести":3334,"нашої":3335,"мешка":3336,"іра":3337,"краще":3338,"мит":3339,"2001":3340,"диві":3341,"тика":3342,"кількох":3343,"важливо":3344,"стях":3345,"водо":3346,"тись":3347,"вшись":3348,"ней":3349,"жений":3350,"луга":3351,"альність":3352,"домов":3353,"сували":3354,"дять":3355,"купівлі":3356,"граду":3357,"віталі":3358,"вра":3359,"po":3360,"ччя":3361,"рекомен":3362,"створю":3363,"місцевих":3364,"провід":3365,"ізраї":3366,"мок":3367,"їхав":3368,"58":3369,"місяць":3370,"понеді":3371,"знав":3372,"стандар":3373,"майдан":3374,"автобу":3375,"поте":3376,"швидко":3377,"овується":3378,"зник":3379,"постави":3380,"mo":3381,"запрова":3382,"брав":3383,"доби":3384,"лука":3385,"гна":3386,"існу":3387,"мора":3388,"жінка":3389,"злов":3390,"витрати":3391,"гти":3392,"досвід":3393,"матчі":3394,"чко":3395,"відділу":3396,"гпк":3397,"рина":3398,"пота":3399,"68":3400,"юк":3401,"чоловіка":3402,"ланд":3403,"будівлі":3404,"ходив":3405,"гран":3406,"зор":3407,"підлягає":3408,"максима":3409,"льну":3410,"слов":3411,"шенні":3412,"маршру":3413,"ri":3414,"ач":3415,"коменту":3416,"сайт":3417,"зсу":3418,"менти":3419,"воли":3420,"оприлюд":3421,"фракції":3422,"йтесь":3423,"поліце":3424,"обів":3425,"смерті":3426,"техніки":3427,"частково":3428,"міського":3429,"ce":3430,"спорту":3431,"li":3432,"спрямова":3433,"зяв":3434,"нці":3435,"відстав":3436,"тина":3437,"становив":3438,"москов":3439,"розпоря":3440,"посади":3441,"газо":3442,"наша":3443,"сель":3444,"спеціалі":3445,"ефі":3446,"ефектив":3447,"команда":3448,"показа":3449,"чотир":3450,"глави":3451,"гривні":3452,"яко":3453,"фактично":3454,"зація":3455,"працюють":3456,"вечер":3457,"площею":3458,"сказати":3459,"ковий":3460,"спад":3461,"колі":3462,"цею":3463,"перша":3464,"релі":3465,"гал":3466,"хімі":3467,"анато":3468,"вистав":3469,"мотив":3470,"всту":3471,"будинок":3472,"сама":3473,"ad":3474,"чними":3475,"тним":3476,"гах":3477,"вищого":3478,"успіш":3479,"сних":3480,"2003":3481,"каналу":3482,"таря":3483,"фонд":3484,"тину":3485,"жо":3486,"головою":3487,"футболі":3488,"нації":3489,"побли":3490,"сутні":3491,"двоє":3492,"контак":3493,"кампа":3494,"язків":3495,"стосов":3496,"дають":3497,"огляду":3498,"конкре":3499,"рим":3500,"великий":3501,"вилу":3502,"шлях":3503,"самов":3504,"систем":3505,"чиною":3506,"уві":3507,"жінки":3508,"клубу":3509,"суді":3510,"львові":3511,"конкурен":3512,"пл":3513,"піде":3514,"нібито":3515,"ліга":3516,"цька":3517,"проблем":3518,"катего":3519,"бюро":3520,"замість":3521,"лав":3522,"вом":3523,"учасники":3524,"шені":3525,"рих":3526,"слава":3527,"поблизу":3528,"єш":3529,"перетво":3530,"лл":3531,"сході":3532,"револю":3533,"копі":3534,"керівник":3535,"город":3536,"дп":3537,"стосовно":3538,"квалі":3539,"виявили":3540,"бол":3541,"ючого":3542,"терно":3543,"ціл":3544,"ine":3545,"деяких":3546,"гні":3547,"вілі":3548,"рози":3549,"тне":3550,"нович":3551,"57":3552,"язані":3553,"зможе":3554,"європі":3555,"жжя":3556,"прибу":3557,"лог":3558,"остро":3559,"боротьби":3560,"зазначає":3561,"кос":3562,"навірусу":3563,"56":3564,"пово":3565,"ходити":3566,"архітек":3567,"письмен":3568,"одя":3569,"карпат":3570,"послуги":3571,"ws":3572,"альних":3573,"нальне":3574,"запла":3575,"отримала":3576,"віру":3577,"витрат":3578,"гам":3579,"платити":3580,"нбу":3581,"вань":3582,"першому":3583,"ційно":3584,"охоронці":3585,"входить":3586,"спілку":3587,"зобра":3588,"фар":3589,"руки":3590,"воє":3591,"ах":3592,"війна":3593,"кг":3594,"випро":3595,"йно":3596,"пошко":3597,"недійс":3598,"59":3599,"навколо":3600,"поверх":3601,"держава":3602,"друге":3603,"телефо":3604,"допомага":3605,"викону":3606,"хоро":3607,"суми":3608,"плату":3609,"почи":3610,"тс":3611,"уро":3612,"ліги":3613,"особисто":3614,"апара":3615,"місяці":3616,"галузі":3617,"джується":3618,"загро":3619,"солю":3620,"обслу":3621,"віді":3622,"мої":3623,"боржника":3624,"зроб":3625,"ринок":3626,"порядок":3627,"дт":3628,"шка":3629,"перева":3630,"години":3631,"пошу":3632,"зами":3633,"шенка":3634,"їхні":3635,"тяж":3636,"альної":3637,"війська":3638,"коалі":3639,"кіло":3640,"мера":3641,"вай":3642,"олег":3643,"путіна":3644,"міліції":3645,"sh":3646,"повтор":3647,"назвав":3648,"тичного":3649,"79":3650,"ньою":3651,"перекона":3652,"такої":3653,"олексій":3654,"перспек":3655,"вело":3656,"факт":3657,"парламен":3658,"заверши":3659,"якості":3660,"опози":3661,"httpst":3662,"63":3663,"прийма":3664,"чет":3665,"тичні":3666,"мість":3667,"абсолю":3668,"стре":3669,"зоні":3670,"ючих":3671,"бре":3672,"ара":3673,"здоровя":3674,"ядер":3675,"моно":3676,"ськими":3677,"відомий":3678,"ляції":3679,"шується":3680,"підня":3681,"моз":3682,"вдень":3683,"оду":3684,"каз":3685,"стрів":3686,"2022":3687,"церкви":3688,"зне":3689,"сумі":3690,"коре":3691,"ta":3692,"жан":3693,"сс":3694,"язки":3695,"so":3696,"проха":3697,"докази":3698,"бала":3699,"робота":3700,"свято":3701,"тичної":3702,"засобів":3703,"будемо":3704,"скільки":3705,"88":3706,"знаю":3707,"спробу":3708,"61":3709,"нафтогаз":3710,"особа2":3711,"брали":3712,"чень":3713,"віктора":3714,"вигу":3715,"ond":3716,"просить":3717,"шенням":3718,"вален":3719,"середині":3720,"нат":3721,"лити":3722,"69":3723,"загибли":3724,"акцій":3725,"нальні":3726,"відразу":3727,"дик":3728,"терпі":3729,"судовому":3730,"дор":3731,"джено":3732,"комісія":3733,"обвинува":3734,"вечері":3735,"400":3736,"своєю":3737,"twit":3738,"горі":3739,"ww":3740,"дно":3741,"схе":3742,"перемож":3743,"газпро":3744,"набу":3745,"тиждень":3746,"думаю":3747,"нальну":3748,"тонн":3749,"експлу":3750,"ске":3751,"twitter":3752,"комер":3753,"кажуть":3754,"тай":3755,"пацієн":3756,"переваж":3757,"up":3758,"сталося":3759,"збірної":3760,"сити":3761,"пункт":3762,"лян":3763,"навірус":3764,"62":3765,"потребу":3766,"стільки":3767,"вугі":3768,"нин":3769,"налу":3770,"спосіб":3771,"тобі":3772,"вби":3773,"67":3774,"систему":3775,"заснов":3776,"морі":3777,"нера":3778,"розрах":3779,"ям":3780,"мол":3781,"різні":3782,"голос":3783,"книж":3784,"студен":3785,"хтось":3786,"дід":3787,"основі":3788,"внесення":3789,"колегії":3790,"існує":3791,"судів":3792,"впев":3793,"штраф":3794,"кожного":3795,"масштаб":3796,"вийшов":3797,"чувати":3798,"ber":3799,"електри":3800,"важко":3801,"жують":3802,"йор":3803,"52":3804,"дріб":3805,"санкцій":3806,"вається":3807,"посла":3808,"лінії":3809,"луцен":3810,"вчора":3811,"вні":3812,"стере":3813,"вк":3814,"вибух":3815,"чик":3816,"торгівлі":3817,"против":3818,"хвилин":3819,"чав":3820,"рахунку":3821,"молод":3822,"ями":3823,"стаття":3824,"ментів":3825,"режиму":3826,"передачі":3827,"точно":3828,"рили":3829,"пое":3830,"1998":3831,"доповід":3832,"глу":3833,"магази":3834,"судові":3835,"см":3836,"маріу":3837,"даний":3838,"біблі":3839,"країнах":3840,"госпі":3841,"сприя":3842,"кувати":3843,"джерело":3844,"тік":3845,"зале":3846,"опі":3847,"потен":3848,"орі":3849,"країна":3850,"посад":3851,"розвиток":3852,"бізнесу":3853,"ано":3854,"грошей":3855,"торок":3856,"міськра":3857,"статисти":3858,"обличчя":3859,"франків":3860,"відносин":3861,"перешко":3862,"провів":3863,"ss":3864,"кації":3865,"губер":3866,"якби":3867,"земле":3868,"соло":3869,"оль":3870,"премєр":3871,"михайло":3872,"ству":3873,"пила":3874,"початок":3875,"китай":3876,"кімна":3877,"yo":3878,"тепло":3879,"переви":3880,"ськ":3881,"сє":3882,"варіан":3883,"інспек":3884,"пунктів":3885,"росли":3886,"коор":3887,"окупа":3888,"мети":3889,"площі":3890,"вівторок":3891,"іі":3892,"стратегі":3893,"рекор":3894,"дізна":3895,"дам":3896,"стався":3897,"домаш":3898,"сував":3899,"зафікс":3900,"класи":3901,"лях":3902,"щен":3903,"величе":3904,"прива":3905,"зують":3906,"вол":3907,"зітк":3908,"ятницю":3909,"поверта":3910,"чес":3911,"тею":3912,"двічі":3913,"чній":3914,"штов":3915,"клопота":3916,"чіт":3917,"місцеві":3918,"своїми":3919,"шості":3920,"оформ":3921,"лла":3922,"нальна":3923,"молоди":3924,"вітчи":3925,"середу":3926,"інвест":3927,"чах":3928,"зій":3929,"ай":3930,"ур":3931,"ята":3932,"54":3933,"sk":3934,"люють":3935,"ева":3936,"соц":3937,"правил":3938,"мами":3939,"участю":3940,"валері":3941,"звязку":3942,"uk":3943,"надто":3944,"мона":3945,"австрі":3946,"1999":3947,"жили":3948,"збільши":3949,"наче":3950,"швидше":3951,"груп":3952,"напад":3953,"моря":3954,"вартості":3955,"другого":3956,"стої":3957,"однієї":3958,"жаль":3959,"статтею":3960,"субо":3961,"володі":3962,"валі":3963,"застос":3964,"ci":3965,"паль":3966,"розмов":3967,"чотирьох":3968,"означає":3969,"нувши":3970,"викладе":3971,"51":3972,"першим":3973,"кладення":3974,"менш":3975,"цеп":3976,"двер":3977,"тифіка":3978,"вулиця":3979,"розмір":3980,"кси":3981,"бах":3982,"задоволь":3983,"чір":3984,"люби":3985,"угоду":3986,"гають":3987,"нина":3988,"бал":3989,"піло":3990,"соль":3991,"рекла":3992,"спокій":3993,"джують":3994,"готові":3995,"шувати":3996,"оборо":3997,"кував":3998,"перевез":3999,"бюджет":4000,"резер":4001,"автомобі":4002,"ницької":4003,"гумані":4004,"моменту":4005,"сторінці":4006,"сімей":4007,"річного":4008,"продаж":4009,"вогонь":4010,"сей":4011,"ключ":4012,"маємо":4013,"валася":4014,"планує":4015,"знайти":4016,"ab":4017,"тті":4018,"перевіря":4019,"зується":4020,"жіно":4021,"подання":4022,"чемпіо":4023,"малень":4024,"відправ":4025,"віднови":4026,"ництвом":4027,"уваги":4028,"аналогі":4029,"ходили":4030,"паке":4031,"виста":4032,"катери":4033,"уповнова":4034,"тренер":4035,"жного":4036,"стабіль":4037,"53":4038,"претен":4039,"режим":4040,"оцінки":4041,"одразу":4042,"розвід":4043,"дорі":4044,"павло":4045,"мобіль":4046,"руб":4047,"харч":4048,"вирішив":4049,"норми":4050,"матч":4051,"королів":4052,"сар":4053,"арсе":4054,"бачення":4055,"рос":4056,"їж":4057,"рома":4058,"рап":4059,"сцена":4060,"ge":4061,"всю":4062,"вплив":4063,"заходу":4064,"лова":4065,"самого":4066,"селення":4067,"види":4068,"ціна":4069,"заво":4070,"вигра":4071,"високо":4072,"місяця":4073,"брю":4074,"гай":4075,"створити":4076,"таєм":4077,"достат":4078,"областях":4079,"знайшли":4080,"рук":4081,"72":4082,"98":4083,"овід":4084,"справед":4085,"ційна":4086,"італії":4087,"хотів":4088,"ованих":4089,"інший":4090,"зад":4091,"знизи":4092,"цілком":4093,"ie":4094,"яті":4095,"загинув":4096,"нести":4097,"залеж":4098,"овища":4099,"мію":4100,"клієн":4101,"товарів":4102,"шин":4103,"депутата":4104,"зробив":4105,"поко":4106,"лист":4107,"корпора":4108,"стами":4109,"причин":4110,"mar":4111,"штабу":4112,"доходів":4113,"трамп":4114,"інф":4115,"тиву":4116,"ранці":4117,"циф":4118,"інформу":4119,"доба":4120,"надати":4121,"оте":4122,"їзду":4123,"перер":4124,"лика":4125,"очи":4126,"тніх":4127,"тоні":4128,"заслу":4129,"січні":4130,"львова":4131,"тували":4132,"статус":4133,"виготов":4134,"завтра":4135,"ленню":4136,"прихи":4137,"вела":4138,"граф":4139,"нала":4140,"відпочи":4141,"десяти":4142,"сму":4143,"життє":4144,"соб":4145,"обу":4146,"нема":4147,"моні":4148,"укла":4149,"ода":4150,"раду":4151,"яро":4152,"миро":4153,"надця":4154,"друга":4155,"геть":4156,"мітин":4157,"пустити":4158,"однією":4159,"пояснив":4160,"сирії":4161,"триває":4162,"хоті":4163,"правила":4164,"прокурор":4165,"рази":4166,"we":4167,"юся":4168,"уть":4169,"середня":4170,"гадав":4171,"фаль":4172,"сергія":4173,"ваго":4174,"бара":4175,"увався":4176,"рець":4177,"іншим":4178,"великих":4179,"парку":4180,"верх":4181,"випа":4182,"pro":4183,"підстави":4184,"фан":4185,"патру":4186,"основні":4187,"жен":4188,"інци":4189,"зла":4190,"хочуть":4191,"ціях":4192,"all":4193,"рювання":4194,"одержа":4195,"подій":4196,"івано":4197,"попро":4198,"силу":4199,"оле":4200,"тивної":4201,"82":4202,"формі":4203,"видав":4204,"говорить":4205,"могти":4206,"льному":4207,"ує":4208,"стий":4209,"жені":4210,"зниження":4211,"народні":4212,"kor":4213,"відшкоду":4214,"уз":4215,"регіоні":4216,"бойових":4217,"тими":4218,"комітет":4219,"рування":4220,"овуються":4221,"числ":4222,"ницького":4223,"ct":4224,"скас":4225,"чере":4226,"батько":4227,"іпоте":4228,"нією":4229,"тком":4230,"кордону":4231,"великі":4232,"рий":4233,"психо":4234,"чар":4235,"артилері":4236,"прізви":4237,"неправи":4238,"піді":4239,"нашого":4240,"обслугов":4241,"пенсій":4242,"дженні":4243,"їхати":4244,"ющенко":4245,"теті":4246,"ers":4247,"засу":4248,"усього":4249,"податку":4250,"ото":4251,"бік":4252,"інше":4253,"ненні":4254,"голосів":4255,"120":4256,"льність":4257,"чука":4258,"сина":4259,"органи":4260,"гаря":4261,"швей":4262,"лями":4263,"джи":4264,"мвф":4265,"однораз":4266,"чують":4267,"провін":4268,"год":4269,"дс":4270,"полтав":4271,"поле":4272,"ристів":4273,"загиблих":4274,"скри":4275,"тну":4276,"сією":4277,"ум":4278,"нню":4279,"ранку":4280,"za":4281,"89":4282,"кабінету":4283,"щенка":4284,"нарде":4285,"резо":4286,"сот":4287,"землю":4288,"режисер":4289,"блок":4290,"собу":4291,"150":4292,"язань":4293,"деклара":4294,"колу":4295,"хор":4296,"тест":4297,"криття":4298,"дить":4299,"вал":4300,"комплекс":4301,"прожи":4302,"податків":4303,"приводу":4304,"дтп":4305,"наді":4306,"низь":4307,"тини":4308,"автори":4309,"березні":4310,"типу":4311,"ны":4312,"тового":4313,"спрост":4314,"чаючи":4315,"нальному":4316,"фей":4317,"льній":4318,"ачем":4319,"мена":4320,"виру":4321,"актор":4322,"буть":4323,"корпу":4324,"списку":4325,"васи":4326,"аза":4327,"трен":4328,"верховна":4329,"зяви":4330,"південно":4331,"регіону":4332,"лене":4333,"еваку":4334,"далеко":4335,"нагаду":4336,"інтернет":4337,"боє":4338,"поду":4339,"перемоги":4340,"пропа":4341,"загально":4342,"шт":4343,"всім":4344,"ухвалою":4345,"заяві":4346,"опини":4347,"компен":4348,"ура":4349,"приму":4350,"пр":4351,"пта":4352,"фікова":4353,"гове":4354,"софі":4355,"факс":4356,"градусів":4357,"фігу":4358,"таж":4359,"взяти":4360,"кольо":4361,"реформи":4362,"нарешті":4363,"часів":4364,"всти":4365,"оване":4366,"окремих":4367,"віз":4368,"присвя":4369,"вкла":4370,"чей":4371,"вру":4372,"нарах":4373,"сторона":4374,"біга":4375,"язок":4376,"яцен":4377,"сьому":4378,"інстру":4379,"відда":4380,"сезону":4381,"позовних":4382,"дз":4383,"дороги":4384,"документ":4385,"людя":4386,"прямо":4387,"мабуть":4388,"оціню":4389,"зміст":4390,"привати":4391,"рб":4392,"нень":4393,"ув":4394,"відбуло":4395,"74":4396,"бажання":4397,"кову":4398,"функціо":4399,"втру":4400,"маль":4401,"пішов":4402,"ісла":4403,"москві":4404,"взяли":4405,"інсти":4406,"слів":4407,"вино":4408,"грудні":4409,"галь":4410,"сотні":4411,"холод":4412,"зія":4413,"речови":4414,"катастро":4415,"судове":4416,"лідера":4417,"ho":4418,"resp":4419,"вогню":4420,"нещо":4421,"дата":4422,"викра":4423,"введення":4424,"sta":4425,"віталій":4426,"важливі":4427,"ухвалу":4428,"онов":4429,"ru":4430,"річна":4431,"мп":4432,"взаємо":4433,"цілому":4434,"довжи":4435,"сева":4436,"потерпі":4437,"друж":4438,"виня":4439,"ard":4440,"сіо":4441,"особли":4442,"згада":4443,"ленко":4444,"фс":4445,"згаду":4446,"one":4447,"декілька":4448,"викла":4449,"воль":4450,"хлі":4451,"протесту":4452,"прості":4453,"посоль":4454,"координа":4455,"слово":4456,"юсти":4457,"льників":4458,"куле":4459,"лайн":4460,"члени":4461,"дця":4462,"обговорю":4463,"домо":4464,"зміню":4465,"живе":4466,"пуск":4467,"місць":4468,"рію":4469,"вене":4470,"бора":4471,"хро":4472,"петра":4473,"вому":4474,"go":4475,"херсон":4476,"новим":4477,"джон":4478,"роботі":4479,"тіло":4480,"дени":4481,"дану":4482,"дружина":4483,"межі":4484,"референ":4485,"вранці":4486,"будіве":4487,"щий":4488,"вислов":4489,"нафти":4490,"відхи":4491,"1990":4492,"зможуть":4493,"пуску":4494,"напа":4495,"програм":4496,"почала":4497,"органу":4498,"правовід":4499,"осере":4500,"стка":4501,"свобода":4502,"гера":4503,"позна":4504,"заціка":4505,"няти":4506,"трампа":4507,"співа":4508,"знає":4509,"ролі":4510,"люва":4511,"дональ":4512,"покуп":4513,"жний":4514,"перемогу":4515,"вр":4516,"мікро":4517,"альні":4518,"акту":4519,"сума":4520,"літак":4521,"головне":4522,"фільму":4523,"respond":4524,"реєстру":4525,"man":4526,"печер":4527,"домови":4528,"імпері":4529,"жодного":4530,"наведе":4531,"їхали":4532,"лет":4533,"джень":4534,"можемо":4535,"сма":4536,"севасто":4537,"такими":4538,"сезон":4539,"бр":4540,"ковим":4541,"пані":4542,"97":4543,"усу":4544,"вересні":4545,"травні":4546,"сав":4547,"здається":4548,"торії":4549,"реаг":4550,"відповів":4551,"ik":4552,"гвар":4553,"титу":4554,"філо":4555,"презен":4556,"паки":4557,"нв":4558,"попри":4559,"відкрито":4560,"чов":4561,"афри":4562,"увачів":4563,"лим":4564,"ої":4565,"мініму":4566,"філа":4567,"шив":4568,"тору":4569,"зони":4570,"службу":4571,"поведі":4572,"коха":4573,"цпк":4574,"графії":4575,"дозволяє":4576,"смерть":4577,"єру":4578,"жно":4579,"інди":4580,"тному":4581,"десь":4582,"логія":4583,"ають":4584,"отру":4585,"чали":4586,"коти":4587,"адвокат":4588,"намі":4589,"рін":4590,"громади":4591,"ностей":4592,"висновки":4593,"торг":4594,"віку":4595,"позицій":4596,"площа":4597,"днр":4598,"моя":4599,"неділю":4600,"інтегра":4601,"відбувся":4602,"двома":4603,"гала":4604,"ліквід":4605,"con":4606,"оренду":4607,"присут":4608,"ляться":4609,"мени":4610,"провели":4611,"закликав":4612,"делега":4613,"кістю":4614,"юстиції":4615,"нуло":4616,"висловив":4617,"джер":4618,"медвед":4619,"лював":4620,"дійсно":4621,"ляються":4622,"серйоз":4623,"виника":4624,"ане":4625,"туди":4626,"солід":4627,"коп":4628,"мні":4629,"воєвод":4630,"другому":4631,"орієн":4632,"обшу":4633,"засуд":4634,"плане":4635,"увань":4636,"чинності":4637,"перших":4638,"видів":4639,"держад":4640,"приро":4641,"неви":4642,"причини":4643,"mekor":4644,"брига":4645,"боргу":4646,"часті":4647,"інж":4648,"полягає":4649,"73":4650,"поміч":4651,"пустили":4652,"веден":4653,"леоні":4654,"fo":4655,"кафе":4656,"брат":4657,"na":4658,"обсє":4659,"сталася":4660,"entnet":4661,"йдуть":4662,"лев":4663,"інде":4664,"біг":4665,"австра":4666,"житоми":4667,"перегля":4668,"тлі":4669,"вина":4670,"йського":4671,"майстер":4672,"нідер":4673,"розгляда":4674,"церква":4675,"стян":4676,"палати":4677,"наслідки":4678,"мініма":4679,"глибо":4680,"ізо":4681,"викли":4682,"юр":4683,"стити":4684,"інститут":4685,"сний":4686,"строку":4687,"закупів":4688,"бування":4689,"жертв":4690,"шоу":4691,"країну":4692,"порушень":4693,"великого":4694,"увалися":4695,"ємося":4696,"світла":4697,"справах":4698,"сканда":4699,"квітні":4700,"суті":4701,"поїзд":4702,"кк":4703,"відправи":4704,"шують":4705,"честь":4706,"чами":4707,"москви":4708,"злочи":4709,"be":4710,"готовий":4711,"теля":4712,"підписав":4713,"вису":4714,"пін":4715,"парати":4716,"рені":4717,"обєк":4718,"вба":4719,"вті":4720,"додому":4721,"96":4722,"жорст":4723,"тварин":4724,"північно":4725,"будинків":4726,"вирішили":4727,"удар":4728,"виро":4729,"нськими":4730,"протест":4731,"мим":4732,"сін":4733,"їжджа":4734,"агро":4735,"вс":4736,"тижні":4737,"86":4738,"грузії":4739,"контракт":4740,"елі":4741,"захища":4742,"спромож":4743,"христи":4744,"вітер":4745,"обсяг":4746,"кування":4747,"ve":4748,"логи":4749,"обер":4750,"жодних":4751,"покла":4752,"бору":4753,"ver":4754,"стяг":4755,"транзи":4756,"водій":4757,"люється":4758,"йським":4759,"причиною":4760,"жено":4761,"складе":4762,"92":4763,"воєн":4764,"серце":4765,"владу":4766,"висновок":4767,"активно":4768,"ченні":4769,"87":4770,"болі":4771,"язково":4772,"троє":4773,"1991":4774,"особі":4775,"зборів":4776,"сного":4777,"алкого":4778,"пост":4779,"фактом":4780,"ада":4781,"шку":4782,"поруч":4783,"жовтні":4784,"свідчить":4785,"коштов":4786,"почне":4787,"виходить":4788,"люк":4789,"війну":4790,"росію":4791,"виробни":4792,"ес":4793,"рятуваль":4794,"комбі":4795,"бої":4796,"полков":4797,"чився":4798,"вимагає":4799,"робить":4800,"різня":4801,"розкри":4802,"нали":4803,"музей":4804,"медіана":4805,"закарпат":4806,"плата":4807,"розшу":4808,"взяв":4809,"баталь":4810,"стов":4811,"втім":4812,"стаді":4813,"зували":4814,"заснова":4815,"сять":4816,"приміщ":4817,"танк":4818,"достав":4819,"свободи":4820,"земля":4821,"ем":4822,"визнав":4823,"дитини":4824,"сана":4825,"знайде":4826,"виборців":4827,"третій":4828,"легко":4829,"ас":4830,"різно":4831,"діяти":4832,"женням":4833,"виключно":4834,"адресою":4835,"крав":4836,"кров":4837,"перелік":4838,"лютому":4839,"1996":4840,"джі":4841,"bl":4842,"футболу":4843,"сподар":4844,"фінансів":4845,"шло":4846,"погля":4847,"шан":4848,"народних":4849,"84":4850,"стки":4851,"приєдна":4852,"історію":4853,"науково":4854,"fe":4855,"проблема":4856,"тик":4857,"меда":4858,"перехід":4859,"прийняв":4860,"жних":4861,"херсо":4862,"колись":4863,"головним":4864,"брази":4865,"річних":4866,"заробіт":4867,"торія":4868,"програму":4869,"іден":4870,"бют":4871,"злочину":4872,"склика":4873,"шений":4874,"вибір":4875,"пох":4876,"менем":4877,"гію":4878,"лови":4879,"панде":4880,"округу":4881,"арбі":4882,"били":4883,"червні":4884,"банкрут":4885,"язаний":4886,"євген":4887,"новому":4888,"щує":4889,"sa":4890,"йшло":4891,"фікації":4892,"ванню":4893,"скороти":4894,"зам":4895,"зробили":4896,"руха":4897,"правомір":4898,"базі":4899,"аук":4900,"1997":4901,"хворих":4902,"ей":4903,"оке":4904,"діль":4905,"світло":4906,"родини":4907,"сесії":4908,"скарж":4909,"острова":4910,"утриму":4911,"ist":4912,"впрова":4913,"qu":4914,"тичний":4915,"загальна":4916,"напру":4917,"побуд":4918,"страш":4919,"зли":4920,"тива":4921,"пет":4922,"терна":4923,"вітчизня":4924,"ran":4925,"ефірі":4926,"телефон":4927,"дівча":4928,"ресурсів":4929,"соня":4930,"рас":4931,"вугілля":4932,"схи":4933,"модер":4934,"рово":4935,"державна":4936,"шевченка":4937,"111":4938,"che":4939,"проектів":4940,"скори":4941,"липні":4942,"кати":4943,"космі":4944,"аукціо":4945,"фізичних":4946,"вича":4947,"тивна":4948,"пір":4949,"платі":4950,"поїз":4951,"сюже":4952,"дила":4953,"зору":4954,"донбасу":4955,"гідро":4956,"чемпіон":4957,"останніх":4958,"йон":4959,"предме":4960,"тними":4961,"відстані":4962,"суботу":4963,"юлія":4964,"говорили":4965,"москва":4966,"глоба":4967,"ймен":4968,"спортс":4969,"ters":4970,"сплати":4971,"передати":4972,"текст":4973,"процесі":4974,"щені":4975,"верто":4976,"оголосив":4977,"ix":4978,"йом":4979,"шинг":4980,"класу":4981,"дотриму":4982,"стовір":4983,"йс":4984,"оригі":4985,"зброю":4986,"дев":4987,"тник":4988,"дзер":4989,"пець":4990,"онлайн":4991,"83":4992,"джені":4993,"генерал":4994,"випадок":4995,"дова":4996,"жні":4997,"набли":4998,"93":4999,"будівель":5000,"bn":5001,"відпові":5002,"перене":5003,"кири":5004,"пункти":5005,"om":5006,"пд":5007,"діїв":5008,"мові":5009,"старі":5010,"говорив":5011,"набагато":5012,"менко":5013,"товано":5014,"питав":5015,"кризи":5016,"випадках":5017,"пана":5018,"іго":5019,"щастя":5020,"людям":5021,"річчя":5022,"пропонує":5023,"ліцен":5024,"хіба":5025,"прикла":5026,"росіяни":5027,"насиль":5028,"переду":5029,"іспанії":5030,"грати":5031,"71":5032,"кабінет":5033,"розір":5034,"рівнен":5035,"заареш":5036,"ії":5037,"пообіця":5038,"бібліоте":5039,"вісім":5040,"падіння":5041,"топ":5042,"ати":5043,"дженням":5044,"стріле":5045,"пустив":5046,"джений":5047,"тал":5048,"адреса":5049,"вечір":5050,"лої":5051,"супрово":5052,"шній":5053,"1992":5054,"вчені":5055,"довж":5056,"костян":5057,"селя":5058,"зоря":5059,"серії":5060,"педа":5061,"двигу":5062,"двері":5063,"карпа":5064,"одній":5065,"дову":5066,"ницький":5067,"щих":5068,"предмет":5069,"дала":5070,"вашинг":5071,"мента":5072,"тром":5073,"закладів":5074,"лабора":5075,"літет":5076,"знати":5077,"серпні":5078,"щонай":5079,"власне":5080,"казах":5081,"велику":5082,"art":5083,"могу":5084,"щено":5085,"випадки":5086,"жар":5087,"любов":5088,"жами":5089,"інфек":5090,"тендер":5091,"полу":5092,"ційну":5093,"методи":5094,"лондо":5095,"видобу":5096,"вес":5097,"першою":5098,"врегу":5099,"підтрим":5100,"au":5101,"кель":5102,"акт":5103,"волон":5104,"iz":5105,"ходяться":5106,"кад":5107,"аргу":5108,"районах":5109,"брюс":5110,"обій":5111,"ювання":5112,"харкові":5113,"татар":5114,"чика":5115,"борони":5116,"науки":5117,"пунктом":5118,"pe":5119,"air":5120,"пери":5121,"запобіж":5122,"віду":5123,"яскра":5124,"reu":5125,"пропаган":5126,"андрія":5127,"назву":5128,"голів":5129,"вихова":5130,"хії":5131,"наталі":5132,"вантажів":5133,"філі":5134,"стого":5135,"узго":5136,"тності":5137,"єдиний":5138,"політика":5139,"обох":5140,"міна":5141,"94":5142,"баром":5143,"виходу":5144,"єги":5145,"озброє":5146,"доне":5147,"інтереси":5148,"1994":5149,"pre":5150,"сера":5151,"готе":5152,"ходячи":5153,"політику":5154,"iii":5155,"нськ":5156,"заявою":5157,"агра":5158,"відчува":5159,"тові":5160,"пораз":5161,"патріар":5162,"81":5163,"екологі":5164,"алек":5165,"всій":5166,"кували":5167,"втор":5168,"маті":5169,"рович":5170,"голь":5171,"живу":5172,"епіде":5173,"нському":5174,"десять":5175,"точки":5176,"боя":5177,"скарга":5178,"лідерів":5179,"дощ":5180,"уп":5181,"місії":5182,"актів":5183,"припа":5184,"бази":5185,"леному":5186,"ону":5187,"тариф":5188,"святку":5189,"заводу":5190,"пожежі":5191,"різа":5192,"річки":5193,"ввечері":5194,"конкурсу":5195,"вища":5196,"направи":5197,"оцінку":5198,"думки":5199,"zn":5200,"дани":5201,"швілі":5202,"металу":5203,"екі":5204,"сервіс":5205,"шок":5206,"марке":5207,"тична":5208,"програма":5209,"1995":5210,"кожному":5211,"китаю":5212,"зміц":5213,"лам":5214,"останнім":5215,"повіту":5216,"веду":5217,"дерев":5218,"хол":5219,"заході":5220,"змагання":5221,"строю":5222,"івана":5223,"ет":5224,"товар":5225,"жила":5226,"брифін":5227,"кіна":5228,"побачив":5229,"вось":5230,"кораб":5231,"сток":5232,"манд":5233,"планують":5234,"інак":5235,"стрій":5236,"пою":5237,"ненням":5238,"свідчать":5239,"шили":5240,"стями":5241,"чується":5242,"товані":5243,"погір":5244,"окупанти":5245,"дохід":5246,"спостере":5247,"суттє":5248,"частіше":5249,"лену":5250,"пасажир":5251,"міц":5252,"лай":5253,"сора":5254,"епі":5255,"будувати":5256,"єдиного":5257,"іноді":5258,"виправ":5259,"бон":5260,"кубка":5261,"цвк":5262,"руку":5263,"державі":5264,"нагороди":5265,"вов":5266,"орів":5267,"подару":5268,"ill":5269,"шкоди":5270,"звою":5271,"компенса":5272,"стоїть":5273,"похи":5274,"няття":5275,"донь":5276,"дних":5277,"хан":5278,"кас":5279,"ліна":5280,"ворі":5281,"der":5282,"азов":5283,"пит":5284,"ian":5285,"місте":5286,"вважати":5287,"назвою":5288,"терів":5289,"належним":5290,"змінити":5291,"державну":5292,"ip":5293,"шар":5294,"os":5295,"гель":5296,"дяться":5297,"сиро":5298,"анто":5299,"сказано":5300,"уч":5301,"кожна":5302,"посаді":5303,"сюди":5304,"впливу":5305,"долара":5306,"ck":5307,"зруй":5308,"пять":5309,"дуб":5310,"ману":5311,"мя":5312,"ay":5313,"альтерна":5314,"овості":5315,"гле":5316,"іменем":5317,"кала":5318,"пені":5319,"нотарі":5320,"ванням":5321,"деталі":5322,"регуляр":5323,"ука":5324,"рові":5325,"внесе":5326,"шкіль":5327,"можливі":5328,"като":5329,"метри":5330,"опадів":5331,"імпера":5332,"містах":5333,"ресто":5334,"xvi":5335,"конгре":5336,"сау":5337,"збитків":5338,"вбивство":5339,"влі":5340,"меж":5341,"писав":5342,"дай":5343,"reuters":5344,"їхніх":5345,"ort":5346,"надалі":5347,"розподіл":5348,"орган":5349,"дим":5350,"книги":5351,"моє":5352,"звісно":5353,"запев":5354,"вики":5355,"прийшов":5356,"бого":5357,"жителі":5358,"інженер":5359,"гне":5360,"юрія":5361,"борис":5362,"дійшов":5363,"крок":5364,"повному":5365,"зон":5366,"ціль":5367,"машини":5368,"шів":5369,"динамі":5370,"штур":5371,"em":5372,"гад":5373,"виклада":5374,"величез":5375,"раптом":5376,"невідомо":5377,"ауди":5378,"ізраїль":5379,"звід":5380,"спала":5381,"духов":5382,"реформу":5383,"назад":5384,"нідерлан":5385,"поясню":5386,"цере":5387,"педаго":5388,"факти":5389,"слаб":5390,"модель":5391,"монасти":5392,"вості":5393,"батька":5394,"дефі":5395,"якийсь":5396,"нкою":5397,"непри":5398,"стен":5399,"мекси":5400,"брон":5401,"аналіз":5402,"насам":5403,"лежа":5404,"релігій":5405,"підозру":5406,"монітори":5407,"шести":5408,"арешт":5409,"донецька":5410,"бачив":5411,"дана":5412,"місцях":5413,"сторон":5414,"ьми":5415,"гані":5416,"переслід":5417,"півночі":5418,"допомога":5419,"майдану":5420,"ввп":5421,"реформ":5422,"тетя":5423,"експерт":5424,"праце":5425,"гін":5426,"дового":5427,"чене":5428,"конфлікт":5429,"муться":5430,"містя":5431,"ництві":5432,"іншої":5433,"риба":5434,"1989":5435,"офіцер":5436,"ап":5437,"подорож":5438,"цях":5439,"пріори":5440,"нашу":5441,"резолю":5442,"ступу":5443,"кандидат":5444,"кл":5445,"ната":5446,"сумні":5447,"обами":5448,"isbn":5449,"ючі":5450,"прозо":5451,"стих":5452,"ремонт":5453,"супу":5454,"br":5455,"чорного":5456,"сної":5457,"альний":5458,"дисци":5459,"1000":5460,"екіпа":5461,"вчинення":5462,"льник":5463,"заявляє":5464,"ально":5465,"обсязі":5466,"театру":5467,"метра":5468,"уник":5469,"неться":5470,"600":5471,"містить":5472,"доско":5473,"тихо":5474,"міська":5475,"третьої":5476,"присутні":5477,"шахтар":5478,"станням":5479,"сепарати":5480,"вмі":5481,"проєкт":5482,"всьому":5483,"кує":5484,"перерах":5485,"газета":5486,"поя":5487,"чою":5488,"падає":5489,"житті":5490,"гового":5491,"1993":5492,"дніпров":5493,"режимі":5494,"відтак":5495,"мари":5496,"обмін":5497,"app":5498,"подиви":5499,"судової":5500,"підозрю":5501,"зловмис":5502,"щений":5503,"марія":5504,"буває":5505,"школа":5506,"котрі":5507,"розум":5508,"боже":5509,"цо":5510,"диску":5511,"оплати":5512,"відобра":5513,"тетів":5514,"приту":5515,"відмову":5516,"звання":5517,"очевидно":5518,"владі":5519,"літака":5520,"основних":5521,"поли":5522,"освіт":5523,"ціліс":5524,"баз":5525,"insta":5526,"олена":5527,"луценко":5528,"якісь":5529,"збору":5530,"рахунків":5531,"державні":5532,"дснс":5533,"зара":5534,"вах":5535,"віком":5536,"жена":5537,"терори":5538,"каль":5539,"олігар":5540,"петер":5541,"такому":5542,"кали":5543,"професор":5544,"подав":5545,"атом":5546,"урочи":5547,"модерні":5548,"ca":5549,"паспор":5550,"діагно":5551,"юлії":5552,"ірина":5553,"goo":5554,"каналі":5555,"няє":5556,"мара":5557,"рнбо":5558,"понен":5559,"чими":5560,"зрі":5561,"бера":5562,"захисник":5563,"опти":5564,"дівчина":5565,"безу":5566,"групова":5567,"такою":5568,"ченої":5569,"ex":5570,"нгу":5571,"терак":5572,"інакше":5573,"польща":5574,"коно":5575,"шляху":5576,"ковому":5577,"закінчив":5578,"ціну":5579,"відома":5580,"екра":5581,"ly":5582,"людьми":5583,"щину":5584,"чам":5585,"фіналу":5586,"англій":5587,"тських":5588,"старших":5589,"вбивства":5590,"візь":5591,"якось":5592,"tim":5593,"красно":5594,"експери":5595,"інь":5596,"залежить":5597,"випуск":5598,"язаних":5599,"тін":5600,"освіта":5601,"губ":5602,"рейтинг":5603,"стабілі":5604,"cor":5605,"інша":5606,"пс":5607,"думу":5608,"ry":5609,"певно":5610,"ватимуть":5611,"визнати":5612,"800":5613,"1944":5614,"зацікав":5615,"пори":5616,"католи":5617,"причому":5618,"одесі":5619,"виявлено":5620,"чаються":5621,"виплати":5622,"особою":5623,"хворо":5624,"вийшли":5625,"акція":5626,"входять":5627,"напрям":5628,"91":5629,"японії":5630,"групу":5631,"радою":5632,"школі":5633,"жем":5634,"назвали":5635,"довелося":5636,"копи":5637,"рекорд":5638,"зусил":5639,"мю":5640,"карантин":5641,"поруш":5642,"боротьба":5643,"спроби":5644,"брифінгу":5645,"ae":5646,"забу":5647,"індивіду":5648,"нагадав":5649,"академі":5650,"емі":5651,"тують":5652,"дефіци":5653,"лею":5654,"inter":5655,"статей":5656,"команд":5657,"вне":5658,"геор":5659,"перемі":5660,"сані":5661,"сріб":5662,"глиби":5663,"єкта":5664,"кінець":5665,"коротко":5666,"емо":5667,"премії":5668,"дель":5669,"часи":5670,"логічних":5671,"брен":5672,"можливе":5673,"оф":5674,"вийшла":5675,"море":5676,"пройшов":5677,"набра":5678,"міський":5679,"куч":5680,"табли":5681,"знищи":5682,"ованого":5683,"поставки":5684,"гей":5685,"тиск":5686,"різни":5687,"франція":5688,"турою":5689,"бригади":5690,"подола":5691,"шні":5692,"яни":5693,"літо":5694,"лювали":5695,"змогли":5696,"угрупова":5697,"леген":5698,"укрі":5699,"достро":5700,"вийти":5701,"кнув":5702,"кен":5703,"відвіда":5704,"євге":5705,"запе":5706,"проекти":5707,"наказ":5708,"діть":5709,"клас":5710,"інтерне":5711,"поєди":5712,"чимало":5713,"частка":5714,"ak":5715,"давством":5716,"вдома":5717,"зраз":5718,"загрожує":5719,"тований":5720,"250":5721,"системі":5722,"засоби":5723,"сара":5724,"шена":5725,"оборон":5726,"владою":5727,"побачити":5728,"кірово":5729,"галере":5730,"розвідки":5731,"стр":5732,"ведуть":5733,"підвищи":5734,"польо":5735,"автоном":5736,"належать":5737,"берг":5738,"певні":5739,"піти":5740,"частин":5741,"стійно":5742,"леної":5743,"чоловіки":5744,"гав":5745,"рішенні":5746,"беруть":5747,"xx":5748,"рахунки":5749,"дебю":5750,"гранато":5751,"втрат":5752,"адресу":5753,"норве":5754,"леними":5755,"матчу":5756,"складає":5757,"уль":5758,"поліп":5759,"стики":5760,"руках":5761,"положень":5762,"управлі":5763,"джувати":5764,"повсю":5765,"pl":5766,"обере":5767,"турнір":5768,"понов":5769,"сильні":5770,"гати":5771,"лад":5772,"семи":5773,"писом":5774,"дитина":5775,"концеп":5776,"сну":5777,"закриття":5778,"дисциплі":5779,"плани":5780,"сексу":5781,"збірна":5782,"арбітра":5783,"жених":5784,"законів":5785,"if":5786,"яків":5787,"формова":5788,"росіян":5789,"готова":5790,"чітко":5791,"прийшли":5792,"чолі":5793,"квартири":5794,"камі":5795,"скарзі":5796,"диха":5797,"роду":5798,"влаш":5799,"проф":5800,"усклад":5801,"поширю":5802,"обліку":5803,"перероб":5804,"непода":5805,"gu":5806,"приче":5807,"тиці":5808,"рахунком":5809,"потреби":5810,"покра":5811,"кут":5812,"соро":5813,"тивну":5814,"відсутні":5815,"пожеж":5816,"ity":5817,"вогне":5818,"вода":5819,"новано":5820,"кей":5821,"аку":5822,"долар":5823,"долу":5824,"зато":5825,"острів":5826,"lin":5827,"слідчі":5828,"несення":5829,"відносно":5830,"1941":5831,"домовле":5832,"нальній":5833,"магі":5834,"конвен":5835,"валід":5836,"году":5837,"краси":5838,"шевчен":5839,"борг":5840,"дови":5841,"нерів":5842,"ігра":5843,"ляція":5844,"відрізня":5845,"фіналі":5846,"зал":5847,"льники":5848,"нати":5849,"зив":5850,"шер":5851,"хмар":5852,"надано":5853,"приклад":5854,"ковою":5855,"зупини":5856,"еня":5857,"скаргою":5858,"пісні":5859,"яна":5860,"дрі":5861,"гової":5862,"розмови":5863,"періоду":5864,"десятки":5865,"зафіксу":5866,"виходячи":5867,"торами":5868,"щем":5869,"праць":5870,"есто":5871,"мур":5872,"ційне":5873,"дета":5874,"металур":5875,"менів":5876,"бург":5877,"бів":5878,"потрібні":5879,"фре":5880,"дизай":5881,"церков":5882,"тія":5883,"знак":5884,"аварії":5885,"ченим":5886,"jo":5887,"кордоні":5888,"бити":5889,"зауважив":5890,"сільська":5891,"словач":5892,"яні":5893,"читися":5894,"єднаних":5895,"церемо":5896,"логій":5897,"голові":5898,"застосов":5899,"балан":5900,"ану":5901,"судо":5902,"нашій":5903,"нехай":5904,"жий":5905,"максим":5906,"дату":5907,"лікаря":5908,"іншому":5909,"правди":5910,"голосу":5911,"дім":5912,"лили":5913,"єри":5914,"цент":5915,"прогре":5916,"жки":5917,"ноги":5918,"зований":5919,"азер":5920,"низку":5921,"шукати":5922,"перевагу":5923,"льною":5924,"оброб":5925,"wor":5926,"єкт":5927,"посвід":5928,"явився":5929,"розгор":5930,"варіант":5931,"ець":5932,"вимогам":5933,"март":5934,"парк":5935,"фіска":5936,"потрапив":5937,"всесвіт":5938,"одеси":5939,"особа4":5940,"щад":5941,"південь":5942,"зігра":5943,"армія":5944,"хвороби":5945,"тему":5946,"матчів":5947,"курсу":5948,"кубок":5949,"принай":5950,"британія":5951,"державне":5952,"русла":5953,"цілі":5954,"камер":5955,"закрі":5956,"війні":5957,"влашту":5958,"надія":5959,"рена":5960,"харкова":5961,"мобілі":5962,"1945":5963,"пройшли":5964,"женого":5965,"азербай":5966,"напів":5967,"запропо":5968,"рати":5969,"місцями":5970,"кабмін":5971,"боєприпа":5972,"ландії":5973,"серва":5974,"тривали":5975,"негайно":5976,"нік":5977,"діб":5978,"зросла":5979,"подібних":5980,"угод":5981,"сне":5982,"обидва":5983,"добри":5984,"ділянку":5985,"моне":5986,"квартир":5987,"миру":5988,"када":5989,"нюк":5990,"запис":5991,"готів":5992,"особа3":5993,"110":5994,"фахівці":5995,"самим":5996,"дур":5997,"людину":5998,"минулому":5999,"ривши":6000,"конкурс":6001,"мате":6002,"музею":6003,"навпаки":6004,"туристи":6005,"злочинів":6006,"доріг":6007,"гун":6008,"кордоном":6009,"палива":6010,"мороз":6011,"нижче":6012,"мід":6013,"сіння":6014,"ваються":6015,"батьки":6016,"траге":6017,"знання":6018,"нарко":6019,"посол":6020,"голи":6021,"солідар":6022,"влітку":6023,"свідо":6024,"впродовж":6025,"казав":6026,"тність":6027,"1975":6028,"писко":6029,"продукти":6030,"препара":6031,"заку":6032,"примус":6033,"плато":6034,"котри":6035,"порож":6036,"окрузі":6037,"1980":6038,"віри":6039,"валерій":6040,"трак":6041,"заради":6042,"америки":6043,"погро":6044,"зміг":6045,"ющенка":6046,"власник":6047,"єнко":6048,"ляла":6049,"удару":6050,"членом":6051,"ковані":6052,"зового":6053,"яценюк":6054,"уванні":6055,"рослин":6056,"фінал":6057,"станція":6058,"старший":6059,"суванням":6060,"нін":6061,"розповсю":6062,"рештою":6063,"ракети":6064,"ольга":6065,"загальну":6066,"ційним":6067,"одяг":6068,"учасник":6069,"джерел":6070,"заборону":6071,"кличко":6072,"невід":6073,"далих":6074,"посили":6075,"сумнів":6076,"контин":6077,"ніяк":6078,"процен":6079,"двадця":6080,"григо":6081,"структур":6082,"фірма":6083,"опис":6084,"ступа":6085,"фірми":6086,"доли":6087,"перемога":6088,"мемо":6089,"штату":6090,"етап":6091,"введе":6092,"кера":6093,"виступи":6094,"донбас":6095,"здив":6096,"пя":6097,"азаров":6098,"щодня":6099,"ливий":6100,"єписко":6101,"соціалі":6102,"нуть":6103,"побу":6104,"відмін":6105,"статут":6106,"інвалід":6107,"леним":6108,"видат":6109,"джен":6110,"тип":6111,"женнями":6112,"зовані":6113,"чала":6114,"твори":6115,"ant":6116,"листа":6117,"пром":6118,"напо":6119,"прогноз":6120,"набира":6121,"вирішити":6122,"news":6123,"тепла":6124,"дозві":6125,"регіонах":6126,"az":6127,"призупи":6128,"малю":6129,"установи":6130,"жувати":6131,"аграр":6132,"судно":6133,"чинного":6134,"офісу":6135,"тивним":6136,"білорусь":6137,"трибу":6138,"чорномор":6139,"англі":6140,"числа":6141,"коль":6142,"смо":6143,"партне":6144,"кір":6145,"зміну":6146,"болга":6147,"попов":6148,"боротьбі":6149,"зосере":6150,"112":6151,"сона":6152,"моделі":6153,"подібні":6154,"зовано":6155,"йській":6156,"перепису":6157,"мату":6158,"машин":6159,"ko":6160,"єдну":6161,"цікаво":6162,"gle":6163,"супереч":6164,"вель":6165,"подоба":6166,"фабри":6167,"хра":6168,"рс":6169,"покри":6170,"крові":6171,"саака":6172,"феро":6173,"сформу":6174,"швейца":6175,"кредиту":6176,"гові":6177,"комуніка":6178,"нками":6179,"нять":6180,"лікарня":6181,"зане":6182,"дніпра":6183,"смарт":6184,"одру":6185,"мереж":6186,"потік":6187,"вакцини":6188,"купу":6189,"тієї":6190,"лик":6191,"король":6192,"господа":6193,"робер":6194,"pr":6195,"погляд":6196,"степа":6197,"тивне":6198,"бруд":6199,"чисель":6200,"півдні":6201,"заса":6202,"io":6203,"пару":6204,"акцію":6205,"головні":6206,"тети":6207,"знають":6208,"мігран":6209,"екстре":6210,"похова":6211,"сфери":6212,"мною":6213,"районів":6214,"вані":6215,"другій":6216,"арх":6217,"стають":6218,"товару":6219,"триво":6220,"https":6221,"cl":6222,"годину":6223,"німа":6224,"помил":6225,"яки":6226,"вважаю":6227,"джених":6228,"тт":6229,"допов":6230,"тацію":6231,"патріо":6232,"правових":6233,"вибуху":6234,"доктор":6235,"групі":6236,"альна":6237,"www":6238,"шк":6239,"святого":6240,"св":6241,"варша":6242,"організ":6243,"ляцію":6244,"очевид":6245,"ставити":6246,"афгані":6247,"ігоря":6248,"герої":6249,"угода":6250,"ментом":6251,"жих":6252,"рука":6253,"радика":6254,"su":6255,"савченко":6256,"малі":6257,"тості":6258,"наше":6259,"ділянок":6260,"кає":6261,"донецьку":6262,"астро":6263,"ел":6264,"веро":6265,"визнано":6266,"звідки":6267,"театр":6268,"інве":6269,"інтелек":6270,"мільярда":6271,"біжен":6272,"деталь":6273,"перехо":6274,"дентів":6275,"летів":6276,"ницею":6277,"скі":6278,"лау":6279,"йську":6280,"живуть":6281,"доскона":6282,"імперії":6283,"xid":6284,"послід":6285,"надав":6286,"тіс":6287,"петен":6288,"діями":6289,"сена":6290,"уяв":6291,"дання":6292,"іл":6293,"уніка":6294,"вро":6295,"атлан":6296,"сіл":6297,"обрання":6298,"єкти":6299,"дозволу":6300,"спу":6301,"газпром":6302,"дещо":6303,"зізна":6304,"функції":6305,"зрештою":6306,"джор":6307,"зан":6308,"віл":6309,"інду":6310,"сильно":6311,"компетен":6312,"прися":6313,"театра":6314,"кало":6315,"кун":6316,"лера":6317,"zaxid":6318,"футбол":6319,"селищ":6320,"мігра":6321,"они":6322,"130":6323,"кінце":6324,"статтями":6325,"нава":6326,"активів":6327,"окремі":6328,"стін":6329,"логу":6330,"достовір":6331,"правило":6332,"виступає":6333,"хотіли":6334,"власні":6335,"торгове":6336,"вор":6337,"музикан":6338,"тній":6339,"могло":6340,"щоріч":6341,"губерна":6342,"бами":6343,"нально":6344,"розпа":6345,"кувала":6346,"ніяких":6347,"кубо":6348,"няється":6349,"дніми":6350,"av":6351,"моро":6352,"аналізу":6353,"сталі":6354,"місцем":6355,"тили":6356,"памят":6357,"газети":6358,"телефону":6359,"доля":6360,"крила":6361,"згоди":6362,"писати":6363,"меркель":6364,"вартістю":6365,"вчини":6366,"гпу":6367,"відкрили":6368,"денис":6369,"поділь":6370,"мить":6371,"брі":6372,"мовляв":6373,"радник":6374,"стою":6375,"мото":6376,"телеві":6377,"ep":6378,"олега":6379,"литви":6380,"ґрунту":6381,"перш":6382,"досяг":6383,"пішли":6384,"мінімум":6385,"лива":6386,"статися":6387,"складні":6388,"язана":6389,"робили":6390,"зону":6391,"руд":6392,"фору":6393,"жорсто":6394,"eu":6395,"роблять":6396,"усім":6397,"тарів":6398,"експорт":6399,"сезоні":6400,"дення":6401,"700":6402,"мовив":6403,"трене":6404,"хати":6405,"сиді":6406,"медици":6407,"їхала":6408,"сва":6409,"закли":6410,"відміну":6411,"сся":6412,"робив":6413,"євре":6414,"цими":6415,"ала":6416,"першій":6417,"стеро":6418,"1117":6419,"ьо":6420,"команді":6421,"дотрима":6422,"пройде":6423,"розміру":6424,"складно":6425,"nation":6426,"показник":6427,"уникнути":6428,"пряму":6429,"доходи":6430,"сукуп":6431,"спікер":6432,"910":6433,"загрозу":6434,"ast":6435,"стріля":6436,"дмитра":6437,"1970":6438,"суль":6439,"миколи":6440,"освіту":6441,"пдв":6442,"головних":6443,"живо":6444,"персона":6445,"залишив":6446,"заду":6447,"муж":6448,"експор":6449,"розумів":6450,"остаточ":6451,"лився":6452,"запобіга":6453,"новані":6454,"одужа":6455,"кредит":6456,"умовами":6457,"бух":6458,"майбу":6459,"вакцина":6460,"нальним":6461,"азі":6462,"вити":6463,"архео":6464,"озе":6465,"соціо":6466,"виконати":6467,"ставили":6468,"осе":6469,"порушено":6470,"ковано":6471,"баланс":6472,"ліж":6473,"імовір":6474,"зру":6475,"підряд":6476,"кабміну":6477,"ставки":6478,"by":6479,"мама":6480,"пуль":6481,"тона":6482,"скуль":6483,"сніг":6484,"провока":6485,"особами":6486,"візиту":6487,"знищення":6488,"ковими":6489,"денту":6490,"погано":6491,"джува":6492,"укладено":6493,"лікарі":6494,"пти":6495,"мості":6496,"заповід":6497,"бійців":6498,"відомих":6499,"будинки":6500,"ens":6501,"озву":6502,"прапор":6503,"краю":6504,"їхній":6505,"маса":6506,"одеса":6507,"родина":6508,"заява":6509,"причет":6510,"західних":6511,"ідеї":6512,"ветера":6513,"цикло":6514,"виступав":6515,"повного":6516,"роком":6517,"google":6518,"греції":6519,"ин":6520,"вой":6521,"стика":6522,"поспі":6523,"вирок":6524,"стояв":6525,"героїв":6526,"ive":6527,"кмда":6528,"ярослав":6529,"ukra":6530,"мно":6531,"дової":6532,"потребує":6533,"межами":6534,"доволь":6535,"експорту":6536,"овище":6537,"наступні":6538,"створено":6539,"іванович":6540,"дорозі":6541,"вжи":6542,"лізації":6543,"рестора":6544,"зусилля":6545,"слідства":6546,"сьо":6547,"бачити":6548,"шпи":6549,"потрібна":6550,"почат":6551,"скульп":6552,"ринк":6553,"жується":6554,"розби":6555,"свідомо":6556,"належало":6557,"тувала":6558,"кулі":6559,"цікави":6560,"овували":6561,"жає":6562,"митро":6563,"бач":6564,"ттям":6565,"загроз":6566,"орде":6567,"старий":6568,"тексті":6569,"льними":6570,"bc":6571,"стровано":6572,"фронт":6573,"ell":6574,"пома":6575,"відро":6576,"тви":6577,"продемон":6578,"нулися":6579,"банки":6580,"чій":6581,"світи":6582,"карти":6583,"лідери":6584,"new":6585,"номе":6586,"vo":6587,"свята":6588,"пале":6589,"ворог":6590,"ходила":6591,"голу":6592,"пишу":6593,"узбере":6594,"лт":6595,"фк":6596,"версії":6597,"продав":6598,"алу":6599,"свят":6600,"рівна":6601,"цілу":6602,"фанта":6603,"лович":6604,"запов":6605,"погода":6606,"показав":6607,"носити":6608,"сором":6609,"вирішила":6610,"ушко":6611,"окремо":6612,"регуля":6613,"1939":6614,"шанс":6615,"женні":6616,"нос":6617,"повний":6618,"острові":6619,"1943":6620,"вільно":6621,"богдан":6622,"цев":6623,"агресії":6624,"чвер":6625,"цікаві":6626,"сухо":6627,"мітинг":6628,"тижнів":6629,"просив":6630,"інцидент":6631,"оренд":6632,"yout":6633,"факуль":6634,"ліки":6635,"прибули":6636,"дене":6637,"туре":6638,"йтеся":6639,"пенсіо":6640,"перекла":6641,"спілки":6642,"особу":6643,"тарас":6644,"чкою":6645,"леонід":6646,"ступеня":6647,"леті":6648,"державою":6649,"плав":6650,"ату":6651,"лейте":6652,"тиску":6653,"іслам":6654,"третє":6655,"містом":6656,"пане":6657,"інструк":6658,"приго":6659,"щувати":6660,"овича":6661,"бун":6662,"лос":6663,"власника":6664,"зах":6665,"mer":6666,"лета":6667,"und":6668,"шина":6669,"одиниць":6670,"наталія":6671,"відпу":6672,"her":6673,"санітар":6674,"меться":6675,"техніку":6676,"отримає":6677,"суспі":6678,"успішно":6679,"ризик":6680,"деба":6681,"інтервю":6682,"третя":6683,"ліній":6684,"символі":6685,"тенден":6686,"огля":6687,"чекає":6688,"тривають":6689,"високий":6690,"турніру":6691,"1960":6692,"шно":6693,"округ":6694,"буль":6695,"кален":6696,"national":6697,"1988":6698,"щоден":6699,"чував":6700,"органами":6701,"вози":6702,"статусу":6703,"af":6704,"tv":6705,"власти":6706,"ковій":6707,"son":6708,"тація":6709,"сінь":6710,"немов":6711,"указ":6712,"настав":6713,"дес":6714,"анна":6715,"статтю":6716,"проводу":6717,"відби":6718,"кле":6719,"ючим":6720,"кот":6721,"вступ":6722,"сирі":6723,"ігри":6724,"пройти":6725,"душі":6726,"нич":6727,"pic":6728,"ube":6729,"info":6730,"сміх":6731,"новій":6732,"ютер":6733,"політ":6734,"боло":6735,"зава":6736,"сино":6737,"психі":6738,"ед":6739,"судочин":6740,"боротьбу":6741,"позовні":6742,"кав":6743,"шкіл":6744,"vol":6745,"дозвіл":6746,"миколай":6747,"думка":6748,"стиму":6749,"образ":6750,"диплома":6751,"консуль":6752,"цова":6753,"зені":6754,"сіті":6755,"пристро":6756,"медичних":6757,"тетяна":6758,"сиг":6759,"apple":6760,"вз":6761,"кай":6762,"маючи":6763,"пласти":6764,"укра":6765,"чекати":6766,"магні":6767,"майдані":6768,"воді":6769,"вимі":6770,"тені":6771,"жжі":6772,"костю":6773,"учи":6774,"мережах":6775,"зю":6776,"ate":6777,"склав":6778,"силови":6779,"упродовж":6780,"зде":6781,"ініцію":6782,"госп":6783,"стой":6784,"стку":6785,"дональд":6786,"ствах":6787,"упа":6788,"міл":6789,"румунії":6790,"жодної":6791,"телів":6792,"явилися":6793,"вимогою":6794,"бей":6795,"тву":6796,"ляючи":6797,"плюс":6798,"енергію":6799,"урср":6800,"серві":6801,"обліга":6802,"шила":6803,"починає":6804,"піхо":6805,"профіль":6806,"носин":6807,"аде":6808,"альну":6809,"послідов":6810,"чорноби":6811,"лятися":6812,"володар":6813,"іран":6814,"рішу":6815,"подру":6816,"вікна":6817,"куляр":6818,"1986":6819,"невико":6820,"іншу":6821,"шевченко":6822,"версія":6823,"урядом":6824,"чилися":6825,"дитин":6826,"слідство":6827,"ремонту":6828,"реформа":6829,"тками":6830,"мила":6831,"наймен":6832,"діл":6833,"ілю":6834,"великим":6835,"лію":6836,"банком":6837,"сур":6838,"gro":6839,"ідея":6840,"хлопці":6841,"бари":6842,"нашому":6843,"рель":6844,"меморі":6845,"версією":6846,"ігро":6847,"спричини":6848,"родин":6849,"пообіцяв":6850,"вдя":6851,"вимогу":6852,"невда":6853,"бомбар":6854,"даній":6855,"увач":6856,"джена":6857,"нівка":6858,"ціною":6859,"побою":6860,"опита":6861,"per":6862,"фахівців":6863,"німи":6864,"регла":6865,"політик":6866,"очима":6867,"кажучи":6868,"аеропорт":6869,"цук":6870,"сени":6871,"допуска":6872,"днями":6873,"відклю":6874,"мака":6875,"підзем":6876,"тень":6877,"інвесто":6878,"муль":6879,"закладу":6880,"компро":6881,"хри":6882,"кса":6883,"імпор":6884,"прибув":6885,"гр":6886,"силами":6887,"уєфа":6888,"ib":6889,"еска":6890,"хам":6891,"115":6892,"дін":6893,"мешканці":6894,"увачі":6895,"броне":6896,"pol":6897,"власний":6898,"цов":6899,"йону":6900,"лнр":6901,"бабу":6902,"литов":6903,"портре":6904,"org":6905,"sy":6906,"зького":6907,"грузи":6908,"несли":6909,"ha":6910,"ційному":6911,"форте":6912,"ливих":6913,"михайла":6914,"бет":6915,"користу":6916,"студент":6917,"щена":6918,"водить":6919,"ight":6920,"дорогу":6921,"щим":6922,"виду":6923,"sch":6924,"борту":6925,"барсело":6926,"зін":6927,"язниці":6928,"ударів":6929,"додала":6930,"читати":6931,"самому":6932,"власних":6933,"бл":6934,"зао":6935,"утрима":6936,"кво":6937,"ated":6938,"сімферо":6939,"сел":6940,"кал":6941,"партію":6942,"виникла":6943,"знаєте":6944,"ung":6945,"зію":6946,"недостат":6947,"хочемо":6948,"водія":6949,"діо":6950,"жею":6951,"сфе":6952,"люються":6953,"маси":6954,"чан":6955,"зованого":6956,"журналу":6957,"аварій":6958,"вивчення":6959,"спожив":6960,"ченому":6961,"ндр":6962,"нападу":6963,"фай":6964,"стороні":6965,"записа":6966,"відділ":6967,"простро":6968,"обсте":6969,"флоту":6970,"наванта":6971,"наказом":6972,"атації":6973,"сал":6974,"ская":6975,"бін":6976,"бало":6977,"схвали":6978,"компози":6979,"par":6980,"основним":6981,"зміна":6982,"жать":6983,"почати":6984,"надає":6985,"ракет":6986,"тема":6987,"володіє":6988,"публіка":6989,"шенню":6990,"мося":6991,"альбо":6992,"невідомі":6993,"визво":6994,"днем":6995,"інтен":6996,"евакуа":6997,"показали":6998,"ері":6999,"продю":7000,"десан":7001,"тям":7002,"рев":7003,"проспек":7004,"школу":7005,"якість":7006,"везли":7007,"причина":7008,"подати":7009,"папер":7010,"пісня":7011,"білого":7012,"потреб":7013,"етапі":7014,"зованих":7015,"вкрай":7016,"літаків":7017,"подя":7018,"різними":7019,"ke":7020,"виявився":7021,"дитину":7022,"критері":7023,"житлових":7024,"навряд":7025,"опла":7026,"шнього":7027,"вищої":7028,"третього":7029,"нанням":7030,"простір":7031,"1918":7032,"орден":7033,"підготу":7034,"експо":7035,"титул":7036,"ерго":7037,"дасть":7038,"youtube":7039,"лізі":7040,"інтерес":7041,"атмо":7042,"великій":7043,"ідео":7044,"ірану":7045,"мими":7046,"шлю":7047,"парале":7048,"донецьк":7049,"почес":7050,"ure":7051,"фунда":7052,"англії":7053,"анек":7054,"занадто":7055,"атаки":7056,"тепл":7057,"ціал":7058,"неможли":7059,"сайту":7060,"заста":7061,"прізвище":7062,"кладено":7063,"ланцю":7064,"напевно":7065,"метр":7066,"литвин":7067,"сільське":7068,"луї":7069,"довжина":7070,"1930":7071,"канц":7072,"корабель":7073,"доступу":7074,"павла":7075,"лісу":7076,"сторонні":7077,"min":7078,"трей":7079,"навіщо":7080,"сви":7081,"довідка":7082,"пропуску":7083,"купити":7084,"альним":7085,"викри":7086,"змом":7087,"навколиш":7088,"увалася":7089,"1987":7090,"бак":7091,"чило":7092,"фронту":7093,"вперед":7094,"запевня":7095,"центром":7096,"їхнього":7097,"всієї":7098,"книга":7099,"учнів":7100,"мура":7101,"околи":7102,"місцевим":7103,"єдиним":7104,"вря":7105,"кім":7106,"нерухоме":7107,"пз":7108,"стилі":7109,"підкрес":7110,"шир":7111,"котрий":7112,"питу":7113,"фільмів":7114,"бел":7115,"їзді":7116,"рила":7117,"кля":7118,"загрози":7119,"грози":7120,"зупинити":7121,"ser":7122,"куро":7123,"зроблено":7124,"здобув":7125,"терміну":7126,"безлі":7127,"прибуток":7128,"ол":7129,"число":7130,"вчин":7131,"цьких":7132,"аес":7133,"фінлян":7134,"індустрі":7135,"азії":7136,"проблему":7137,"даного":7138,"їде":7139,"брала":7140,"анге":7141,"нулася":7142,"лікарів":7143,"логічні":7144,"голоду":7145,"труд":7146,"певне":7147,"завдань":7148,"міра":7149,"коломо":7150,"тала":7151,"приймає":7152,"семен":7153,"носить":7154,"1985":7155,"велике":7156,"сем":7157,"зберегти":7158,"небо":7159,"запису":7160,"льності":7161,"сувере":7162,"другу":7163,"зарплати":7164,"льд":7165,"прохання":7166,"ливості":7167,"головна":7168,"житель":7169,"проєкту":7170,"випла":7171,"пень":7172,"обмежень":7173,"код":7174,"гімна":7175,"юна":7176,"молодих":7177,"щук":7178,"будівлю":7179,"мець":7180,"гору":7181,"жене":7182,"нуті":7183,"застосу":7184,"решта":7185,"операція":7186,"пожежа":7187,"ницькому":7188,"маке":7189,"написала":7190,"назви":7191,"грам":7192,"йське":7193,"ізраїлю":7194,"зми":7195,"блу":7196,"тованих":7197,"художник":7198,"бачили":7199,"тною":7200,"діях":7201,"будови":7202,"дем":7203,"памята":7204,"лими":7205,"земельну":7206,"шот":7207,"домі":7208,"тюр":7209,"марки":7210,"матичних":7211,"опозиція":7212,"дійшли":7213,"лева":7214,"пакет":7215,"альян":7216,"аючи":7217,"ash":7218,"латві":7219,"1940":7220,"ділянці":7221,"рт":7222,"101":7223,"холдин":7224,"вийде":7225,"кварта":7226,"гурту":7227,"пати":7228,"почуття":7229,"стіни":7230,"офіс":7231,"жної":7232,"бога":7233,"спірних":7234,"надцять":7235,"єгип":7236,"пущення":7237,"підпи":7238,"діяч":7239,"валюти":7240,"суверені":7241,"пау":7242,"відмі":7243,"нований":7244,"язнення":7245,"повинно":7246,"уби":7247,"теми":7248,"нить":7249,"col":7250,"mic":7251,"зару":7252,"переки":7253,"говорять":7254,"одино":7255,"йорк":7256,"поняття":7257,"сало":7258,"більшого":7259,"стріль":7260,"усвідом":7261,"операцію":7262,"власного":7263,"магістра":7264,"глиб":7265,"цивілі":7266,"континен":7267,"грун":7268,"рений":7269,"випуску":7270,"авдіїв":7271,"лес":7272,"ходом":7273,"оцінка":7274,"скор":7275,"заванта":7276,"отримує":7277,"fi":7278,"сонце":7279,"газпрому":7280,"померли":7281,"твари":7282,"великою":7283,"уклада":7284,"бачить":7285,"увійшли":7286,"язано":7287,"car":7288,"тичну":7289,"змогу":7290,"пився":7291,"мері":7292,"ніко":7293,"стичної":7294,"існують":7295,"обстріли":7296,"слави":7297,"житла":7298,"показати":7299,"небе":7300,"ния":7301,"самих":7302,"соба":7303,"танцю":7304,"кисло":7305,"нагля":7306,"періоди":7307,"знали":7308,"бов":7309,"капітан":7310,"перекри":7311,"ляка":7312,"кремля":7313,"цькому":7314,"артем":7315,"альбом":7316,"воз":7317,"середньо":7318,"хлопець":7319,"схоже":7320,"підсу":7321,"дерева":7322,"бондар":7323,"риб":7324,"архів":7325,"ухвалив":7326,"обід":7327,"шель":7328,"рот":7329,"зована":7330,"стороною":7331,"особам":7332,"грошових":7333,"передачу":7334,"бек":7335,"переліку":7336,"тять":7337,"робочих":7338,"знайшов":7339,"боліваль":7340,"індекс":7341,"пострі":7342,"думав":7343,"няв":7344,"померла":7345,"жів":7346,"індії":7347,"численні":7348,"вугле":7349,"усіма":7350,"обира":7351,"шись":7352,"депози":7353,"сізо":7354,"дружини":7355,"засобами":7356,"вибухів":7357,"1984":7358,"зою":7359,"обраний":7360,"яй":7361,"профі":7362,"ари":7363,"зброєю":7364,"дивізі":7365,"зир":7366,"восени":7367,"лока":7368,"компанію":7369,"полта":7370,"селище":7371,"побут":7372,"переможе":7373,"нічних":7374,"нафту":7375,"допоможе":7376,"вартою":7377,"мірою":7378,"праві":7379,"press":7380,"безпіло":7381,"пяти":7382,"накопи":7383,"автома":7384,"комфор":7385,"виходив":7386,"обстрілу":7387,"запевнив":7388,"виступив":7389,"цитує":7390,"наказу":7391,"швеції":7392,"гміні":7393,"довести":7394,"0000":7395,"зарах":7396,"білий":7397,"втратив":7398,"наполя":7399,"водою":7400,"іо":7401,"небудь":7402,"певних":7403,"ros":7404,"белі":7405,"баг":7406,"пояснює":7407,"арешту":7408,"увало":7409,"органом":7410,"безпеку":7411,"du":7412,"нювати":7413,"пош":7414,"безумов":7415,"ницька":7416,"чували":7417,"ліде":7418,"кореї":7419,"рівнем":7420,"арген":7421,"моле":7422,"заліз":7423,"займає":7424,"олімпіа":7425,"les":7426,"пішла":7427,"стара":7428,"короля":7429,"наци":7430,"дніст":7431,"призвело":7432,"склала":7433,"передав":7434,"житомирі":7435,"схва":7436,"фсб":7437,"громада":7438,"механізм":7439,"скоє":7440,"звіт":7441,"житло":7442,"мільйон":7443,"неу":7444,"явилася":7445,"майном":7446,"вей":7447,"стояти":7448,"поби":7449,"жінку":7450,"йшлося":7451,"штат":7452,"чев":7453,"телі":7454,"біл":7455,"чехії":7456,"доки":7457,"читься":7458,"сказали":7459,"свободу":7460,"поспіль":7461,"випуска":7462,"квадра":7463,"bre":7464,"рур":7465,"судна":7466,"собор":7467,"гнуто":7468,"али":7469,"створили":7470,"переміг":7471,"протоко":7472,"веб":7473,"педагогі":7474,"стояння":7475,"березі":7476,"бачимо":7477,"кораблі":7478,"андрі":7479,"всебі":7480,"зусиль":7481,"ячи":7482,"мету":7483,"цифро":7484,"my":7485,"герой":7486,"виборчих":7487,"пішо":7488,"сев":7489,"пункті":7490,"ment":7491,"кують":7492,"сові":7493,"позба":7494,"капіталу":7495,"ченими":7496,"різко":7497,"спалах":7498,"нини":7499,"серця":7500,"нашим":7501,"times":7502,"уж":7503,"шій":7504,"кожної":7505,"космо":7506,"ігно":7507,"діапа":7508,"інформує":7509,"ban":7510,"петербур":7511,"ack":7512,"старт":7513,"честер":7514,"глі":7515,"гвардії":7516,"міліція":7517,"радо":7518,"116":7519,"роздріб":7520,"скажі":7521,"взаєм":7522,"нелега":7523,"ань":7524,"їхню":7525,"колонії":7526,"ледь":7527,"гостей":7528,"век":7529,"1979":7530,"закони":7531,"зробила":7532,"1920":7533,"групою":7534,"друзі":7535,"хорва":7536,"підір":7537,"можете":7538,"заклада":7539,"полку":7540,"тарифів":7541,"італія":7542,"значить":7543,"ворота":7544,"вте":7545,"інтенсив":7546,"заки":7547,"ліків":7548,"щойно":7549,"кузь":7550,"дітьми":7551,"og":7552,"самбле":7553,"співачка":7554,"збірну":7555,"овець":7556,"повне":7557,"надісла":7558,"лібера":7559,"руками":7560,"бачу":7561,"тричі":7562,"виму":7563,"зат":7564,"гройс":7565,"жився":7566,"торка":7567,"золота":7568,"hy":7569,"уточнив":7570,"медаль":7571,"реві":7572,"хату":7573,"морських":7574,"парижі":7575,"гим":7576,"оповід":7577,"апо":7578,"плате":7579,"стриб":7580,"спос":7581,"збройні":7582,"турець":7583,"певний":7584,"низки":7585,"щоправда":7586,"кодек":7587,"mon":7588,"поради":7589,"боротися":7590,"друзів":7591,"сться":7592,"свідоц":7593,"гаррі":7594,"бії":7595,"специ":7596,"розробки":7597,"присі":7598,"фільмі":7599,"одних":7600,"створена":7601,"терміни":7602,"чості":7603,"іншій":7604,"їсти":7605,"командир":7606,"cy":7607,"кух":7608,"хами":7609,"сади":7610,"адреса1":7611,"доросли":7612,"захоп":7613,"впав":7614,"1942":7615,"первин":7616,"ish":7617,"пунктах":7618,"матиме":7619,"слідчого":7620,"гравців":7621,"виш":7622,"нував":7623,"застави":7624,"посадов":7625,"широко":7626,"долі":7627,"золото":7628,"уд":7629,"почалася":7630,"нагоди":7631,"другою":7632,"призво":7633,"ks":7634,"програмі":7635,"чатися":7636,"пах":7637,"юка":7638,"непо":7639,"австрії":7640,"штовх":7641,"корпусу":7642,"ass":7643,"хліб":7644,"бойові":7645,"ich":7646,"350":7647,"вину":7648,"сіїв":7649,"1119":7650,"tra":7651,"андже":7652,"храм":7653,"бізне":7654,"теоре":7655,"женню":7656,"солда":7657,"особисті":7658,"розгляді":7659,"літніх":7660,"скасу":7661,"нували":7662,"ze":7663,"півтора":7664,"проектом":7665,"збу":7666,"техніка":7667,"жителя":7668,"1976":7669,"вечора":7670,"зменши":7671,"пай":7672,"асамбле":7673,"швед":7674,"ka":7675,"1950":7676,"ненню":7677,"викликає":7678,"гене":7679,"жати":7680,"автобус":7681,"дешев":7682,"кроки":7683,"стосунки":7684,"заруч":7685,"яч":7686,"запит":7687,"нардеп":7688,"португа":7689,"рять":7690,"критику":7691,"утворю":7692,"луценка":7693,"паро":7694,"наукових":7695,"опер":7696,"заявляв":7697,"1981":7698,"іллі":7699,"пишуть":7700,"системою":7701,"зважаючи":7702,"відста":7703,"їхня":7704,"ницькій":7705,"соф":7706,"ld":7707,"обєдна":7708,"покриття":7709,"василя":7710,"визнає":7711,"заблоку":7712,"бензи":7713,"епідемі":7714,"ев":7715,"європа":7716,"ресурси":7717,"заби":7718,"надавати":7719,"обидві":7720,"повну":7721,"повноцін":7722,"іннова":7723,"пше":7724,"кліні":7725,"прока":7726,"збага":7727,"восьми":7728,"внесок":7729,"подала":7730,"int":7731,"ba":7732,"подроби":7733,"приві":7734,"овищі":7735,"зворо":7736,"очах":7737,"викон":7738,"вигляд":7739,"пак":7740,"тиві":7741,"центри":7742,"першо":7743,"блаки":7744,"вказів":7745,"припуска":7746,"виділя":7747,"крізь":7748,"слуга":7749,"краз":7750,"ленерго":7751,"думає":7752,"музики":7753,"фом":7754,"хрест":7755,"актри":7756,"вірме":7757,"uss":7758,"враження":7759,"матор":7760,"правом":7761,"нагадує":7762,"торію":7763,"весі":7764,"проведен":7765,"угорщини":7766,"женим":7767,"привіта":7768,"калібру":7769,"площу":7770,"1982":7771,"дітям":7772,"нках":7773,"збуд":7774,"нічний":7775,"волосся":7776,"зада":7777,"900":7778,"сльо":7779,"запита":7780,"обсяги":7781,"щоби":7782,"лети":7783,"доров":7784,"монополь":7785,"минулу":7786,"гравця":7787,"олексія":7788,"знаємо":7789,"вимагати":7790,"дери":7791,"ess":7792,"пто":7793,"фальси":7794,"членами":7795,"усунення":7796,"хірур":7797,"антон":7798,"ворога":7799,"дивіться":7800,"злочини":7801,"тетом":7802,"візит":7803,"новин":7804,"листі":7805,"дивер":7806,"четверо":7807,"штрафу":7808,"житлово":7809,"тського":7810,"мінську":7811,"зим":7812,"живають":7813,"самий":7814,"рився":7815,"середини":7816,"галерея":7817,"багат":7818,"ой":7819,"допусти":7820,"зованої":7821,"включає":7822,"нованих":7823,"нців":7824,"завід":7825,"катерина":7826,"макро":7827,"чверть":7828,"land":7829,"заборони":7830,"чики":7831,"непро":7832,"вайте":7833,"пісто":7834,"глядачів":7835,"берлі":7836,"сило":7837,"бойко":7838,"якусь":7839,"саму":7840,"антитеро":7841,"зірки":7842,"базу":7843,"циклопе":7844,"спадщини":7845,"ріння":7846,"чорний":7847,"таї":7848,"180":7849,"ніших":7850,"дорів":7851,"уста":7852,"нх":7853,"канади":7854,"ніна":7855,"gen":7856,"гості":7857,"102":7858,"коваль":7859,"погоджу":7860,"природи":7861,"лячи":7862,"форматі":7863,"світових":7864,"нату":7865,"виглядає":7866,"відреаг":7867,"ot":7868,"база":7869,"ованої":7870,"щасли":7871,"бє":7872,"колишніх":7873,"зіграв":7874,"мапі":7875,"річної":7876,"дарем":7877,"125":7878,"цьку":7879,"загинуло":7880,"байден":7881,"прекра":7882,"потя":7883,"оператив":7884,"табо":7885,"увечері":7886,"досягти":7887,"надії":7888,"неними":7889,"силі":7890,"брюсселі":7891,"дніпрі":7892,"1115":7893,"довіри":7894,"тників":7895,"оксана":7896,"ованим":7897,"кндр":7898,"забруд":7899,"ссі":7900,"єць":7901,"яли":7902,"агресив":7903,"1983":7904,"ваш":7905,"осна":7906,"даному":7907,"чернів":7908,"1933":7909,"розв":7910,"зйо":7911,"вага":7912,"набирає":7913,"городи":7914,"людиною":7915,"зама":7916,"розумію":7917,"раун":7918,"загальні":7919,"розпоряд":7920,"половині":7921,"вряту":7922,"назвати":7923,"змісту":7924,"новими":7925,"схеми":7926,"товане":7927,"хвилі":7928,"нікого":7929,"кварталі":7930,"безліч":7931,"селища":7932,"числен":7933,"науков":7934,"кпк":7935,"режисера":7936,"статі":7937,"грає":7938,"вша":7939,"гіт":7940,"визначає":7941,"стіл":7942,"чену":7943,"готувати":7944,"китаї":7945,"пік":7946,"вулиць":7947,"бухгал":7948,"діють":7949,"140":7950,"номов":7951,"свяще":7952,"виступ":7953,"східній":7954,"стим":7955,"тома":7956,"фф":7957,"виконує":7958,"зростає":7959,"протокол":7960,"учора":7961,"тованого":7962,"попросив":7963,"накла":7964,"станцій":7965,"mber":7966,"чеві":7967,"неного":7968,"доводів":7969,"детек":7970,"александ":7971,"bar":7972,"іраку":7973,"помешка":7974,"підроб":7975,"парти":7976,"країною":7977,"везення":7978,"щів":7979,"заважа":7980,"квартиру":7981,"східної":7982,"відвер":7983,"встиг":7984,"думати":7985,"обсерва":7986,"містять":7987,"жого":7988,"зуб":7989,"тривалі":7990,"молодо":7991,"сталь":7992,"жертва":7993,"вхід":7994,"тримати":7995,"кольору":7996,"fin":7997,"лондоні":7998,"єдина":7999,"кованих":8000,"дикта":8001,"сприяння":8002,"ton":8003,"менті":8004,"укрін":8005,"105":8006,"включно":8007,"перевищи":8008,"менеджер":8009,"безві":8010,"невизна":8011,"пройшла":8012,"рукою":8013,"виникає":8014,"вказує":8015,"літаки":8016,"ліві":8017,"тиметься":8018,"уряді":8019,"туристів":8020,"адвоката":8021,"обміну":8022,"йок":8023,"мосту":8024,"нюється":8025,"юні":8026,"уся":8027,"сидів":8028,"створив":8029,"1917":8030,"незна":8031,"mi":8032,"мун":8033,"ренням":8034,"оспор":8035,"1932":8036,"ica":8037,"подоро":8038,"прила":8039,"ятник":8040,"столі":8041,"карто":8042,"майор":8043,"мирних":8044,"творів":8045,"планети":8046,"відчуття":8047,"штатів":8048,"успіху":8049,"гара":8050,"йськими":8051,"станцію":8052,"стоять":8053,"вклад":8054,"збитки":8055,"здале":8056,"дивно":8057,"стадії":8058,"русі":8059,"змістом":8060,"прикра":8061,"ційними":8062,"вадим":8063,"почну":8064,"кома":8065,"завою":8066,"гонча":8067,"ds":8068,"дяку":8069,"тині":8070,"чесно":8071,"очолював":8072,"початком":8073,"лізи":8074,"гк":8075,"ут":8076,"уси":8077,"огляд":8078,"облік":8079,"життєпис":8080,"1972":8081,"war":8082,"остато":8083,"творчі":8084,"ріг":8085,"брех":8086,"цілей":8087,"саміту":8088,"біженців":8089,"резиден":8090,"знайоми":8091,"останню":8092,"вії":8093,"клієнтів":8094,"атацію":8095,"охорона":8096,"ходило":8097,"знов":8098,"марк":8099,"розстрі":8100,"сміт":8101,"зрозумів":8102,"джейм":8103,"кібер":8104,"стурб":8105,"пка":8106,"проекті":8107,"лівка":8108,"кадро":8109,"утім":8110,"велоси":8111,"школя":8112,"степан":8113,"1978":8114,"обсягу":8115,"думи":8116,"свер":8117,"мистецтв":8118,"кевич":8119,"створює":8120,"тежів":8121,"імпорт":8122,"поверхні":8123,"штабі":8124,"обєктів":8125,"приво":8126,"досліди":8127,"str":8128,"сучасних":8129,"давати":8130,"лейбу":8131,"прогу":8132,"родині":8133,"судовий":8134,"сходу":8135,"винищ":8136,"позицією":8137,"нант":8138,"місія":8139,"1974":8140,"ппо":8141,"століт":8142,"давство":8143,"мік":8144,"півроку":8145,"пізна":8146,"збори":8147,"прибут":8148,"рахунк":8149,"тиків":8150,"влу":8151,"тельно":8152,"плей":8153,"бата":8154,"селен":8155,"ахме":8156,"кований":8157,"голоси":8158,"псев":8159,"речей":8160,"ice":8161,"платежів":8162,"закликає":8163,"поєдинку":8164,"премія":8165,"vide":8166,"дивитися":8167,"устрою":8168,"норманд":8169,"водопо":8170,"жна":8171,"вія":8172,"основу":8173,"споруд":8174,"чомусь":8175,"альне":8176,"зірка":8177,"позичаль":8178,"фракція":8179,"серія":8180,"лас":8181,"докла":8182,"слове":8183,"весні":8184,"вач":8185,"потрап":8186,"повстан":8187,"va":8188,"nas":8189,"ставив":8190,"tr":8191,"агі":8192,"мк":8193,"постача":8194,"матчах":8195,"половина":8196,"плив":8197,"шкід":8198,"підпоряд":8199,"опису":8200,"залишено":8201,"відгу":8202,"мережа":8203,"поку":8204,"ty":8205,"священ":8206,"розпочав":8207,"поразки":8208,"обстріл":8209,"показує":8210,"ваних":8211,"потрібен":8212,"сформова":8213,"хвилини":8214,"витяг":8215,"машина":8216,"цеві":8217,"чці":8218,"сигна":8219,"їд":8220,"когось":8221,"іграх":8222,"прояв":8223,"лондон":8224,"йоми":8225,"виграв":8226,"rel":8227,"line":8228,"централі":8229,"рано":8230,"відкла":8231,"внести":8232,"лідером":8233,"студії":8234,"гурт":8235,"увазі":8236,"єро":8237,"пок":8238,"їхньої":8239,"гідь":8240,"водя":8241,"тед":8242,"речовин":8243,"1977":8244,"поставок":8245,"білих":8246,"хотілося":8247,"саудів":8248,"задія":8249,"тіле":8250,"меморан":8251,"напов":8252,"fer":8253,"дух":8254,"моска":8255,"ватись":8256,"субси":8257,"швидкої":8258,"юсь":8259,"переходу":8260,"нуто":8261,"фун":8262,"необґрун":8263,"населені":8264,"сусідні":8265,"вдасться":8266,"ваючи":8267,"народів":8268,"філак":8269,"1937":8270,"робітник":8271,"травми":8272,"вкладів":8273,"вались":8274,"факту":8275,"автомати":8276,"стануть":8277,"контр":8278,"розлу":8279,"пки":8280,"sc":8281,"цілий":8282,"хаба":8283,"відклика":8284,"віч":8285,"руш":8286,"телекана":8287,"масових":8288,"лінію":8289,"праг":8290,"потяг":8291,"довзі":8292,"рує":8293,"оплату":8294,"dy":8295,"відкрив":8296,"сонця":8297,"східного":8298,"концерт":8299,"пового":8300,"никах":8301,"сприйня":8302,"ухвалила":8303,"невдовзі":8304,"іль":8305,"кордонів":8306,"del":8307,"звя":8308,"імпорту":8309,"своєчас":8310,"власну":8311,"бувають":8312,"ганна":8313,"щених":8314,"122":8315,"доволі":8316,"руслан":8317,"1938":8318,"tor":8319,"язи":8320,"дочка":8321,"змагань":8322,"опонен":8323,"байде":8324,"іпотеки":8325,"тичне":8326,"прийшла":8327,"тичним":8328,"ядерної":8329,"1971":8330,"доказ":8331,"простору":8332,"гравець":8333,"160":8334,"премію":8335,"тових":8336,"вагі":8337,"якраз":8338,"отруєння":8339,"епіз":8340,"фактів":8341,"підклю":8342,"минулої":8343,"річну":8344,"парижа":8345,"власної":8346,"первіс":8347,"зароб":8348,"лис":8349,"успіх":8350,"канад":8351,"марок":8352,"зоо":8353,"додали":8354,"фана":8355,"дало":8356,"ленд":8357,"капіталі":8358,"брата":8359,"нічні":8360,"провела":8361,"грамо":8362,"епізод":8363,"рус":8364,"ваг":8365,"журнал":8366,"сул":8367,"мовлення":8368,"доказами":8369,"упц":8370,"ukraine":8371,"тарної":8372,"чало":8373,"cn":8374,"донеч":8375,"солдат":8376,"смартфо":8377,"спершу":8378,"посі":8379,"шахтаря":8380,"арт":8381,"народна":8382,"гек":8383,"лець":8384,"нагороду":8385,"ївна":8386,"проходив":8387,"1919":8388,"кву":8389,"гент":8390,"шеного":8391,"катало":8392,"рівно":8393,"принцип":8394,"сміття":8395,"дфс":8396,"спеди":8397,"group":8398,"передали":8399,"хочеться":8400,"полег":8401,"чеслав":8402,"перевіз":8403,"відкрити":8404,"лінням":8405,"дощі":8406,"іще":8407,"ємець":8408,"med":8409,"профілак":8410,"лежить":8411,"лінія":8412,"днім":8413,"ідею":8414,"1968":8415,"східний":8416,"дір":8417,"bit":8418,"скрі":8419,"сала":8420,"тараса":8421,"рювань":8422,"уса":8423,"солі":8424,"моди":8425,"mus":8426,"екстра":8427,"пізно":8428,"ливом":8429,"корін":8430,"треті":8431,"палив":8432,"рецеп":8433,"вулицю":8434,"червоно":8435,"трива":8436,"нере":8437,"ti":8438,"ял":8439,"велосипе":8440,"bu":8441,"кано":8442,"десят":8443,"нічного":8444,"запитав":8445,"неві":8446,"1969":8447,"нафта":8448,"склали":8449,"1967":8450,"пенсії":8451,"зький":8452,"вы":8453,"експеди":8454,"союзом":8455,"центрів":8456,"тимуть":8457,"учасника":8458,"щер":8459,"шків":8460,"блю":8461,"венесу":8462,"няють":8463,"приїхав":8464,"очолив":8465,"важливим":8466,"музеї":8467,"присілок":8468,"xix":8469,"бездіяль":8470,"сестра":8471,"доль":8472,"публічно":8473,"боб":8474,"зустрів":8475,"мозку":8476,"конкурсі":8477,"регіон":8478,"цінних":8479,"ґа":8480,"матери":8481,"pa":8482,"смт":8483,"ввести":8484,"хотіла":8485,"силою":8486,"тована":8487,"митного":8488,"підвод":8489,"ite":8490,"зати":8491,"альянсу":8492,"ласка":8493,"вимогами":8494,"матір":8495,"телем":8496,"стол":8497,"самої":8498,"вира":8499,"бія":8500,"пустила":8501,"культура":8502,"сюжет":8503,"йської":8504,"речник":8505,"чак":8506,"християн":8507,"бачи":8508,"нікому":8509,"1973":8510,"тінь":8511,"лиши":8512,"вільної":8513,"самови":8514,"схова":8515,"стояли":8516,"рет":8517,"подвій":8518,"тарифи":8519,"нину":8520,"заслуха":8521,"девя":8522,"байду":8523,"санкт":8524,"вступу":8525,"герцо":8526,"розуміти":8527,"ставить":8528,"video":8529,"масові":8530,"протилеж":8531,"деше":8532,"дорога":8533,"підхід":8534,"картини":8535,"старого":8536,"ll":8537,"тією":8538,"аспек":8539,"почува":8540,"world":8541,"вищих":8542,"доказу":8543,"торік":8544,"квартирі":8545,"імен":8546,"лє":8547,"скан":8548,"питанні":8549,"дний":8550,"максиму":8551,"статуту":8552,"дих":8553,"щеплення":8554,"договори":8555,"трапи":8556,"дійшла":8557,"гарні":8558,"помаран":8559,"навесні":8560,"реал":8561,"тарних":8562,"поряту":8563,"мусуль":8564,"столу":8565,"колум":8566,"колектив":8567,"молдови":8568,"товарист":8569,"ger":8570,"новости":8571,"рюваного":8572,"низка":8573,"братися":8574,"залежно":8575,"рятува":8576,"чел":8577,"кади":8578,"сектору":8579,"протести":8580,"передано":8581,"столітті":8582,"ознаки":8583,"gr":8584,"оподат":8585,"ваги":8586,"каліфор":8587,"тово":8588,"вказані":8589,"ближче":8590,"скажу":8591,"привер":8592,"свобод":8593,"князь":8594,"rom":8595,"аса":8596,"мадри":8597,"буква":8598,"ухи":8599,"бігти":8600,"начебто":8601,"доручив":8602,"денного":8603,"неповно":8604,"оподатку":8605,"пільг":8606,"путіним":8607,"крей":8608,"форд":8609,"ence":8610,"металі":8611,"дівчин":8612,"світлана":8613,"капітал":8614,"нюють":8615,"дзвін":8616,"нутися":8617,"плані":8618,"десятків":8619,"довгий":8620,"задля":8621,"молодий":8622,"бронз":8623,"практики":8624,"леною":8625,"рублів":8626,"рау":8627,"злі":8628,"дефіцит":8629,"замок":8630,"затри":8631,"лиша":8632,"чиків":8633,"роками":8634,"стачання":8635,"наступне":8636,"пить":8637,"оператор":8638,"швейцар":8639,"фікація":8640,"націй":8641,"маніпу":8642,"віра":8643,"змушені":8644,"ллю":8645,"тютю":8646,"нивши":8647,"араб":8648,"матичні":8649,"мога":8650,"тисячу":8651,"кораблів":8652,"перегляд":8653,"лікарню":8654,"дружиною":8655,"зерна":8656,"важливих":8657,"командою":8658,"обмі":8659,"надали":8660,"профспі":8661,"визнали":8662,"логів":8663,"половини":8664,"чекають":8665,"збирати":8666,"дженого":8667,"зької":8668,"саль":8669,"зніма":8670,"мнс":8671,"пас":8672,"тлу":8673,"лиш":8674,"біліта":8675,"повторю":8676,"зняття":8677,"коме":8678,"978":8679,"мотор":8680,"ster":8681,"тексту":8682,"поточ":8683,"підозрою":8684,"овищ":8685,"славу":8686,"відбуду":8687,"змогла":8688,"криза":8689,"кредитів":8690,"вказав":8691,"нерв":8692,"позивачу":8693,"банди":8694,"потоку":8695,"скасував":8696,"гіган":8697,"чув":8698,"фіксу":8699,"впора":8700,"гора":8701,"бійці":8702,"славної":8703,"тира":8704,"якась":8705,"ps":8706,"шма":8707,"притяг":8708,"чками":8709,"вилучили":8710,"бері":8711,"романа":8712,"лед":8713,"щороку":8714,"віталія":8715,"пами":8716,"краді":8717,"палац":8718,"риву":8719,"ційною":8720,"вили":8721,"пояснити":8722,"половину":8723,"118":8724,"заклад":8725,"ранок":8726,"виникли":8727,"учили":8728,"настро":8729,"налаш":8730,"стриму":8731,"ують":8732,"ніг":8733,"заспо":8734,"календар":8735,"des":8736,"шуючи":8737,"адмін":8738,"сильний":8739,"медики":8740,"апарату":8741,"листів":8742,"впливає":8743,"процеси":8744,"констан":8745,"річка":8746,"основна":8747,"землетру":8748,"тський":8749,"рувати":8750,"виявлені":8751,"ina":8752,"двадцять":8753,"відсоток":8754,"істи":8755,"звідти":8756,"орбі":8757,"хочете":8758,"скаржник":8759,"шлюб":8760,"робото":8761,"1965":8762,"героя":8763,"чорних":8764,"даної":8765,"цькі":8766,"фла":8767,"неко":8768,"євросоюз":8769,"називає":8770,"суворо":8771,"машину":8772,"1200":8773,"рюваних":8774,"пісень":8775,"почалися":8776,"здобу":8777,"суттєво":8778,"придбати":8779,"райони":8780,"тес":8781,"лати":8782,"поліцію":8783,"підсумку":8784,"більшу":8785,"зняти":8786,"високі":8787,"знамени":8788,"post":8789,"міських":8790,"ційній":8791,"мисне":8792,"aw":8793,"остання":8794,"періо":8795,"облради":8796,"дна":8797,"псевдо":8798,"аваков":8799,"тана":8800,"поклика":8801,"взяла":8802,"спадко":8803,"частки":8804,"пос":8805,"новою":8806,"зака":8807,"пісню":8808,"вто":8809,"хія":8810,"рівка":8811,"загинула":8812,"win":8813,"виступу":8814,"спроба":8815,"міт":8816,"торій":8817,"зона":8818,"цві":8819,"довою":8820,"греко":8821,"зур":8822,"активи":8823,"поклада":8824,"іспанія":8825,"армі":8826,"щиро":8827,"анон":8828,"втратили":8829,"ском":8830,"ливим":8831,"виходити":8832,"прийде":8833,"рено":8834,"1500":8835,"трудно":8836,"мінера":8837,"стив":8838,"можливих":8839,"бене":8840,"увача":8841,"кр":8842,"продати":8843,"вирішено":8844,"трій":8845,"кані":8846,"орке":8847,"нована":8848,"лила":8849,"книжки":8850,"письм":8851,"людмила":8852,"нують":8853,"екіпажу":8854,"підда":8855,"льника":8856,"резерв":8857,"приду":8858,"богу":8859,"ськості":8860,"мось":8861,"винятком":8862,"києвом":8863,"князя":8864,"прихова":8865,"ливого":8866,"повтори":8867,"кир":8868,"обовяз":8869,"ріо":8870,"сак":8871,"собом":8872,"зд":8873,"посів":8874,"денний":8875,"сплатити":8876,"льський":8877,"просу":8878,"способом":8879,"марії":8880,"побачили":8881,"бук":8882,"комбінат":8883,"1964":8884,"корпус":8885,"ital":8886,"співав":8887,"памяті":8888,"стили":8889,"пети":8890,"мислив":8891,"кет":8892,"медалі":8893,"оцінками":8894,"купа":8895,"долю":8896,"ступінь":8897,"миротвор":8898,"притя":8899,"питанням":8900,"ult":8901,"загибелі":8902,"фігуран":8903,"тської":8904,"пошуку":8905,"бран":8906,"гено":8907,"тованим":8908,"жоден":8909,"правові":8910,"автора":8911,"всіма":8912,"заклади":8913,"камен":8914,"котра":8915,"міла":8916,"дного":8917,"мити":8918,"стор":8919,"вийшло":8920,"снд":8921,"проща":8922,"старшого":8923,"паперів":8924,"неба":8925,"бота":8926,"музика":8927,"явити":8928,"ms":8929,"хвилю":8930,"відомого":8931,"ощад":8932,"жка":8933,"viii":8934,"газеті":8935,"запу":8936,"масової":8937,"йоси":8938,"моду":8939,"парє":8940,"убив":8941,"іспан":8942,"ue":8943,"мережу":8944,"gre":8945,"виши":8946,"ніші":8947,"подружжя":8948,"мило":8949,"матеріал":8950,"цир":8951,"опитаних":8952,"поїздки":8953,"вир":8954,"шених":8955,"рср":8956,"гією":8957,"розча":8958,"вілья":8959,"вільний":8960,"кремен":8961,"князів":8962,"адап":8963,"je":8964,"сталися":8965,"бесід":8966,"єві":8967,"зував":8968,"подано":8969,"вмс":8970,"щорічно":8971,"поспіша":8972,"украи":8973,"кодексом":8974,"iss":8975,"монополі":8976,"нутий":8977,"будівля":8978,"активних":8979,"тіна":8980,"мерт":8981,"1966":8982,"ляційну":8983,"марка":8984,"печа":8985,"літету":8986,"твою":8987,"маршрут":8988,"забив":8989,"органах":8990,"сприяти":8991,"стрім":8992,"дорогах":8993,"астеро":8994,"просторі":8995,"прошу":8996,"скандал":8997,"мінських":8998,"очікува":8999,"поставив":9000,"йорку":9001,"призер":9002,"дією":9003,"стрували":9004,"шми":9005,"спитав":9006,"тарем":9007,"оспорю":9008,"державу":9009,"мира":9010,"лявся":9011,"сприй":9012,"кули":9013,"бомбарду":9014,"констату":9015,"вогнем":9016,"фінансу":9017,"129":9018,"філії":9019,"кожній":9020,"здатні":9021,"ваша":9022,"моли":9023,"неннями":9024,"кула":9025,"зра":9026,"жіночої":9027,"іг":9028,"засадах":9029,"дені":9030,"дональда":9031,"технічні":9032,"легі":9033,"фаши":9034,"правду":9035,"urn":9036,"фейсбу":9037,"вулицях":9038,"ние":9039,"перегово":9040,"вікторія":9041,"кис":9042,"чилася":9043,"хвилині":9044,"подія":9045,"зросли":9046,"1900":9047,"захищати":9048,"ang":9049,"ота":9050,"неща":9051,"mat":9052,"консер":9053,"1963":9054,"пал":9055,"берег":9056,"фільми":9057,"тивою":9058,"sport":9059,"1946":9060,"давності":9061,"шем":9062,"тити":9063,"тренера":9064,"пко":9065,"наклад":9066,"проби":9067,"лиси":9068,"привабли":9069,"симо":9070,"107":9071,"серіалу":9072,"113":9073,"богдана":9074,"процесів":9075,"натов":9076,"зорі":9077,"дозволив":9078,"сувалося":9079,"єт":9080,"гідності":9081,"очікує":9082,"мового":9083,"продукт":9084,"заве":9085,"репре":9086,"коефі":9087,"єли":9088,"охорону":9089,"генрі":9090,"губи":9091,"писали":9092,"перевер":9093,"торк":9094,"праця":9095,"зустріча":9096,"снаря":9097,"даі":9098,"врешті":9099,"сектор":9100,"кб":9101,"шанси":9102,"неналеж":9103,"ren":9104,"stre":9105,"валась":9106,"фік":9107,"вищі":9108,"закладах":9109,"ііі":9110,"відкриті":9111,"софії":9112,"колег":9113,"лить":9114,"скаже":9115,"болю":9116,"забира":9117,"тривало":9118,"очок":9119,"посмі":9120,"метале":9121,"єгипет":9122,"досвіду":9123,"old":9124,"котре":9125,"медицини":9126,"тичному":9127,"розмова":9128,"лук":9129,"тивними":9130,"вертольо":9131,"баб":9132,"випли":9133,"редактор":9134,"діалог":9135,"продюсер":9136,"авіації":9137,"117":9138,"враз":9139,"ризики":9140,"зацією":9141,"вистачає":9142,"сподоба":9143,"чис":9144,"довіря":9145,"ризику":9146,"колір":9147,"очей":9148,"купувати":9149,"частку":9150,"1961":9151,"більшови":9152,"рідкі":9153,"сутич":9154,"позові":9155,"обіг":9156,"гує":9157,"книг":9158,"їжі":9159,"копій":9160,"подали":9161,"моїх":9162,"парафі":9163,"гірни":9164,"пило":9165,"компонен":9166,"політо":9167,"гес":9168,"стон":9169,"вигід":9170,"валерія":9171,"ies":9172,"кохання":9173,"єктом":9174,"end":9175,"курор":9176,"надані":9177,"сучасні":9178,"дивився":9179,"дько":9180,"імя":9181,"тання":9182,"104":9183,"нашими":9184,"вичер":9185,"такій":9186,"увесь":9187,"оточення":9188,"розшуку":9189,"тати":9190,"ron":9191,"споруди":9192,"гону":9193,"загрозою":9194,"нацбанку":9195,"сос":9196,"тивному":9197,"пур":9198,"юві":9199,"розділу":9200,"функцій":9201,"повязані":9202,"імена":9203,"бігу":9204,"мрія":9205,"ченню":9206,"раціо":9207,"надію":9208,"рота":9209,"пей":9210,"трої":9211,"солдатів":9212,"ваші":9213,"ary":9214,"хвиля":9215,"ділянка":9216,"чику":9217,"грошові":9218,"220":9219,"головною":9220,"крає":9221,"106":9222,"тридця":9223,"дорого":9224,"селищі":9225,"душу":9226,"члена":9227,"зріс":9228,"1962":9229,"байдена":9230,"більша":9231,"жай":9232,"язується":9233,"свідків":9234,"108":9235,"додаток":9236,"пожежу":9237,"нене":9238,"листи":9239,"запуск":9240,"фур":9241,"біржі":9242,"1934":9243,"підруч":9244,"значні":9245,"евакую":9246,"няли":9247,"порушили":9248,"вільного":9249,"витре":9250,"гені":9251,"номером":9252,"етапу":9253,"останнє":9254,"репор":9255,"обігу":9256,"хреща":9257,"виступів":9258,"завору":9259,"тські":9260,"третьому":9261,"акта":9262,"вираз":9263,"увійшов":9264,"коня":9265,"клін":9266,"др":9267,"перепис":9268,"паспорт":9269,"європу":9270,"солод":9271,"юрі":9272,"зброя":9273,"обіцяє":9274,"виріша":9275,"літети":9276,"проживає":9277,"графічна":9278,"підпис":9279,"ткою":9280,"зве":9281,"чність":9282,"карл":9283,"доста":9284,"обумов":9285,"африка":9286,"дерево":9287,"розмову":9288,"менка":9289,"практику":9290,"вікі":9291,"oper":9292,"улю":9293,"неприєм":9294,"1959":9295,"життям":9296,"струвати":9297,"крива":9298,"вагонів":9299,"театрі":9300,"ach":9301,"ухвалено":9302,"їда":9303,"зведе":9304,"рав":9305,"don":9306,"леви":9307,"тнім":9308,"чорному":9309,"підпри":9310,"загроза":9311,"ами":9312,"густо":9313,"власники":9314,"захопили":9315,"льот":9316,"кавка":9317,"нівна":9318,"сверд":9319,"ясно":9320,"ухвалити":9321,"загибло":9322,"розуміє":9323,"наявні":9324,"прапора":9325,"сходи":9326,"шини":9327,"маш":9328,"стран":9329,"por":9330,"ane":9331,"камери":9332,"гелі":9333,"рестав":9334,"ny":9335,"політв":9336,"верей":9337,"залишили":9338,"знім":9339,"трьо":9340,"ніка":9341,"оптимі":9342,"сестри":9343,"єре":9344,"терапі":9345,"тової":9346,"тлума":9347,"сімї":9348,"пояснили":9349,"ni":9350,"винесе":9351,"чивши":9352,"птахів":9353,"прибира":9354,"отримані":9355,"варіанти":9356,"жне":9357,"мато":9358,"лин":9359,"170":9360,"читав":9361,"бас":9362,"удень":9363,"дверей":9364,"стате":9365,"коб":9366,"особа5":9367,"додає":9368,"фотограф":9369,"мешканця":9370,"естонії":9371,"керчен":9372,"сержан":9373,"жають":9374,"gl":9375,"чуд":9376,"щують":9377,"філософ":9378,"канада":9379,"їхнє":9380,"дорослих":9381,"другим":9382,"математи":9383,"1956":9384,"створ":9385,"ескала":9386,"шся":9387,"чорні":9388,"попит":9389,"видачі":9390,"позачерг":9391,"сектора":9392,"скажімо":9393,"вибира":9394,"школах":9395,"корабля":9396,"північна":9397,"одужали":9398,"читанні":9399,"dt":9400,"оос":9401,"макс":9402,"дівчат":9403,"жку":9404,"таріату":9405,"мете":9406,"калібер":9407,"монастир":9408,"прагне":9409,"шкода":9410,"надмір":9411,"кват":9412,"помилки":9413,"няк":9414,"1936":9415,"вача":9416,"атле":9417,"травму":9418,"джували":9419,"добра":9420,"янс":9421,"фондом":9422,"схожі":9423,"басей":9424,"гірше":9425,"водити":9426,"деякий":9427,"претенду":9428,"знаєш":9429,"виплат":9430,"проміж":9431,"yor":9432,"колишня":9433,"вард":9434,"буда":9435,"нацбанк":9436,"адекват":9437,"поправ":9438,"назем":9439,"дос":9440,"січень":9441,"версію":9442,"коштує":9443,"перейти":9444,"реаніма":9445,"киян":9446,"дрого":9447,"галузе":9448,"oft":9449,"кура":9450,"хворі":9451,"рого":9452,"відзи":9453,"сергі":9454,"бюле":9455,"витя":9456,"114":9457,"кімнати":9458,"phone":9459,"заздале":9460,"обсягів":9461,"малий":9462,"лялися":9463,"допу":9464,"апарат":9465,"прибутку":9466,"виробів":9467,"met":9468,"хось":9469,"пон":9470,"вірус":9471,"турбу":9472,"коштовно":9473,"налів":9474,"сір":9475,"ory":9476,"формат":9477,"проник":9478,"рога":9479,"валют":9480,"андер":9481,"формою":9482,"антоні":9483,"казна":9484,"очолює":9485,"ятки":9486,"ene":9487,"11111":9488,"вимога":9489,"моєї":9490,"секторі":9491,"джан":9492,"торги":9493,"комісію":9494,"єрід":9495,"мирного":9496,"екві":9497,"якомога":9498,"поміж":9499,"реєстрі":9500,"третьою":9501,"хх":9502,"блиску":9503,"чути":9504,"ефект":9505,"погра":9506,"лор":9507,"1957":9508,"лога":9509,"захопле":9510,"нейтра":9511,"httpwww":9512,"ствами":9513,"мега":9514,"елементи":9515,"несуть":9516,"криз":9517,"обама":9518,"любить":9519,"теорії":9520,"своєрід":9521,"1958":9522,"штаті":9523,"кращо":9524,"золотий":9525,"чисто":9526,"нився":9527,"тепері":9528,"стародав":9529,"філіп":9530,"язати":9531,"103":9532,"слідчих":9533,"спричи":9534,"зну":9535,"фракцій":9536,"чинним":9537,"безпеці":9538,"нья":9539,"просять":9540,"вавши":9541,"ате":9542,"данії":9543,"оце":9544,"гім":9545,"конгресу":9546,"вчасно":9547,"стиль":9548,"софія":9549,"трьома":9550,"коні":9551,"яков":9552,"штати":9553,"тіл":9554,"латвії":9555,"вступив":9556,"вдвічі":9557,"аван":9558,"рить":9559,"дівчи":9560,"колеги":9561,"тривала":9562,"обшуки":9563,"ts":9564,"зміша":9565,"роботою":9566,"мітингу":9567,"чею":9568,"переми":9569,"розпочне":9570,"вчиненні":9571,"чю":9572,"нило":9573,"турчинов":9574,"джей":9575,"трагі":9576,"гоні":9577,"скорі":9578,"подумав":9579,"дама":9580,"наси":9581,"штей":9582,"євгена":9583,"роберт":9584,"похід":9585,"gal":9586,"минуло":9587,"місцева":9588,"амбі":9589,"чут":9590,"категори":9591,"ознаками":9592,"нальною":9593,"1947":9594,"даря":9595,"хав":9596,"розважа":9597,"нічної":9598,"мита":9599,"македо":9600,"day":9601,"ленін":9602,"ata":9603,"йма":9604,"логію":9605,"волонтер":9606,"шор":9607,"сап":9608,"показала":9609,"розмеж":9610,"політиці":9611,"mit":9612,"128":9613,"pan":9614,"баске":9615,"недавно":9616,"студенти":9617,"атмосфер":9618,"ччі":9619,"опинився":9620,"ляри":9621,"повіль":9622,"арі":9623,"талан":9624,"трубо":9625,"юрис":9626,"союзі":9627,"sky":9628,"набрав":9629,"супутник":9630,"bi":9631,"ціонерів":9632,"ухвала":9633,"занепоко":9634,"потреба":9635,"графа":9636,"цінності":9637,"хв":9638,"давайте":9639,"драма":9640,"палести":9641,"109":9642,"прийому":9643,"зате":9644,"наркоти":9645,"lu":9646,"речовини":9647,"повод":9648,"кремль":9649,"книгу":9650,"східних":9651,"никові":9652,"дельта":9653,"arch":9654,"вчитель":9655,"тованими":9656,"фіку":9657,"людині":9658,"передач":9659,"лебе":9660,"фраг":9661,"пку":9662,"джуються":9663,"кост":9664,"нагляду":9665,"боїв":9666,"cap":9667,"турбо":9668,"арк":9669,"відступ":9670,"enter":9671,"bloo":9672,"звали":9673,"вказано":9674,"позиціях":9675,"сторону":9676,"всупереч":9677,"розряд":9678,"актом":9679,"торгівля":9680,"льського":9681,"ленка":9682,"франк":9683,"танків":9684,"ландія":9685,"рат":9686,"діалогу":9687,"узя":9688,"прийом":9689,"полон":9690,"пятницю":9691,"попереду":9692,"іншою":9693,"світо":9694,"кована":9695,"вимагали":9696,"дедалі":9697,"загост":9698,"комісій":9699,"читання":9700,"упев":9701,"рейс":9702,"боксер":9703,"родичів":9704,"ери":9705,"стягнуто":9706,"овик":9707,"старші":9708,"тію":9709,"паралі":9710,"якихось":9711,"from":9712,"залишає":9713,"пригоди":9714,"служив":9715,"інді":9716,"воїнів":9717,"фрід":9718,"акци":9719,"активну":9720,"дність":9721,"шляхи":9722,"related":9723,"кіт":9724,"укртранс":9725,"ресурс":9726,"житомира":9727,"церкві":9728,"ївка":9729,"кафедри":9730,"допит":9731,"предмета":9732,"тм":9733,"змінив":9734,"землею":9735,"дбр":9736,"джував":9737,"дизе":9738,"захворі":9739,"кава":9740,"york":9741,"лівії":9742,"спільну":9743,"цифри":9744,"хлопчик":9745,"листом":9746,"заняття":9747,"їн":9748,"паливо":9749,"доз":9750,"дзеркало":9751,"суть":9752,"порушує":9753,"планува":9754,"стояла":9755,"люючи":9756,"вздовж":9757,"закрити":9758,"фермер":9759,"енд":9760,"скля":9761,"заробі":9762,"вибору":9763,"сків":9764,"щенням":9765,"молодь":9766,"нави":9767,"єднує":9768,"рових":9769,"митниці":9770,"репута":9771,"набуття":9772,"сєв":9773,"жок":9774,"черкаси":9775,"sche":9776,"няються":9777,"ввс":9778,"відтво":9779,"тб":9780,"меро":9781,"ste":9782,"літетів":9783,"1921":9784,"піч":9785,"euro":9786,"іри":9787,"стичних":9788,"вважав":9789,"язнів":9790,"мотиви":9791,"кримсько":9792,"листя":9793,"ердо":9794,"основи":9795,"бул":9796,"еду":9797,"ште":9798,"жертви":9799,"віддати":9800,"230":9801,"керувати":9802,"кида":9803,"увавши":9804,"вірту":9805,"курси":9806,"замку":9807,"улюбле":9808,"зазнав":9809,"шере":9810,"копії":9811,"жим":9812,"чудово":9813,"ной":9814,"раунд":9815,"указом":9816,"значну":9817,"терміном":9818,"зменшити":9819,"нків":9820,"сигнал":9821,"пробу":9822,"опалення":9823,"дівчинка":9824,"новича":9825,"носинах":9826,"поет":9827,"зірок":9828,"ніякого":9829,"керував":9830,"зити":9831,"почалося":9832,"пошт":9833,"фрук":9834,"перу":9835,"red":9836,"весілля":9837,"сенсу":9838,"bus":9839,"коопера":9840,"тники":9841,"ірак":9842,"борги":9843,"ринках":9844,"виклик":9845,"біла":9846,"прези":9847,"балансу":9848,"bal":9849,"зібрати":9850,"оболо":9851,"канцлер":9852,"авторів":9853,"робочої":9854,"надають":9855,"заві":9856,"міськ":9857,"доло":9858,"хвилину":9859,"нікола":9860,"вітру":9861,"податок":9862,"призведе":9863,"якнай":9864,"pla":9865,"помір":9866,"поєдинок":9867,"страй":9868,"тером":9869,"навчався":9870,"довкола":9871,"звіті":9872,"різного":9873,"нп":9874,"згоду":9875,"затяг":9876,"єєв":9877,"туризму":9878,"зіт":9879,"сховища":9880,"star":9881,"інвен":9882,"вкра":9883,"гостро":9884,"втратила":9885,"порів":9886,"ціло":9887,"обрали":9888,"сирій":9889,"круг":9890,"пек":9891,"1954":9892,"званий":9893,"чиновник":9894,"надцяти":9895,"шник":9896,"сутня":9897,"грани":9898,"досягли":9899,"реально":9900,"бана":9901,"тіні":9902,"заборона":9903,"рис":9904,"вузь":9905,"самій":9906,"шеним":9907,"селе":9908,"idae":9909,"val":9910,"логічна":9911,"єпископ":9912,"арсенал":9913,"невже":9914,"метод":9915,"215":9916,"повітрі":9917,"soci":9918,"хий":9919,"зовні":9920,"єрі":9921,"креа":9922,"тобою":9923,"1948":9924,"wn":9925,"помітив":9926,"черв":9927,"лео":9928,"дівчата":9929,"власним":9930,"клубі":9931,"рейси":9932,"вказаних":9933,"падало":9934,"удари":9935,"хреста":9936,"ринки":9937,"розкра":9938,"сіона":9939,"шам":9940,"лівер":9941,"тника":9942,"вищу":9943,"ністів":9944,"рації":9945,"підбира":9946,"транзит":9947,"храму":9948,"ліф":9949,"епізо":9950,"фрі":9951,"облаш":9952,"вантажу":9953,"bank":9954,"арсеній":9955,"вооз":9956,"етно":9957,"відкрила":9958,"туватися":9959,"знадоби":9960,"вві":9961,"обласна":9962,"фарма":9963,"друзя":9964,"слуги":9965,"маж":9966,"вдруге":9967,"серіал":9968,"дивізії":9969,"бельгії":9970,"ключових":9971,"капе":9972,"лячись":9973,"сцені":9974,"женої":9975,"течі":9976,"марина":9977,"домага":9978,"діли":9979,"малого":9980,"отож":9981,"пят":9982,"розшук":9983,"nasa":9984,"поранені":9985,"ціоне":9986,"менедж":9987,"буха":9988,"донька":9989,"виставки":9990,"вдоскона":9991,"темно":9992,"dr":9993,"спірного":9994,"cc":9995,"язав":9996,"віддав":9997,"рідко":9998,"кличка":9999}