#version: 0.2
с т
н а
о в
и ̆
р о
р а
н о
н и
к о
г о
і ̈
е р
п о
н і
і д
з а
н я
е н
в а
к а
т а
в и
т и
л а
р и
л ь
с ь
д о
л и
ц і
к и
н е
і в
м а
д а
в о
т о
м і
к у
ст а
с у
в ід
л о
в і
м и
л і
с я
т ь
п ро
д и
р і
р е
л я
о б
ен ня
л е
м о
р у
ч а
ер е
м у
б у
д і
н у
ч и
н ня
г а
2 0
щ о
но го
п ри
п ра
д у
п а
т е
т у
ов о
ов а
с а
сь ко
к і
б о
ов и
д е
ни х
с і
к ра
1 9
б а
ни й
с и
м е
т і
п ов
ро з
п ере
і н
п ід
о го
с е
но ї
кра ї
ста н
ст і
п е
ст о
ц е
ш и
х о
у краї
п і
п и
б і
ж е
ці й
з на
ч е
ть ся
о с
л у
л ю
ки й
о р
с по
ст и
в е
сько го
ро ку
ж а
к ла
ц ь
с о
ці ї
к ів
20 1
ж и
я к
з и
ст ь
у ва
б е
п ер
су д
украї ни
ф і
ов і
пов ід
в ер
г і
ш е
п у
г у
б и
х а
н ь
р я
ни м
с ка
м ен
да р
т ер
20 0
д ж
з і
а ль
с пра
т ра
від повід
о д
л ення
є ться
сь кий
су ду
ш ення
сько ї
т я
ос об
д ля
в ся
ко м
ва ння
го спо
ов у
1 1
г и
ю ть
ві н
госпо дар
з у
т ри
г ра
но ю
й ого
0 0
з е
ко н
з о
ц и
й о
р ів
ки х
ц я
ст у
но сті
бе з
ні й
ш а
д ів
ча с
с л
с во
в у
щ е
ю чи
д ер
ен ь
к ри
ви ко
т ів
к е
1 8
а к
г ля
ко ж
ни к
1 0
п ла
пра в
н ов
но м
ч у
сь ка
ни ми
п ре
ч о
н к
ст ва
ні сть
п р
г ово
но му
ч і
ти в
рі шення
я кі
а н
п ів
ста в
ні ст
ді й
с кла
т ова
ст е
а бо
ра х
к ре
н ю
бу ло
ві й
д я
ва ти
об ла
ш о
а р
то р
e r
ко ли
1 2
г е
с ер
ка са
дер жа
і з
ст во
каса цій
ни ка
т тя
го л
н ення
ї х
ко го
ф ор
пере д
ні в
ля цій
а ле
та кож
ка р
по зи
в ла
а пе
х и
то м
ч ення
ча сти
д ов
ска р
ж у
за ко
ма й
1 5
д ово
х ід
мі с
бу в
та к
ч ер
i n
ці я
до гово
ови х
т ро
то го
стан ов
a n
ш і
ви зна
ма н
1 7
м ов
с лу
особ а
я в
ін стан
о н
з мі
т во
ві т
ово го
кі ль
19 9
да в
л ен
д ен
ф е
вико на
м ер
по стан
с пі
ле к
д ру
на ль
ва в
1 6
ї в
по з
ї ї
сь кі
ра н
ро м
на й
бі ль
ста т
дж ення
з ь
1 4
пі с
ти ч
держа в
сл ід
щ и
а д
ви мо
л ів
ве ли
б ра
ки м
ні ч
хо ди
ти ся
г ро
ва ли
за в
обла сті
г ру
1 3
o n
пра во
пра ва
ере з
ро ці
на д
a r
в станов
ро д
т ре
а в
ов е
при й
мо ж
ови й
ува ння
с ере
мі ж
до м
украї н
на се
ю ться
ш у
ма є
ко ї
ра йо
си ла
про це
ста ви
сь ких
при мі
ві ль
т ки
об ов
па р
e n
я кий
с ла
в ши
ко ю
аль ного
спра ві
т р
ор га
є м
спра ви
во на
ді я
по да
ц ю
т ов
то му
є ю
по ру
ж ення
o r
ро б
міс це
ро сі
мі ніст
че м
ово ї
s t
ці в
ря д
піс ля
ла ся
роз гля
ли ся
тер і
д ні
бо р
ко му
ва н
я з
пози ва
дій с
но р
ни ків
сі б
вла с
ц ен
за ли
нь ого
три ма
3 0
ст рі
пре д
2 2
г р
a l
ст я
сере д
ле но
по ча
това ри
ди н
щ а
кі н
мо же
стат ті
по лі
во ни
ст ра
бу ли
є в
догово ру
зе м
нь о
б ли
ці о
ма тері
ови ч
с об
шо ї
ши х
х у
я за
о к
сто рі
a t
г ід
сту п
за дово
ло ся
стан ови
х і
ро ків
ва р
бу ла
б ер
с к
2 5
по сила
в се
е к
в сі
ра з
за га
ж і
ко ро
то рі
т ку
що до
ма р
тер и
пра ви
г ен
о сіб
ка х
б лі
но к
від о
ф а
во ло
2 1
гр н
сь к
19 8
я ка
т вер
н ова
особ и
ка н
примі тки
ст ру
н д
ч ого
ви с
у к
ці ю
ш ко
ло гі
i c
де к
ли во
ст ро
т рі
ри ст
на ле
проце су
в же
ф у
су вання
e s
2 3
2 6
вер х
ме ль
ки їв
мен е
2 4
пов ер
19 4
пи са
за зна
пу нк
на да
ць ого
ро ди
i i
чи н
ну в
об стави
є к
пи та
ш ов
с пе
на в
рі з
ту р
ніст ю
t h
по ді
м ови
ни ц
т к
i s
пов і
ні х
ро бо
ч них
д же
пер шої
19 7
ме ні
у х
я ви
ль ки
к ер
щ об
ко р
бу д
гра фі
за сто
ка ми
ко дек
прий ня
я ких
при єм
п ло
ра ди
лі те
лі з
на ми
на ціо
ч ерез
ва жа
ле ні
па д
ово ю
з обов
го р
за с
ні ї
без пе
201 0
ди в
сто ро
гід но
ка за
н ку
ти м
пр ова
2 8
н ки
з дійс
ба га
вимо г
сько му
як що
ка з
мініст ра
2 7
c h
по ряд
з гідно
т ру
0 1
в ня
і м
під приєм
с ів
бу ти
сі ль
с в
ч ен
с ві
ту т
д ня
а на
к м
д во
ви д
кодек су
ко ман
п ня
зага ль
б ро
по р
ви й
вій ськ
фор ма
ф ран
ті льки
під ста
i t
ко ле
0 4
ді ї
про ти
2 9
росі й
т ва
пе ра
д ення
роз мі
ні я
з вер
0 3
19 6
по ль
к рі
зако ну
гро ма
ф о
с віт
верх ов
ро би
скла ді
с р
сь ке
за хи
л ові
вис нов
на з
u s
та ми
0 5
ни ки
є ї
йо му
д на
r e
поз ов
r o
0 6
те х
рі ч
ува ти
ські й
н ні
ор ен
ха р
ф ак
ові р
та ш
ру н
лю ди
о трима
ен ер
від кри
тери торі
лі к
ма га
ва ла
на род
су т
0 7
зе мель
з в
сво ї
н ен
спо р
ж ов
201 5
ч но
0 9
201 6
до по
пу блі
рах у
ли ше
ві р
перед ба
бу дів
e l
со м
пред став
у ча
го ло
да ми
і сторі
во ю
кре ди
ши й
ла н
суд дів
роз таш
п к
і с
зо м
по л
ч ного
гол ов
орга ні
б ере
ч ної
ді ля
кла де
19 3
са мо
се ло
во д
мі ста
0 8
м ова
пере да
су дом
з ви
пи с
мо ло
ре є
ни ком
в важа
ч ні
ба нк
б ри
ль ного
бі р
ш та
ґ рун
пер і
св я
кіль ки
к лю
c o
лі ння
ку ль
г ли
че но
о му
чо лові
0 2
к ов
та м
пра цю
ль но
ц ер
ло м
к ова
ух ва
дж у
но си
r a
ми р
ки ми
ючи сь
роз у
в ере
коле гі
то ра
в ів
сі м
р ю
ч ний
ль та
19 5
си сте
но мі
н с
201 7
єв ро
об і
со н
на ві
не ць
го ди
ни ць
по ло
ля га
па да
о т
га р
ш ого
ва ж
до да
од на
п ря
то к
201 4
стя г
ч ор
ін ших
б ерез
ци віль
я кого
г ре
части ни
ння м
дж ере
жи т
ма ти
ко мі
райо н
до ку
слу ж
скар ги
я н
ко ла
за й
щ і
во ро
це й
поряд ку
чи в
по перед
рі ш
скар гу
ту ри
па н
у час
нор м
особа 1
викона в
д ень
бу ва
о м
201 8
мі н
жи ття
на ук
рі к
доку мен
чем пі
р ов
дія ль
ви да
з да
бу де
у прав
х то
до слід
ос нов
бо ро
об ра
i l
е ко
3 1
зали ши
дя н
са ме
к лу
за кон
о на
е лек
с ша
ку р
да лі
к віт
лі й
г ри
то ю
ро бі
ав то
ті м
за ції
ста р
201 1
ха й
ен ні
пр ове
біль ше
ф ер
фі на
сь ким
му ні
мо р
а ча
th e
с ли
ва т
ли сто
ово му
го ю
с ко
ос кільки
20 19
об ме
ци па
жов т
ком па
ба ть
п ли
ки є
то ді
р ення
ча й
розгля ду
у сі
матері а
га н
ін форма
зна чення
ко ло
н ер
ф он
ти н
фі ль
о ці
д ва
сь ого
мо н
ну ти
го м
та н
за безпе
ре зу
з до
ова ний
о лек
ць ому
рі й
3 5
резу льта
ш ля
з во
т ен
то й
я с
г ів
муні ципа
ви роб
сь ку
l e
ходи ть
те й
ма в
пів ніч
на ступ
яз ку
з я
са й
стру к
200 8
р ід
200 6
a m
ови м
ні ше
від сут
та р
спра в
вере с
о фі
ма т
пла ти
допо мо
змі н
200 7
не об
с мі
сі ч
ен е
ту ра
ви со
са м
a s
кла д
до ро
є дна
на х
ви пад
се бе
ль ний
о х
ос кар
мер и
позива ча
кре ма
ле ний
ч на
щ ення
о стан
с ю
ле й
о дин
па м
ст ю
1 00
май на
o l
u n
ці аль
ну вся
мож на
ст ер
3 4
пр ов
те к
за хід
ува в
у ні
па ла
пе в
ова но
ча є
ко ш
во го
5 0
ст р
за хо
ра зом
зако но
о пера
ні ме
ти х
берез ня
джере ла
чи ни
під став
зо крема
ці єю
н ову
нале ж
робі т
о хо
20 20
200 9
підста ві
к ли
наві ть
ви х
чи на
за по
гол ову
не с
з ер
он ер
графі я
ін ші
па ра
e t
сла в
3 6
ду же
а лі
де й
ма ють
бага то
пар ті
ти й
ко ри
н ово
на яв
т ні
i d
г ла
на слід
ре гі
під ляга
обстави н
са нд
з ов
ча ст
те ле
3 8
є н
б ю
до г
бу р
ш ли
т ере
ри ста
i on
со ю
то н
ре ш
h t
мо жу
лі н
визна ння
за кін
п ови
с про
на с
ж ень
сво є
од но
до к
ль них
те пер
ра к
ок ру
а л
пів ден
с хід
с пи
ле них
ли сь
с мер
еко номі
кі й
сті й
мі ся
зви чай
ниц тво
i v
а мери
при пи
мен т
ек с
ві к
су дами
ли ві
рі я
части ні
л ер
201 3
скла ду
вимо ги
о ю
ч ів
чи ном
н ові
a c
літе ра
до б
че них
ми кола
ро н
скла д
ль ної
00 0
щи й
гру дня
ду вання
дог овір
і сто
вико рист
мі ї
під твер
сти ту
o f
ни ця
в каза
є мо
про те
буд ь
украї ні
ла сь
те м
ко рист
ці онер
наль ного
жовт ня
ви сту
г ер
ре й
по тім
січ ня
ж ника
з бір
про си
e d
верес ня
па в
необ хід
пита ння
сво ю
че ні
ні ж
u r
хар ків
к ни
об ґрун
ме т
здійс ню
спі р
ве де
ра зі
гі й
зако ном
an d
бли зь
райо ну
та х
ком п
по са
уча сть
3 7
ль ні
ву ли
уні вер
про да
на м
с від
бі ло
к ва
в чи
ш ла
ма к
201 2
ши м
хо м
о де
ч ки
за ле
чи с
відо мо
6 5
ли пня
к ло
ово м
ю ри
би ра
крі м
с пів
чер вня
ба р
ц у
історі я
д ра
сл ова
дру го
к ово
сі й
обме же
роз ви
тра н
4 0
тра вня
i a
по слу
те ту
ниц тва
ад ре
фі зи
с ку
ак ціонер
од ного
сво го
сько ю
т ю
ло сь
квіт ня
ме ш
сво їх
ле г
ни ти
п ле
об о
ба н
ба чи
ен ко
регі о
м ку
ль вів
де мо
це м
пов нова
іс ну
про дов
чемпі она
як е
к лі
зем лі
мі сто
к ції
ни ці
лі ї
х ви
т них
д ь
ш вид
вій ни
чо му
ча ль
пе тр
яза ння
до н
елек тро
ви тра
від ді
олек санд
тив ного
кіль ка
ска зав
до ю
лю того
про тя
виснов ку
сер пня
зу стрі
розу мі
х е
ц а
спо ру
мен ту
а т
з бро
р на
ова ні
ч ка
я ку
o p
сі ї
d e
з го
ж ува
лю дей
та ким
зас ід
пр ово
лі т
ген е
3 9
4 5
та ких
ро ки
повід ом
l a
пи су
ньо му
т бо
можу ть
ін тере
ра ді
н ка
не ї
гра в
бі ля
ди на
за ліз
ма ло
соб і
ка м
лі с
си н
па т
кі сть
ова на
ле на
с хо
жи ть
суд ового
роз ді
дні про
у мов
ля є
ль на
мі р
скла да
ме та
ч не
до каз
позива ч
гі р
гово ри
за яв
біль ш
ц к
рі ї
нав ча
са н
ку п
су м
під писа
універ си
ва си
мо ск
гля ду
суд ді
200 5
з нову
фор му
6 4
про фе
пре зи
ра дян
хо дя
протя гом
пі з
фу тбо
та кі
ре с
пу сти
пере ві
я ким
н є
к ру
на ро
ве ць
че ний
одна к
на го
ка зу
і ван
кла да
між народ
чо ї
воло ди
ло ю
поз овом
т ка
киє ва
цен тра
ні м
по ста
дов е
бу дин
су вати
аль ністю
ї з
фак тич
мож ливо
при ват
д ві
жа х
тре ба
ре к
3 3
в рах
с ід
дово ди
ви рі
три му
г ова
робо ти
си ли
юри ди
ро ках
ст ри
за я
in g
спра ва
близь ко
у тво
б ла
с но
ньо ї
u m
я кої
колегі я
тран спор
200 4
ма ли
амери кан
з бо
сві ту
і й
7 5
ка на
при зна
в тра
г пк
д жа
ж ін
4 8
сте й
се ли
лен ні
офі цій
6 0
з віль
200 2
від а
ту вання
про сто
я кому
ви ще
7 8
з роби
рішення м
н овий
чер во
t p
ви що
кер ів
ди ти
поз ову
всі х
ство м
по го
о чі
ць кий
се ла
ха рак
л ід
суд дя
зо ло
ви щий
ві та
х ло
т но
пи в
ци м
дво х
пи сь
ши ми
ови ми
реє стра
бу ду
части на
дода тк
лю б
м ів
о кре
зале ж
ста ном
мі сті
ра зу
ї й
лі я
i m
к ня
про гра
чи м
а ч
у кладе
і ва
му зи
ху до
в ен
ча ється
т ного
ht tp
про ду
зна й
наз ва
прези ден
с ен
ро к
жи ва
фі ка
щ у
4 9
стро к
за яви
які й
по ря
з ни
до ла
се зо
ан д
гене ра
т ний
en t
тех ніч
в станови
в клю
ра да
с ні
л ов
сі я
ма ла
су б
пері од
змі ни
підляга є
ї м
сторі н
со к
ну вши
u t
b o
бі о
а ка
ї ха
залиши ти
ці єї
до зво
роз поді
к ти
органі за
20 21
коли ш
до нець
ре да
по ра
ди ви
де ся
ге о
ву л
ті й
сер і
б то
се лі
запо рі
п ен
х ів
бор жника
го тов
ць кого
ну ла
і р
поча тку
3 2
жи в
петр ов
ста ні
рі б
мі ні
доказ ів
д ере
да ти
лю д
к ові
су ди
200 0
гол ова
н ови
то ри
орен ди
по мі
особа 2
5 5
ді а
по ки
т ків
4 6
ка в
ми хай
ва вся
ка пі
в да
ча су
ан г
те ль
ре жи
чи й
про ку
поді б
са ми
за мі
та й
пода тк
ст ів
н ського
банк ру
ван та
ко сті
б ле
прави ль
те бе
чи ти
про ек
та в
9 9
ра ми
ля р
мі г
ува ли
i e
то рів
ка ра
ючи й
ци х
co m
гро ш
коман ди
не до
вла ди
на р
пові т
пе й
коро т
к с
зі ї
га з
кер у
200 1
райо ні
є р
чис лі
ніч ого
ше в
6 6
8 0
т є
з му
ві ці
зав да
пер ший
ма с
рес публі
х во
не дійс
і га
ва ль
е ль
пунк ту
ріш ень
є ш
сто лі
мі й
a d
за ги
май но
є ди
во ди
4 7
наль ної
розмі рі
істо ри
на при
ii i
кон тро
х ре
до ся
t o
у же
ч ну
i g
суд ових
за раз
a g
ви м
ро ни
л ля
п ля
діля нки
ко ра
ло к
во є
що сь
нале жа
по за
о ди
то бто
полі тич
при род
гу р
ст рах
комп лек
від мови
з га
дав ства
ва с
l o
за твер
на роди
мо ю
та рі
ка зи
я т
раху нок
чи х
да н
за бор
сай ті
ли н
боро ть
фу нк
по ши
сього дні
бо м
то ром
лік віда
ше но
р ен
4 4
вищо го
ль о
зна ходи
жит л
ч я
су час
к ро
та ке
ста ту
з ві
ці а
ування м
з ло
украї на
ма ши
ін тер
ю чого
при н
цен тр
у хо
зу пи
пер ше
лі ку
гі ї
обла сть
си м
колегі ї
ми сте
a p
200 3
i r
ме жах
особ ливо
най кра
по ля
шо ю
ак тив
чо ти
суд овому
наслід ок
в ну
во ї
к вар
ре гу
с ло
ч лен
бо й
хо ч
не но
u l
ар хі
кри мі
р р
ві с
ви яв
грома д
не ю
сь кими
сторо ни
тре ть
ну ли
о ку
ще ю
ви гля
чи ть
а ж
сто я
і мені
ти сь
ко за
тя г
у н
8 5
ака де
би в
ча сто
ни ж
ди рек
нада ння
у мова
части ною
нер ухо
ливі сть
ника ми
суд ові
мі ської
ч ува
від носи
за соб
й те
о зна
n e
спе ціаль
ска за
ви н
м на
н ового
мі я
ра м
п лю
шо му
7 0
ста ти
ід е
екс пер
те ж
о лі
май же
а та
по те
худо ж
га й
спі ль
ма тич
розгля д
усі х
пере мо
ч ле
бо ю
те т
ста ро
с ов
росі ї
ову ючи
о сь
нор ма
199 8
ре м
сто м
ін ститу
ді тей
в зя
n o
ге ро
нов лення
і та
в пли
4 3
х ова
кі но
вважа є
ду м
ця ми
компа нія
же ний
пло щею
жу рна
не се
те а
служ би
по мер
ви кладе
вати ся
ста ла
со ціаль
те о
та кий
то бі
e m
су му
лі та
держа ви
ве дення
ба й
за вер
друго ї
7 6
рів ня
ан ні
євро пей
ь ох
л ень
s p
у рах
по чина
с вій
мо тив
мініст ер
поча в
ном ер
пу та
сл ов
ов ід
м ере
д ю
зали ша
от же
шля хом
ва є
ли ч
доб ре
а чем
ши в
трі ш
w w
с пад
ти с
риста ння
ін шими
ла ми
та кого
н г
на зи
ме ді
по се
ме ди
де ра
9 0
з бере
од ні
9 5
л лі
хо ча
к в
позов них
ви пу
чен ко
слу ха
мі сти
суд ів
ухва лою
обла с
с па
o m
ме то
зна в
ма ні
с пла
ав том
мисте ц
ходи в
ва м
ст в
ми й
хло п
автом обі
чи ну
199 9
но чі
ср ср
фран цу
у кла
вико ну
про ми
клу б
дру жи
вну тріш
про то
ова них
о ста
столі ття
фе к
чо к
д ри
ні би
да ними
х ер
ц ар
послу г
ч ним
по яс
мо го
об ся
ли в
бу т
спра ву
ти ки
ка та
ро ю
і но
пі ль
звер ну
цер к
прав овід
д ові
люди ни
п п
по е
по над
ко л
t er
5 8
с ки
роз роб
ва ло
ма х
фон ду
про жи
не й
дов го
від мов
то сті
васи ль
ч ку
логі ї
фор м
ш ки
систе ми
ж ди
за кри
пра ців
б ід
до кази
т ної
фран ції
кош тів
міс ця
да є
на н
на че
ста ли
хо дження
д нів
6 8
то ї
тур ні
t e
б ен
на пря
си л
фіна нс
тво р
росі я
не в
по ро
нале жить
не залеж
си в
за мов
будин ку
за па
ра с
га л
o s
спи сок
гра д
9 8
н ський
по трі
ф ра
ць ка
с п
ні ш
во но
я ть
де пута
че ного
нов е
вар ті
лю вання
історі ї
ухва лу
і поте
с ор
соб ою
му зе
вимо га
ц пк
щи ни
бу ди
ви ник
за пере
at ion
4 2
ве д
да х
га лу
го ри
зав жди
пар та
повіт ря
ка ти
зі р
тех ні
гол ови
м пі
ка зав
а б
i st
пере й
а ф
тор г
ни в
ін шого
ову ється
п ова
джу ється
витра т
на мага
мо м
з бер
ри м
ра д
ба нку
отрима в
ги й
ве сти
7 7
чу к
ос ві
по ми
p h
пере бу
роз раху
зо к
у мови
чер ні
краї ни
захи сту
мі ст
по м
ук р
м ову
г на
ло н
воє вод
тро хи
се кре
ча ння
ре ч
по чу
єдна ння
ць кої
францу зь
за ступ
кон кур
ди ві
ова не
да ні
по стій
меді ана
проси ть
ку б
з ву
у станов
по га
по д
ль йо
від бу
част ково
а ві
ста ття
лі ст
да ле
запорі зь
на чаль
прода жу
п лу
во лю
г ні
піз ніше
на прав
жи ти
в ходить
ли й
пла т
бе ль
з би
о гляду
4 1
че на
пра ці
проку ро
кори сть
ство ре
ши ро
хо ду
ля н
ли х
6 1
од ним
здо ров
ча р
ку пів
9 7
хо ло
наль ний
на писа
ові й
ці н
пунк т
дося г
гра ф
а є
ж ен
не має
від чу
v i
ці ка
ту вав
ст року
пов но
о ми
до р
ч ною
розви тку
фе дера
г рі
випад ку
з ня
o d
прий ма
від но
ші сть
ба чив
нь ю
німе ч
де парта
м л
6 7
го род
сл ово
пере гля
во ду
об лич
с при
л л
про по
те ю
на веде
про бле
спе к
тех но
б ру
сво єї
у р
ф ло
бі блі
ле м
меш ка
вали ся
чи ли
пере бува
працю вав
свої м
па ри
капі та
8 8
6 3
т на
ро ль
5 7
ва ми
ті ла
захи с
справ ді
er s
пред ме
дове де
стат тею
лі кар
у с
о стр
тив ний
су мі
су р
ста ло
о ст
бра в
су сід
з бира
о ї
тра к
f or
п лі
со на
парті ї
ма рі
на у
ри в
від шко
по гля
a e
ви клю
ст ві
ме тою
жи те
ні коли
л ки
на ф
ж я
с м
не з
скар га
ну вання
мо де
з ор
жа н
ан ти
ра й
бо ри
ра ніше
тив но
олі мпі
зай ня
цій ний
чи та
зов сім
ле ного
си ть
по став
хо че
ар мії
ну ло
a b
у го
ла х
жі нок
н ових
з не
чолові к
гру пи
різ них
змі ст
тор гів
літе т
а ння
ри н
та ка
бо к
і і
5 9
in e
u b
до ма
харак тер
воло ді
6 9
бі й
потрі б
кон ститу
мет рів
м м
b n
я по
су ми
фо то
е ле
комі тету
ба жа
те ра
ля ється
за вод
ве сь
дола рів
філь м
o t
збер іга
s e
ре а
ре алі
бо г
ту а
тра в
квар ти
ми х
у се
д ми
ча в
тим час
реш ті
са мов
у спі
цій ного
ну ва
ге ть
ме ха
мене м
ого ло
s h
са х
ови в
під стави
проду к
ку ди
ва й
мо мент
хо ді
пов ів
ра ке
нес ення
повід оми
засто с
ме й
зго дом
вели кий
лен ню
пов ністю
ви кли
по то
архі тек
ни ку
нор ми
ба в
пові ту
я р
мо на
т ство
х ов
робо ту
ова ного
аві а
то що
г ло
ову ють
з обра
тра нс
се й
оці нки
ла нд
ж ного
ро сли
фі р
х ри
дій шов
p r
по та
єк тів
ру ки
лю є
дов жи
6 2
ж жя
ж ні
пись мен
вій ська
а м
серед ня
смер ті
м овою
ко п
і гор
ух вали
во г
пу ска
со л
ви гу
задово ль
п ру
сві ті
пер ші
о те
п си
c e
коро лів
од ер
сай т
сере ди
мо к
в ба
во до
по тре
жі но
в з
с фер
5 4
ка бі
від зна
сер гій
is bn
ро ман
ову є
m a
дов ід
тр ьох
o g
реє стр
під три
повер х
роз і
адре са
вели ка
ко лек
ж ер
л ка
за боро
єк т
та ки
служ б
голо с
грома дян
ри ти
пунк том
ви ди
д ід
гру па
ста ну
т ним
ка те
l i
по бачи
ч ному
з від
хі мі
кри м
вши сь
бю дже
199 7
од ну
пи ти
га ран
вули ця
199 6
го н
пита нь
е фек
ви яви
ко лі
с плати
о ри
з ів
елек три
ди с
199 0
і менем
є те
т с
од не
7 9
ар ти
буди нок
спо ді
за лу
да м
c t
кін ці
про й
бра ти
рі н
о то
к г
ча тку
слу г
цій них
коман ду
ден е
d i
зі й
ходя ть
ра п
да них
д вер
в сього
ш ка
з ро
ча сом
по ту
5 2
се ль
d a
переда чі
меш кан
с с
ш ве
хо дів
u a
г лу
пози ції
цій ної
фор ми
т ві
киє ві
біло ру
га ли
особ і
б ре
пода ння
ріш енні
а е
з но
ри й
поль щі
ва ють
ав тор
пода ль
охо ро
б ло
кон струк
во лі
пов е
об и
спо чатку
лю вати
облич чя
до бро
енер го
ря ду
ч ере
че с
клу бу
пи ли
хер сон
m e
є ра
й м
н ы
куль тури
шення м
пер ша
аль них
варті сть
ім пері
са нк
від е
з м
я х
ти ка
де які
бать ко
ска с
199 1
проце ду
5 6
бо ку
ни ні
чоти ри
ні с
орга нів
по годи
по серед
д ро
най біль
ро ду
па ли
5 3
кі мна
відо мі
ш коли
8 9
під готов
сво бо
пита в
кра й
199 2
ви в
купів лі
парті й
с це
лення м
моло д
ж ник
а ні
ка ла
до му
над ця
ка лі
се к
я кими
сто су
s k
з мага
ніх то
d o
ру му
х мель
но тарі
ни з
я кою
вели кої
не ні
є д
па ль
мо менту
при з
не т
енер гії
га зу
су пере
i x
мі ну
у повнова
по пу
захи ст
чу є
т в
5 1
фі ло
самов ря
розмі р
ка є
до повід
я ти
ста є
ar t
жит тє
3 00
під розді
німе ць
ви ч
ш тра
належ ним
не ний
тив них
да та
ту вати
орга ну
не на
20 22
зем ле
к р
ка жу
я ко
б р
199 5
анд рій
ка ли
а й
пови н
це ю
по тра
ма на
g e
зов ніш
в за
гі я
люди на
поря док
скар зі
ве з
да т
особа 4
i p
ка же
по ду
о з
ви мага
зем ля
основ ні
во л
ш кі
яза нь
жи то
аль ної
в с
логі я
ви ща
ш ен
al l
зна йо
стан ції
ім пера
ван ні
пло ща
ов ува
11 1
кло пота
х ро
на рах
199 4
в перше
особа 3
да ли
євро пи
мо ї
прин ци
моск ов
стар ших
ча х
es s
ре сур
ф и
уча сті
кла си
іс па
са мі
дру гий
тра ди
з ні
q u
моло ді
а би
пере вір
8 7
м ки
ко пі
від стані
прове де
час но
с коро
мо ги
ді ю
шля х
вули ці
не ма
по ле
ниць кої
від бува
ля в
прав да
ста ння
к нув
си туа
щи ні
ре лі
со ло
д ріб
ф рон
ar d
адре сою
га зе
198 9
194 4
л ла
міс ці
че твер
мо ра
s o
9 6
швид ко
переві ря
гу бер
я зок
пропо ну
ови ча
ша х
с на
че й
о ні
ви кла
не закон
пала ти
виснов ки
гол овою
я м
до мо
сіль ська
за д
скар гою
пров ін
пер шого
бага ть
від со
ре д
зна ю
жін ки
са ма
кіль ко
прово ди
не м
р ф
чор но
церк ви
ва лося
ма ль
ову ються
безпе ки
ля ти
мож ли
чення м
обо рони
суд ове
п ово
уча стю
пор ту
роз поря
цер ква
ви но
заліз ни
у гор
умова х
вар тості
мен ше
оку пан
ак ти
ува ги
куль тур
анг лій
лу ган
199 3
лі за
річ ки
го рі
бать ків
вид но
ка с
ви ни
віде о
ція ми
на ші
зай ма
са д
від хи
до сить
відді лу
ля ють
7 4
ді ти
ж но
мо гли
пол ови
s u
т не
єк та
п рі
ді є
g o
да ль
окру гу
кі р
пови нен
хо р
п ні
а реш
8 6
яз ків
пред мет
спо жива
те ля
t r
т ті
пере ва
з біль
бі г
пор т
b er
сла ва
ю р
вий шов
ти пу
д ба
к си
ва рі
тер но
збро й
с пря
бу ть
у з
шко ди
7 2
ту ру
тися ч
оста то
мо ря
сто ли
ш ту
дя ки
є ва
фер ен
д жи
ч ень
чи к
ти ту
си лу
мл н
яз ки
по каз
8 4
лен е
су ді
n a
197 5
бо л
у годи
t a
ф ан
ру й
витра ти
с ке
зор я
194 1
x v
май бут
ф ар
ка зом
щи на
та ри
ти на
5 00
ново к
о чи
w e
д ця
тво ри
с ріб
ква лі
ст овір
за пи
об ер
о пис
о пи
4 00
вигля ді
ш ло
треть ої
мак си
части ну
вис новок
наго роди
меха ні
лю би
зем лю
кож ен
за реєстр
о форм
ма буть
ля ть
ку вання
бан ків
m an
c i
пе тро
же ні
жу є
яз к
а ра
сою з
з мен
чі р
9 2
на к
дж он
об стрі
пору ш
il l
екс плу
ч ними
пол тав
і ні
мен та
дж о
9 3
збо рів
мі на
мі ського
чи ні
право мір
ну то
бра т
ре волю
ад же
11 17
ін ше
черні гів
ж них
по х
ва лася
не вели
бри тан
ли ст
чер ка
кате го
зу ється
о п
ду мку
ці алі
ха н
спо сіб
пров ів
зав дяки
пра кти
ва ється
мен ти
трима ння
га ми
со фі
шев чен
b e
раді о
комі сії
до бу
тер мін
194 5
су спіль
с му
своє му
роз повід
поча ли
пі р
ходи ли
9 4
в кла
й ор
дже но
стати сти
кош ти
спо кій
ван ню
ло го
галу зі
ч ов
ла в
о пла
вироб ни
пере пису
де бю
й н
зас нова
розподі л
ста тей
са р
су пер
д но
реє стру
ба х
олімпі й
о ль
во ка
ру х
ви дав
пере важ
та єм
ф ін
звер та
дере в
о ле
на дій
ви дів
с мо
бу х
ти ж
ди тя
к п
пров ід
контро лю
ж ний
p ro
ри вши
й де
осві ти
захо дів
е та
го ро
бри та
щ ен
чемпі он
ва лю
ма лень
е мі
рап том
до ру
9 10
яза ні
зі я
о плати
ак тор
дру га
ін ж
хі ба
v er
зі бра
су до
ши ти
біблі оте
ін те
кому ні
сво єю
га да
ос нові
8 3
c on
кан ди
в сту
му р
ш но
роди ни
си ль
у вій
m ar
b r
сто ї
с кри
роби ти
кабі не
пе ні
навча ння
ос віта
сю ди
а у
дав но
спо соб
жито мир
не за
органі з
ви бо
працю є
в ра
ходя чи
ру ч
на ді
i k
http s
8 2
з ва
шу є
роз ір
кон трак
від ува
важа ючи
стра ж
допомо ги
ш т
д з
мона сти
л ова
мо но
i an
розгля да
при му
сту ден
х лі
ре мон
хо тів
7 3
ті н
втра ти
ком ер
у да
фор мі
ду ть
на т
пре м
ру ху
закін чив
ко ре
ан то
ко на
ба лан
a u
то ч
проси в
їха в
при бу
стрі й
за кла
систе ма
спро ст
l y
к тич
кін ця
од них
мен тів
ми ра
збір ної
за г
яза ний
моло ди
ти хо
x x
пер шу
свої й
бо го
с лі
п та
до ходів
ви ді
зая вою
проми сл
обла дна
че сть
належа ло
д п
u k
т ком
ін ь
ту рі
ак тів
ц о
наль них
особ ою
орен ду
ов увати
ге ль
тро м
від зи
га ду
хви ли
ру ку
ана лі
ри на
те ро
в ов
орен д
пови нні
198 0
пов тор
кор пу
мо рі
бла го
та ра
п різ
діля н
зи н
реда к
багать ох
вод но
об слуг
позов ні
од я
ж ки
а гро
ува вся
будів е
сер це
тив ні
о рі
зроби ти
ти ми
де сь
ті ї
бо же
бли ж
за го
o k
к ров
ню є
на то
d er
же но
о триму
на решті
ка фе
ба та
ак т
ка то
при сут
s ch
за слу
справ ж
фізи чних
пла ну
спо лу
пі шов
з розумі
ба л
c k
жите лів
ча ть
8 1
фак т
при бли
де та
під триму
с х
грома дя
іно зем
ж ор
ви ми
цій ні
поло жень
ін сти
ко лу
суд ової
орга н
спо дар
нада но
куб ка
ва нь
випад ках
ні ми
ко ха
ше ні
ана то
у ро
н ків
ле ному
розу м
7 1
ви ріш
ве ст
мо я
ю вання
відо мий
ш ку
повер та
засто су
пе ць
та кої
носи н
ка ння
ре чі
ж о
за н
кор до
ува гу
графі ї
аль ності
пер шою
двер і
ін шим
пол ков
торі я
о чо
електро н
вклю ча
висту па
го д
ч ко
на ш
шта б
од ному
михай ло
бор гу
одер жа
ро ма
194 3
ти п
ша р
пе да
w s
ля ли
по ляга
вз яв
ль не
чо ра
ль ну
цен тру
мови в
наль на
рів ні
ле жа
го т
до хід
пи сом
відноси н
бі к
сказа ла
кра ще
бю ро
оці нку
бороть би
генера л
това ру
ви хід
рі чних
ва лен
буду ть
ко мен
під ня
a v
ww w
f r
водно час
жін ка
пере лік
кон кре
това р
ль ним
та ції
в би
ті ло
ниць кого
хри сти
наук ово
с хи
ши н
само го
вчи нення
бать ка
по буд
ст ов
повер ну
ва лер
ac e
пів день
мо гла
пози ція
наз ву
послу ги
вважа ти
коман да
мат чі
відсут ні
ли вий
ці л
гру п
ви готов
197 0
кілько х
і гра
хто сь
шко ла
кож ного
193 9
a k
9 1
мі льйо
за р
сти й
си на
y o
дер ж
переда ти
укладе но
вели кого
с них
на каз
як би
фран ків
у ряд
у ра
поз бав
дома ш
в ті
ло г
випад ків
о ду
ур ср
ма ю
н ової
в п
л ку
від повів
по пере
сезо н
тя ж
рі м
ін ф
бі га
че ної
наф то
май стер
н да
є ру
стан дар
лі га
вік тор
судо чин
охо рони
продов ж
г но
фіна н
сері ї
ва го
ни цю
ме жі
пер сона
ньо ю
музе й
ови ща
хо чу
ду б
да ни
на бра
коли сь
друго го
198 8
будів лі
о гля
дж і
фе сти
те пло
i f
ст ву
ic h
m o
нав коло
сказа ти
ри нку
ство рю
свя то
вида ння
цій но
ос віт
на та
во сті
фіка ції
ні к
като ли
до стат
визна но
режи сер
спря мова
ку вав
про цен
середи ні
грома ди
ля х
спі льно
стаття ми
украї ну
профе сор
ль в
аф ри
ка тери
ж ів
чен е
ана ліз
допомо гу
воло дар
в ні
півден но
г міні
о па
по кри
педа го
до каза
ру с
тем пера
мо ти
ла м
мі но
іван ович
ле т
ю рій
зая ву
да ній
спро мож
систе м
да й
ори гі
стан ція
та кими
пов ному
не безпе
чен ні
зас нов
різ ня
наро ду
лі ка
краї н
лен у
прави л
в несення
ха ти
мі стя
гли бо
при дба
ча ти
ор де
пе т
різ ні
пер шим
фактич но
ви ника
p l
вимога м
p o
п л
ж ність
ни н
су ті
аль ність
роз поча
о публі
пе ня
попу ляр
до стовір
тив ної
інсти тут
гал ере
пла то
сер ва
ві ку
ми ть
ки тай
ро с
регіо ні
ч ній
з роб
скла де
по кла
лі п
ництво м
щи х
к ового
по ли
на ції
лі нії
ме д
па ні
ви про
місти ть
парті я
я кості
пер ер
во м
пунк ти
тр енер
по рівня
ку ля
мето ди
о ке
гра н
аль ні
у су
замі сть
яви вся
прав ових
ро лі
ви ходячи
міся ць
кар пат
до ли
по кара
а ген
го дин
к ови
поча ток
па ді
засоб ів
ку бок
га ла
полі ції
c l
до сі
ува ла
є пис
196 0
пись м
па трі
д вигу
пунк тів
сіль ське
н ська
споді ва
ка да
існу є
ко льо
адреса 1
ова ної
p er
не них
смер ть
свої ми
роз ши
сл ів
198 6
з ла
ба ра
дале ко
та ку
т ви
у дар
смі х
пар ла
сто сов
пи ла
б лу
ін ший
про стро
імпері ї
з су
над то
л ович
проце сі
дружи на
не ра
лі то
від у
нерухо ме
ма рія
ко ль
ви став
с ний
r u
ци кло
ва лі
спір них
кла су
під ви
об ліку
з ен
к ове
по шко
учас ник
е й
a y
па са
ни вся
зга ду
до ступ
поса ду
ди пло
бо я
під ій
ор ден
но ги
при сі
11 19
ду р
арти лер
дж енні
від да
енер ге
an t
техні ки
га ль
дирек тор
во к
ника м
інж енер
на лі
стосов но
ме кси
про тив
де яких
зазна чає
коро ль
по бли
вій на
вели кі
h e
198 5
сою зу
i z
у сього
к ен
загаль но
обо ро
пу ще
але к
єк ти
їз д
іва но
е с
зага лі
ви бор
зага лом
б ін
ючи х
чи ла
бро н
доро ж
дру ге
ни ли
м обі
то ж
п лення
198 7
же на
ш ів
со т
м но
рів нен
я ро
за ходи
ста рий
ба ла
раз ів
p e
ак ту
напря мку
19 18
а ють
гро ші
зда ється
това но
c or
ст ере
з вання
н ню
по каза
окру г
по станов
регіо ну
га ря
акаде мі
ю сти
д рі
1 20
194 0
г ти
при чин
e x
док тор
ін ди
ку вати
справа х
ва л
очи ма
l in
ле ними
збо ру
w or
від мову
с кільки
мі ц
зда т
к л
ор дина
те ті
з ник
пла не
завда ння
бур г
това рів
м п
к ових
по стави
експер ти
по сла
ті р
ту ди
ґрун ту
діля нку
ка й
час ів
ст вер
за м
по шу
у м
пла н
кар ти
дис ци
по раз
а пара
повин на
логі чних
ши ли
олек сій
а с
н ень
го ту
к ві
казу є
розмі ру
за суд
зо н
побли зу
ш ер
ка ль
чоти р
части н
зроби в
11 15
одні єю
демо кра
кон цер
жи ли
з ли
ва х
комплек с
су куп
пере мож
зна є
ма те
важ ли
від прав
це п
довжи на
чи сл
ок рім
іні ціа
дово дів
учас ники
бу ття
00 00
ря ту
дж ер
194 2
авто ном
я на
росли н
сце на
ти к
змага ння
по же
нен ні
198 4
ми м
го ль
р д
місце ві
сі ю
сто яв
ве ло
остр ова
полі тики
диви вся
ком бі
ш ні
іта лій
в загалі
поді ї
вла ш
іно ді
поса д
життє пис
e p
en s
де ль
т ними
ди ть
ця м
ск ли
ка мі
ре ць
ма ми
шта ту
де в
до дому
стер іга
ком пози
ле в
міся ців
по куп
лю ється
обі й
ст ре
пра ктич
до би
ли ти
бо га
спра вед
фа куль
ви ро
мініст р
різ но
ру к
бороть ба
сту па
ма пі
по хи
ження м
пере тво
it y
ні ю
люб ов
ос пор
дія ч
о ну
ви ходить
о зе
я та
19 30
ста не
од ру
наз вою
джу є
ви клада
обся зі
стату с
во й
збро є
в бив
па на
му ть
од разу
сели ще
жа р
зна ти
умова ми
a w
мі сте
проку ра
ов ування
дя ть
пове ді
зби тків
світ ло
197 9
кор дон
к ля
при єдна
мо л
відкри то
наль ному
сфер і
від ки
зна чно
де мон
одні єї
чле нів
ми нуло
чин ності
роди на
пря мо
or t
дав ством
м ід
un d
на ших
з віт
секре тар
ку т
про філь
h o
а со
st r
тер пі
від обра
el l
чолові ка
ост рів
іта лії
я ми
на зад
197 6
зе лен
се ра
дум ки
са ра
кабіне ту
сі н
ґ а
подіб них
пере шко
f e
сезо ну
лю вав
гли би
мо гу
ми с
зазна чив
ар гу
ми т
б ля
ае ро
сті льки
га х
се ля
ст ен
ча ють
юсти ції
земель ну
дми тро
19 20
іва на
паса жи
об у
холо д
б л
не викона
пра це
е м
мі сть
лі ги
ше ний
ль ній
ар бі
зна к
кни ги
ча ми
наго род
рів на
198 1
бер у
фор те
ду хов
отрима ла
зали шено
мо є
цій на
по бачив
заяви в
ли м
т т
вели че
кра ю
важ ко
цикло пе
по ко
на казом
са ди
вирі шив
функ ціо
ді зна
ко д
свя того
ге й
бі лі
йо н
па пер
ф р
вза ємо
н ської
присі лок
кож на
л ови
пе тер
мере жі
ре зер
жи ве
но с
мар ш
дво ма
15 0
дисци плі
с відо
лей те
ма ри
пору ч
піс ні
в сти
та бли
га ди
пси хо
міся ця
f o
все бі
u p
проек т
б ів
ше й
198 2
сю же
ав стра
пере вез
до ба
гол ів
стро ю
n et
ли ста
ко ордина
сели щ
коро ля
кон су
v e
держав ну
кон вен
ля ються
е т
сторо на
11 0
га зо
ле ць
слова ми
ща стя
во лин
g r
а но
ста тут
ви ня
розви ток
ри зи
ін вести
впли в
о й
аль на
вели ких
на казу
се ва
ті ли
аль бо
чер гу
ра ї
ві ком
дження м
ви ходив
ве ль
е в
198 3
до дав
к ле
ри х
со ро
тру д
загаль на
о зброє
с ма
свід чить
пода тку
к овий
перева гу
спор ту
я ті
робо та
ча ються
пере кона
а х
примі щ
v id
ниць кий
поши ре
лег ко
ля ції
ль ський
гу б
тре тя
ува тися
в не
мо ре
висту пав
поча тк
іпоте ки
кни ж
co l
аль ний
при свя
ін шої
жи вання
визна ти
х ра
приму с
i o
ве чір
195 0
дів ча
ін фра
бу вання
ова ним
нау ки
до казу
во да
ня ття
ке й
окре мих
м ною
ме тр
ду ші
гля да
орга ном
стар ший
заги нув
на пів
який сь
висо ко
доб р
тив на
позива чу
програ ми
дця ть
їх ні
де кілька
жи во
ме три
від по
і ї
ро ї
микола й
бо ло
при ро
галере я
до пусти
по зна
вих ова
197 2
торі ї
ці лу
аль но
а гре
е д
станови в
г вар
ч увати
пав ло
диві зі
грош ових
ба зі
по свід
філь му
гри го
дів чина
ни зь
ю ва
197 8
197 4
9 78
вла сти
а да
по я
ro m
ходи ти
моск ва
деся ти
ро дин
аль бом
лю к
ко стя
ле ним
ви ру
проек ту
штра ф
жи й
пер віс
чи вся
голов ним
поса ди
сти ки
ста рі
скар жник
в ень
су ма
потріб но
спі ва
ду мав
орга ни
роз слід
ст ого
журна лі
будів ель
не мов
сі мей
шве й
c a
193 7
релі гій
від нов
че ним
е л
си ді
ме на
цер ков
со ня
під оз
говори ти
ле ної
ціл ком
ю на
сева сто
сусід ні
197 7
на бира
тва рин
с ного
г ле
сто й
служ бу
остан ні
к к
в ру
яко сь
i b
від так
пере ви
се на
па не
о повід
ове ць
во р
же ного
арбі тра
єд ну
ос ере
197 1
ба ром
лю ва
змі стом
an g
допо мага
писа в
до бри
о куп
виклю чно
кра сно
га в
регіо нів
жен ню
дні пров
пер ших
во єн
зи р
поча ла
ме ж
від разу
ли ш
ін стру
та нк
г ін
че ному
гід ро
макси ма
с кі
in ter
д них
до нь
в мі
конкур ен
спро бу
ти ку
ча ли
є ри
ма ну
бра ли
ви на
озна чає
пере хід
хви лин
не у
чи сель
відо м
s on
світ ла
кон ф
ма са
по си
христи ян
чолові ки
196 9
ска су
ко па
потре бу
проце с
сер віс
під трима
доказа ми
19 17
стра те
а ти
ад вока
з нов
сон це
са на
по лу
ста лося
розу мів
тре тій
сти х
жа ми
ж ником
19 19
на ве
196 7
я ні
193 8
є с
ці єн
мі кро
ці ль
пробле ми
май ном
фон д
с питав
сту пеня
у клада
а ку
в сю
тич них
чи ка
пла ті
дово го
за ція
к ової
кня зь
or g
лю ють
ге ор
знай де
с пу
до свід
за то
рів ень
робо ті
196 8
зу є
ар хе
вда лося
во рі
нів ка
нення м
п ти
сер йо
до рі
охо рон
p ar
кол го
йм овір
е фі
ми сли
о че
197 3
пада є
ція х
ме ра
схо ді
да на
а по
північ но
об лік
належа ть
ль д
ді м
on e
11 2
шо к
обі ця
е пі
га м
да ють
поми л
краї ні
тич ного
піс ня
част ка
шевчен ка
за ува
систе му
ч ував
дя ться
чин ного
стат тю
чер г
офі цер
крі зь
b l
окру зі
т ну
ре в
пері оду
з див
ра в
висту пи
прий шов
тер мі
чи ною
ль ному
титу л
з нес
ля ючи
с ся
ме ни
при вати
ови ще
бо ра
c r
г ну
шко лі
ня ється
193 3
оку па
капі тан
роб ер
кре м
ви нува
всі м
нада ти
да ла
това не
за кли
пріз вище
пра ві
ве с
ши ла
b ar
асо ціа
j o
да ту
розгля ді
від би
го лу
бе й
ба ми
м с
ло му
говори в
костя н
ки та
на бли
пого джу
ма ра
y s
ри ли
се лян
д р
марі у
ні єю
ження ми
утво рю
да ного
196 5
да ючи
т ові
тич ні
пла в
теа тру
ча сті
ву гі
ла у
поту ж
чо лі
об ере
во ли
не хай
літе ти
зь кого
на дав
кон ферен
ни на
прийня в
про сті
роз мов
у ряду
годи ни
iv e
с куль
особа 5
же ю
футбо лу
спри я
кор пора
чу ється
контро ль
їв на
літе ту
дій шли
по чес
дру гою
раху нку
місце вих
з годи
is h
x ix
m in
сторо ні
ня ти
марш ру
на пру
наль ні
варі ан
с пис
тич ної
кі ло
перемо га
с хе
лі на
єк ту
б рі
в торг
мі ю
цен трі
р ср
пар к
196 4
193 2
мо не
скуль п
а ми
логі чні
наль ну
бува є
ви па
ця х
п тах
об роб
дослід и
сь ому
кі нець
поруш ень
at e
див ля
ма гі
11 111
змі сту
фіна л
сі нь
і о
хре ст
во ді
ід ен
вели ку
е ва
мі лі
на прави
кі стю
за хво
змі ню
спе ціалі
в до
об ох
бе т
постав ки
ті с
но стей
річ ка
196 6
ви ду
в я
про па
ті я
вели ко
вий шла
інди віду
до трима
свідо ц
наслід ки
т ко
креди ту
ста ті
в каз
бі лих
є ги
худож ник
не ви
клі єн
же них
допомо га
11 6
ш лю
реч ови
архе о
кож ному
дже ні
рам ках
за цію
пів ночі
лан дії
діля нок
as s
у стан
дов ж
d u
зав тра
програ м
ке т
функ ції
о лег
не бо
за ду
мен ш
спе ц
за пис
тив ним
дж ор
ття м
ру кою
ін дек
дру ж
ди к
турні р
ко три
по сту
отрима ли
грома да
ки сло
пол ку
ба зи
та ря
l ine
щи ну
пла ту
кір ово
ти р
ст ки
де кла
особи сто
нан т
гу н
із раї
насе лені
196 3
пер шому
ча ла
ль ського
на шої
утво ре
ран ку
ве й
про голо
m on
а ну
193 4
ти ме
ве чер
дво є
пі хо
пре мії
джу ють
мо ли
інтере си
оди но
че ка
пре мія
н ці
п з
194 6
ст ка
від різня
по страж
знай ти
жи ву
під ряд
ви тре
слуха вши
ди м
ве к
та кою
g en
c ar
пе чер
кни га
і я
ig ht
лу ї
жи ла
пере рах
ic a
дина мі
пло щі
ру ка
s y
за робіт
за т
у ч
ба чення
k o
ви бу
кня зів
ля ми
к пк
поляга є
кла с
зна ння
яс кра
бюдже ту
надця ть
фа й
бер г
до пов
вали сь
ви ста
мета лу
це ві
педаго гі
втра т
ресур сів
s s
ня є
ні н
оці нка
ко пи
това ний
росія ни
ре кла
ля ка
ру д
чле ном
ре комен
об серва
p ol
діа па
єк том
бо ї
бори с
по слід
при кла
доро ги
http st
мат чів
ня в
пози цію
п ін
ба г
са к
мі ль
ло ка
графі чна
за крі
я зується
ру вання
ти фіка
пі ло
за лі
да ний
сі л
ле с
i er
в чини
ляцій ну
ініціа ти
служб ов
ча си
каза х
ше ного
дій шла
ш тур
пози чаль
со ці
конф лік
основ них
пу т
пов ного
носи нах
за повід
195 9
стяг нуто
на шого
196 1
196 2
гру дні
ви гра
ре ак
http www
лан цю
кри ла
єди ного
бере зі
бра зи
id ae
z n
er at
чотир ьох
з руй
кня зя
дж ен
пода тків
193 6
дру гій
аналі зу
же ним
сти чної
кана л
іс пан
берез ні
сто к
з буд
звід ки
ки ну
літе тів
се м
ла й
за про
ві ри
пор тре
загаль ні
з ве
не прави
фе й
яви лися
на ша
w ar
п ень
яза них
шта т
ло ги
при хи
вій ні
c ent
e u
ру ках
ки ри
дина мо
ни ла
ті єї
пере пис
д зер
зали ше
не га
ста ра
в ене
поз ові
су л
ходи ла
н овому
са в
гу сто
ме даль
вій ну
ден ні
гі мна
ві л
ле ю
три во
гі ю
сте пан
ко смі
ль ник
збро ї
наз ви
195 7
195 6
v ol
ви зво
да рем
хо ро
в тім
об л
і гр
чи сла
хі ї
у ря
ан на
an e
ген рі
най мен
el e
ді н
за мок
стої ть
а ла
а ма
кодек сом
шо сті
нафто газ
c y
фан та
коман д
m y
перемо ги
195 8
стра ш
лі ній
ми ну
дві чі
помі ч
да ної
у д
спор т
держав на
роз и
сі єю
фір ма
т ками
за пису
відо ма
збір ну
тич на
чемпі о
спо н
й мен
теа тр
ви ш
ме тро
g u
г к
лен ко
команди р
ак та
мо ле
швид ше
трав ні
гер цо
ходя ться
лі ю
ж од
рі ю
m us
шта бу
від було
ни я
пев но
жіно чої
с ові
необ ґрун
їха ти
стя ми
щ енко
ува лися
сі чні
п д
креди тор
я зи
орі єн
шко лу
ле д
взя ли
та кому
ном ов
роз рах
па ки
іспа нії
18 64
відбу вся
зло чин
спір ного
спе ди
отрима ти
май дан
това ні
стату ту
фі кова
по спі
ту є
ма си
ба с
нів на
ві з
ст ін
влас не
ска я
ле ген
пари жа
10 1
ви прав
від мін
во ль
сти ка
роз ряд
а ри
ства х
се л
l d
дя ку
геро й
о пі
ме ти
на пад
b y
пер и
10 5
фі к
дозво ляє
тив не
in t
ж ної
ні дер
а ук
зна єш
жу ють
г лі
бой ових
дум ка
с ну
влас ника
йор к
моде ль
наль ній
пусти в
та бо
n ation
ек спеди
or y
ме тра
на гаду
тич ний
одно раз
від і
u d
комп ен
тек ст
бе л
жит ті
мар к
зустрі ч
ди ха
а сте
то ру
від ступ
спад ко
деся ть
набира є
верес ні
краї на
окупан ти
11 5
уро чи
bo ok
по терпі
ру ками
дав ності
геть ман
ко опера
історі ю
я ни
ю ся
ac k
під поряд
склада є
со лю
прави ло
розді лу
v iii
при писа
ст рів
ін струк
контрак т
оспор юва
у яв
ши р
з раз
випу ск
пе тен
ся ть
100 0
а ва
япо нії
пере кла
ба з
про ха
ли к
ті на
us s
дити ни
ціа ліз
лі зації
йо м
чо ю
ч кою
по дав
бри гади
b it
ко т
ри ба
вла да
маши ни
си дів
те чі
жовт ні
11 8
пар ку
194 7
ну вати
гол ові
гур ту
наль не
реа ліз
від пові
ком петен
євро пі
бо н
кажу ть
щ ад
ї ж
особ у
про жива
м ові
фа бри
ух вала
12 9
ка лен
пло щу
g ra
бі знес
сері я
і нак
f er
їха ли
b a
пере ду
мі ра
k e
погля д
охоро на
при роди
одя г
ви мі
держав не
чор ного
поду мав
спі лки
ят ник
вимога ми
чи нів
т ства
пра г
ско на
за питав
ь о
лі ж
написа в
ві кі
ne w
міся ці
фіна лу
мат ч
місто м
мі сь
ма лю
брон з
h er
това ним
до л
од ній
сер пні
у є
ц ві
ло с
по няття
то ні
на па
ві сім
су прово
ко но
фак ти
за відува
ля лося
міс ць
пра пор
пи вся
го ру
жу ється
st er
та л
і зо
19 29
пев не
у зго
до не
дя дь
експер и
ш кіль
си лі
то чки
ін ша
пла те
у нд
широ ко
да ря
во сь
а чу
прокуро р
бол га
у чили
ар мія
асте рої
an s
авто бу
у ль
н х
в несе
ти мо
о це
став ки
ко рін
при чини
зни щи
роз поряд
від чува
сту пу
в ходять
не житл
мер і
по шт
річ на
195 4
пред мета
а ре
12 5
ві зи
ви лу
чер вні
гар рі
та тар
на клад
аб солю
хро мо
роби ть
гре ко
б лю
у збере
сла ви
сі ння
та ж
кон так
діапа зо
194 8
держа ва
ра до
об чис
ге ра
чи сь
ла д
прав ові
ова х
по тен
19 21
ост ров
не гай
послід ов
про пу
кре й
тво рів
бажа ння
місь кра
теа тра
d s
вимо гу
м ю
пада ло
ни цею
ша н
філо со
раху н
чи ми
k a
т лу
дере ва
пе тра
ці лі
сезо ні
стя х
перші й
l and
па х
кора бель
ф ре
а стро
а зі
здо був
мо ні
гу би
за воду
роз па
грав ця
єв ген
с ви
по ї
ме ць
мо то
містя ть
зая ва
воро г
д рів
а том
ли пні
поро ж
сон ця
по ступ
єди ний
ста ді
ш тов
квіт ні
ді б
т ному
у ся
ін спек
сування м
пере може
воло сся
куля рна
ць ких
нотарі у
за рах
ко с
білору сі
захо ді
зі т
мі ська
t y
у станови
ниж че
бу н
нор ве
прави ла
со ром
інші й
без діяль
хар ч
ко ня
за ми
пунк ті
пар ти
припи сів
ли ли
a ir
ігра х
у чи
лені н
к з
ку лі
пору шено
када стр
ли вся
поса ді
ю к
it e
відно сно
б ов
ві ру
вказа ні
роз кри
ма лі
наук ових
ра дою
основ ним
с не
х нув
те лі
про ф
193 5
біло к
реш тою
сті ни
при зер
ко трі
е кра
вік на
ав стрі
за карпат
i es
сто літ
l es
ще ні
д с
ціка ви
річ ний
ре зо
25 0
ла бора
фі гу
я дер
ді л
шу ка
ж одного
ф аль
на разі
рю вання
по мешка
nation al
мо сь
ма ючи
а п
19 28
ча н
ди тин
со ра
о та
змі на
віт чи
стар ші
ру б
лі цен
ду х
чу в
и н
м ні
f rom
тися чі
важ ливі
бом бар
змі ну
s a
t ra
ко смо
d es
ну вав
наступ ні
сто р
теле м
вкла дів
по ю
аль ним
ер і
на кла
моде лі
у в
по ку
роз би
щ ів
ни е
поши рю
зі грав
ле ва
під пису
суд овий
б рю
бух гал
н овим
тора ми
ниц тві
вала сь
ри б
гу мані
о пису
со ль
тео ре
6 00
at a
си р
си гна
дж ень
за пла
о чей
чор них
с пала
ще но
остан нім
лід ер
лікар ні
пар т
ще ний
чу д
сві ти
лів ка
б об
дина сті
від від
золо та
шля ху
ли ши
величе з
тер на
s er
право м
своє час
по дру
сами м
важ ливо
сторо ною
о коли
будин ків
треть ою
ві тер
хо л
с вер
ту реч
д ка
мак сим
с льо
ща сли
8 00
маши н
лу ка
депута т
ре ві
z e
а зії
ба сей
ю чі
хімі чно
h y
про ща
жа ль
кри му
х рам
цен тром
спе ци
чен у
ве ла
бо та
тре ті
ку н
в тру
d on
кон тра
19 23
жи вся
здо р
ма гні
цивіль не
най ближ
фі кс
се мен
ті к
пре тен
p a
ле га
в ночі
не належ
това ного
й но
інак ше
бо є
ру ха
195 5
зь кий
pr ess
u e
19 27
ма ма
до ло
публі ка
подіб ні
xv iii
ф с
на мі
ку є
т ву
єв рей
е піз
ва га
об ід
лю тому
рі за
ко лом
спад щини
дово ї
захис ник
захи ща
зако р
хромо со
супере ч
ці ни
w i
анг лії
см т
тин г
від нови
ки нув
к б
фі ла
фак ту
працю ють
збір на
лік від
со ціалі
пере мі
10 7
нувши сь
і гри
епіз од
шо у
11 3
краї нах
руму нії
нада лі
па й
лю дя
і л
гро шей
ши на
слово сті
20 3
со тні
з осере
ева ку
лі тку
об винува
m er
кладе но
ак том
сто н
кварти ри
спор тс
но й
бра та
до ля
ба ч
ови к
мат чах
за да
ню к
те пл
е кі
чу ють
194 9
ак цій
в д
ле о
го ра
яза на
ючи м
взя ти
ль є
бе к
тр ен
та на
ні як
су пут
19 14
кар л
знай шли
нен ню
оби два
ка ло
прой шов
сла б
са л
ді р
ці ліс
мистец тв
ар хів
сюже т
керів ник
че ві
ми ро
з рештою
до пуска
о чах
сум ні
сол дат
ве б
бі л
усу нення
11 7
wor ld
о л
жи х
тю р
g er
про м
дозво лу
то бою
музе ю
чу ка
ра ду
щи м
ко ні
пода но
спі вав
єн ко
за л
по хова
геро ї
століт ті
това ними
не ді
адре су
хлоп ці
стан ь
то ма
с ва
ви тяг
са му
шо т
диві зії
пре с
в чин
кі на
ти ни
де с
ро т
іпоте ко
прий має
ли ва
х воро
де що
створе но
лі зі
пли в
цій ну
j e
наступ не
фіка ція
чин ній
ін ду
кра си
навча вся
фактич ні
не будь
по хід
ва к
нен ко
поверх ні
ви ходу
ch e
19 25
ми тро
засоб и
деся т
g l
10 2
о лена
195 3
за прова
вер сія
ка зали
op erat
яза но
по дій
195 2
фор мова
вар ша
в казує
щу є
ми ло
ба за
збира ти
полі цей
зь кої
сплати ти
з розумів
за писа
вигля д
коман ді
га у
залиши в
h a
за би
не при
грош ові
бан ком
голов не
до рів
т ність
фі лії
воро га
ме да
ана логі
роз в
піс ень
й ти
пла та
від міну
не мож
чле ни
аук ціо
ба бу
ку ле
викона ти
ді ть
об тя
клю ч
влас ник
два дцять
кон цеп
же м
зна єте
по ри
ля ться
пара фі
пу р
недо лі
ла ска
тлу ма
ак тами
вій сько
загаль ну
бор жник
ли тов
ф ф
h ist
ва ні
кра в
ува нні
ми ми
пол к
ка но
h d
19 24
наго ро
металу р
не ться
ві я
дь ми
r y
то на
19 26
а лу
ко ма
j a
ле оні
un g
гур т
їх ніх
їв ка
теле фо
котри й
роди ні
наді сла
пов сю
an n
у триму
особа ми
тр ене
13 0
до ль
z su
су хо
шу ється
in a
амери ки
о податк
льв ові
2 15
напря м
струк тур
пи ше
роби в
мас штаб
слова ч
ли ми
дже ний
пра ць
s c
вугі лля
старо го
ві ст
оль га
лен д
під е
ца ря
м я
мо з
i um
стрі ль
роз почав
u re
знай шов
торгів лі
пу ль
свя щен
тео рії
вели ке
кра є
кр ові
ефек тив
iv no
наведе ні
ме жами
молод ші
ну лася
ти ли
ж ене
бла ки
ск рі
яку сь
с ос
ро на
при то
ру сі
сь о
з д
торг ове
ar ch
хло пець
компен са
ма тір
ру ш
ли стя
т ності
д ний
вла ду
в сьому
ше на
пів дні
місце вим
на ла
і лю
ці лому
ivno zsu
оці ню
т ній
я й
птах ів
корот ко
йо си
про дю
комуні ка
твор чі
во му
інтере с
19 22
догово рі
за ста
стяг нути
при ту
суд но
тан цю
т вій
чор ний
ата ції
ж ого
вклю чає
ге ном
ав стрій
від ро
сер ця
зу мов
пита ла
ф рід
сто ю
ме морі
кур с
ле ра
май ор
к н
ти ву
часті ше
10 6
у па
моск ві
ні на
а га
вого нь
ви ки
суд овими
ступ інь
все світ
ха ми
валер ій
роз від
фран ція
лю ються
те ст
ка л
мен ко
річ чя
су ль
іі і
11 4
говори ть
листо м
б ран
фа хів
па ро
у точ
г ов
кон ти
ю тер
свя ще
яро слав
і сла
право чин
ж на
пері оди
мешкан ця
o w
ви ра
га є
випа док
ac t
10 8
дові ре
на голо
про дав
визна чає
че ними
ень ко
му ль
ку ляр
жор сто
джере ло
зви нува
фі лі
засто сов
столи ці
сут тє
ду має
екі па
193 1
for m
но ме
iv ers
ic t
вере й
на ли
дже ного
ш енко
монасти р
ма з
с фе
вив чення
зако нів
осві ту
се ми
мага зи
тре м
р ович
чо сті
креди т
пробле м
наяв ні
v ii
остр ові
ну ті
ку ла
в нес
зо рі
ul t
захи сти
місце м
орен дар
філо софі
тиж день
алек санд
впли ву
ф к
д верей
спору ди
ше сти
спору д
набра ння
мі нера
спо стере
ста ми
195 1
то п
в літку
з де
uk ra
д ного
гри гор
э н
авто ри
носи ть
нік чем
ро ж
обра ний
чор ні
ат лан
част ки
служ ба
де м
теро ри
райо нах
дія ти
д ре
лін г
те лів
во дою
ла с
лів на
р с
та рас
пое т
з рі
стоя ли
вказа них
петр ович
їз ду
пі шли
мен том
очі ку
штра фу
ні г
пер вин
ат ле
ри с
з с
ти ра
та або
ле ною
до розі
я ки
g a
ви ча
10 4
хлі б
пле чі
філь мі
да ному
почина є
кален дар
ши сь
при ся
нада них
об раз
музи ки
ділян кою
ку х
к ви
за трима
стоя ла
ін шому
доро гу
єпис коп
ль ною
не ба
дів чин
фло ту
ос по
декла ра
парт нер
ба чу
нав колиш
ке вич
про єкт
ха м
переда но
цен т
i re
хво роби
мл рд
діля нка
авто мати
по ст
санк цій
оде са
ге с
бра ла
пере роб
петер бур
буд ови
пе ча
дже них
ту вали
у сім
ли вих
чи сли
ме жею
за мку
x t
свід чать
кафе дри
ін вест
окре мі
філосо ф
вияв лено
су спі
канди дат
в клад
розді л
спе кції
вати сь
кін це
ag e
стій но
лі нія
футбо лі
кольо ру
w in
висту пів
пев ні
a f
кімна ти
син г
кому ни
я тки
заяв ник
беру ть
за не
ви плати
комі тет
за са
б лід
пі шла
ро га
перегля д
ніч ний
is s
по кли
випу ска
пере слід
за х
до ки
і ллі
ні ка
бере г
це в
ливо сті
до лу
р б
бід ності
ба к
се стра
ду шу
механі з
зо ру
побачи ти
тив ну
у строю
го ли
фо м
хо ті
ic e
ран ці
свобо д
ва ються
пода ла
в ведення
мир ович
сти н
кар па
ч чя
при го
p p
п ки
сти лі
ба ри
номов них
не бе
мо дер
вечер і
балан с
під сум
друго му
не відомо
тем но
мекси ко
га ра
at h
сторо н
ви раз
рів нем
m ent
те тя
фор д
конти нен
наль ним
тра м
ї н
комбі нат
ко ти
принци п
кова ні
зви ча
в чора
о писа
ш вед
ги м
е лі
граф и
не вже
й ся
зустрі чі
де сан
ванта жу
шу кати
ро та
уго ду
ки да
сти м
yo ut
тро пі
до бра
орга нами
зна ла
черво но
окре мо
бачи ти
їж джа
c d
почу ття
стро ки
коро наві
нада є
спис ку
ю сь
реє стрі
за во
па у
ниць ка
рас овий
по при
регу ляр
всту пив
ґрун т
тем ря
не від
пала ц
пол та
c er
фіна лі
роз пові
а зов
само му
аль терна
ат мо
ic al
дже йм
і мен
ць кі
нада ні
ви кон
молоди й
сті л
по нен
по клада
рід ною
роз повсю
чис ло
б є
ш к
де ни
при клад
as e
свобо ди
рів ка
ar y
яви лись
p t
куль тура
пові ті
кон стан
л т
жува ні
обся г
си льно
v o
ціка ві
ві зь
всі й
щ ува
са у
дж ува
перемо гу
бли ску
ро же
бі лий
ау ди
ту рою
вік овим
закор дон
всти г
b u
догово ри
від прави
систе мі
наве дене
зна ли
мешка ло
заги бли
добр ові
об гово
пев них
мо сті
ар мій
закон ним
приз вело
переда чу
35 0
спі л
шу ють
фу нда
дове лося
не можли
бу ль
f b
с ної
опла ту
гри вень
ова ну
зале жить
остров ів
вели ким
існу ють
пер ене
відзи в
повин но
має мо
коре спон
бі ла
d r
же ної
вар то
мі т
qu e
ля ла
пря му
під вод
негай но
лед ве
особа 6
ре кор
смі ха
ско риста
захо п
і ра
стри б
норма ми
en ce
ви слов
v a
ш люб
л д
пов не
місця х
лю дьми
ви р
пода ру
ста ють
ци фр
s m
ер го
при воду
ди зай
при па
ня ми
я ків
фір ми
че в
роз гор
теле ві
v al
в р
ле дь
со лід
ць кому
12 8
су ть
ми ла
слу жив
мате мати
18 0
змі г
с хова
су ході
соб ор
в веде
вважа в
домаш нє
вважа ють
ві це
10 3
корпу су
кори чне
рі г
ке ра
xv ii
заги нули
гер б
ну ть
літе ті
са ні
ві ч
ванта жів
роз дріб
мов чки
st e
відсо ток
торгів ля
ви су
доро га
журна л
та цію
зо ни
ви му
резо лю
живу ть
єк тами
дже й
адвока т
віта лій
нови ни
за стави
і ще
дозво ли
с кор
p an
за гро
зо ні
сфер и
кі т
19 00
ра т
не вда
вирі шено
наро дів
люди ну
старо дав
з важаючи
си ти
будів ля
ле жить
які сь
міні ма
з може
є ць
л лю
в ря
ар ген
ходи ло
ма ру
un ivers
виник ли
інте лек
кз пп
а зер
12 2
аль не
line ar
p s
вели кій
ми ру
з ру
ub e
ня х
до лі
висо кий
мо гло
да тів
газе ти
б н
о он
ва лось
народ них
теж ів
до мі
нідер лан
ж одних
лі зин
мо роз
ш ма
b i
по диви
золо то
ни ч
ве ду
випу ску
ме далі
суході л
пла тежів
є мець
ви бух
свя тої
не сти
ло гу
копі ї
ol og
дружи ни
д т
по доба
ч вер
ґ о
ш пи
ви сл
сл ове
си лля
жите лі
ви тя
вер та
сен т
сто лу
віль ям
три вало
нав паки
ви бір
зна чить
гра ти
по ходить
ль ними
музи кан
in st
по бут
ря ть
бог дан
буде мо
ж жі
а то
лон дон
пропа ган
сте п
п се
ня ючи
ди ли
со кор
біль шого
ма г
а нь
ру м
9 66
пі й
сі р
їха ла
у би
14 0
швей ца
о ру
різ ними
до чка
дола ри
му жність
ду ш
та лан
f l
ін шу
гру н
пере ліку
w o
бру д
будин ки
сокор ро
пере дав
т ною
корпу с
к нула
засоб ами
густо та
w n
бе ра
бі ж
що йно
всебі чно
пов ний
фрон т
до го
музи ка
бай джа
вий шли
свер д
а гра
по між
аф ро
помі тив
тра пля
при ла
о ф
ц ере
з воро
ча рів
відді л
ж енні
льв ова
ін вен
ки нувся
д ки
з бу
б лок
пси хі
серед нь
опи ни
об умов
а ван
ци ми
клі мат
раз д
ю ні
жи н
захо ду
прода ж
ду маю
і ль
золо тий
при най
en d
пен сій
r es
ко ду
л є
с кін
вищо ї
ш ся
ва ги
три ває
кри ти
б лів
сі ті
рі о
держав ні
ко стю
дов зі
фе дор
госпо ди
де льта
ма ке
цін них
ви пли
вино сила
пов стан
потре б
пу сте
ча м
чорно мор
три вали
альбо му
пер ш
нев довзі
стій них
t im
поль о
про мовив
дру зі
про шу
прав ову
бу вав
пораз ки
в перед
єв ре
co vid
неу стой
ли ша
гра фа
l on
ови щі
ку вали
дере во
н овою
варті стю
сто ри
е ска
докумен т
бу вати
міста х
ва ч
ни ни
озе ра
йде ться
про гу
програ му
г ові
яка сь
роз повів
нов ови
гли б
лі нд
с відомо
ділян ці
12 4
оспо жива
інтер нет
на шу
ор ке
ic s
від сту
al e
кож ної
вер сії
меди ци
потре би
в т
10 9
прихи ль
м ка
бу ха
фо п
хо дом
практи ки
дія ми
носи ни
мі к
лі су
то чно
7 00
учас ника
фе о
інтер в
бар в
ня к
сек су
хор ва
цій не
ло ї
санк ції
цій ним
виника є
а ли
поку пець
жува них
в раз
зи м
хвили ну
наві що
залиша є
ри нок
сі с
2 20
3 15
новови яв
гля нув
коха ння
оче видно
в к
ін ва
мали й
корін них
схід ній
сами й
е тно
під зем
ны й
по ма
ви діля
гра вець
наль но
у кра
ці лий
і г
лі так
ка ме
ніч них
проти ле
нх л
оке ан
за ку
чита ти
потра пив
кора блі
колу м
є ро
конкур су
енер гію
п с
30 8
є пар
х в
підста ву
лені на
зе ні
санк т
ста лі
з ра
з ова
вибо рів
о сі
ха в
id e
ма рії
за спо
g ro
пара ле
ко ефі
ха зя
па с
ді о
від пу
ко ней
га разд
u ane
заяв ника
су міс
ко рі
патрі ар
людя м
по казав
о зер
не пода
кам па
ска же
хоче ш
анд рі
m l
ці на
прове сти
нові й
оди ниця
водо й
на дія
пер у
збро ю
мор ських
ха ту
замов ник
увій шов
вер ши
моти ви
са мови
особа м
кар то
ї сти
ur n
не наче
кана лу
числ ен
актив но
ува вши
ливо м
еко логі
кора бля
пре кра
е ра
про ходив
му ра
ката стро
до мов
в ы
th er
з ін
на буття
ско й
в дя
пла сти
при люд
дру гу
сту дії
n y
кош тов
кри тері
не ща
ти ну
спо жи
дійс но
вимага ти
звід си
спе кти
ву зь
шу ючи
син те
ві зан
ко ру
подру жжя
в дома
ли вим
колі р
що ден
жер тв
i us
фе до
ди я
визна в
об говори
бо гу
дити на
k s
бать ки
яв лення
черво ні
за ареш
а рі
ма тери
4 16
ві ра
т ський
у загаль
колиш ня
хви лі
хар кова
наз вали
лі ва
о тру
ла тин
по їзд
дове сти
те д
m s
ка пе
до чір
пі к
роз стрі
біблі о
магі стра
е сто
афри кан
c an
ство рити
бі ї
бор г
ка ють
ді ста
голо сів
за пропо
мі л
19 15
вели кою
журна лу
до держа
турні ру
сами х
мето д
о ре
пасажи р
пре пара
19 12
ра унд
ві ї
ка т
куб ку
гі т
ан тон
ків ська
19 10
гір ни
числ енні
вання м
з веде
більш ови
сі о
їх ній
ні кого
ше по
теле фон
губер на
ro s
ситуа ція
орде ном
ше ль
збо ри
поль ща
ри т
в регу
ва ш
16 0
хви ль
h n
по н
на багато
вне сок
се стри
чи мало
реч ових
ови ни
тре й
шен ню
ра ти
ст років
ган на
обґрун т
зни щення
гео графі
шко да
д ніст
зу б
т вір
фрон ту
середи ни
пі ти
способ ом
логі й
ш тей
па ру
відпо чи
до зві
к овому
зв язку
я ну
знайо ми
мисли в
ш ній
гвар дій
мі ський
t s
хо тіла
моск ви
19 13
ст ром
тив ному
вимага є
страте гі
залеж но
закла дів
ще на
виступа є
па к
робер т
с кий
аль ну
кож ний
від мі
т ського
лау ре
став ку
донець к
во дя
ата цію
гру ди
мере ж
m ed
ко ме
d ie
м вс
r uss
в кри
ніч ного
ближ че
с першу
ле ви
ова ними
пораз ка
ста м
прав ду
режи м
сер жан
сели ща
ти ть
япо н
у весь
това них
ве село
ува нь
сві та
прий шли
по ш
зроби ли
пору чи
ц ов
ди х
sp e
сере дні
з лов
пр ову
зе ль
вказ ів
о ко
ло р
u g
табли ця
до на
три валі
голо сом
запо дія
ду ша
бачи ли
влас них
відчу в
дро го
мар ке
h r
втра тив
ф ен
во зи
пере міг
д вір
мі нь
гар ні
са ла
op en
на мір
успі ш
райо нів
довжи ною
с форму
воло сті
від гу
пору ки
влас ні
тон н
за ва
ос нови
кре с
9 04
ф рен
ке ль
ство рив
ст вен
ек спо
капіта лу
актив ів
а си
т лі
ник ові
ер и
л ло
ч ці
бо лі
воро та
yout ube
ос нову
ід и
ла йн
в ранці
донець ка
ми коли
треть ого
програ ма
зупи ни
створе на
2 30
голов ні
камі нь
при був
визна є
ме ту
іта лія
ли си
ди сер
f ace
ви бра
дон ба
лі ч
ро го
не к
земле ю
хре ста
ва ючи
спадко єм
пози цій
вини кла
брита нія
дра матич
недо стат
ін дії
я блу
ка мер
джу ються
g re
хи й
сим волі
чи тав
ви кра
верх ня
вог ню
te xt
рі шу
річ ці
володи ми
шев ченко
с бу
б рен
ґ у
влас ний
мови ла
we b
нути й
ча ло
вчи тель
лі х
ле он
мо ду
анг л
ха ті
маши на
ін дій
юри с
ста біль
мо ди
вітчи зня
чи вши
кі м
про гре
12 6
яза ти
ны х
лю вали
вак ци
комі сія
f il
р т
плане ти
по дорож
вати ме
відо мих
за фікс
мар ка
єв ге
ня ть
де ні
ва ша
жі ть
x vi
пі т
нів ці
стяг ува
у п
пере до
креди том
піс ню
ти ні
при своє
к овим
голов них
вза єм
ні ко
на ше
а чів
ри ла
чин ним
остан ніх
k i
по доро
о ра
пев ний
помер ла
техні ку
в прова
пу щення
дово ю
інва лід
ов ували
вог не
банкру та
38 9
ді ло
се ни
у до
яз ково
ф ла
к ову
тро є
ко роб
зу силля
ки р
са ло
ква дра
шве ції
в казав
ління м
3 17
o bo
ови чу
зі ю
калі фор
щ ав
19 05
коль ор
від ій
и стори
бі зне
ф ос
змі нити
кни г
i al
ль ської
коза ків
ко тра
номі на
or e
2 16
зло чину
яви лася
роз ь
я су
с писа
сти чна
по тяг
михай ла
ло зі
ме літо
ж увати
при кра
дже на
ю го
прото кол
ві кон
гово го
ту ре
гай да
ны е
това на
пд в
ад во
псе вдо
чен ка
фор мою
по к
си лою
зві сно
прав ди
р ене
14 7
до щ
уч нів
рі с
ву ха
ма ту
наз вав
бать кові
на сам
підписа в
ш енні
філь мів
обер та
почу в
фін лян
лен ерго
19 16
ви п
фе ро
є ре
рід кі
г с
гра мо
іде ї
бер т
шко ду
про єкту
про сила
бо ль
сі ла
пога но
стрі ле
ше них
an a
d el
ме те
де ш
на ти
яс но
зо ю
по лег
до триму
юриди чну
ч ками
ді ль
по соль
за ці
оп ти
де пози
ґ і
ста дії
раке ти
на ци
re v
t v
1 19
стату су
вої нів
пра т
річ ку
ніби то
техні ка
an k
сло бо
ра зи
ін ді
за пов
та лі
зі тк
вер то
мар ки
кон гре
p ub
uane ws
як ов
за ради
кімна ті
на став
б ене
під ні
9 22
належ них
під при
коза ки
при чиною
сели щі
ни зу
зда ле
на ванта
звід ти
z y
ви рок
ри ни
п лей
ву гле
схід ної
висо та
aw ard
сльо зи
на стання
єги п
sp ort
тро н
сти чних
20 2
прий шла
наук ова
за вою
функ цій
д ова
го ду
держа вою
чу ти
ве чора
ст ку
ж ним
9 00
моги ла
рахун ком
в ро
фі ліп
хра му
та ція
ra v
джере л
заяв ляє
геть мана
про пор
ва ний
само ї
що річ
аеро порт
ме трі
да ру
си нів
ін тен
годи ну
еле менти
бі я
o b
me operat
пові льно
13 5
ва ші
нер в
п я
т та
мо їх
ку зь
не ного
ле тів
виня тком
лі сі
з бага
випад ки
в гору
земель ні
m at
а тів
по бі
дра ма
запо біга
кварти ру
тетя на
сти ль
си льні
ос ман
з ника
ци р
кра з
г вин
t on
при зво
ди ла
к рок
ens is
при стро
ві три
си па
дж увати
зая ві
фі ку
пусти ти
m i
відзи ві
ду мати
лауре ат
уда ру
фе льд
о ун
ком понен
за робі
у ж
ц вин
голов на
грав цем
роз лу
обся гу
c al
са ду
геро їв
жіно ча
леоні д
obo z
12 3
ни вши
літ ніх
ру р
на казав
під вів
кре мен
мо й
ц с
полі п
опера тор
d y
за ру
ціка во
ма ка
поді л
лів о
з ю
полови ні
ліз м
ста ль
місце зна
сторі нка
геро я
ці ну
від стань
бр ова
редак тор
са ль
z a
за три
под вій
у то
ри нк
п ка
о се
13 6
тер міну
ч ували
не ль
дов гий
в решті
чі й
12 1
у сміх
соб а
бу л
до пи
пода ти
ремон ту
єди ним
sk i
збере г
f a
те ні
плю с
мер т
ли цар
ін шою
рів но
кни зі
ць ку
зроб лено
19 06
схід ного
прості р
d is
влас ного
від кла
ман дрів
би тва
вір но
в то
в хід
аукціо ну
вз довж
пов з
а ту
в лу
9 16
герцо г
м к
пояс ню
північ на
ф рі
ан дже
оста ння
зго дою
ара б
зні ма
жа є
ливо го
чи сто
вік но
т кою
на га
сла ву
ото ж
вікі мапі
кі л
чвер ть
ко б
чи ло
14 5
ви чер
ме діа
ць ке
зь ка
ра но
ко сте
ф т
житл ово
сучас них
хоті лося
ті єю
вий ти
адво ката
ря н
по ни
інте гра
ка над
прав ова
викону є
заслу ги
сері ал
по смер
бо ж
смі я
го тів
ста те
p le
19 11
розроб ки
в жи
тек сту
остр ови
an ce
катери на
n i
хви лю
бере га
о пер
вір ші
дав ні
ве ро
надця ти
че кати
рист ів
клі тин
12 7
віль на
вида но
ля вся
на силь
номе ром
за був
зай має
порту га
змі ша
імпері я
дія х
ге лі
оди ниць
доведе но
re d
рей н
ча вся
пі зна
ме ло
спа ти
де кора
пі сто
епі зо
продю сер
ніч ні
регі он
ж не
сум нів
ри вся
бачи ть
апо сто
зі гра
кордо ну
х х
ли це
захи стом
ба ба
півден на
n or
несе но
ов ський
люди ною
ливі стю
пер со
ще м
будів лю
удар ів
t en
ухва лено
у ста
де який
па л
ци ві
кри ва
ol d
не зна
бо ру
5 26
дні пра
кон серва
каза ла
ли на
наук ов
мо ро
t w
режи му
ан дер
дз він
6 25
мов ляв
ска жу
чому сь
ме нів
з могу
жод ної
на хи
мар ша
чин ку
д зь
пк с
водой ми
хвили ни
ти ти
че ю
е ць
тра пи
пере клад
серйо з
по стрі
ба ль
минуло го
ре зи
дяку ю
систе мою
си но
ова ному
свя та
b or
не ш
тич но
am er
ле гі
дода тку
усі ма
ліз му
є ли
фо ль
зо на
ка п
віль но
вла дних
v el
ш ків
ци н
їх нього
вирі шили
ге ні
писа ти
нер ів
озе ро
пусти ли
зу р
па цієн
біло го
за надто
чого сь
ч ність
ве сі
la y
сні г
вибо рах
чен ню
змі ц
ч ю
є т
сила ми
гори зон
бо ги
30 9
ar e
си бі
о ла
ф ів
на ва
мета ле
ct ion
азі атів
колго сп
загибли х
ре на
та ль
ус відом
щи к
газе та
дав ньо
о ка
завда нь
за між
вияв лені
на гля
за пу
зако нами
не сли
ува лася
церк ві
охо плю
поспі ша
опера ція
m ic
рід ко
l u
та ї
сте па
по їз
полі ти
за бив
під у
ви щих
варіан т
го сті
васи ля
слов ник
мі рою
лі си
му н
кори сту
по нов
во с
агра р
би тві
о так
по є
с сі
буду вати
b all
пого да
с ми
дов кола
ма рок
со ц
й шли
ен ка
19 07
w h
заг ін
у люб
тео рія
во допо
ду ж
можли ве
ф рак
плате жу
у склад
сері алу
закри ття
18 5
інтере су
ви добу
погля дом
клуб на
по сів
ли хо
н кою
а з
сер ди
оби дві
с формова
ті ні
зу ють
те лю
суд ова
чу т
мо ся
зу би
є ві
в ступ
і рина
фер мер
ресур си
ян ка
чов ен
ку пу
про гно
чор на
бо т
да ну
ви пла
му т
тво ю
дово ль
о лів
чи ки
м 2
у ник
ли ве
за ванта
ен д
про між
но гами
сто ра
соло д
пу х
го ді
ці лей
кова ль
наук ові
ви ходили
голо су
ми ха
що дня
ета п
тя ми
нов город
ну лися
дж она
ф ро
ні кому
гру пу
п то
оде си
тер ів
з разу
мі стер
ля ція
бол гар
ха на
ки в
че ною
полі тика
а те
зе лені
очо лював
c ap
люби ть
пропу ску
дозві л
тру б
сте фа
бо лю
ра ши
па гор
ек ві
не о
цере мо
13 2
зір ки
анд рія
успі шно
ті нь
див но
ри си
ва нія
бо с
особа 7
і су
зо о
м б
музе ї
на ц
по сіб
тара са
молоди х
льйо н
ка ран
мо тор
ць ко
відо крем
під ряду
го роди
модер ні
w ay
огля д
добри й
ж ка
ic k
вір мен
24 0
не ві
п лену
по п
тво я
пре мію
папер ів
на пи
ак ції
сти чного
фра нк
льйо ну
рі чар
нова но
m et
обра ння
єги пет
т ово
лю бив
ареш т
дже к
режи сера
ад міра
ф ри
ре шта
ареш ту
с пар
п ше
не по
від тво
світ лі
ди ри
щ ук
стро ком
гло ба
ує фа
австрі ї
ну вали
мі ню
гори т
ме м
портре т
зу стрів
ор бі
уго да
ді яв
ву з
поло н
су во
лежа в
нен е
пи вши
по пов
ма ш
мо єї
о ни
народ на
да ння
інду стрі
ши нг
13 7
влас ної
it al
хі я
пре зен
си ном
при я
o v
ж ному
ді ють
ск ля
ка нь
сті ль
ша м
кисло т
єдна ного
в низ
матич них
карти ни
ал горит
вчини ти
15 00
обо рон
тори н
мі ни
лю ючи
студен т
роби ли
міст обу
н р
ту вала
тин гу
19 08
14 1
се лення
не визна
ль от
паді ння
кур су
ли сти
фі ска
я краз
ос на
ро лях
диви ться
бі гу
сти чний
ло га
під да
юриди чна
до ступу
проце сів
17 0
гово ї
face book
а міно
ляцій не
чі тко
ви бори
з дри
бе лі
режи мі
за ве
на бува
ува ло
g al
же ними
спір ні
s w
за ти
я но
гав ри
одер жува
т овий
очо лив
3 20
зна мени
д зві
во з
ч ності
висо ті
ви га
вимо гою
а дам
ch r
н бу
по кра
та ун
про би
ли ни
робо чих
хі рур
геор гій
г ування
13 4
дружи ною
14 4
логі чна
кі нь
ва ча
бі лка
свя тий
йон ного
c am
на шому
ли тви
ги х
дом ови
кра су
ба т
бро не
набли жа
те с
три бу
ліка ря
церк ву
вигу кнув
f in
роз мови
30 1
буха ре
ви щі
роб лять
тре тє
особи сті
е по
олімпі а
w er
у ла
ру ці
пунк тах
h ar
то по
ук рі
спри чи
кольо ри
d at
води ть
пере хо
спе ці
те льно
скар г
без ліч
x iv
бого роди
мотив ува
па вла
полі ція
бли ска
ні ки
ру хо
дру кова
вла дою
ваго нів
стар шого
над сила
ден т
3 10
акаде мія
сер ій
пі тера
бачи ла
о г
ґ е
p or
маши но
я л
15 5
кора блів
тво ї
боє припа
жи м
ва йте
пі тер
рення м
отриму є
и з
коман дою
ка ні
хо тіли
став ши
13 8
викона ні
тек сті
дця ти
си бір
се сії
дру зів
кни жки
вклю чно
уго дою
13 3
во ля
b ra
га ні
говори ли
it ion
ста чання
те пері
моне ти
способ у
жа ть
ня ються
ше м
захід на
джейм с
pub l
19 0
держа ві
примі р
ча ючи
ж ними
пер шо
мно жи
земель на
гала кти
солід ар
a z
ремон т
дав ця
le t
при чому
вико ри
ната лія
ба ш
пов тори
коло ні
іде о
ку ро
28 7
ли ву
l l
щоб и
пра пора
си дить
кни гу
райо ни
яза вся
за о
ло па
ді єю
поє дин
трима ти
дода ток
ся ться
сл овом
сій ну
ов ував
літа ків
as h
ти но
щи ро
взя ла
во ж
торі ю
за пе
номер 1
торі й
д зе
покла в
з к
по казу
в пев
с ком
ав гу
стави ти
уго д
д фс
постави в
ста лін
f t
за клад
ва лу
жін ку
по чува
ци лінд
єш ся
m ag
фак тів
ка зна
крі сті
n g
бой ові
вказа но
бо ях
ре ні
від ігра
з х
по цілу
припи си
ве ле
фізи чна
те му
тем ні
ма л
тре тей
cent er
прав ни
еваку а
н т
мотив ів
жит ло
роз відки
якого сь
вп ливом
про яв
ча сі
зе ф
серед ньо
обере жно
го ря
па ми
ва них
по пи
st ar
потребу є
до ні
ви хо
поча тком
всі єї
бу ря
схо ду
ва на
кри в
суд на
теа трі
ніч ної
е мо
ва шинг
ок си
ши п
зір ка
ма кар
іде я
сю р
тво є
віль ний
вули цю
я тка
во сени
дво ру
фло т
оби ра
до пуще
с ве
зі о
ну є
по дола
бер дян
н п
кита ю
лт д
тя ть
г ві
донь ка
май кл
нор ман
орде на
ніч на
ви грав
тя м
ар т
добр ово
скрі зь
аль ному
m ac
по несе
січ ень
p et
кар ла
wi th
гі ль
по сміх
лег ка
на л
n er
ма то
ри к
a st
тиж ня
бороть бі
ch en
ки с
ма дри
за барв
сезо ни
t ill
цій ному
https bit
належа в
23 6
дво р
три вала
при че
у са
об мін
хар кові
of f
рі х
e st
in c
ниж ня
знав ства
спри чини
розумі ю
нау ка
смі т
eu ro
бре х
вказа не
переда є
попере ду
пунк тами
глибо ко
када стру
че хо
пох му
інтен сив
т ової
k r
довід а
4 11
м овір
жа й
прин це
роз та
дов жки
мов ча
полі тику
в казу
ча к
іва нівна
ли п
ч ник
спро би
завер шив
в продовж
балан су
вирі шити
14 8
пе куляр
увій шли
про ник
публі чне
д ы
му ж
с ходи
кон тр
ланцю га
кажу чи
пере ми
p re
при м
тор ка
гре ції
їв ська
бі ле
запо рож
де лега
клу бі
влас ну
повтор ю
потріб ні
ухва лене
р н
н ний
ни ть
ма ле
ці ною
стан цію
2 10
сти чні
воло н
x ii
чер вона
бу кови
каза ти
ха ла
три має
хре сти
би ли
пари жі
17 5
схо жі
за бруд
те том
за ї
прибу тку
ска н
тво ру
їх ня
дівча та
ля лися
дета лі
о са
заса дах
верх ній
може мо
му сить
про спек
19 09
ма ном
og ra
спів влас
не бі
лан дія
б ря
полі т
да вець
сер гія
я ний
гід ь
за для
захід но
вчин енні
m n
бра тів
гре б
діа гно
спла ту
ро ками
вини щува
й шов
т ових
т ря
en a
с прийня
w il
німець ко
повно ту
ново поло
мар га
са мій
ризи к
ду на
r i
та ла
ге м
річ ного
нова ний
гру день
піз но
сержан т
y a
жовт не
за каз
кварти р
ну та
роз шу
при були
част ку
ші ст
стри й
жит лові
ш ень
бать ком
угор щини
акти ві
мен ті
на бу
дж ував
практи ку
зна ють
різ ко
уз яв
обра зи
носи ти
ухвали ти
сх ва
с ним
підоз рю
основ на
за став
білору сь
створю є
свя тку
з ляка
ті кає
ові сть
біль шу
сі онер
принци пу
аб за
мо нар
си ни
ку ва
під хо
зе лений
но ра
зби тки
в супереч
па тру
оголо сив
пе пти
фа ши
плат ника
b ro
складе но
ле бе
rav da
рим ська
па ло
закон них
закін чи
in s
по кр
гра ни
ситуа цію
ве л
у т
в містом
ві лей
b ur
кого сь
під вище
на пов
жор ст
о ді
раху нки
зага рб
fo ot
да ло
засоб у
завер ши
по с
ника х
дядь ко
пові трі
актор ка
за дія
ти ску
ко й
слу хай
те ром
при тяг
d ra
f i
по г
кар та
захо плю
m od
за бира
дов гі
анто ні
в вій
шлю бу
пода ні
на я
три дцять
футбо л
зас мія
пере ходу
мова ми
моно поль
лу к
mus ic
випли ває
пла ни
істори к
на цій
ні ші
фе дір
ли ла
ба ро
життя м
ба б
ви ступ
жи р
невели ч
трима в
15 2
за ро
hist ory
щення м
мо ль
зроби ла
дивізі он
w at
ш те
19 04
ш кою
b en
s i
вав ши
їх ньої
фра г
ні кола
при віта
фу р
полови на
про сторі
пра ця
хо ке
ре чей
твер де
буд ова
мере жа
генера ла
док тора
люб лю
зни ження
вра ження
с кого
би ч
під руч
хер со
віль гель
ря ди
по хо
u st
нів ська
змага нь
нь ко
софі я
лі со
депута ти
рад ник
ю н
росли ни
l it
op h
диви тися
замі ну
13 9
щ ер
лю тий
резер в
дія ла
ла р
ти жні
до лю
ак три
ар тем
най ма
грома ді
у зя
ман ні
уні ка
ю ча
остан ню
p x
ц тва
раху нків
3 14
гра ні
пи ть
тр ьо
сані тар
у яви
би тви
верх ів
в жива
п ку
раке т
яв ляє
yo u
ниж ній
золо ті
міль яр
дво рі
пев ну
кору п
so ci
ра ціо
по ла
бізне су
m it
чи ма
ги р
що най
успі ху
при мор
g am
віді грав
му суль
при ва
ре но
га ни
дени с
амери ці
заці кав
хво рих
слуха в
ме с
від ь
те ми
дру гим
на си
полови ни
диві зія
на тов
18 8
ма ха
універ са
го спі
лікар ня
тек ти
бу вали
при в
шкі л
вида чі
озна ки
t i
може те
закла ду
жовт ень
плу та
ре т
гар мат
успі х
квіт ень
се ць
25 6
п ять
дру г
d en
ал кого
з діб
20 7
c c
ун р
позов на
околи ці
ов ер
со лі
сріб ний
зазна в
нь ка
хочу ть
га ти
вер ш
ка валер
ова ній
ку па
наго роду
рома ну
ча тися
на зем
жува ли
просто ру
в ша
ху тір
про стяг
ро ти
т ы
ко не
пору шує
ли стів
не сла
служ бі
зга дав
е ла
остан нє
ра ун
пусти ла
ата ки
висту пив
3 16
і сти
хлоп чик
18 90
ukra ine
різ нови
при ду
в друге
на ре
ре гла
ар ка
сер ві
тор к
ба ви
авіа ції
чи нов
парти за
ли сті
пев ної
14 2
ре ферен
люб ові
росі ян
ко ліс
c z
да вид
g y
бер лін
ру ко
при кри
голо си
спо рів
під пи
со ціо
та кій
ць кій
кана ди
ни ніш
ми та
іпоте ку
буду чи
ще ного
b al
наші й
не ними
га ля
на са
ма зе
y or
ве сели
сім феро
має ш
змі нами
техніч не
краї ну
е волю
те че
бага ток
b c
по спо
по гір
прий де
капіта л
кож ній
вір мені
трене ра
нази вали
я зує
жи вий
роз мову
дя х
па ке
ди й
висо кі
ком со
ін коли
па ву
тор пе
по кладе
те п
актив ну
дівча т
позов ну
то мас
розмі ром
відкри в
ка мен
гі м
росі єю
хи м
он лайн
г ва
плену му
с ни
трі й
пар ний
п по
вияви ли
f f
скла в
гру пі
рези ден
чи ку
ймен ним
домов ле
техніч ні
р к
ep ravda
роз пи
колегі єю
ін ве
да рі
володі є
капіта лі
дми тр
зна нь
re cor
зам к
жа к
мі єю
трьо ма
по ради
мов чав
гот овий
нена ви
вкла ду
ен ства
покри ття
з вір
окре мої
z p
ні яких
же ною
з баг
речови н
лі зи
перер в
s im
сти ти
кра м
е сте
ємо ся
2 18
б ы
спі ра
управ лін
ови щ
ща ми
фран ка
я ма
it ed
доро сли
у продовж
нім ці
ува зі
пози ки
прову лок
ту н
тур но
спала х
помі тно
резер ву
34 1
у хи
a ch
за купів
н ками
дити ну
осіб км
ін нова
весі лля
ск ру
la g
ди ску
бороть бу
се ром
гі єю
ан ге
по мор
відчу ття
за ма
коро лем
сул тан
у смі
m p
тер міна
k ing
ка рі
ви гна
хви ля
вели кими
ав тора
c at
наф ти
потріб на
ка нада
д нем
вось ми
влади мир
з йо
да ється
вель ми
сиді ли
n at
с пов
дорів нює
та та
динамі ка
тай те
бай ду
біль ша
полі тик
t ro
то л
ки шені
за ра
ля ри
де від
сучас ні
галу зе
у л
ра нок
щ увати
па ле
під су
гра ду
опа дів
листо пад
гра є
я нець
st u
ня ли
поспо ли
свобо да
цен три
на ту
на ви
ди р
си ну
двигу н
з ми
да к
глу з
стави в
сим во
пи ло
прой шли
ле ві
три чі
на щад
ка ре
при йому
жит ла
тро ї
з ну
шу м
гі тара
не повно
б ова
титу ли
b el
д зи
се міна
моло да
вер тика
здо була
джор дж
вар д
житл ових
15 9
ар те
тру дно
на тура
гвар дії
мене джер
че л
бо ці
ба ти
по мір
вес ня
па є
де ць
е ду
по тя
по кров
стаді он
віль ного
повер нув
по че
ло ко
устан ова
ден ний
бер і
бе ла
я сування
ни ну
обо ло
ль ність
l im
ща сти
верес ень
пала цу
берез ень
кві ти
мешка ли
h el
зна чні
п лід
ви щу
покуп ця
по роди
за те
ци кл
фу н
по гли
19 03
змі нено
рі чок
доро го
н ере
мешкан ці
жу р
ді ла
4 10
l er
збо рах
сту пив
про кля
би ти
д ови
фізи ки
приват не
робіт ник
то чні
ші й
об сте
y e
сла н
14 9
ди ре
c es
ко к
гі л
меди чних
пое та
діть ми
дер и
окре мий
не мо
по їхав
сер б
ре ж
о си
14 3
маши ну
які сть
22 5
st op
є дина
ім овір
від чини
мо ну
спла ті
26 3
о прилюд
ли пень
проси ло
люд мила
хоче те
ва гу
ння ми
бі ч
на дії
до ра
ма ни
пере гово
хоче ться
х риста
про зо
да ним
патрі о
мі ла
схо же
з вали
дер і
il e
чи ків
гляда чів
фар ма
оплати ти
стосу нки
ду вати
кер ував
жен у
чер вень
і ран
кра с
хлі ба
місте чко
ли вими
23 3
та то
ру ї
ма ї
за бу
ха т
музи ку
кри к
слав ної
14 6
гру пова
ре став
ню ється
20 5
нь я
ізраї ль
тив ними
a x
ко ну
вар тир
проду кти
літа ка
я ток
ль од
підня в
приро до
2 17
гру д
твер до
добро го
ку ли
хі мії
трав ень
буде ш
ра б
кана лі
дівчин ка
тво го
гер ман
не знайо
ar i
мо сти
18 7
13 1
копі ю
р енні
на передо
стоя ти
право руч
вважа ли
15 6
ба ли
кілько ма
іспа нія
поча лася
p ort
f re
фінан сів
вий шло
грав ців
спо ри
20 8
лей бу
ліза ція
заг роз
ре цеп
for d
гру дях
жі ння
ле п
турні рі
го ре
чі т
переда ча
у стрій
ова ною
прито ка
гі ган
бер и
м рія
ту ють
нада вати
сим вол
ш ке
кру ти
за ки
столі ть
не ним
гра б
колго спу
ня н
пробле ма
га д
х мари
й дуть
спір ної
земля х
від чував
in o
вели кому
ся к
ово ло
всі ма
16 5
u ra
тив ній
хлоп ця
вік торія
вог нем
на шим
укла сти
я ли
від мова
ва г
да вай
при годи
си к
що міся
ті ль
сі їв
м 3
ро ком
al b
шля хе
рей тинг
соб ору
поза ду
шта ті
p lay
ри би
мі рі
99 0
на певно
v en
оди ниці
го й
міц но
проси ли
ace ae
yor k
мілі ції
висл ови
низ ку
поя су
матич ні
бу да
га рі
доб рі
штур м
ль ника
19 02
колі на
па ти
аль ними
по смі
доро гою
пали ва
на сіння
па спор
може ш
тери сти
нагоро да
спір не
ну лась
голо сно
20 4
учили ще
вирі шує
го стро
побачи ла
сі рі
сти му
біо логі
слід чого
пер во
зь кому
викона но
со рок
жи ви
вер сією
пам ята
опла та
мето дів
ig n
озна к
o st
ва но
ува жно
в пі
ну тися
обтя жень
схід на
сан та
пов ну
па лу
дов га
s z
ба ку
треті х
механі зм
прав ним
дування м
лі сах
мі гра
цій ною
госпо дь
гла ва
закрі п
на брав
бо ків
мар ку
руму н
поки нув
їх ню
по су
у казом
та бір
ї де
ля й
гра м
рів не
36 0
від клю
фі лд
ви бира
зако ни
ок сана
че стер
бо їв
тур бо
лі г
гру пою
раді сть
б с
ре го
х віст
18 97
чле нами
від дав
ля тися
зі рок
дру ку
кімна ту
во н
обла стях
гар но
на копи
дід у
кру г
су воро
при їхав
існу вала
кому на
сто л
russ ia
еле мен
за слуг
пое зії
ці нні
ні ших
матич но
власти во
та ту
рід и
збро я
зда лося
процен ти
штраф них
бог дана
с питала
яз ниці
ю рія
b re
це ва
за ві
об а
гот ові
єдна ної
біг ти
ne ws
ц тво
опи нився
кабі нет
15 7
міні му
v is
по чи
хре б
канди да
наль ною
ре форми
по казує
специ фі
ше ю
гла ви
ши ї
арти ст
сту дій
че слав
пле чима
деся тки
існу вали
прожива є
ста вся
се ле
ма йо
пово лі
дів чину
мон та
доро сло
зіт хнув
бер та
30 4
под вір
an o
foot ball
ту рець
ска жи
мар ко
фік су
ба ні
форте ці
ста рих
пе с
сер ці
труд ових
of t
ra m
ней ро
кня ги
гар д
зло чинів
при хова
нути сь
ма я
пере вер
ль ніше
ка я
с ове
ти пи
че кає
бри гада
pl an
свобо ду
гре й
сти ми
за сіб
при стра
u c
су вере
наведе но
e k
ба би
скар б
ту лу
ня ють
фрон ті
уж город
пари ж
ген т
35 6
киє во
сіль рада
б к
полта ва
мі ських
євре їв
с пові
га лі
зас нував
еду ар
мор фо
ф ред
15 8
то чок
обі гу
кри ворі
15 4
пово ро
win do
чес кий
ви їз
ко та
ц ова
col or
то чка
34 9
ляцій на
сфе ра
ав стро
паль ці
голо м
лізи нг
гру зії
it f
поста ча
афри ки
дово лі
че ній
прі ори
ю лія
шта тів
відмови в
ю най
схо жий
ліво руч
ски е
ла ду
ле та
ді став
стан цій
ли ть
кордо ном
20 6
па то
о зву
ню ють
но са
s ol
5 25
при вер
о зи
природ но
вален тин
р п
про су
речови ни
па па
сер пень
вез ли
з могли
ка пли
ди ву
матеріа л
ю лі
в пав
ле ді
укра и
належ ну
бува ють
та рем
при хо
сів ер
с пли
капіта на
полови ну
наве сні
тяж ко
2 12
по тік
спір ний
те пли
5 30
охоро ну
ю пітера
тич ну
пояс нив
if t
па лив
під пис
мар тін
ла тві
дав цем
зи в
ди ться
це ля
кова но
17 4
тра ге
18 98
зако ха
заборо ни
бон дар
розмі ри
19 01
клу би
язк овим
відомо го
за ряд
гада ю
ово к
19 2
гір ше
18 6
вока л
віль ним
вру чення
в чений
роз суд
ови н
пе ль
сол датів
стра шно
ль ності
спо ну
моло дого
внес ку
чу ть
інж ене
вироб ів
проха ння
сь ки
ши ни
ов ського
спо жив
єли заве
дода вець
є ван
зна ки
зна чну
логі ю
лі бера
копі й
юнай тед
фло ри
пере веде
покр ови
ш на
синг л
про пуще
в ряту
ab ase
гон чар
в кп
ан сам
26 7
ць ким
ша й
табли ці
вець кої
побачи ли
a ut
ар ку
валю ті
не приєм
слав на
є рі
єпис копа
m or
вдо скона
коза к
v an
с єв
по чне
ци к
юриди чні
віс ник
4 45
ре льє
вида ний
ета пі
спі лку
допо між
на пис
моз ку
b us
у ві
пев ного
га с
су против
зві ту
че т
стоя ть
v ie
ма нь
ни чий
змі нює
жува ного
сувере ні
сай ту
шах тар
тен ден
ча ю
яке сь
ге к
ае с
ря ді
зас від
колек тив
но н
ба зу
пла ні
4 01
номі р
педаго г
чу дово
ку з
т ового
рі ння
лі сть
зи ти
поль ська
о лій
кош тами
сти р
прибу ток
am p
бо ки
т ці
ed ia
прой шла
l c
за ло
фабри ка
су к
табо ру
ї да
за ла
ге лію
пере го
https www
ж ку
ду ми
моє му
оке ану
ву д
оде сі
гі пер
ро й
зер на
тич не
пле мін
у бив
9 08
ту ман
лен ка
ц укр
b at
t or
ве дуть
я нс
рів нова
пита ти
сі ли
бе зо
лі чи
вба чає
га на
іні цію
ак ті
об е
перед час
ти пів
ма та
довід ник
ці он
створе ні
гали на
ф ср
тан ків
суд ен
дво рів
пен сіль
ряту валь
до ходи
у групова
зупи нити
ца ри
потра пля
істори ко
x i
ло т
квар та
шк ід
ар тур
схід ний
вули ць
мешка є
тив ність
від ен
тиж нів
m al
28 0
лока ліз
ска зали
чу ючи
й шла
ре ний
цій ними
права ми
ливо ю
windo ws
отрима ні
ла ти
ми тного
дя чи
о нов
ко рей
ic an
is e
тур на
і са
ниць кій
поді лу
обстрі лу
до став
люди ні
g i
кв т
виня тк
наяв них
зо ну
бачи ш
облич чі
розу му
кух ні
за че
c re
ль ська
норма м
фі зіо
лі нію
ук рін
гі поте
sh ip
див ови
сі она
розта шов
зміни в
на ступа
слід и
нова ні
куди сь
у я
фран ко
конкур с
буду вали
заго ну
сторо ну
di o
ба на
к пр
цен ко
вла шту
dat abase
кож ним
прове ли
йте ся
ви г
єру са
us e
в вечері
звер нув
у на
про бу
гар мати
місте чка
ни ш
ви ли
доли на
ти ша
розумі ти
вказа ним
ка лу
зер но
скла дні
носи ли
йо к
пу тін
тю тю
r ic
учи тель
клуб ів
ка ючи
b s
в зи
ря дів
су між
18 99
воро гів
пру с
го мо
нор ід
піло т
чаль ник
w a
тка ченко
кова ний
ція 1
ана ста
розі гра
сер гі
поже жі
хлі бо
n am
у ми
під клю
клу бом
йоси п
22 4
аль пи
сій них
лі ття
а спек
ар хи
в падає
ше к
напа ду
2 11
пропону є
німе цька
ті сть
16 8
спад щину
у мі
ник ов
япо нія
авто ром
нор му
над мір
ви ла
ди во
х т
35 5
st em
фран ци
ува чів
z h
замі ни
гар мо
гур то
зву к
о да
г міна
від тоді
ва дим
кові й
сам ові
ht ml
на буває
взяв ши
мар но
за воді
заува жив
ві сть
впли ває
єпар хії
ці ле
по бу
ти ск
звер ху
ен у
лі сів
вичер п
26 0
ї д
ко лю
ю чої
x iii
дово дами
єдну є
по гляду
са дів
ск ле
пала та
мо га
ка к
ови ків
27 0
фоль кло
юго сла
ж ував
дорі г
го стей
смер тю
ло у
д рев
розмі рів
зна вець
прин ц
in i
ста й
оброб ки
ці ан
ст раху
те л
за ну
пу тіна
р ь
від вер
е похи
кав ка
сучас на
літа ки
парафі я
с відомі
кив нув
віт ру
ен де
лізин гу
ар мію
актив них
крей сер
слу х
утво ри
сері алі
16 4
висо ка
зу мів
нада ли
зна ємо
дми тра
звича їв
серед зем
довід ки
ге но
пере важа
чер нівці
світла на
медици ни
слове нія
ми на
до чки
овува вся
ос новою
ми тної
но гу
ді на
ш нього
суд дю
рід ного
д зі
гра нд
вказа на
захи щав
відо мим
стрі м
ну вала
повтор но
17 6
жа ли
ім я
бомбар ду
бай дуже
ве зе
допо міг
на турі
че кав
ю рі
на годи
цій ній
ph y
сю к
о чере
кош тори
влас ним
сприя ння
tr ans
підвів ся
сиді ла
да нії
оде ська
m el
ч ін
дів чини
с ова
4 09
о чок
і мена
сто лом
мало го
за важа
ме ті
ру шив
біо графі
слуха ти
я сувати
вина хід
кро пив
ма сив
9 11
цивіль но
16 7
мо ска
вирі шила
публі чно
філь ми
с пуска
що го
вбив ство
н овими
хо да
s am
уник нути
аген т
мак с
зали шки
се ку
зро стає
у перше
мо сту
мо ту
по єдна
ден ного
управ лі
бр ови
чу ття
m en
мов лення
ду мала
к він
важли вим
трене ром
при суд
фа на
ation s
с енко
s an
в життя
перешко д
рішення х
ва та
ш ня
кварти рі
жу ються
v ir
одна ково
ма ті
ма рина
на певне
лон доні
пла вання
мета л
селя ни
нови н
ава рій
пле че
ш ну
врах ував
поєдин ку
кла сів
л лер
іде й
про ро
форте пі
p at
націо на
доповід ь
присут ні
p y
при ніс
ть є
w al
інтер не
кар тина
мага зин
дід а
ц ы
ек спор
по кій
цієн т
виник ло
пі ща
си ло
у а
стро ф
охоро ню
свя тих
уз бе
се кун
фі й
тів ка
кварти ра
пере се
швей цар
поча лося
ду к
голу б
апара т
17 9
ша ф
23 5
лю ба
на поле
оборо ту
штов х
тив ності
т ках
на завжди
щ ан
23 2
мета лів
пошире ні
вияви вся
ови ка
спо доба
b lo
s ci
хо кей
дз вони
дж ене
18 96
май нові
17 7
лі ф
па пір
чер ги
ва ра
ві лі
кпр с
ого ро
пара метр
ді ння
цар ство
проек тів
ме га
mar k
дс нс
ли ця
штей н
k ar
же в
увій шла
особа 8
ва то
предме ту
єпис ко
лі мі
та льний
проце си
ку ра
рід ний
диві ться
ти ла
серед ню
ш ува
слід ом
ск ово
ка ю
ш кін
ди кції
дж ували
хе й
вбив ства
ари сто
sp ace
об грун
ча гар
кож ну
дру кар
h am
15 3
хі й
к ван
ір ланд
роз кі
m il
тен ко
ку вала
ід у
пріз ви
дружи ну
говори ла
bl ack
пору шив
ма мо
ка жи
ї ла
кін г
м г
кур си
рос си
ша ну
стра шен
в мотив
збіль ши
p art
про мі
ж ере
ні л
гол ланд
ін доне
ні де
дити ною
с є
то рон
поста ть
ве жі
за су
ж ну
ся й
ек ва
18 95
ро сте
пере лі
s il
пози цією
пи льно
су н
о пір
обіця в
п ят
цент рів
о ран
у шко
тро ян
зна ючи
t d
зага д
recor ds
відкри та
здоров я
23 8
робо то
ар сена
комі са
ма д
прав ними
у спад
функ ція
ха л
3 30
ма три
па ни
сте фан
ха ри
існу вало
про шепо
уда ри
ча лися
пов на
єк тивно
джа є
а ніж
не стер
мі фо
та ти
ниць кому
ка ролі
шля хи
мі ське
жу ючи
гі та
висо ких
не види
про єк
показа ти
3 22
p al
ї жі
пор ід
ку ку
ор лов
жа в
вимі рю
ру ши
в міст
н ців
лю блі
s ub
нення ми
від кли
кафе дра
зазна ли
ска ми
v il
запо розь
при пуска
рр фср
д овір
лег ше
те ха
ще них
носи в
йо ми
пар тне
ру сь
пав лович
ш ор
об міну
робо тою
нада на
їх нє
те тів
на рі
ен ню
ство рили
двигу на
д н
дипло м
е го
сце ні
визна ні
35 9
з біга
відсут ня
яза не
ви ло
гра ді
заяв лено
да сть
ле ті
мані тні
сід а
чор т
а спі
філь мо
аль фа
бра ні
чар ль
ско чив
народ ні
екра ні
сти лю
ло б
е ліза
18 4
су а
чере па
ри мо
угор щина
оте ць
те сь
при бере
кіль це
щи ти
ухва лі
від віда
нова на
jo hn
освіт ня
на був
сто с
по лю
c u
робіт ни
кі о
бо дай
дже ної
бар село
v on
погля ди
конфлік т
яза нні
висо кого
ко ши
зай шов
мі ською
дода ну
річар д
гла д
гір ських
ве тера
дитя чий
ске лі
лю бо
но сять
у е
га дав
ша в
n as
ar s
ме мо
ми ки
h om
за здале
не далеко
бе зумов
ства ми
у сю
ер у
мі ру
колиш ніх
ша є
захво рю
до міні
сій ної
мі сіс
1 200
ви року
ви вчи
h ol
сим фо
ефек т
держ гео
шо се
обме жень
гра да
го рах
18 80
кла в
ск ло
відзи ву
вік тора
м вт
обгово рю
ch ar
з інь
18 9
en g
пада ють
ди ск
пере кри
при во
в мс
го сп
чита ння
сні гу
ка ри
при віт
щи в
в край
кра ма
хлоп ців
дола р
заг рози
зна чний
п н
юні ор
ніст ів
я слав
о податку
що правда
польо ту
гон ча
рі ше
ве лі
суд овим
уря дом
w r
lon don
ста вав
жува ла
бор ту
заги нуло
за стере
ду н
ше ле
запи сів
ar ia
па тен
спи ною
18 85
l or
ку ри
ае род
апо строф
атмо сфер
сі ле
й ов
ви то
доказа м
ш ний
17 3
ме тео
ф г
і ро
од норід
да л
інді ан
зу силь
18 00
кла сі
лій ович
внесе но
не плато
ва гі
25 5
минуло му
іден ти
во довід
20 9
пе ла
sy stem
продук т
оче вид
кож не
від стро
товари ш
стар т
бра том
те ма
чу ються
ціл кови
селищ на
гу є
черка си
євро па
укла в
лів ська
сти в
16 6
чи лися
к т
пра ву
джере лом
стру н
кар тин
е ста
22 8
ро му
ха ра
ба д
енер гією
мі сії
не що
за няття
сти с
буд ову
ла т
ті л
фор т
зго ду
ко ля
чи тися
og le
голо д
фізи ко
язк овою
с са
ми ті
ігр ової
тур ний
зовніш ні
ле сі
ч ком
я них
пі клу
яз кові
обстрі ли
бу ква
водо сх
пр ові
адреса 2
ворі т
г ріш
про сте
ко менту
по гро
ви ходити
мон т
строк ове
d om
ц ук
мон таж
аль ною
поря ту
костян ти
шен ка
пошу ку
18 2
к во
ре стора
38 8
йор ку
особи сте
лу на
м рі
покуп цем
а а
введе но
маке до
робо чого
по сол
кита ї
ос вя
ак ва
дав ство
пор та
фі гур
ате ста
німець кі
пор тів
вод них
захід них
сте пу
доль ф
ка ва
тру бо
кі бер
експер та
напад ник
on g
по яви
є на
зібра ні
дар ма
d f
ри бо
сол дати
мали х
бій ців
4 50
х ен
іва нов
ту ється
а г
ли ха
3 000
о чки
по па
ро сту
ви ши
уяв лення
лі тні
газе ті
сп л
дення м
збро єю
з дій
бі жен
18 1
st re
обі г
шкі ри
ма тро
ду ху
капе лю
р ова
ба м
орен даря
захо пили
належа ли
части нах
увати сь
не давно
пі л
gro up
роз мова
фа х
зда тні
п енко
руму ни
торон то
щу ють
я со
ні що
я ру
га зи
кова на
я ч
по ч
дов ів
16 2
шве ція
лу ки
o c
не доведе
роз різня
полу м
не суть
t op
пе че
вов к
le y
ісла м
нагаду є
без пере
in d
б м
р э
go ogle
ка у
фе ль
пов ної
17 8
ті лі
ни ло
чорно би
во дій
ча лося
при належ
ню вати
маз ове
кла ві
стру м
форма т
грі н
да вати
тва рини
ч то
академі к
зайня в
чу ю
ків ка
досвід у
го лі
ди ка
жа ти
ха х
ци то
мо їм
примі тка
анд ре
сезо нів
чу ли
ду му
вос кре
є спл
поми лки
співа чка
ф рей
кера мі
25 7
23 4
ме тром
жува ної
практи ці
боя вся
висо ку
за клада
з гор
фон дом
годин ник
в хо
зв ів
до ходу
в ходили
шля хів
заги белі
широ кий
фіка цію
пов ні
хо се
літ ній
не а
с цен
по щасти
відо ме
s n
ю нак
бер лі
орга нах
li fe
ан тро
су бо
заказ ник
жа лі
концер т
недолі ки
го роб
16 9
ї ст
есто нії
ве т
кр ово
енер гія
я нов
кри кнув
ку чер
sk y
ви ну
ме лі
34 5
ень ка
налі чува
офіцер ів
о пу
проте ст
т зов
щи ною
по кло
пи шу
кон тей
си діти
t ur
км 2
нема то
знищи ли
у ті
анг ло
фа ра
на ція
втрати ли
h or
ста лася
ди ферен
пе чі
че сно
коло нії
взи мку
му ля
нія кого
ян ського
держа ву
по ходив
al is
таєм ни
додав ця
відкри те
ly 3
хо роб
те ся
ама тор
lo ve
збере гти
наче бто
набра ло
знищи ти
коле дж
збер іг
o x
пояс нити
то ну
ч обо
сті ні
18 3
вір ність
пен сії
заборо ну
і ти
основ ною
в те
науков ці
ба лка
еле мент
m ot
пта хи
пан те
супут ник
закон не
і гна
зе лена
гу ль
т ович
ро ш
проси ти
бі с
кири ло
на су
ризи ку
й ду
ми ти
воро не
обра но
термі ни
гли х
ко мо
ши ри
ло гів
де далі
розроб ка
in form
вий де
ing s
l at
принци пи
мов би
пере тина
спо ку
ць к
бі т
екіпа жу
спо гади
15 1
ста ре
часто к
розумі є
до чку
кодек с
чаль ника
бачи те
award s
t ele
буду вав
течі ї
з бі
к роки
вибо ру
рекор д
2 13
22 7
ц лав
існу вав
чика го
су дам
r on
схід но
жу рав
к овими
я тої
прибу тк
к но
ді ли
2 14
ід і
бель гії
ма вся
к лей
да не
несе ні
а фі
37 6
ку пити
ш лу
товари ша
во ле
ві зу
єдна них
крити ків
т ня
дь ко
тра ви
про повід
нк ових
по просив
парти зан
ли ка
коро лева
ск ром
запа х
цивіль ні
23 7
37 0
ча т
k y
аль ній
on t
22 6
бата ре
з ма
ха є
жін кою
під крес
so c
ка ч
за ту
зов ні
б я
прово ду
язк ове
c ra
різ ниця
ба ва
сму ги
18 86
жи ві
d n
ber g
рестав ра
і шов
наяв ними
пів дня
регі она
уз довж
ґ ан
18 94
ал ба
ень кий
чу ла
вір ю
пова жних
ш ками
запи си
ід а
с ків
ху ан
вза є
род овища
е ти
повер сі
на стро
но сти
місце ве
тя га
c ed
моти ву
гу кнув
прой ти
о здо
на цька
не ва
тек сти
одя гу
спи ра
сь є
c ur
ш лося
по пе
ляцій ні
бла га
вело си
в чені
заяви ла
спек тра
зро сла
en e
австрі я
ро сти
ти вся
стрі лець
роз ваги
бага торі
ней тра
при слуха
ад рі
викли кає
18 70
аф гані
в м
ри мі
и ма
п но
якої сь
ті ння
ва ше
апара ту
є єв
колек ти
єди не
дани ло
афри ці
за ря
ос нова
no t
ім пор
окре мого
мене дж
пода них
plan et
роз мно
сій ний
m c
da y
п лений
ді к
ри са
ме ч
карпа ття
поміч ник
х ін
пер спек
ба нки
дніст ров
ш па
ґ ра
кар ту
глиби ні
усі єї
а лю
л с
бло ку
голо ду
z o
11 110
біль ші
нар ко
тера пі
и х
or i
аси стен
в мира
ми ль
ф ру
дія ли
камі ння
ци и
фі я
учили ща
офі су
c ro
від чи
т ської
му ка
гру дей
тер пля
о ся
ю м
в день
комі сією
at us
ch er
кі ст
23 1
при та
бак тері
m b
зна хід
маршру т
офі це
у кри
тра гі
бюдже т
к лер
сві том
ілю стра
тер мо
місти ти
при ча
ері к
ми нули
про стя
ск ов
ка мери
складе на
стри му
ли вши
бер н
рекла м
n is
хі м
ле ти
ol a
кон вер
нав чаль
сєв єро
мови ти
жер тви
жа лю
чор не
му сив
пода на
е ст
по би
подіб не
ючи ми
ши ю
хвили ні
за сади
публі ци
ю вілей
ва шого
ап те
висо тою
н м
жи вих
ч лена
ли ці
вен ти
гор ді
нія кої
сум но
ску п
ня ла
басей ну
спо га
бабу ся
шу ль
діл ового
істо тних
си льний
р да
конкур сі
re g
бор ж
мож ливі
ви щим
при х
про хід
olog y
йте сь
по нови
ма м
го да
дру зя
комі р
зву ки
зу ються
фігу ра
к років
за к
мі ськ
тран зи
скри п
отрима но
у ру
км год
донба сі
пре фек
комен дан
9 14
то ном
k u
ж ва
хор ват
щен ка
ви пустив
по треба
пі рам
депута та
доли ні
спі й
ува ча
ї л
9 05
ім пер
веле тен
мобі ліз
сі к
ні чим
ла к
а ро
чи ї
зна чна
де на
бі лу
тич ному
приз вели
ба дь
ма кі
захи сті
ле ній
че хії
темря ві
о щад
в пала
облас на
середи ну
компа нію
кана ді
ви ходять
нав ряд
чер га
вог ни
ля м
секу нд
мала й
в став
мон те
охо ло
но та
хро но
тіс сера
ін дія
пере ко
бого слов
двер има
в сюди
яз нення
пріз вища
6 10
їз м
за гу
доло ні
є во
яскра во
по дія
лі ри
мор ські
віль ні
справж нє
u x
ли лася
пер шими
способ и
х ма
парті ю
актри са
мо їй
уто чне
залиши ли
ухвали в
окру ги
но сії
ку ба
а бра
б ки
ті лом
переда ні
ха та
ly 2
ко би
нь ки
спар так
ту с
un t
нан та
нав проти
н в
муль т
ля цію
сце ни
схід ному
приро да
басей н
т тів
о пору
кремен чу
сухо пу
голо домо
у каз
нат х
д к
ри ми
піхо ти
голов но
предме ти
невели кі
важ кі
фіна ли
село м
запа си
ар к
помер ли
лежа ла
тів ки
ве сна
18 93
ар хан
набли зи
18 78
агре сії
з мом
пі лля
гі сть
a h
до кла
по рів
жи ми
g es
ве ра
під го
g s
че ності
га нь
фахів ців
дик та
шот ланд
p i
де ка
належа ла
ю ї
но т
кри п
26 1
ш ене
тю к
тяг не
com pan
про світ
дав чих
нім ців
су ці
ля ль
ви ти
люд ських
за п
відкри ті
лі м
висо ти
ті ю
de ut
ж ок
під хід
сві то
мір ку
м зс
пен ю
обличчя м
методи ки
консу ль
за дні
зо л
голов ною
ін форму
бал тій
17 2
чор ному
цін ності
малень ка
ре форма
p os
el la
дрого би
пору шені
34 3
горо ді
о ро
c ity
бач те
про тікає
аспі ран
по бою
с ень
ку пив
кі немато
пла ст
бо гів
трам вай
справ жні
вияви в
чов на
s al
ді тям
катери но
ови на
авто рів
вті к
під суд
гово рять
мель ник
ло ба
34 0
мину ле
роби ла
зазна ла
лід е
зни щено
тис ком
го ні
йо ган
до гля
плати ти
крама тор
інтер пре
мар та
p en
при гаду
спи ну
де ла
г г
ізраї лю
за будови
збір ка
га ло
мас ової
b ill
бри д
ливо ї
тар них
важли вих
лер ів
сріб ло
острова х
д пі
ш ував
бан ди
18 92
моло до
стів ен
повно ти
сві това
оборо ну
ру сс
бу ча
18 89
зна чних
сс ср
ре цен
жов тий
брю с
k l
над вір
кон стру
ліж ка
к ід
го тель
а зо
пля ми
з яв
ма нів
l ive
і т
не змін
28 8
проек том
ран ні
о пери
ве се
копі я
зра зок
назва но
ма не
му шу
га нс
фізи чні
ля к
росі ю
h on
в ходив
28 6
сторо ння
та тари
фер нан
перева ги
ма чу
як най
доне ч
має те
вважа ючи
наз вати
беру чи
ць кою
реш ту
a de
особи сту
ви кри
бо гом
охоплю є
дуж че
ви плату
па п
ци клу
на міс
бува но
доросли х
при чина
всі ля
ви дом
w y
розроб ку
go v
з ри
пода ло
s ing
ва ті
жод ен
рішу че
пе нів
бе зу
16 3
та ні
z er
генрі х
ви пи
подоро жі
й т
вір ту
з увати
то ро
реш ти
вида ти
під і
на сту
че ля
б лек
бе сід
збір ник
26 4
ва ри
холо дно
p ra
яй це
сул тана
gra m
де тек
с пав
чи ком
ver lag
моги ли
г нув
не пере
16 1
світ л
за чи
ж да
по дя
об єктів
ді нг
па лі
жува ному
індек с
ш то
24 2
диви лася
по казали
min or
бу й
пере біг
зато ки
скла ла
т ських
te ch
с пер
нес кін
правни чу
реак ції
на перед
він ниця
ш тор
викла дав
ка д
став ка
op s
жува не
ко ни
затри мки
роз ій
росли на
да вав
ані ма
чи лі
ка мін
най му
с повід
фі л
гі є
су дах
зроб лені
схе ми
по у
ча со
води ться
кра ків
it a
bo x
драма тур
стан ні
гірни чо
ко лії
вби ти
не мину
ца рів
жер тва
та льного
t re
в зу
з рад
се г
ура ження
клієн та
и й
тив ною
старо ї
з могла
при да
ко ст
ко тро
са нації
гурто жи
ден у
стави ли
фіна ліст
за плю
ру си
бен те
гні з
па нів
тич ним
ам к
жіно чий
можли вих
сму га
tim e
ши ть
ланд шаф
вер и
ма ється
мен ка
о сели
викли ка
озна ками
г нів
28 4
со лом
ци ган
ion s
з більше
зло чини
у поряд
права х
зня тий
тур бу
щоріч но
ви дами
пер шості
зня в
ко нь
за питала
у стат
о зир
спи ни
п є
дав ніх
одна че
раді а
бер га
де фі
ча клу
24 5
книж ку
варі анти
телефо ну
мар т
ме ле
інте лі
відкри ли
ди вер
част кове
j u
дизай н
фос фо
полі тен
му хам
тра ва
стар шим
ко зи
мар ти
вда ється
д нк
б ль
е ге
ува га
ка ш
є ння
н ському
вір ш
кри вий
ро стов
сти на
страх ова
ну ль
ви до
опі ку
амери ка
вказа ну
врах овує
ниж ньо
ра ль
ванта ж
25 8
go o
роз ри
с під
місте чку
g lo
х мар
ж ої
26 5
фінан си
deut sch
написа ти
пові сть
паль цями
де хто
спо кою
обся гів
га т
в па
в текти
ч ків
r ich
ан ни
повер ху
у мовою
вив чав
г ю
роз чи
ш ть
не завер
пада ли
вп с
з мо
фло рен
виро ком
і лля
вер і
са ва
екіпа ж
ті сно
ра фа
сторі нки
ресур с
ко си
сері ю
spe ci
ко тре
cl ass
p g
вла ді
розгор та
супер ник
без смер
різ ного
втрати ла
4 36
гор ь
ті тка
з ний
іде ю
та у
адміра л
11 00
сте ра
пере бра
со ки
д ку
м н
18 88
хо сь
єд р
бу к
чи лася
на бір
вої ни
рів ська
urn al
анг лія
ри му
ка пу
пода є
па кет
прогу лу
7 50
те пла
колиш ні
6 29
ber t
лів ому
воро жих
пи лася
сторі ччя
з ованого
досяг ти
велоси пе
пев на
d ar
у ника
поли т
мат чу
бі гла
б б
плате жі
ск ер
дз ю
гі лки
гар на
по ша
г ром
вис ко
еко логія
знайо м
ін фек
моде лей
чи ться
опера цію
запи т
с рі
ге нів
k er
д бав
кордо ні
su per
зі брав
ба шки
поки нути
ph il
зна чною
лю ка
на ступу
не ско
охо че
спіль ну
хо ю
кар тка
у неможли
пита є
ско ріше
ві ро
катери н
еліза бет
ри ма
зазна чав
цвин тарі
вчи няти
вида нь
c in
4 04
b and
укр транс
в ка
за бути
таун шип
дру же
ва льних
лу н
кар тки
показ ник
по ті
боро ни
b ir
мін но
досліди в
люд ства
за охо
га стро
су вали
на по
ві чно
град ська
яв но
да вали
яро слава
три манні
в низу
ве чо
та рів
ру су
джи м
24 8
бува ло
диви лися
раз овий
термі ном
m u
на стоя
вида тні
дозво лив
бі ли
від дати
се ме
малень кі
сте лі
госпі та
30 5
ко ми
с мак
торгів е
бага т
г ни
це ху
індек су
t t
н ське
ово д
написа но
я тий
h al
o ut
співа к
си нд
ді їв
мило сер
села х
ю ра
ва шу
чи мось
пода ток
о ком
му ться
мар ті
тур них
зброй ні
19 1
таєм ниці
4 60
бой ко
закла ди
гро ю
вистав ка
в часно
ви нес
сти ли
слу га
схе ма
нев дово
за рі
за чі
р ка
захо пити
сі чі
ува гою
єди ною
актив ні
програ мі
єгип ту
до казом
16 00
лю вала
нк овий
тен дер
голов ну
по сили
не май
к ович
лі о
i en
загаль не
ви ри
бор т
тури зму
дося гли
18 60
колиш нє
довжи ну
wat ch
від клада
до ну
не ста
ре пута
вистав ки
ді алек
бро нь
ве ні
bo ard
b ad
ба ле
вис на
графі к
за сла
пей за
вида тк
о стро
зня ття
св ен
ме тів
ко са
раке тних
вели чину
між облас
бог да
стрі чки
свід ків
пан де
ща х
доли ни
нова них
по сміха
антоні о
моло дь
6 17
з гра
а не
жи ло
ї жу
виклада ч
в пер
хо н
му си
джа н
або нен
or a
кру п
4 33
прави в
оці нює
ре пре
ході мо
ку л
при скор
стер и
3 28
c us
поча вся
ліза цію
те плі
3 11
в в
ж одна
30 7
о здоров
нада ють
під ір
вчи теля
роз важа
боль ше
compan y
ч чі
хворо ба
вибу ху
дом ів
re fer
раді сно
ту ю
воле вияв
папер и
n ight
дор ф
у трима
анд реа
свяще ник
ва гою
збір ки
24 7
трей д
де ми
гар т
проф спіл
шкі на
нк вс
d an
тор гово
на гляду
ща с
4 12
і бн
низь ко
грош ову
d v
квіт ки
у ст
ше ф
яй ця
цар ства
прове ла
си ні
дав ність
суттє во
ло рен
ге л
про ле
вида чу
від ні
кри тика
урочи сто
ри та
на соло
уро джен
29 6
подіб на
ови ки
кі я
5 000
тре тім
заяв лені
па рі
ву са
по шта
ті о
кур ган
ал ла
щу ється
пу ск
захисти в
бере гів
и м
с прий
буда пе
па сту
t al
поверх ню
д в
га ється
18 91
гра ли
27 5
зйо мки
па віль
r is
вис віт
er a
ж ності
ниць ких
дріб ні
ради ка
з ування
шу кав
свя тк
вино град
та нки
бу с
29 0
пошу к
яки хось
ди ст
бе зна
ul l
ди ско
ь ов
24 4
май стра
g n
оці но
не жи
не од
лер и
т ська
скли кань
ок с
гор ба
орден у
лан ка
годи ні
ек стра
кре сли
до міну
од ної
спа сибі
релі гії
ма лу
херсо ні
зи му
кана лів
jo urnal
роз бій
відвід ав
ор ди
спіль не
закли кав
ви шки
шо ло
да ма
чу до
клі тини
риста ні
st at
озна йом
не вин
ту не
мі ли
чо л
герцо га
су вав
леген да
m ap
ф юр
к се
вір джи
5 09
а чі
мис лення
яко мога
а ба
ата ку
лі ки
ек стре
ele ct
ні куди
фрід ріх
k ra
побуд ови
утворе на
па пу
належ не
11 112
яз ком
еска дри
мат вій
по но
вод ного
поз бави
ut e
приєм но
поді ль
зав дав
23 9
st ra
на що
на тя
два дцяти
по слав
с мир
горо да
бе тон
ґ ен
а зій
сті на
38 0
ма рій
ба ске
кон дра
прово див
у сьому
багать ма
4 05
br id
з більш
т тю
alb um
то чку
чет веро
при йом
g h
сла ві
піль г
6 11
22 9
фак торів
ic ht
комі сар
о пор
люк сем
спі лка
а са
я чеслав
об ліга
з можуть
то кіо
приро дою
жа ю
кар ло
ім пуль
спи ні
an th
g on
it ter
схід них
ва льні
о ги
поду мала
магази ну
ent er
скасу вав
мо с
ре тельно
перей ти
з ле
у вечері
18 48
дося гла
мето дом
ва гон
грав ці
овува ла
оке а
луї с
зго да
or s
редак ція
кан целя
переда ч
виро щ
ше ва
ін г
експо зи
мо нет
3 12
воєн ного
еста фе
взя то
хво роб
б лення
у лі
захо пив
воли ні
com m
матич на
рекомен д
ка дрів
єв ський
ди вся
х рист
про стих
ке м
щи т
належ но
st ate
сим па
не ром
об кла
сти лем
по ходу
ме ла
висо кої
ко алі
роди чів
ре ал
са ти
турні ри
за ка
адре си
лізин го
поча ло
каз ки
да лих
но мен
8 26
бра ун
напря мок
офі с
зга дка
мис не
с пусти
00 1
за сту
на поляга
жов ті
г нав
яз ування
коре ї
е під
сту пенів
заг розу
підоз рі
шу ються
музи чних
s co
сту дія
бажа нням
b ab
риста ти
жов то
три кут
ши ло
зем ної
вино ски
ри ф
ба рі
ro ck
ска нда
диви сь
пе тру
el d
зі зна
шев чук
това ною
обій мав
потрі бен
сму зі
зверта є
рівня ння
регіона х
ва льний
прибу ття
зо й
і х
мор фі
g ar
спро ба
be st
со лов
істо тне
реа г
h ot
спра вою
ва льної
роз ко
ємо сь
за хар
ці м
ді т
страх ува
ляга є
мі сту
25 4
залу чено
ра ту
печер и
позов ною
кре а
особа 9
amer ican
худо би
ни и
ку рі
er al
гар ний
низ ки
право му
в чених
18 87
спла чує
а три
чи тайте
z ap
у че
би й
ха б
спожива ч
наци ст
en cy
же ж
ди зе
пта ха
lin k
ача ми
об шу
хазя й
від бір
ic us
крає знав
лів обере
стави ть
швид кі
роби ться
лю ся
мі лан
те ран
прав ною
хар д
лідер ів
ва ших
ніч но
пла ном
бан ду
пів тора
ди ми
одру жи
ві лл
носи ться
захища ти
у сміха
за пам
природ ні
га ють
сигна л
тре к
на була
ках ов
мар кі
кри л
17 00
по спіль
стоя ння
пере воро
t le
жа ється
шкі ря
косте л
гор ло
своє рід
табо рі
д не
живо пис
30 2
про лу
обо є
важли ве
о кла
гро б
mic ros
фо рум
кар бова
відзна ки
в мер
18 84
треть ому
об із
знай шла
про фі
про чита
бі гли
проце сах
яс овано
важли ву
ниць ке
обі зна
ката лозі
за тяг
бу ра
смо лен
te am
ру слан
ан тар
ото чення
ку пи
вклю чено
виш не
ге т
n ik
по ди
зни кла
ман н
чу єш
про яви
ч ках
ро мана
й с
кі ров
s ur
кри жа
вели чини
важ кий
за ви
єдна ні
ва чем
сті ну
e c
но ти
ду мок
під логу
ри ту
рап тово
підтри м
папер у
склад ова
ме жує
бід а
пле мен
ят десят
оз вався
на ма
ува лося
григо рія
со ко
х нула
оле га
ава рії
за гор
до ти
стан нє
вне сти
ста вали
ав жеж
вигля дає
жно стей
і стин
ви правда
о нів
слу жити
бер нар
ак ціо
о крема
в ський
ста ціо
мо нд
язк овими
дізна вся
соба ки
корот кі
воло м
се ба
заго ни
ма нев
що року
в праві
рю ється
списа ння
кри ста
под роби
оці нити
лежа ли
ф ле
но е
ic o
ра є
за сти
ме ться
скла дом
дра ми
ва ного
джи н
де ю
ди ва
тар ної
3 13
b on
по сід
жа ло
су зір
фон дів
реш т
пов ним
ша нов
прав овою
припи нив
бах мут
ґ ер
сторо ж
вд вс
п нув
бур жу
жив лення
посіб ник
з лі
ня вся
від ступа
воло дів
24 6
вець кого
робо чий
су бор
пом сти
бе ць
лег кої
холо дні
from 0
мі ри
коро леви
ш увати
вул ка
ків ці
https goo
на стрій
ду ма
об ли
геор гі
ке вича
4 38
запа с
зав зя
я не
кри тики
ар мією
су х
при к
gr and
ши рина
ви їхав
увій шло
ко лій
персона ж
по біг
годи на
в ходу
ве селі
па тро
ден ко
мі ській
в жити
ман дри
люд ські
ци я
пере каз
здо буття
товари ші
за сад
стро й
практи ка
х ва
36 5
в буд
ф ю
про мов
зна ряд
грі х
сі рий
b le
22 2
по ка
си ній
ско пі
го това
ска жіть
29 3
t u
р то
у немож
роз різ
за пози
довжи ни
ме че
піль ська
бе с
прикла ди
се т
пе ти
ниць ку
х ру
26 6
ко ста
мир ової
4 15
єдр поу
к ю
держа д
термі нів
ch art
опа лення
удо скона
4 06
відшко д
куле мет
soc cer
баске тбо
5 80
m art
м лин
par is
соб ака
ови ти
ша ти
книж ок
30 6
нада нням
у перед
ета пу
ді с
викли кав
ня лися
вибор ців
де лі
коло дя
висо ким
збір ні
є ль
man n
кова не
ви роби
в ського
ї жа
ци клі
двигу ни
стов п
не чи
ля ю
ру хом
не велика
ви віль
ве жа
сприя є
мак ро
к пу
укла ли
22 3
заяви ли
жа ють
зни зу
розумі єш
гра ла
як ова
бур мо
деся тків
сек ція
б род
у прави
не су
філь мах
сток голь
p us
t em
поча лися
брази лія
ка сти
буде ться
пото ку
маке дон
д робо
та нія
d as
к овою
ле она
ка ро
клада ч
від була
роз стро
робо к
змен шити
от то
нови ну
всту пу
ліж ко
да но
sh ift
прин ца
го стри
5 12
єди ному
від ень
пре сти
поми лок
каролі на
к 990
роз пис
їз ді
мир них
h g
при лу
гід ності
нь йо
c n
моло ко
слу жіння
а бу
спор ід
дода тком
регу лює
д вс
кори дор
at el
скла ли
поля ків
пере су
ят ника
з бли
за цією
н ках
вер сію
м сти
за роб
му дрі
тр ю
ро дом
до цент
кори сних
процеду р
фрак ції
олек сія
вказа ною
ш ова
it s
крі с
спря му
а так
паль цем
да йте
регу ля
фак тор
поста ті
кри во
сіль ради
z z
с лю
37 5
кі стки
чу жі
єм ною
ка ї
ува лись
рід ше
способ ів
мі ха
ти ці
пет рівна
h l
з ради
вида ного
дже ним
фай л
ов ни
но сом
акти ви
b as
олек сі
мекси кан
кла ну
при ле
ста ле
вір шів
lo w
змі ною
ін до
підсу мку
c ic
бур га
написа на
істо тні
на смі
живо пису
нд р
кар ті
поду мати
i th
поль ське
уль тра
17 1
ті ле
в род
але кс
верши ни
4 19
пода чі
пере мага
по т
муль ти
ко сто
слу ги
ві лла
ката ло
фео до
ш ці
су є
латві ї
sk a
ля ни
жи к
ма ре
тур ної
річ ної
нази ває
вер мах
ф та
вер ст
g in
да нь
я зав
кер увати
і горя
про демон
са док
лю дві
s f
во дія
столи ця
є си
ката лог
3 35
уяви ти
рі на
ста х
ta in
ц вк
ли лися
сторо нні
гра ма
само губ
район на
36 7
прила дів
у чора
зай мав
зе леного
аль янс
ва пня
г м
вед ме
виклю чає
язк ового
ек спорту
стандар т
ци т
ж ній
пере хре
єди ної
яви ща
си га
с сав
на ра
дові ря
сть ся
фо ку
ша сі
bo t
ш пита
я тою
логі чно
ме л
26 8
ліка рів
буде те
во станнє
госпо да
l an
ch o
euro pe
бі літа
у пав
у ель
фізи чною
h en
бо ре
до чкою
меда ллю
середні х
лі са
бачи мо
пода вся
п ляє
дт п
ша ру
мю нх
ча ків
тва ри
ur us
біло му
ст ря
воли нь
на бере
ісу са
4 20
належ ні
хлоп чика
et y
єра р
я го
зав вишки
руму нія
пре стол
поча ти
гу а
альбо ми
фак тори
пі онер
29 5
ва кан
ми в
ви веде
карти ну
9 25
три вають
ле ся
роз ки
ліс ового
кі не
на клада
лист ки
філі пп
нк ові
лек ції
бур зі
но бе
донь ки
фі оле
er n
no v
ву хо
дзь об
віль них
ur es
em ent
вигра ла
космо нав
дов ше
хі х
про ме
кон сер
l am
18 82
ови чем
радо сті
будь те
ль ників
бо ля
подіб но
po st
висл овив
дю к
течі єю
д вій
функ цією
ка ле
від чай
коло нія
мере жу
маши ні
24 3
хо ру
по єдну
різ два
черво них
че к
х вали
мол дови
нер ід
торин гу
сказа но
викли к
трі ум
ді ючого
ca st
сп б
щ енні
бру к
відгу ки
бу ре
при роду
т ник
дин г
де л
ні гер
са гайда
1932 1933
си рії
гу цу
й ди
гер ба
ліст ка
ма да
вби ли
висо ту
пі ра
істо тно
ле вич
28 5
з яви
назва на
лау реа
и зд
право го
рек візи
воро жі
мо рем
будин ках
у си
18 59
форте ця
ме нами
бель гій
ба чать
но гах
за просив
гри вні
п лені
18 75
інве сто
мати ме
п т
ви плат
ги ми
v ers
ва гова
ра би
бать ками
поже жа
існу вати
чу ма
отрима ло
у чні
ко ди
опти мі
функ цію
26 9
врегу ль
е ллі
по під
вес ни
мані тних
кар дина
поді лля
а бе
м ы
мо зок
автобу с
p od
ін ци
нути х
куро р
ку ря
три вав
куку руд
черво ним
завда ли
широ кі
чи я
су дин
узбе ки
кир ги
вибу хів
вікі пе
талан ови
де якими
мадри д
л к
одержа в
річ кою
збір ній
w ik
мешка ють
stu di
му нд
помі щи
24 9
спору да
старо му
ня та
пре сі
лек си
д б
со не
ли ман
ві рити
мі сія
фак том
publ ic
по тер
па нове
стра ті
рек тор
ниж нього
сті нах
наз в
к ве
m as
ви би
зас відчу
m ad
v ent
ду ба
ло сті
ду шев
стра шні
пере ки
мах нув
думає ш
сло бід
пе ро
пош ти
прави й
во дні
36 8
so u
дон бас
клієн тів
да вайте
тич ними
і гно
18 83
архі пела
неді лю
рі зь
збира ння
має тку
слова рь
зібра ння
пусте лі
col le
вене су
m r
о га
зму шені
мі ські
під йом
я во
3 25
стар шина
у ти
tim es
9 85
балан сі
ен до
чення ми
кі с
d z
ти хий
пле на
ш не
ви нні
в кра
м ли
ю т
ля лася
сер цем
ду вав
зе лених
s v
мід ь
дові ри
загро жує
сі ро
висо кою
р в
ли тися
дія чів
b ack
гру зин
а пол
ак ре
ція м
при бира
рекла ми
t ar
ниц тву
м ного
по гра
біло цер
укладе ні
спи ть
ес мін
го го
в га
j an
ка ву
ме ду
ха лі
кар т
мало ї
на лу
дово дам
e o
ша ли
ада п
ми н
ухва лені
во яків
повтори в
ба шко
пі ть
ку тку
при дбав
роз плю
проте сту
ви гляду
24 1
нар ного
орієн тов
по ступа
са ції
за мож
публі ку
леген дар
і єрар
чу жого
прожи вав
ду блі
па спорт
боро тися
літера ту
chr ist
квар тал
ко те
а сам
n ap
о сінь
аб ду
релі гія
зупи нено
утворю є
прива бли
пала ці
схо жа
ч с
слов ен
пере кон
i y
пили п
бли з
за боло
під роб
we st
дзер жи
поту жні
я тний
укр заліз
34 4
номер 2
е ш
пи лися
18 61
ско п
ба у
го су
си рій
кри зи
рів ності
чини ти
же ному
овер нь
ті кати
пі ч
ш вар
я вор
династі я
гля нула
стра ти
це х
кімна та
про ка
виру шив
не ної
ниць кі
за мо
at or
u la
п лів
у ни
ме к
відді лом
4 14
с прин
фе ра
заста во
те мати
шу р
ть ю
ні ла
обся ги
ж ною
крі сто
мані пу
ре пер
сп д
сана цією
18 67
зав мер
про грав
хімі чних
про філа
спі лок
переда на
коло с
m ich
сторін ці
о пусти
22 1
ниця х
за хова
під відом
важ ких
пав лов
вибу хи
до наль
2 19
е фе
бори са
ри ть
пере ляка
перер и
дь те
дитя чих
об єк
пе три
p in
оста п
загроз ою
при діля
джен ню
від ір
де по
дня ми
за вой
ці ал
ви клад
ма зур
при ни
пан но
18 76
брова р
техніч на
ду хом
пле мені
внесе ні
ма су
золо того
почу ти
околи цях
27 8
гер це
здо бу
башко рто
с ніж
сер бії
моло ка
літ нього
четвер та
бор ід
жу рі
ю че
о ті
опису є
сі на
по том
при пусти
шко лах
брат ська
ф лі
по ром
35 3
трак тор
я дра
не вір
май те
пе к
гу мо
ap ple
на дію
фі ні
сон цем
e ar
те ти
ст ст
щи ми
не роз
зь ке
ніко поль
ста вок
фото граф
диха ння
че ва
воєн ний
орке стр
прово ка
припи ни
яскра ві
е ля
над ра
кан ц
сак со
во дити
хво ста
бі лими
визна чив
реак ція
відкри ти
18 69
різ ниці
r h
кон ди
воло сть
дав ству
бід ола
три дцяти
хар рі
фар б
ля чи
шта н
наяв ного
стрі чка
т б
ла риса
яви ще
чор ним
літо пис
чор ну
v ar
25 3
вою вав
емі гра
зи ма
рі ки
х к
замов к
вулиця х
пов сяк
тур ного
un e
зник ли
d re
39 4
ови ну
окре мими
поля ки
f am
т нув
полі с
шта ни
чува ла
під лі
ви несено
сі ра
ів ка
філа дель
пи тися
дося гає
про ста
ниця ми
почу вши
покла сти
стар овин
ба кала
та льні
жер тву
вих ов
прото ко
13 00
об станов
все воло
истори я
а ш
софі ї
обкла дин
ге мп
тво їх
цу р
ґ ар
чин них
д зво
слав ні
черво не
дарем но
земле роб
aw a
p op
за брали
ска х
о пуска
сте ж
нен ка
ст ран
мета ло
зли ття
по до
біль шої
схо пив
уд мур
обо ма
ген дер
ла гід
за брати
си ци
зару бі
5 10
не зви
глиби ни
те ніс
микола я
ed ition
ми кита
се ні
27 7
пере став
номі ї
сумні ву
го голь
co un
мас шта
у каза
поя ва
ді ви
р ву
ре ме
e y
м ово
пси холо
гір ко
повно цін
болга рія
18 77
сій но
хи мер
логі єю
бо на
ro y
справа ми
уп ц
о но
кон ю
сі но
яс ованих
ля рів
пам яті
а нек
та льно
ш ник
чи сел
ха рі
ово лі
а тест
че кали
збо рами
да ху
шлях ти
плану є
посе лень
вер с
нерід ко
17 58
бу рі
по лів
за з
35 8
гали чини
ukra in
при год
воро н
одно час
пів фінал
парафі ї
і за
ни ченко
са шко
абза ц
ку ре
аль бер
су тич
могу т
плат не
трі н
проспек т
4 02
про стий
бри га
принце са
мере жах
поїз дів
ре форму
сир овини
бу лі
ну те
ду хів
пи н
орке стру
publ ish
ху н
академі ю
5 49
бої ться
зим ових
з рід
гера ль
сан дер
ля на
ме жи
переда ли
про сти
по ляр
го телю
зі єю
г б
ку м
п са
де ше
коло ни
з мор
направи в
каже ш
бла город
сінь ко
бій ці
e a
є му
прода ти
ванта жо
тор стві
піс ку
шу кає
ch amp
пробле му
лю вався
зу бами
сот ень
ди сло
wor k
зда чі
проек ти
май стри
ру бе
3 34
запо бі
жи на
ско е
ан дру
засоб ом
основ ну
мем брані
пе чін
люби ла
посла вся
му рав
раке та
ка ф
65 1
глу хо
діа метр
по тро
за пита
рахун ках
заста ву
fr an
інжене ра
до с
карпа ти
ради й
мит ниці
сте пана
стя м
кін цеві
20 23
гій ний
асам бле
міс цями
заги нула
щ ене
s um
48 0
ду най
ко стром
ліж ку
соб ак
моти вами
ота ман
фаши ст
робо чої
сор ти
з ранку
no w
роб ін
графі чні
бер ди
дета лей
полі цію
вули цею
в ходило
у ш
ph al
істо ти
запа сів
збира вся
г не
ми ли
мі ка
фі лія
y t
ло рд
ers on
fil m
v in
сут ність
на ка
га ма
нада нні
рен ню
бо ле
вла д
35 4
вез ти
безо пла
не довго
при крі
ни ча
чор ними
ефі рі
ні ший
прий ти
дів о
ви стави
біль ший
урочи ще
30 3
бі лим
ско ри
мето ду
спри яти
ш ле
ut ion
ви пов
лів у
сві жі
мюнх ен
вчини в
берлі ні
18 79
під си
варша ві
до скона
ы е
сі сти
золо тих
о ме
во т
ко лін
9 17
ду ха
st a
кор не
украї но
зда тний
прави ти
лежа ть
в том
зва ний
кра щий
розпа ду
спри ят
ю вати
спла й
вої нам
всти гли
що разу
гру шев
му с
не відома
пе лю
очо лює
пір ене
змен ши
ян ської
ен н
пен сію
но стями
утворе но
ки ли
д му
ря дження
юрис дик
ру ди
п яти
ек спорт
ch a
ви вер
18 30
18 63
bi ogra
підста ва
діа ман
едуар д
лів ого
лів ій
дріб них
пов ній
44 2
валю ти
мим оволі
теха с
про мінь
12 12
хи х
під лозі
прин ципа
вищі й
за володі
пи й
луган ськ
го ла
бри з
суд дею
ни ва
лі сом
дій ти
католи ки
вчи нено
il d
за ре
га ї
бо ран
фран суа
самов ід
ядер ної
субор ен
обстрі л
пла вець
ба ран
воєн них
точні ше
спо рі
е се
з ведення
поса да
куль туру
обра ного
ян ська
тися чолі
погоди ли
мир ного
й д
під ві
ек зем
заги бель
же ле
с бер
му дри
мар мур
ста ни
зв язок
ф фа
бі жить
г нувся
хоке їст
в сміх
ю ка
чов нів
по проща
ie v
в ки
б рід
за повіт
па ливо
г роз
про коп
свя ті
васи лів
втра чає
енд рю
тур ки
дід и
ol y
з явився
го ну
тя н
ph o
пода нням
мар тіна
38 4
г л
28 3
допо може
та ли
мен у
ба ченні
можли вим
гі лля
від казав
меш кав
іс пи
дода но
тур бі
роз пу
ал ге
14 00
рі нг
мільйо н
ser v
поз бу
по дов
земле тру
на грі
зро ста
куль турі
c el
вез ення
нала ш
б джо
реш тки
ста ран
ди ло
кру ж
спір ним
тування м
згаду є
ко рів
руї ни
ян ський
почи нав
ш ували
ви дні
c s
г ря
m es
нь ї
k on
дми т
їз див
граф ство
фре дері
перене с
епід емі
коле са
лей к
id es
поно мар
а валь
ві ле
b m
k w
раун ді
п таш
в чення
ти зації
я ного
пісто лет
за кладе
жува на
плане та
un der
шлю бі
шту к
усу нути
бур х
госпо д
і коно
ро за
во гні
ток си
і ст
почу вся
космо с
пла нів
є ні
ку ру
про р
в торин
про хо
по розі
ма му
роз бі
di re
по неді
студен ти
id a
проте ї
антро по
да нія
pr im
в прав
с се
не відомі
епізо ди
фран ц
ка ба
9 15
суд ово
w ta
18 50
18 73
бара ба
тар ний
і рак
май к
низ ка
вказ ував
сія ні
35 7
нар ної
влас ними
кому сь
b et
la st
са рай
18 81
ємо м
закри ти
b ank
голо сі
49 5
джер сі
ра ку
за цікави
продав ця
ne y
l as
не поруш
зда тна
роз дра
валь ник
27 6
б пла
au str
ха ли
наль ними
гра віта
xx i
екра н
ки ев
робер та
хол м
h u
пере ді
до клад
з ди
39 0
в бра
поль ські
ми мо
тич ній
при голом
brid ge
zap or
ділян ках
ще ле
вати муть
чарль з
про сту
аб стра
нала го
в зво
с нув
to ur
донба су
тари фів
ж ю
ви несе
люби й
тися чу
ува нню
при падає
яза нням
се стер
чу тно
бра ми
відхи ляє
рів нів
біло ї
h um
дво ри
л ової
hist or
кви тан
визна ли
ові ччя
чер не
на ки
кра т
та льних
товари шу
як ович
джон сон
з заду
са п
il y
верхов на
с ними
j am
ad a
фабри ки
25 2
ва ку
бе зі
s en
v iv
о сін
ви най
ні ть
кін ців
при лад
окре мим
послу гу
вкла дами
о ло
ман га
5 50
ща ли
рід на
ме чами
двигу нів
пові сті
на кри
по зі
ва ря
стату том
джон с
рей с
ae us
g old
ги на
ста ри
os a
бож ої
арсена л
h ip
праг не
пла че
роз ча
а ло
ка ру
нк ового
d b
гли ни
основ не
вибо рі
біль шою
торпе до
чор ної
мон голь
ос ла
зви к
по лем
18 66
куль ту
верто льо
запе вня
спі льних
ер н
приват ні
ед вард
андже лес
да у
гні здо
та с
3 36
m em
понови ти
m ill
во ла
чов ни
моту з
зроби ть
проце сор
запис ки
захід ні
18 71
с пере
об щини
ге на
закри чав
ка мера
кара ба
то ре
нада ла
мол дова
ма но
хи б
п нев
35 2
свя ти
ово служб
ву ль
ас фаль
воло даря
помі тили
черг ових
мі о
за дум
тяж кості
гено ци
здо бути
бажа є
бра к
е на
ре актив
s un
с март
р ки
пра га
il la
в ч
тра ві
m id
бу тні
де пре
в ку
ми лу
кві тів
тре тю
ґ вал
з ований
пи вшись
моги л
мед вед
ка др
важ ка
р нк
кон ден
та ну
ци гани
ре органі
об мі
лу цьк
баро ко
зі брати
33 3
язк ових
є вої
29 8
гна ти
зве лів
ш н
по доб
золо ту
лінг ві
пло ди
4 34
вій ною
слід у
жі мо
галере ї
ча лася
лег кий
рі ка
f ra
кра са
хімі к
на кази
ро мані
is o
нази вати
за пев
змі ї
стаді оні
з вони
фун тів
сріб на
при вів
с ною
ю ди
по мо
сусід ніх
гна ли
грош ова
спекти ви
сі тка
кри чав
коле джу
переві з
під ля
наві га
st or
чи ги
ор на
сан ти
да тою
їх нім
прогре с
місце ва
в живання
ру са
ра на
фарма цев
р є
ко цю
27 2
ске ля
ми вся
доб ря
ві на
ма а
ma x
фор ту
сій ного
андер сон
дек ват
розі бра
широ ке
зі на
v 5
ля ння
пі на
пу ті
дво рян
загро за
за ліза
ка тор
i j
ма у
дже йн
лен ців
вигля дом
обла ш
s l
у сти
ови чі
пояс нень
l td
бува нь
а кі
зя ть
кня зем
логі чне
музикан т
під кори
e in
пропу ск
натов п
ку би
стру му
рю є
4 64
тво рення
віт ря
не задово
лі тери
чин ність
пор тал
но сія
те ць
нес про
тич ною
зня ти
ка бе
ку й
га брі
но мор
укр соц
445 2
гу м
ho use
ї ли
до шку
триво га
ада пта
свя т
бла жен
комсо мо
на п
ль да
е ро
рен т
ь он
w id
3 38
запорі ж
чер гово
яс на
с най
18 68
катери ни
ло та
bl ue
m k
пе кло
вою вати
джер с
та джи
є гор
ко тів
ан н
ш лися
ст кою
пу сто
вино гра
т білі
від бору
25 00
конгре су
пере жи
ува лась
ва шої
ви гід
се пара
дум ці
че сті
st y
за води
18 65
стен лі
під ступ
век тор
з легка
про сять
ско тт
6 50
оці нкою
р ові
ча ни
с ліз
рей х
ре аль
афри ка
мі шель
сад ки
ліп ше
у твер
ки лим
бур гу
пі ро
їх німи
джу ючи
замі нити
мир город
алгорит м
лу б
ла на
безпе ку
шта ти
дов гих
крісті ан
лу ч
ду мали
зайня ли
о форми
фран с
закон ні
cl op
сти ска
дж ова
о су
d ig
е х
звер нути
по тили
мол дов
єд ність
нен у
а чеві
слід чий
28 9
пошу ках
майо ра
за бува
за пові
ко мах
охоро ною
за прав
ре міс
па зу
бо ні
перемо г
роз меж
камен ю
h an
ag es
мекси ки
ба лів
гре ція
розді лі
ва льного
мі ло
рі т
ве тери
чо ло
роз ряді
знав ство
колум бія
має ток
дійс ним
з дав
и зда
му че
пошу ки
докла дні
жа ння
оль ги
ко ря
зи ми
s in
на зар
27 3
бра й
стра й
продук ту
приро ді
при ми
nas a
ке п
скла сти
зако ні
рома нів
ру шили
ня тися
і мі
лю ті
каз ка
дитя чі
тво м
че ність
фрід рі
в кло
хі т
сін га
ма тів
згаду вав
л овича
пара шу
дядь ка
cd p
е тимо
пи ва
систе мах
ваго ни
er y
з нім
роз бира
ліка рі
ну р
світ ових
заяв ки
озна кою
прогу ля
хі і
ы й
да ю
віль не
зраз ки
гор до
схи лах
іра ну
мю н
тка нини
ш ва
таєм но
з бенте
ного ю
36 6
ка мені
ці ло
все світу
все союз
обра ли
кана ли
друж ба
хо ма
дій ний
слу гу
впли нути
в л
слу жить
доро слі
хво рі
припи су
ран г
ри су
при несла
кіль ця
ра ни
мето до
чини в
zapor iz
донець ку
пи ша
ro man
руб лів
каран тин
sport s
па три
9 03
пода ли
а ди
му дро
цін ність
спі ває
ди но
ру да
роз гро
кри тику
щі й
кабіне ті
ження х
4 40
ся гає
вказів ки
ж де
18 74
пі знання
бага ті
не аби
удо сто
ц віт
по пряму
вклю чені
могу тні
3 21
ль ця
комі к
боро да
rev atel
ти зму
ці ла
лі єю
зада чі
дири гент
k om
38 7
сторі нок
дра го
капі ту
комі сію
копа лин
кон го
заклада х
нк ова
двер ях
ig h
ліс ових
пома ран
заби вши
кисло ти
ian a
пи ш
марі о
фо ні
ф лан
від ходів
зігра ла
гра фом
рід ної
44 1
вільям с
відгу к
25 1
се лів
u al
пам ять
справж ня
в вп
c le
а стра
поля х
st ation
ми лі
май дану
щи н
відшко ду
епо ху
3 19
сфе рах
до га
си ро
закри то
в ченого
поса дові
ко мента
поверта є
c it
де з
жу ть
36 4
обра зо
бо яр
с хвиль
ку зне
спі вали
if ic
ко рек
бор ов
тео рію
за брав
вер нувся
придба ти
контак т
кру ги
вказу ють
11 14
ві ллі
g et
по жа
про читав
тру дя
портре ти
шта тах
н ком
хи тро
будин ком
вираз но
до шкіль
стану ть
дзер ка
ми тних
прита ман
ста ть
ла ви
л з
роз робив
дов кі
le x
а мі
спі вати
тру дові
ну ють
жи вої
поряд ком
пря мі
ін ш
39 2
01 00
потен ціа
ва ре
к овича
ні ма
зна чу
гайда ма
ш ті
стрі л
т ські
ти ші
є зу
ви мер
ту ючи
краї ною
хо ре
замі нив
орен дна
p c
d c
жі ночі
воро гом
кри ло
не пога
кі п
де ві
селі ван
ш ере
поли та
вирі с
f c
ди стан
пев ними
ста ру
мар тин
id er
до но
р тут
жа на
губер нія
сторо нам
ня м
чи стий
оспор ю
єв ська
д є
лі вий
кора бе
їх ньому
ля ло
колек ція
єдна нь
біл город
про б
широ кого
відді лі
ка де
бель гія
веб сайт
ран гу
фай зен
го ф
o ur
вищо ю
нува нь
ч жу
дів ка
сько м
ст ень
18 72
ден тів
роз діля
бур гун
рухо мого
очи щення
з гу
ок са
ві чі
та т
ау діо
я са
та льної
су мою
ї на
хи жа
9 06
ос бб
а гі
ке л
веде ться
мор ська
рід них
лення ми
фігу ри
заспо ко
ро у
фе лік
ца рем
рельє ф
волон тер
ба рон
над ворі
писа ли
в ходила
випу щено
пі сок
льо ту
агре га
с ності
під літ
трам ва
во б
бе та
ніч ним
ро ді
зна вчи
підня вся
єди ну
г вай
ро гу
доб ру
u z
до мага
камер у
по сіла
c as
наві ки
грі м
влас ники
стоя ло
бере гах
c ul
k n
то с
v y
ро са
коме дія
br it
кон тори
не рами
ска жімо
ар сен
до гори
сти пен
ста бі
друзя ми
37 7
рід ні
ц з
при йо
кордо нів
єруса ли
r us
рука ви
f al
з ліва
ц віта
с вар
трима ли
но сець
си льна
5 20
ца рі
воро ги
се строю
за пуще
37 4
ре ліз
му ха
a i
k al
здо бич
подаль ше
4 000
род овищ
с пле
змі ні
металур г
пра гну
зна ком
голова ми
макси му
тра х
жу па
вра зи
дія ння
29 9
ят ники
k en
ци гар
дитя чого
форму ла
ост розь
зві ря
нотарі ус
h i
ф рук
h and
д ря
і бра
мов е
кова них
sk ie
риба ль
29 1
здо гада
дипло мат
яс нення
зна ків
роз губ
роз клад
ка ска
зі м
гір сько
мол дав
ку вало
w om
гу д
спір ну
чер ни
дяку ємо
ту м
кро ком
чотир ма
с пита
книж ка
and ro
я нів
меморі ал
зо зу
27 9
s ite
я ва
ві ть
най вища
кри хі
глиби н
фр н
ср р
ко зир
сибі ру
турні рах
сті ною
нк ер
соці ал
ы х
се кції
ар но
сила х
ти зм
ду шею
вида на
відчу ла
ф ід
ке ле
за були
рід ному
тари ф
м рії
пор ти
не х
доступ ні
за бло
рай ф
іра ні
лі тер
lo s
гра ми
діль ниці
раши сти
імовір но
4 08
стро ково
служ бою
e th
11 113
наді слав
тру би
je ct
ре воль
особа 10
гу ста
пла ч
донь ку
l ist
u ch
па пи
і гу
ріди ни
г рів
чека ють
со ном
ві рус
відсо тки
двигу ном
ак тора
попу ляри
4 03
ві тром
компа к
джа з
випу щена
поша ни
med ia
ва таж
а зія
втра та
з ці
пода тки
ов ні
поро х
st and
бере ги
не во
да ра
написа ла
ві о
нова ного
софі й
чуд овий
о лив
за бра
de ep
погля нув
поверх ня
герце г
витя гу
руко пис
при несли
комплек т
ста рій
спли ву
ісла н
т п
гори ть
ту ристів
ша хів
коле джі
техніч ну
ови ці
com p
юніор ів
лі гу
весели й
гну ч
ш вілі
триво ги
ран нього
дже ними
га не
жа ла
r ight
во лів
зраз ків
l s
но га
мен ю
ф лек
сій ні
ле ром
га дати
ar is
вияви ти
off ic
мас са
фло ти
столи цю
зрі ст
6 12
ра цію
k t
ди му
ната ля
18 40
твор чого
постав ку
знаряд дя
бар ви
потріб не
вищо му
хо д
склад них
то то
від рах
пи л
ра си
о пози
гра вчи
lim ited
на ста
m am
к рон
рі он
зас му
о писав
но сі
f on
те са
ін гу
корі ння
ю чу
спи р
креди тів
рога ч
7 12
гли й
http bit
d iv
так сі
ета пи
вда рив
ab le
ло на
хер сона
літа є
18 62
пів року
вов ка
на пису
гі на
жи ні
чу гу
худож ніх
ка ча
мар ська
дани лова
обра них
с сон
гелі коп
форма ті
ко з
при від
аргу мент
віль ної
глиби на
ced es
ма ску
хро ні
кіль кі
при єдну
ot a
па ду
ш тин
25 9
фа ми
av e
ю неско
де тро
чер зі
спі льні
з раді
у чень
ня ка
ку ють
жи вим
розвід ка
визна на
при хов
да д
пред ків
я того
бо нь
висту пу
3 18
st o
п ене
соб орі
3 d
коре я
пи сець
номер и
кінце вих
норве гія
група ми
фі кувати
сли й
а ля
ч жо
язання ми
ви годи
вихід ців
крав чук
осе ні
чи сті
бі на
4 30
ні ша
погли на
у ре
ні кі
ict ion
не багато
по брати
ри бу
ку ючи
пері о
го телі
mer cedes
єд ності
бо стон
проек тно
г да
здо гаду
на писом
ль ня
за тя
па но
ігно ру
ду би
ба лі
вої н
здо були
аф ін
пря мий
ус пен
жов ту
го стрі
експер т
воро тар
в ний
с ене
роз лю
ген та
різ дво
a a
пере жива
єдна на
лл с
зраз ка
пов язані
нобе лів
суд ову
ка си
соро ка
прав ов
to m
arch ive
вок зал
больше ви
хре ща
ча ті
клієн т
ак торів
ба шта
пля ть
френ к
с плю
за писав
ле тить
взя вся
ну лись
пі а
истори и
ні коль
річ ну
енде мік
ма па
ur y
віс кон
tw itter
нь те
лів ер
відо мими
пі шо
ву зол
ванта жов
зна чного
ман да
лу г
9 09
сумі ш
ag ram
пое зія
єв ського
ше ним
in de
кор ене
ва ля
скла ди
ра джа
повер хів
пишу ть
суддя ми
сот ник
s g
к рю
матич не
агре сив
валер ія
сл ові
хра мі
ла п
аль берт
ма ля
пі ння
пав лів
офіцер и
заборо на
ни тися
жіно чого
роз нав
сен с
p u
а мур
та є
геро їзм
замі на
ген у
па пі
обра зу
літ ньої
буд ди
по де
ек зо
ме жа
пох вали
ре чення
мін ськ
з ду
євге на
во дять
35 1
сіль ські
па руб
гна т
ся н
ї ду
26 2
у пер
сен сі
завда ла
mus e
сек тору
кур сом
друж би
ль ц
пла нет
того час
хре бе
зібра ли
допи т
зій шов
й ова
смер те
бара бан
б лан
на шими
си ня
себа сть
по кір
до був
lin n
раху нка
про єктів
ба зар
шах ти
ос воє
по цікави
6 27
із юм
e f
рі ст
ніч не
кому н
запу ску
34 8
зоря ну
pol it
бул га
сверд лов
марок ко
з біг
об ух
champ ion
церк вою
до строк
b an
яви щ
зга дки
спад щина
ал тай
при вести
гр ен
кампа нія
ста вало
р ський
сла бо
а ни
люби ти
по прав
кину лися
пла нува
ня т
сек тор
си ди
пу ть
ти ви
не щастя
ес кі
мі ша
байджа н
un ited
е літ
тек стів
стріль би
тур к
кор ч
чу жих
си ньо
29 7
захища є
св 18
вік ном
знайо мі
об ще
гу ляй
за ри
ви гада
ency clop
серди то
залі зо
роз дя
слова х
ру т
6 40
по ріг
ви мір
че хія
графі й
ссав ців
l ing
споді ван
скі ф
мару ся
ряд ки
тек ли
ви купу
ser ies
орен да
хоке ю
ліде ром
тем на
мен тами
джор джі
кот ля
арген тин
в певне
ре сто
httpst v5
сте ль
37 8
тан ці
консу л
пло м
s r
p df
сти ку
калі бру
м в
cl ub
одержа ти
марша л
29 4
свято ши
on s
джова нні
ш рі
бра те
близь ких
довід ка
конгре с
терпля че
r al
ста д
пле мена
по їхали
го спу
гаря че
на ду
мир ний
хворо бу
wo od
го дно
ва ди
вчи телів
3 39
слух ня
с вин
ше пе
склад но
со та
підоз ру
дже ра
3 31
18 56
re l
се стру
ру ба
світ ові
34 6
ви куп
од ною
по ну
ку пе
3 27
ру хи
бу з
ів ський
ма ро
свід чили
у роки
десан т
album s
ту ні
дода ти
части нок
колегі ю
l ang
годи ти
диви тись
мі ському
тис нув
мо т
a us
ту вався
in fo
18 58
бен зи
кри х
зас ві
бою ся
паль ців
моги лі
мину лу
к са
моти ва
9 24
дво ря
ль ники
ці лого
це гля
під пі
кори до
деся тин
валь д
минуло ї
ці лях
чи нами
хри стос
га ва
тар ного
смі ття
поїз ди
d or
дж оні
укр газ
ту але
п лін
мов ід
al m
тур не
літа ли
щасли ві
валь тер
li am
що ки
зь ких
дво ю
сувати ся
важливо ю
зна доби
сучас не
сні да
гід ність
сим волом
орде нами
на стала
ро да
жува ну
inst it
з б
тем ний
г міни
зво ру
варша ва
спек так
ie w
гран тів
до чека
пів захис
ар тері
ар ср
вивчи вши
ме ча
мей стер
не ною
га нд
важ кої
про ника
47 0
почу ла
лон дона
мазе пи
мініму м
біжен ців
річ ному
ам стер
за се
е фір
п ф
ха па
відсо тк
тер ен
iz e
ста тися
ві рив
язи к
мін не
п су
генрі ха
трудно щі
фі ї
боля че
у му
ar a
ша ла
дзер кало
поро жні
та цій
вуз лів
твер ді
верх ньо
воль ф
де пор
дві сті
дета льно
ш ми
s el
ауди тор
ство рила
вір ного
чу тки
ху р
зву ку
ла ди
пере бігу
ран ніх
особи км
об ри
ск ро
с прийма
ува ч
гра й
o h
вер би
ніч ну
pr es
пу н
смія вся
l ight
дозво ль
тимо фій
алі са
письм ово
коме дії
о о
ні шим
бава рія
ди тися
зе й
18 55
бір жі
а спекти
метрі ї
ци фри
сол да
щ ак
за страх
джерела х
л ове
у ба
чобо ти
че ские
ка ди
ф рун
не ми
ви тіс
пра вед
вистав ці
сен ка
па нь
мас ові
ли ки
торг ов
ль ов
оле ся
за триму
написа ні
on a
діду сь
на гада
uanews 20
на стає
го с
особ ливу
65 5
лю сь
ба ло
юр ко
лю т
вимага в
довкі лля
кри шта
са ри
в ста
сер и
алю міні
тан ка
окру гів
вець кий
ба си
d d
тав рій
не самови
па хо
ступ ене
нав ч
сау дів
квіт ка
укри ття
ко хан
одно сель
со кіл
зупи нив
умова м
пу тів
з вар
чжо у
рі єю
при чину
тих енько
к року
взу ття
това ної
пояс нює
таєм ницю
слав ний
о той
ро ме
па лій
смі ливо
сі мо
хре сто
27 4
че кала
се кс
пре обра
ти ків
де бі
ства м
inst a
м ович
кав каз
нази вав
мон реаль
f m
керу є
бомбар ди
ак цен
ко мар
дні прі
s at
мон го
кро ле
жен ка
вок залу
б ка
під готу
пада ти
ви ця
ль ців
док три
на сторо
бу е
ш мат
про ри
збо ку
ви си
прав овим
я єць
дю с
допуще ні
відсут нє
чека ючи
ль я
кон те
є тна
ти пом
от ця
люб лять
k h
фахів ці
є ний
9 12
ша нс
синте з
щер ба
прово дом
охорон ці
ень кі
жу ков
і к
за старі
в ми
по ні
плане ті
6 38
на їв
му з
трав му
сько сті
мит тє
відчува є
їжджа є
po wer
пла кати
0 10
28 2
ова ми
ви ліз
роди ну
дру гі
яз нів
безпе ка
клі мату
ю хим
пен ка
бажа в
попи ту
би о
геор гія
p ap
галу зя
oly mp
маршру ти
єзу ї
на раз
в пора
коро тка
дис кримі
ре форм
fe st
ф лей
точ ці
при гні
аре на
у труд
39 5
буди но
зва ні
дани ла
об ма
спо чи
op ter
ш ування
ро дів
за ля
різ ний
теле ком
назем них
ві ка
по тому
від лу
жи дів
зо ре
дру гом
пара лі
dv d
дер ів
без робі
лиш ень
бо лів
штраф ні
ята ю
б рів
в поряд
писа р
напря мки
у ман
по одино
су то
складе ні
кост енко
та ран
ли с
пере мови
моло ду
види му
приту лок
абстра к
сцен у
ва ним
сусід ів
сам бір
е стра
зав годно
ста ліна
світ лом
um b
емі лі
e v
вважа вся
каме ня
мі ш
сті чних
росту ть
linn aeus
отру й
ро л
ння х
логі чну
фо ра
пролу нав
4 13
а о
тер міно
котро го
ло дзи
лей б
окре му
приво дом
перене се
тан ців
ку та
із маї
пев ним
є єва
ла пи
пет лю
му д
ду є
стар ша
36 9
чу де
огля да
ти ва
sci ence
ка б
від ри
r en
п ко
підні ма
а ран
успі хом
чи ста
ал ма
п пе
на сі
си б
пода ній
письм ові
ша хі
пору шила
моли тви
гру зи
по чну
сер де
крі сло
су ха
симво лів
де я
погля дів
воро ши
вироб ник
наф т
столи цею
об єкти
слав них
ліс ове
bur g
бюдже тів
музи чна
бо жий
in us
змі й
сла ве
но шення
ень ку
влас ною
5 05
граф ів
j av
кате гори
ш ти
го но
ухва л
зупи нки
яки мось
ві м
ціль овим
ц ска
змі я
ger man
я ної
до лин
форма х
запи ту
f u
ча ву
зе лене
си не
18 49
госу дар
мо д
яв ка
до цен
ма сою
ті нг
до тепер
фран че
скаже ш
і єро
від віду
ста рим
си нові
ме х
мо рози
кла н
дов гими
at t
наказ ів
роди ною
4 17
олій ник
зь кій
f ir
моск ові
на були
кри чить
нав ів
крі сла
завда но
j i
дра би
ар та
фер дина
s om
зна чень
18 12
віль я
іллі ной
прямо ку
мо му
поло ні
па лео
ша ра
ре ально
і ю
рибо лов
w ol
жи вого
gen eral
пше ниці
ка лю
при сла
втра ту
лю ль
ісу с
го мін
єт нам
w el
при зем
нь ку
3 37
регу ль
стрі ляти
48 5
переми ш
п лень
на бо
ма ляр
b ig
фігу ру
жи віт
мекси ка
ли ну
бу ш
4 07
в по
р ы
ва ту
про ко
ре пор
плану ють
n ar
ви ходила
різ д
бун де
бє л
ли бонь
id ent
сти чну
рі ла
18 57
у ночі
гні зда
cr ip
чере ви
le d
с кре
ту те
від дали
звича ї
кру гом
ma y
прав ове
а декват
ла з
му ру
роди чі
ну с
ресто ран
трима ла
б лон
ґ ре
кольор ів
зберіг ся
допуще но
удар ні
від різ
річ чю
55 1
дис кре
успі хи
взво ду
єруса лим
ч ування
тро шки
завда них
я рем
m ix
во див
прися зі
ship s
g ir
з мов
ль вов
но сила
пен силь
f ar
d ro
ав ра
я ре
сою зі
спри яв
те б
шука ють
нор мою
вули цями
ен ю
ли вшись
само ю
ха ба
показа ла
аван гард
мар сі
си дять
трима вся
39 6
do wn
8 50
по дих
іс кри
бре д
авто шлях
орде ни
з овані
ку щі
зе фа
чай ков
аль ян
ок тя
екс кур
ду шно
нь є
моло де
ing ton
хоче мо
ма ска
вели чина
ch i
сцена рію
коно топ
ra y
b bc
тор гах
ми нув
віль ню
нар них
ле тіли
до шки
ни лося
цилінд р
ню ються
опис ова
листя м
го стин
арти стка
гу к
ло нг
спу ск
сове т
ла нки
полі то
ви мов
жан р
музи чні
відхи лив
намі ри
andro id
запу ск
пове ли
пошире на
а мор
тив ів
під ніж
ве лет
ur t
гео метри
ви дов
пер с
lin es
ва ючись
сим пто
um e
діє здат
18 45
чі сть
ню вали
зну ща
по див
кі ї
істо т
склада ли
стрі ли
поми лка
8 10
ман дру
пі знав
лу й
чер в
пол ково
m is
ртут но
пора нені
твор чих
ві лля
са мар
коцю би
трима ючи
я ла
кон вой
земля ми
п інь
куль т
сен су
мерт вих
голу би
та мара
се вер
ген еру
фаль ши
ф фі
малю нок
форму ли
а лан
ко сть
об ряд
са нс
щи ки
нев життя
євре ї
по їхати
бе ні
26 00
лиши вся
3 24
сько мов
о при
ози ра
роз чин
la v
платі ж
18 46
шкі ра
кон ц
на о
ка ви
дов гим
фінан су
о мель
я зують
чу й
вида є
сум ська
соло мон
припи няє
городи ще
шма ток
фон ді
ви нен
пре подоб
про світи
сх овища
так си
терапі ї
ch an
біл ків
ва лів
само чин
дум кою
book s
ко чу
am a
вби то
дитя чої
c is
шу кали
авто мат
до ган
до чок
эн цы
лі ни
профе сіо
лід ера
по рі
вмі є
h ard
талан т
влас ному
безі мен
го стя
він ниці
a fr
сул та
автобу си
оре л
ра ю
ла ві
до щу
зміни вся
пет рів
похи тав
переда ла
розроб ці
нада ний
f en
us a
ков за
ag a
від праць
яза ної
сади б
гу з
галузе й
по ше
пере би
при кро
ед ді
леген ди
розкі ш
b ib
dire ct
до ставки
стри бу
пля шку
під борід
27 1
с парта
гра ють
друго ряд
ал бан
оригі нал
дар м
клю чі
зрід ка
са унд
сріб ні
n ing
б ров
бро к
фір м
дав нього
го ни
ви са
газе ту
л ч
цвин тар
су проти
гур том
маси ву
p lo
л ле
ке мп
пі шло
у й
лі ан
до стой
фу т
th om
озна чало
вла шт
люд ське
00 грн
при гор
лив лює
поруш ене
пев ен
хреб та
пле чах
вда сться
33 2
ір ландія
лиши лося
су рі
роз ен
on y
гля д
кину лася
сумні ви
о сад
со х
доводи ть
em ber
hg mn
да вала
пале сти
по бра
дав ній
трудя щих
жу к
чор тків
al s
будапе шт
а як
му ри
си дячи
стя гу
клі п
дале кого
с пр
ен тоні
пря мого
лей бл
3 26
ра ма
кам пані
обл викон
си наго
темря ви
д тек
за мер
звер нули
ви сла
тич ності
щи ть
скан ди
29 2
ні мом
зна чної
гі гіє
кор м
не волі
ле ле
зі лля
скар ж
низь кий
ку бі
на цію
тор ги
тифіка т
ва льна
при віз
де лег
нець кий
n r
ліс ся
7 10
ш кова
шо н
широ ка
ці нами
мо єю
очі льник
всту пила
ber lin
d ae
ак тори
ль ко
wid th
па сив
тора м
захо че
молоди м
кві ту
напру ги
вби ває
наро дом
j r
робо тах
обра в
у низ
по доля
зе е
1 р
ню ка
атле тика
політи ці
само хід
па ша
сам ців
нер і
гон кон
ле гія
ди т
мит тю
якою сь
горь кого
ш ніх
ка жіть
e ver
і ри
form es
пін г
зня то
віль яма
проща ння
тво рах
машино бу
n es
тарі ату
батаре ї
p se
ти муть
швид кої
іллі чів
малень ку
гві неї
о лен
ли тва
під види
про тек
пита нням
прово дів
гри м
адре с
вихід ні
епізод ів
со ри
транс фер
ві зер
без глуз
бір ж
ан же
кра щих
див ний
um ent
різнови д
ми ни
жан ру
важли ва
ве ди
вс кі
товар но
l iv
ша рі
28 1
фіка цією
плив ли
бом би
е піде
теристи к
t g
за повіту
лю ватися
ем ма
пов ною
жа тися
тей лор
таєм ниця
пода ний
im a
сі нг
ан та
38 5
ски да
цилінд ри
вважа ла
тек стом
ли ків
стар ши
ed s
угор ська
слобо жан
секун ди
роз рі
тар ні
хре стом
роз кла
дитя ча
вида ні
шта йн
сріб ля
тра пе
100 00
ваго нами
за піз
па ку
u str
роз коп
спо рах
по греб
моск ву
мадри да
ж ування
гар ма
яви лося
екс прес
укр сиб
ману ель
ре п
d et
ма як
кра ді
k or
о тримає
ото тож
0000 00
писа ла
іва нів
нав мисне
пи во
чер нів
al og
євге нія
бале ту
атле тики
at ed
в клада
коло на
у лам
перер ви
анато лі
патрі к
під писом
фельд шер
по колі
ви пере
га бс
пер ши
55 9
рів них
пода ної
чо м
ніч ному
ш кар
коштов но
екзем пля
я ри
виста чає
про кида
му ста
ти т
му ки
ки ши
кла пе
пли ву
га міль
вер б
зву чить
зника є
ів ського
відкри ла
уточне но
чер ня
залише на
хорва тія
між регіо
при двор
хво рий
су ворі
і кони
жи тель
пре си
soci ety
н з
34 7
безпе ці
воє вода
збаг нув
гли ня
е ліп
к ря
ві сти
39 9
у рив
май дані
чні ше
зга дати
калі нін
ор ні
без по
бі ллі
сти к
cap ital
по тай
сум лін
намі ру
при сту
опі ки
у гк
фео да
за мисли
йо зеф
св 20
акре ди
похова ли
від сторо
розмі рах
анд ро
лео поль
ту нель
трав ми
шо стої
рома ни
ні ц
дода ла
меда лями
ід о
ря чи
коро ни
ж одним
клапе ды
інсти нк
4 75
при ско
леті ти
уго ру
чере п
спів у
схо дами
c lo
старо ста
срі бла
зби тками
b ul
учили щі
ки нути
нада ного
подіб ним
моне та
сором но
газе т
грамо та
жу ра
б рей
ар ма
за гля
кри тик
старан но
n u
ви пис
мас ових
та бл
пої зда
хазя їн
бе ля
38 6
язи ч
не дба
за була
лей н
l ar
золо тою
д м
к лін
bo y
но мера
на ті
45 5
льод ови
ба са
ка ції
под ви
варі а
s d
18 47
фран ш
зе лено
гаря чої
біж ності
бі ат
es e
котри х
моно полі
ру бі
під о
сту рб
ша нь
авіа ція
вчи нені
метео ро
мовір но
z i
b il
в дивля
ва зі
прем єр
ма ху
оці нці
швид кого
лід ія
хво ст
ка дри
мі з
глиби ну
3 23
шири ною
істо та
істи ни
по ть
ва ть
пові р
ма го
конден са
со ля
ке ті
підня ти
да ції
ниж ньої
нада ним
ово поло
абза цу
че ская
кор ні
39 1
призер ка
лів ці
мін г
стоя чи
про мови
зго ри
обся гом
wil liam
без пілот
ру хів
дебю т
f ire
каза р
їз ди
во знес
хворо го
на ру
котля рев
сте б
сер ти
спу сто
на сті
v it
при ре
78 8
множи ни
вда лось
ль юї
ло бі
зло дій
ф фе
кі пр
оди ницю
додав цем
p ter
бло ків
5 14
яс ні
від несе
жи ться
без робіт
си дор
6 06
виді лити
сот ня
ра бів
лі цей
пе кін
спла та
за ні
при ходу
коміса рі
ви тон
гороб це
пев ною
рі є
па лець
аку шер
же ра
тель ство
та вся
en ces
мен ь
де кре
ян ських
внес ків
щен у
соро чку
4 46
нав круги
єгип ті
офіце ра
смі ється
лювання м
пря мих
ро ті
во лею
тя гу
літа ють
ки нула
ra dio
сусід и
16 48
ню вав
шо стою
сла вів
ниць ким
inter net
клапеды я
у ша
пі шки
сі ру
мар на
угк ц
пода вати
мо ст
сі рого
еваку й
ла стів
ку яв
наук овим
приз вела
ли т
зі г
w ag
су провід
думає те
кордо ни
обі р
ну кле
хі на
7 20
ох тир
gam es
фрідрі ха
тро фей
ми коло
мен овано
історі єю
аген та
дизай ну
і є
мен но
дале кий
бах му
ку ч
го лами
здале ку
ли ні
мар с
j or
олі гар
нев ро
графі ки
хірур гі
а це
во роб
два надця
сара тов
5 04
му жи
го стрий
кі ні
якому сь
праце зда
челя бін
8 04
18 15
се мі
поло ну
н ф
ян ському
кори сні
п ливо
ха нь
мас ового
оке ані
w all
ма том
бом б
ізо ль
ла гу
віда ння
чей ства
княги ня
в ту
рі сть
годи ться
пле м
джейм са
yo ur
зи ра
френ сіс
у ри
бе лла
рин ків
пра цею
спла чено
роз ві
ем бле
викона ла
вед мідь
b ol
ги не
хі ро
єте сь
ре альних
пері оді
поді ю
н ного
тво єї
вияв ляє
ге оде
зій ний
6 26
біблі й
зад ній
суміж них
дів ної
шо кола
невели ку
стере о
род овище
поїзд ки
є й
n ia
ри ка
сто ла
t el
готу є
j pg
му вати
зале жать
стра ви
немов би
зада ч
жа діб
арка дій
ти лу
федо ров
з ного
спожи вчи
бела русі
джон ні
поже ж
b is
від ванта
шо лом
ни чі
ню ючи
кар лос
викона на
при ходив
нас ос
мови м
че чен
раді стю
ансам бль
ри тися
ме ном
пере бира
мас ло
зу бів
уря ді
гу сті
по кої
кон сал
жупа нії
лю валися
мен шою
міг ся
тиме ться
зміни ла
су ла
зу х
фізи ка
веду чий
пли ве
форму лою
доли ну
по обіцяв
сті нами
спла тив
чар лі
показа но
не я
ога йо
про пуска
кн р
м т
за пуска
роз ду
ланцю г
ges ch
коро ле
нез ру
го ріш
ін фо
хе ль
зіт хнула
ви їхати
чин ному
наф та
дом оволо
щу ються
шення ми
вель мож
рід ну
холо ди
r ena
а ю
працю ючи
s et
жін ці
bl u
чита є
6 14
фо ру
ма ря
обра ним
льо ду
гла с
tain ment
прода є
інозем ні
тра ву
ката логу
пла ц
світа нку
ле тіла
ме са
ь ю
ви гов
18 20
ове й
аукціо ні
тені си
ха нов
флори да
до т
offic ial
ви різня
звір ки
ur al
ру дольф
pa ul
іра ку
у пев
er o
май ні
un ter
існу ючих
ім порту
піде мо
ліка рем
один ці
палив но
у чений
ва шому
сій на
на каза
покуп цю
бос нії
д ко
5 60
золо ти
но сіїв
же й
k in
р ень
бо лить
взаємо зв
тино поль
гай м
прия тель
мен ша
ra c
du ction
тбілі сі
влаш тов
неу перед
о ману
бажа ючи
дріб но
покла ла
ng cic
пара зи
пол ки
ус відо
аку муля
g t
про єкти
ев ро
ш ков
при віле
on line
х мара
я тав
су хий
піс нею
кан зас
однак ові
ма нов
рей тин
ль он
ба я
на ди
нк ової
від верто
при ти
йор ка
4 25
во дах
ве слу
вважа ю
сало ні
креди тні
o u
w ard
м рій
ро мен
лу кас
фа т
бог ові
ден ню
ліс ова
віри ть
gam e
ю рист
фі з
то ло
стан ню
сла вом
бага тий
ro ll
міста ми
емі гру
r ing
тео дор
готу ють
зу ть
ic ag
всти гла
похо рон
ре альні
al d
по сі
im e
рен у
сна рядів
ві сті
рус ної
за си
та цією
наз овні
у ще
сте бла
гали чині
6 20
пе кла
обі т
до й
до мен
черво ну
ана р
ю чою
бі лл
препара т
ши вся
н ді
по жертв
ки дає
ла твій
тю рем
суб си
логі чним
набра ли
почу ли
ang el
cr y
nap alm
жов та
порт фе
схід ні
жере б
взя ття
r s
от вір
зустрі ти
c up
я чи
на гру
стан цією
5 99
мо кри
h ms
без пора
лови ти
ж ою
до п
похму ро
g od
ви тер
b ell
у він
роз на
четвер те
щи ла
нау ку
де фек
щи ка
тру пи
приз веде
п ке
косто мар
р мо
сер вер
орга нам
се лек
стриб ки
попи т
бо ліс
діє го
освіт ніх
зва них
церков но
заги бло
дружи ні
дю й
подола ти
за фіксу
пово рот
is che
ма лій
сти ла
кен т
ій ських
в бира
не ко
те на
су хі
єв па
мали м
воє нні
кри за
поки нули
t in
жит тю
спір на
табо рів
о ту
ян ське
єван гелі
т овим
кін цем
фі ніш
фу тів
спа ли
49 0
тво рі
син є
n um
за кля
p ict
ко ч
ста вала
н ба
ува чі
валер і
крі па
стар шини
висо ке
кей т
здор ові
еваку ю
пре мій
моли тов
ан рі
lo g
ци на
оці нками
виді лено
ні з
да лла
поло т
шука ючи
во лей
скри кнув
золо тої
ти л
про стого
тіль ко
графі ю
w ho
пита ю
холо дна
ди ку
гу с
st an
наз дог
альбо мів
ді стати
ца ре
дале кі
почес на
ну ться
ox ford
мерт вий
ре з
бурмо тів
вер сій
пи сем
6 30
зав шир
пу га
коло н
м р
ра г
з дра
фюр ер
гу ра
бага ття
фрон тах
о у
р ні
тя гар
зайня ла
4 18
ю чому
моги лу
хе м
da vid
заса дам
антар кти
war sz
а зар
мешка ла
торгів лю
ме чем
візи т
m g
мати сь
оди надця
t an
чита чів
пре столу
гвин тів
авгу ста
нада вав
свід чити
спіль ною
успі хів
мар кси
ch y
пол ов
місте ра
с ы
роз бу
дов ге
n s
том ів
заліз обе
за зир
стрі ля
bo e
лі ть
об щині
не кро
хар ь
хри сто
гра фу
до ці
каже те
вік нами
ad o
опла ті
а де
варі ю
вті лення
во дяться
кри сталі
18 54
джо зеф
а сорти
мо заї
мов чання
форте цю
то мах
мати ка
виш город
до шка
то мо
il i
єди но
бок сер
з можу
близь кі
синд ром
во я
ор ле
ман д
кон ова
зву ть
біга є
пое тів
костю м
алба нії
се д
стар шин
е стер
паро плав
о працю
па січ
тих ого
джор джа
4 65
ли ць
i ed
оздо б
5 16
ну дь
пе ром
ке трін
ру ського
по люб
самі сінь
міц ні
від ті
is m
жа бо
ок та
34 2
сері а
v s
at r
уби тий
n ic
que st
прогно з
ї дуть
об ду
заспо кою
5 40
ла зер
під крі
тар на
вигра ли
са ха
ска м
сер п
і ла
вознес ен
ни кола
особ ливі
напря му
кру тив
го мель
яз ы
гри горі
тон на
у тім
га ючи
ення м
j os
оле ни
жар т
ха ння
re ich
пла ву
подаль ші
не ве
від веде
ma ch
с моло
ру до
кін с
ia e
механі ки
вермах ту
ві ла
керу ючим
g or
ле ван
би вся
поло гів
ту зі
графі ка
muse um
ак віта
комп ютер
ch em
ли ку
пи льну
кра щі
d ol
помі тила
ата ка
p id
ри ло
пле ска
та льна
зберіга є
золо том
силь ним
зе ра
ав т
доро гий
щі льно
стра ції
люд ство
язи ка
фа зи
це гли
жар тів
лу бен
мід і
держа ння
s ar
х ля
я щі
ь я
зра дів
ведення м
ре альне
ру копи
дж увався
ву зла
о тут
полі сся
вида тних
ster n
j ap
стру є
сим воли
л ль
по ти
поза пла
слід ства
схо пився
праг нув
на ри
не гід
кру то
повер не
o ver
ль ці
фізи к
фактич не
ту ї
стави ла
ігр ову
болга ри
5 06
за руч
гу ля
музи чно
масса чу
опти ма
я є
по чер
ли цем
молод шим
персона л
про низ
володі нь
донь кою
т ц
інте гр
вжи вати
за губи
гре к
х рами
рома ном
ка ту
лав ри
ль ником
запа су
до сте
зас нув
тар ну
байду жі
іва ном
хре бет
дані ель
вимага ли
що ю
під ри
просто р
бел эн
щення ми
не го
hon da
и л
ви вести
пу шкіна
взя ті
я дро
ко зе
пе дро
єн ка
па ють
коза цтва
ш кевич
фор с
кіло метр
робо чі
вив чати
m os
ре я
див ні
мило сти
потро ху
f an
сти хій
зай шли
філа рмо
тені су
га дає
ди чний
цир ку
го нка
річ ниці
молодо ї
не вий
хе т
мо ментом
роз ванта
ов ська
ве сіль
кор ова
за жа
зайня ті
4 47
ча ри
близ ню
ре ше
гу т
em a
від став
мова х
под звони
ра ння
ні ку
ме це
оку ляри
ен ді
ухва лює
лідер и
патріар х
ша ють
біло ус
візи ту
п лено
тури зм
япо нська
с плив
ба ча
ед вар
бра у
па нас
побачи ш
си й
лю то
поло тно
народи ла
при везли
не про
іду ть
ш ках
же к
18 53
трем тя
vi z
рн бо
ту к
сво я
раке тами
за тем
чи лося
рэ дка
зайня ти
естафе та
вол кови
немов ля
ру сла
sh ow
за тра
чи стого
же ність
прав ля
тка нин
публі чна
4 48
би тися
ци бу
нагля д
9 07
за греб
л ко
най мо
на ці
бу ри
си мо
39 8
ug h
жа ху
черво ною
страш на
боло та
федо ра
m m
я г
ос кол
фе ні
гово рю
тор би
ета пів
без ме
со п
роби ш
особа 11
k re
в цілі
роз каз
зо ста
контак ти
ски нув
цивіль ну
залиши ла
пова гу
b b
к ну
зане поко
жов того
депози ту
буе нос
6 07
ке він
ор то
дра кон
a 1
шо стого
смі ху
лі нією
за мис
фір мою
f act
з важа
де кана
журна лів
горі лки
ла бі
ян ці
бал кан
n ie
дру к
ху тко
всту пити
ц ман
тон кі
н гу
при ят
о а
міся цем
суди ли
m ol
чор ною
нез граб
п ту
ка нів
та ру
добри х
ст ці
коло мий
довід ку
енер гій
гре ки
тера пев
ови ла
тем них
брон за
чека ємо
ком бін
45 7
11 12
збаг нути
плат ник
раун ду
коза ка
рад ше
бра ян
ху д
пра зі
обмеже на
твор чий
кра кові
молод ших
гран т
зи ли
гір ські
78 5
техні ці
стеріга в
рен с
поми лку
до з
ці лих
vid eo
пла кала
ліс овий
бід и
6 15
най гір
38 2
візь ме
зало зи
to k
fi eld
лі тур
сами ми
детро йт
при ці
дирек ція
бра тами
про лягає
єдна ти
ль с
сон ці
ам бі
джек сон
бі лій
сів ка
d in
осере д
j un
ч ков
апара тів
ж ому
тво рець
авгу ст
яза ними
концер ти
біло ю
зве ни
ки е
про єктом
пер ві
russ ian
дж увала
істори ки
ви гот
під ходу
шо ста
части й
il a
купів лю
дь ка
петр ова
75 8
гір ська
ске ль
ше ними
бе ка
шов ши
тури сти
кур сів
по стоя
дере вами
ї ди
само т
іде а
вік торів
пи ро
кре мене
ю вав
мар сель
балан со
прода жі
ш вай
то т
пер шість
всеволо д
re al
пора нено
висо кому
ut c
ко тру
ок сами
дум ками
шту ка
б же
ри тори
до сту
тур ків
я дрі
go od
волосся м
га ну
st ru
гир ла
води ли
ті но
ву зли
пе чені
ха ні
дору чено
18 39
євро пу
міні маль
прой шло
се бто
прий мав
в енер
пар ово
б роди
позиція х
2 o
пі знати
поса дах
59 6
на хаб
ц цо
роз галу
18 14
коро на
b in
об хв
ніж но
дріб ними
стра хом
ion al
глиб ше
бав ов
ман ова
cor por
фікова ні
інді ана
ниц тв
ремон тно
покли кав
tele gram
зна ченні
мов чали
а фана
мало поль
важ кого
рів нин
ні жи
шкі ру
iv al
св 19
пле ного
клі ти
c la
вер шин
мат ві
3 29
за лік
риста но
j ul
не віль
одержа ла
обме жува
ди ких
бе лл
нець кого
но жем
ком пре
ви триму
pl at
за ча
мен ші
бене ди
тру п
зій них
nor th
ар м
ш три
скар би
шта дт
n d
пере пи
мета лі
ex tra
берди чів
стов бур
ми ша
са ли
пись ма
гео логі
бру но
єд нав
угор щині
а ве
ли чин
ві сь
розум ні
дональ д
ни ться
ту бер
бать ку
два дця
дія ча
ть мя
чі пля
бли ск
6 24
лі но
позива чі
колиш нім
кафе дрі
по бував
магази ни
да чі
нар де
5 03
зби ли
нс кий
заго тів
сь ю
пер м
бере ться
ада ма
цито пла
ж ками
висо кими
д рей
множи на
зміни ли
від анні
че ской
а дольф
нес прият
золо те
з бут
о кис
ва ну
77 7
то ни
пере си
при вели
ари ф
кампані ю
я д
мов чи
d ata
д рою
l p
аерод ром
са та
меди чна
чере в
с г
жан рі
5 08
на гір
щасли ва
dre am
ма дам
кон тен
ю вен
crip t
наяв ним
ті ка
ще ними
ed it
золо чів
о понен
х ове
ха ї
що сили
на нс
проси мо
труд ову
g all
ден ції
ах л
су с
гі лл
нау ці
ре ного
жорсто ко
не вого
жи вши
ку хар
кож ні
ліс ові
спіль ним
о після
ц р
шо стий
ic z
гаря чі
ви вів
ал фа
а ст
суд ячи
вож дь
4 23
ши року
ще плення
стю арт
набува ча
не врах
дже фф
пото чні
пере ніс
хи ми
учас ниця
недо бро
пі я
твор чої
h igh
терпі ти
реалі зує
ре мі
мен ший
вида тків
побачи ть
га дю
при тис
нащад ки
65 7
5 15
во доро
gr ess
фа са
спро б
плане ту
граду сів
з вати
ск вер
на ля
графі ку
теро р
крам ниці
я вся
ви голо
зе леним
ян ськ
un a
аргу мен
шта м
fo x
9 18
клу ж
ря дами
сумі ші
при яз
рад ы
візь ми
ха у
вес ною
фе кції
по думки
ба ка
5 11
при гадав
си метри
у га
b d
спі вала
баш ти
ар се
золо тим
ло гом
чолові че
зая вами
гіт лерів
вози ли
зу ючи
тися ча
люби ли
до сьє
посила нь
цс 18
від важ
ur s
аль ма
зали шок
у казу
філь тра
гла в
гри б
v es
са ви
ство рене
наук ову
сти ха
36 1
за ті
від були
обід у
па си
кід зе
пряму є
і п
тк ового
поль сько
зва ного
викли ку
стаді ону
се я
фо ну
довід кою
най ман
налі чує
дере вини
сх вали
спога дів
су лей
сад ку
ван ку
всту пає
футбол ці
коло ми
прила ди
по ці
за стре
ак там
r an
зва ної
при готу
пірене ї
en er
лови н
сау т
над вечір
лови ни
коле со
завою вав
володі ти
lon g
лу с
вол го
концер ну
ку ме
приту л
зе ме
бур ла
об єкт
знавчи й
з ована
сами ці
ме зо
рекла ма
гар мата
кли м
злов мис
дів чиною
жін ками
суттє ве
ste in
д роб
ви брати
гре блі
набра ла
номен кла
не біж
про заї
па ну
хо рун
ню вання
покуп ців
6 16
матери н
r it
ри лася
9 23
вець ка
ма жор
сучас ну
spe ct
лиси чан
мі щан
мото ро
7 60
за ліку
ге те
or ig
вог ня
поколі нь
дав ши
дода тків
жіно чих
нос ців
ос ло
ген штабу
is chen
деся ток
чуд ови
ic le
гу бами
по ня
bor der
які стю
17 95
ди віден
юна ка
гіт лер
ра ба
ви пив
со ціаліз
37 2
газ ів
соро чки
само й
рей си
сиді ння
в віч
та нець
ro t
вай т
аук ціон
c ult
бі гали
тк ові
покла ли
па че
чу єте
мов чить
губ енко
заста вою
с мок
турні рів
коло радо
прито ки
чи лись
не стор
галу зь
на силу
маршру ту
пі ла
синте зу
кня зі
st on
кс п
ty pe
в пали
icht e
5 07
аван с
к шта
бо жа
люд ська
вигра ти
18 37
див на
p el
39 7
лю кс
річ ні
то ми
чува вся
плі ч
нень ко
залу чити
д нр
кі сток
різ ним
в голос
ль ню
влас нику
ка ну
уро жай
i que
лен ґ
добри м
ко ту
міні а
олек са
домо г
дале ких
вене ції
віль ними
ано нім
галузя х
мі ть
ор джоні
озер і
ле я
ови ця
сто му
ціка вий
моду ль
понесе ні
гого ля
гру зія
тво ром
p on
афі ни
продов жу
напря мі
в є
так со
фа з
за чини
вер хи
45 8
кину лась
f un
кра щого
го нора
ду ра
настро ї
прави ть
tech n
х вір
ша пку
пові рити
18 25
re t
кра ща
зо ш
стрі т
всту пили
об дар
le g
вті ка
шлях тич
го п
сига ре
ло ну
am i
г ере
ав діїв
твори вся
9 20
36 2
li br
впев нено
л ово
політен у
mod el
ка тів
пере сели
пур пур
фс б
boe ing
гні ву
ґ уд
твоє му
мер щій
свід ка
вок за
на кладе
ли тера
про к
роз клада
мир не
льот чик
октя бр
боя ться
ор лан
за нять
воє води
сади ба
сто мато
куб ків
середні м
р ний
нес ло
на довго
ри лися
05 0
дід ь
т м
wh ite
яво рів
за тор
у бік
нез годи
борж нику
5 22
f ol
шах рай
спору ду
ци стер
stre et
a 2
ю велі
ку шні
воло гих
хто зна
регіо ни
уда ром
ну лося
зе ром
почу ттів
o th
вико п
11 18
підсум ки
фахів ець
при зупи
зна чне
каз ен
поже жу
побу ту
4 35
b ay
їв ки
пала ті
37 9
крем ля
б рах
ре них
росси и
ph p
при нести
гене а
облас них
блиска ви
ір жа
г нути
розши рю
геор г
air lines
я ними
вибра ні
за чар
нор т
пря мим
нер и
форму є
ци зму
мер тві
пере бив
ря дом
ти та
се п
щи ків
жува ній
son y
в горі
під ле
65 2
відь ма
су ли
су дити
про мін
тюр к
в двічі
біблі ї
д роз
му дрого
45 6
ша ри
подаль ша
на стя
ска й
за но
чи сте
ник ова
полта ви
ру син
ту ватися
хі мія
лав рен
ігр ова
ігр овий
ова ність
мови ми
4 24
r at
лі ків
співа чки
змо зі
мо лю
жи ру
добро люб
бід ь
широ кому
від пуска
er i
піз нього
o ch
l is
ш ком
га уз
18 52
станов лю
8 15
b es
ни ном
б но
пу шкін
гор ла
моли тва
5 46
да ри
гли м
неви раз
розпа ч
три май
черг ове
о же
ви ходило
перего ни
посла ння
секун ду
фелік с
мі єць
бо жого
жа нейро
сигна лу
є ву
ті то
с ких
2014 15
кон стату
віта льні
про ли
це мент
морфі зм
верх ні
мар кет
нада ючи
під би
се ю
шта бі
p ass
га рады
лід а
9 13
c ess
fe at
ку зова
пострі л
не ному
кон фіска
спі вають
пок рів
ба зою
історі о
три ва
8 20
домаш ніх
ши вши
викона ли
мер ку
6 28
пада ла
х л
стри ма
gre en
спо ло
рів ер
хімі чні
устан ові
гре цьких
в ре
ше л
вої на
ва лом
двор ових
від ня
оренд ну
z u
коле г
дода ні
во руши
вар та
ота мана
пі ни
p il
ме тью
наступ на
сказав ши
ання х
1941 1945
пе ке
можли ва
ду ється
до нині
тя х
компа ні
зня вся
є рів
ди кі
єр с
роз ці
три ста
сцена рі
по ран
тувати сь
пери фер
во дами
n on
с б
во сто
верши ні
з літ
за рего
соко лов
t es
бор н
66 7
бра ма
верто літ
ша к
fer r
воло дько
ре струк
са т
роз мах
баг ря
на тяг
періо дом
гали чина
де мі
18 17
субо ту
по друж
мпі й
m ir
на тра
спис ки
ки зи
ск ова
розу мом
бу цім
зав дати
ак б
форма ми
печа ткою
по кін
ші ться
кор ови
8 08
sch o
s em
до ціль
си вши
тро фе
зь кі
ві теб
помер лих
схи ли
до гляду
роз пізна
ува чем
vie w
з п
світ ову
38 3
69 2
тин ович
лікар ню
as soci
рос повід
тепл ову
зві ти
хімі чна
бо яз
кора бле
імен них
18 44
чі м
літа ти
га ю
пере в
гре м
4 22
в течі
техні к
боло то
заува жує
лів і
зоря на
бле ю
пла чу
спір ному
мере же
від ста
кі ля
гу ла
чорно мо
різд вя
міно мет
h is
хра мів
ту вало
ім порт
успі шні
ви ку
ди спе
під ніс
ор дер
ток ши
в юр
мо х
при строю
ге мо
mo vie
о ти
рів номір
вож дя
сте м
ме ня
би к
18 51
теля ми
ро ст
то нюк
18 42
не д
ви чі
пря мої
побачи мо
налі стів
з моги
ми рон
кон фе
склада ла
мг ц
по сти
валь ники
пома лу
визна чні
ря док
кі тт
підніж жя
ви ходом
ла зар
ки н
бар бара
залу чені
три надця
дер с
піс ен
ре ль
er e
заяв ку
кру гло
куяв сько
tr y
мюн хе
хоре о
ро я
же ній
фо лк
ж ністю
у ді
па ску
прий шло
органі зм
2015 16
вихід них
n t
ля лись
нав ми
кольо ром
по суд
фа сад
ні зму
гло бус
су п
z en
вив чає
ти лася
й шлося
ди кий
ба лет
вій ську
75 7
he ad
дорож ньо
ва чів
розігра ш
ци та
широ ким
ам була
ефе кти
i os
ос ід
ку ток
в ло
в бік
с виня
рит м
я ценко
ла гідно
ал жир
спла тою
зроб лю
ле ни
тарі о
княги ні
ви пити
анато лія
дов гу
методи ка
h im
адреса 3
шах та
вто ми
c ir
18 35
джим мі
ку зов
в мить
спі льна
пече ра
кшта лт
джен т
е ван
he art
ma in
сті лець
ж к
від нести
назва ні
зна чним
сена ту
єпар хі
мі ць
ce phal
узя ти
ро лей
amer ica
u v
гро с
ро до
над ба
пау лу
ри сти
астро нав
ви їхали
сан дру
плю є
стриб нув
вря тував
луї за
ре ра
ля ний
без вісти
слав ного
ві чна
37 3
аль фред
джен у
