{"[PAD]":0,"[UNK]":1,"[CLS]":2,"[SEP]":3,"[MASK]":4," ":5,"!":6,"\"":7,"'":8,"(":9,")":10,",":11,"-":12,".":13,"0":14,"1":15,"2":16,"3":17,"4":18,"5":19,"6":20,"7":21,"8":22,"9":23,"?":24,"a":25,"b":26,"c":27,"d":28,"e":29,"f":30,"g":31,"h":32,"i":33,"j":34,"k":35,"l":36,"m":37,"n":38,"o":39,"p":40,"q":41,"r":42,"s":43,"t":44,"u":45,"v":46,"w":47,"x":48,"y":49,"z":50,"̆":51,"̈":52,"а":53,"б":54,"в":55,"г":56,"д":57,"е":58,"ж":59,"з":60,"и":61,"й":62,"к":63,"л":64,"м":65,"н":66,"о":67,"п":68,"р":69,"с":70,"т":71,"у":72,"ф":73,"х":74,"ц":75,"ч":76,"ш":77,"щ":78,"ъ":79,"ы":80,"ь":81,"э":82,"ю":83,"я":84,"є":85,"і":86,"ї":87,"ґ":88,"ст":89,"на":90,"ов":91,"й":92,"ро":93,"ра":94,"но":95,"ни":96,"ко":97,"го":98,"ї":99,"ер":100,"по":101,"ні":102,"ід":103,"за":104,"ня":105,"ен":106,"ва":107,"ка":108,"та":109,"ви":110,"ти":111,"ла":112,"ри":113,"ль":114,"сь":115,"до":116,"ли":117,"ці":118,"ки":119,"не":120,"ів":121,"ма":122,"да":123,"во":124,"то":125,"мі":126,"ку":127,"ста":128,"су":129,"від":130,"ло":131,"ві":132,"ми":133,"лі":134,"ся":135,"ть":136,"про":137,"ди":138,"рі":139,"ре":140,"ля":141,"об":142,"ення":143,"ле":144,"мо":145,"ру":146,"ча":147,"ере":148,"му":149,"бу":150,"ді":151,"ну":152,"чи":153,"ння":154,"га":155,"20":156,"що":157,"ного":158,"при":159,"пра":160,"ду":161,"па":162,"те":163,"ту":164,"ово":165,"ова":166,"са":167,"сько":168,"кі":169,"бо":170,"ови":171,"де":172,"них":173,"сі":174,"кра":175,"19":176,"ба":177,"ний":178,"си":179,"ме":180,"ті":181,"пов":182,"роз":183,"пере":184,"ін":185,"під":186,"ого":187,"се":188,"ної":189,"краї":190,"стан":191,"сті":192,"пе":193,"сто":194,"це":195,"ши":196,"хо":197,"украї":198,"пі":199,"пи":200,"бі":201,"же":202,"цій":203,"зна":204,"че":205,"ться":206,"ос":207,"лу":208,"лю":209,"кий":210,"ор":211,"спо":212,"сти":213,"ве":214,"ського":215,"року":216,"жа":217,"кла":218,"ць":219,"со":220,"ції":221,"ків":222,"201":223,"жи":224,"як":225,"зи":226,"сть":227,"ува":228,"бе":229,"пер":230,"суд":231,"україни":232,"фі":233,"ові":234,"повід":235,"вер":236,"гі":237,"ше":238,"пу":239,"гу":240,"би":241,"ха":242,"нь":243,"ря":244,"ним":245,"ска":246,"мен":247,"дар":248,"тер":249,"200":250,"дж":251,"зі":252,"аль":253,"спра":254,"тра":255,"відповід":256,"од":257,"лення":258,"ється":259,"ський":260,"суду":261,"шення":262,"ської":263,"тя":264,"особ":265,"для":266,"вся":267,"ком":268,"вання":269,"госпо":270,"ову":271,"11":272,"ги":273,"ють":274,"він":275,"господар":276,"зу":277,"три":278,"гра":279,"ною":280,"його":281,"00":282,"зе":283,"кон":284,"зо":285,"ци":286,"йо":287,"рів":288,"ких":289,"ця":290,"сту":291,"ності":292,"без":293,"ній":294,"ша":295,"дів":296,"час":297,"сл":298,"сво":299,"ву":300,"ще":301,"ючи":302,"дер":303,"ень":304,"кри":305,"вико":306,"тів":307,"ке":308,"18":309,"ак":310,"гля":311,"кож":312,"ник":313,"10":314,"пла":315,"прав":316,"нов":317,"ном":318,"чу":319,"ська":320,"ними":321,"пре":322,"чо":323,"нк":324,"ства":325,"ність":326,"пр":327,"гово":328,"ному":329,"чі":330,"тив":331,"рішення":332,"які":333,"ан":334,"пів":335,"став":336,"ніст":337,"дій":338,"скла":339,"това":340,"сте":341,"або":342,"рах":343,"кре":344,"ню":345,"було":346,"вій":347,"дя":348,"вати":349,"обла":350,"шо":351,"ар":352,"тор":353,"er":354,"коли":355,"12":356,"ге":357,"сер":358,"каса":359,"держа":360,"із":361,"ство":362,"касацій":363,"ника":364,"ття":365,"гол":366,"нення":367,"їх":368,"кого":369,"фор":370,"перед":371,"нів":372,"ляцій":373,"але":374,"також":375,"кар":376,"пози":377,"вла":378,"апе":379,"хи":380,"том":381,"чення":382,"части":383,"дов":384,"скар":385,"жу":386,"зако":387,"май":388,"15":389,"дово":390,"хід":391,"міс":392,"був":393,"так":394,"чер":395,"in":396,"ція":397,"догово":398,"ових":399,"тро":400,"того":401,"станов":402,"an":403,"ші":404,"визна":405,"ман":406,"17":407,"мов":408,"слу":409,"особа":410,"яв":411,"інстан":412,"он":413,"змі":414,"тво":415,"віт":416,"ового":417,"кіль":418,"199":419,"дав":420,"лен":421,"ден":422,"фе":423,"викона":424,"мер":425,"постан":426,"спі":427,"лек":428,"дру":429,"наль":430,"вав":431,"16":432,"їв":433,"поз":434,"її":435,"ські":436,"ран":437,"ром":438,"най":439,"біль":440,"стат":441,"дження":442,"зь":443,"14":444,"піс":445,"тич":446,"держав":447,"слід":448,"щи":449,"ад":450,"вимо":451,"лів":452,"вели":453,"бра":454,"ким":455,"ніч":456,"ходи":457,"тися":458,"гро":459,"вали":460,"зав":461,"області":462,"гру":463,"13":464,"on":465,"право":466,"права":467,"ерез":468,"році":469,"над":470,"ar":471,"встанов":472,"род":473,"тре":474,"ав":475,"ове":476,"прий":477,"мож":478,"овий":479,"ування":480,"сере":481,"між":482,"дом":483,"україн":484,"насе":485,"ються":486,"шу":487,"має":488,"кої":489,"райо":490,"сила":491,"проце":492,"стави":493,"ських":494,"примі":495,"віль":496,"тки":497,"обов":498,"пар":499,"en":500,"який":501,"сла":502,"вши":503,"кою":504,"ального":505,"справі":506,"тр":507,"орга":508,"єм":509,"справи":510,"вона":511,"дія":512,"пода":513,"цю":514,"тов":515,"тому":516,"єю":517,"пору":518,"ження":519,"or":520,"роб":521,"місце":522,"росі":523,"мініст":524,"чем":525,"ової":526,"st":527,"ців":528,"ряд":529,"після":530,"лася":531,"розгля":532,"лися":533,"тері":534,"дні":535,"бор":536,"кому":537,"ван":538,"яз":539,"позива":540,"дійс":541,"нор":542,"ників":543,"сіб":544,"влас":545,"цен":546,"зали":547,"нього":548,"трима":549,"30":550,"стрі":551,"пред":552,"22":553,"гр":554,"al":555,"стя":556,"серед":557,"лено":558,"поча":559,"товари":560,"дин":561,"ща":562,"кін":563,"може":564,"статті":565,"полі":566,"вони":567,"стра":568,"були":569,"єв":570,"договору":571,"зем":572,"ньо":573,"бли":574,"ціо":575,"матері":576,"ович":577,"соб":578,"шої":579,"ших":580,"ху":581,"яза":582,"ок":583,"сторі":584,"at":585,"гід":586,"ступ":587,"задово":588,"лося":589,"станови":590,"хі":591,"років":592,"вар":593,"була":594,"бер":595,"ск":596,"25":597,"посила":598,"все":599,"ек":600,"всі":601,"раз":602,"зага":603,"жі":604,"коро":605,"торі":606,"тку":607,"щодо":608,"мар":609,"тери":610,"прави":611,"ген":612,"осіб":613,"ках":614,"блі":615,"нок":616,"відо":617,"фа":618,"воло":619,"21":620,"грн":621,"ськ":622,"198":623,"яка":624,"твер":625,"нова":626,"особи":627,"кан":628,"примітки":629,"стру":630,"нд":631,"чого":632,"вис":633,"ук":634,"цію":635,"шко":636,"логі":637,"ic":638,"дек":639,"ливо":640,"стро":641,"трі":642,"рист":643,"нале":644,"процесу":645,"вже":646,"фу":647,"сування":648,"es":649,"23":650,"26":651,"верх":652,"мель":653,"київ":654,"мене":655,"24":656,"повер":657,"194":658,"писа":659,"зазна":660,"пунк":661,"нада":662,"цього":663,"роди":664,"ii":665,"чин":666,"нув":667,"обстави":668,"єк":669,"пита":670,"шов":671,"спе":672,"нав":673,"різ":674,"тур":675,"ністю":676,"th":677,"поді":678,"мови":679,"ниц":680,"тк":681,"is":682,"пові":683,"ніх":684,"робо":685,"чних":686,"дже":687,"першої":688,"197":689,"мені":690,"ух":691,"яви":692,"льки":693,"кер":694,"щоб":695,"кор":696,"буд":697,"графі":698,"засто":699,"ками":700,"кодек":701,"прийня":702,"яких":703,"приєм":704,"пло":705,"ради":706,"літе":707,"ліз":708,"нами":709,"націо":710,"через":711,"важа":712,"лені":713,"пад":714,"овою":715,"зобов":716,"гор":717,"зас":718,"нії":719,"безпе":720,"2010":721,"див":722,"сторо":723,"гідно":724,"каза":725,"нку":726,"тим":727,"прова":728,"28":729,"нки":730,"здійс":731,"бага":732,"вимог":733,"ському":734,"якщо":735,"каз":736,"міністра":737,"27":738,"ch":739,"поряд":740,"згідно":741,"тру":742,"01":743,"вня":744,"ім":745,"підприєм":746,"сів":747,"бути":748,"сіль":749,"св":750,"чен":751,"сві":752,"тут":753,"дня":754,"ана":755,"км":756,"дво":757,"вид":758,"кодексу":759,"коман":760,"пня":761,"загаль":762,"бро":763,"пор":764,"вий":765,"військ":766,"форма":767,"фран":768,"тільки":769,"підста":770,"it":771,"коле":772,"04":773,"дії":774,"проти":775,"29":776,"росій":777,"тва":778,"пера":779,"дення":780,"розмі":781,"нія":782,"звер":783,"03":784,"196":785,"поль":786,"крі":787,"закону":788,"грома":789,"фо":790,"світ":791,"верхов":792,"роби":793,"складі":794,"ср":795,"ське":796,"захи":797,"лові":798,"виснов":799,"наз":800,"us":801,"тами":802,"05":803,"ники":804,"єї":805,"йому":806,"дна":807,"re":808,"позов":809,"ro":810,"06":811,"тех":812,"річ":813,"увати":814,"ській":815,"нні":816,"орен":817,"хар":818,"фак":819,"овір":820,"таш":821,"рун":822,"люди":823,"отрима":824,"енер":825,"відкри":826,"територі":827,"лік":828,"мага":829,"вала":830,"народ":831,"сут":832,"07":833,"земель":834,"зв":835,"свої":836,"нен":837,"спор":838,"жов":839,"2015":840,"чно":841,"09":842,"2016":843,"допо":844,"публі":845,"раху":846,"лише":847,"вір":848,"передба":849,"будів":850,"el":851,"сом":852,"представ":853,"уча":854,"голо":855,"дами":856,"історі":857,"вою":858,"креди":859,"ший":860,"лан":861,"суддів":862,"розташ":863,"пк":864,"іс":865,"зом":866,"пол":867,"чного":868,"голов":869,"органі":870,"бере":871,"чної":872,"діля":873,"кладе":874,"193":875,"само":876,"село":877,"вод":878,"міста":879,"08":880,"мова":881,"переда":882,"судом":883,"зви":884,"пис":885,"моло":886,"реє":887,"ником":888,"вважа":889,"чні":890,"банк":891,"бри":892,"льного":893,"бір":894,"шта":895,"ґрун":896,"пері":897,"свя":898,"кільки":899,"клю":900,"co":901,"ління":902,"куль":903,"гли":904,"чено":905,"ому":906,"чолові":907,"02":908,"ков":909,"там":910,"працю":911,"льно":912,"цер":913,"лом":914,"кова":915,"ухва":916,"джу":917,"носи":918,"ra":919,"мир":920,"кими":921,"ючись":922,"розу":923,"вере":924,"колегі":925,"тора":926,"вів":927,"сім":928,"рю":929,"чний":930,"льта":931,"195":932,"систе":933,"номі":934,"нс":935,"2017":936,"євро":937,"обі":938,"сон":939,"наві":940,"нець":941,"годи":942,"ниць":943,"поло":944,"ляга":945,"пада":946,"от":947,"гар":948,"шого":949,"важ":950,"дода":951,"одна":952,"пря":953,"ток":954,"2014":955,"стяг":956,"чор":957,"інших":958,"берез":959,"цивіль":960,"якого":961,"гре":962,"частини":963,"нням":964,"джере":965,"жит":966,"мати":967,"комі":968,"район":969,"доку":970,"служ":971,"скарги":972,"ян":973,"кола":974,"зай":975,"щі":976,"воро":977,"цей":978,"порядку":979,"чив":980,"поперед":981,"ріш":982,"скаргу":983,"тури":984,"пан":985,"учас":986,"норм":987,"особа1":988,"виконав":989,"день":990,"бува":991,"ом":992,"2018":993,"мін":994,"життя":995,"наук":996,"рік":997,"докумен":998,"чемпі":999,"ров":1000,"діяль":1001,"вида":1002,"зда":1003,"буде":1004,"управ":1005,"хто":1006,"дослід":1007,"основ":1008,"боро":1009,"обра":1010,"il":1011,"еко":1012,"31":1013,"залиши":1014,"дян":1015,"саме":1016,"клу":1017,"закон":1018,"она":1019,"елек":1020,"сша":1021,"кур":1022,"далі":1023,"квіт":1024,"лій":1025,"гри":1026,"тою":1027,"робі":1028,"авто":1029,"тім":1030,"зації":1031,"стар":1032,"2011":1033,"хай":1034,"енні":1035,"прове":1036,"більше":1037,"фер":1038,"фіна":1039,"ським":1040,"муні":1041,"мор":1042,"ача":1043,"the":1044,"сли":1045,"ват":1046,"листо":1047,"овому":1048,"гою":1049,"ско":1050,"оскільки":1051,"2019":1052,"обме":1053,"ципа":1054,"жовт":1055,"компа":1056,"бать":1057,"пли":1058,"киє":1059,"тоді":1060,"рення":1061,"чай":1062,"розгляду":1063,"усі":1064,"матеріа":1065,"ган":1066,"інформа":1067,"значення":1068,"коло":1069,"нер":1070,"фон":1071,"тин":1072,"філь":1073,"оці":1074,"два":1075,"сього":1076,"мон":1077,"нути":1078,"гом":1079,"тан":1080,"забезпе":1081,"резу":1082,"здо":1083,"ований":1084,"олек":1085,"цьому":1086,"рій":1087,"35":1088,"результа":1089,"шля":1090,"зво":1091,"тен":1092,"той":1093,"яс":1094,"гів":1095,"муніципа":1096,"вироб":1097,"ську":1098,"le":1099,"ходить":1100,"тей":1101,"мав":1102,"північ":1103,"наступ":1104,"язку":1105,"зя":1106,"сай":1107,"струк":1108,"2008":1109,"рід":1110,"2006":1111,"am":1112,"овим":1113,"ніше":1114,"відсут":1115,"тар":1116,"справ":1117,"верес":1118,"офі":1119,"мат":1120,"плати":1121,"допомо":1122,"змін":1123,"2007":1124,"необ":1125,"смі":1126,"січ":1127,"ене":1128,"тура":1129,"висо":1130,"сам":1131,"as":1132,"клад":1133,"доро":1134,"єдна":1135,"нах":1136,"випад":1137,"себе":1138,"льний":1139,"ох":1140,"оскар":1141,"мери":1142,"позивача":1143,"крема":1144,"лений":1145,"чна":1146,"щення":1147,"остан":1148,"сю":1149,"лей":1150,"один":1151,"пам":1152,"стю":1153,"100":1154,"майна":1155,"ol":1156,"un":1157,"ціаль":1158,"нувся":1159,"можна":1160,"стер":1161,"34":1162,"пров":1163,"тек":1164,"захід":1165,"ував":1166,"уні":1167,"пала":1168,"пев":1169,"овано":1170,"чає":1171,"кош":1172,"вого":1173,"50":1174,"стр":1175,"захо":1176,"разом":1177,"законо":1178,"опера":1179,"німе":1180,"тих":1181,"березня":1182,"джерела":1183,"чини":1184,"підстав":1185,"зокрема":1186,"цією":1187,"нову":1188,"належ":1189,"робіт":1190,"охо":1191,"2020":1192,"2009":1193,"підставі":1194,"кли":1195,"навіть":1196,"вих":1197,"чина":1198,"запо":1199,"голову":1200,"нес":1201,"зер":1202,"онер":1203,"графія":1204,"інші":1205,"пара":1206,"et":1207,"слав":1208,"36":1209,"дуже":1210,"алі":1211,"дей":1212,"мають":1213,"багато":1214,"парті":1215,"тий":1216,"кори":1217,"ново":1218,"наяв":1219,"тні":1220,"id":1221,"гла":1222,"наслід":1223,"регі":1224,"підляга":1225,"обставин":1226,"санд":1227,"зов":1228,"част":1229,"теле":1230,"38":1231,"єн":1232,"бю":1233,"дог":1234,"бур":1235,"шли":1236,"тере":1237,"риста":1238,"ion":1239,"сою":1240,"тон":1241,"реш":1242,"ht":1243,"можу":1244,"лін":1245,"визнання":1246,"закін":1247,"пови":1248,"спро":1249,"нас":1250,"жень":1251,"своє":1252,"одно":1253,"док":1254,"льних":1255,"тепер":1256,"рак":1257,"окру":1258,"ал":1259,"півден":1260,"схід":1261,"спи":1262,"лених":1263,"лись":1264,"смер":1265,"економі":1266,"кій":1267,"стій":1268,"міся":1269,"звичай":1270,"ництво":1271,"iv":1272,"амери":1273,"припи":1274,"мент":1275,"екс":1276,"вік":1277,"судами":1278,"ливі":1279,"рія":1280,"частині":1281,"лер":1282,"2013":1283,"складу":1284,"вимоги":1285,"ою":1286,"чів":1287,"чином":1288,"нові":1289,"ac":1290,"літера":1291,"доб":1292,"чених":1293,"микола":1294,"рон":1295,"склад":1296,"льної":1297,"000":1298,"щий":1299,"грудня":1300,"дування":1301,"договір":1302,"істо":1303,"використ":1304,"мії":1305,"підтвер":1306,"ститу":1307,"of":1308,"ниця":1309,"вказа":1310,"ємо":1311,"проте":1312,"будь":1313,"україні":1314,"лась":1315,"тем":1316,"корист":1317,"ціонер":1318,"нального":1319,"жовтня":1320,"висту":1321,"гер":1322,"рей":1323,"потім":1324,"січня":1325,"жника":1326,"збір":1327,"проси":1328,"ed":1329,"вересня":1330,"пав":1331,"необхід":1332,"питання":1333,"свою":1334,"чені":1335,"ніж":1336,"ur":1337,"харків":1338,"кни":1339,"обґрун":1340,"мет":1341,"здійсню":1342,"спір":1343,"веде":1344,"разі":1345,"гій":1346,"законом":1347,"and":1348,"близь":1349,"району":1350,"тах":1351,"комп":1352,"поса":1353,"участь":1354,"37":1355,"льні":1356,"вули":1357,"універ":1358,"прода":1359,"нам":1360,"свід":1361,"біло":1362,"ква":1363,"вчи":1364,"шла":1365,"мак":1366,"2012":1367,"шим":1368,"хом":1369,"оде":1370,"чки":1371,"зале":1372,"чис":1373,"відомо":1374,"65":1375,"липня":1376,"кло":1377,"овом":1378,"юри":1379,"бира":1380,"крім":1381,"спів":1382,"червня":1383,"бар":1384,"цу":1385,"історія":1386,"дра":1387,"слова":1388,"друго":1389,"ково":1390,"сій":1391,"обмеже":1392,"розви":1393,"тран":1394,"40":1395,"травня":1396,"ia":1397,"послу":1398,"тету":1399,"ництва":1400,"адре":1401,"фізи":1402,"ску":1403,"акціонер":1404,"одного":1405,"свого":1406,"ською":1407,"тю":1408,"лось":1409,"квітня":1410,"меш":1411,"своїх":1412,"лег":1413,"нити":1414,"пле":1415,"обо":1416,"бан":1417,"бачи":1418,"енко":1419,"регіо":1420,"мку":1421,"львів":1422,"демо":1423,"цем":1424,"повнова":1425,"існу":1426,"продов":1427,"чемпіона":1428,"яке":1429,"клі":1430,"землі":1431,"місто":1432,"кції":1433,"ниці":1434,"лії":1435,"хви":1436,"тних":1437,"дь":1438,"швид":1439,"війни":1440,"чому":1441,"чаль":1442,"петр":1443,"язання":1444,"дон":1445,"електро":1446,"витра":1447,"відді":1448,"олександ":1449,"тивного":1450,"кілька":1451,"сказав":1452,"дою":1453,"лютого":1454,"протя":1455,"висновку":1456,"серпня":1457,"зустрі":1458,"розумі":1459,"хе":1460,"ца":1461,"спору":1462,"менту":1463,"ат":1464,"збро":1465,"рна":1466,"овані":1467,"чка":1468,"яку":1469,"op":1470,"сії":1471,"de":1472,"зго":1473,"жува":1474,"людей":1475,"таким":1476,"засід":1477,"прово":1478,"літ":1479,"гене":1480,"39":1481,"45":1482,"таких":1483,"роки":1484,"повідом":1485,"la":1486,"пису":1487,"ньому":1488,"тбо":1489,"можуть":1490,"інтере":1491,"раді":1492,"нка":1493,"неї":1494,"грав":1495,"біля":1496,"дина":1497,"заліз":1498,"мало":1499,"собі":1500,"кам":1501,"ліс":1502,"син":1503,"пат":1504,"кість":1505,"ована":1506,"лена":1507,"схо":1508,"жить":1509,"судового":1510,"розді":1511,"дніпро":1512,"умов":1513,"ляє":1514,"льна":1515,"мір":1516,"склада":1517,"мета":1518,"чне":1519,"доказ":1520,"позивач":1521,"гір":1522,"говори":1523,"заяв":1524,"більш":1525,"цк":1526,"рії":1527,"навча":1528,"сан":1529,"куп":1530,"сум":1531,"підписа":1532,"універси":1533,"васи":1534,"моск":1535,"гляду":1536,"судді":1537,"2005":1538,"знову":1539,"форму":1540,"64":1541,"профе":1542,"прези":1543,"радян":1544,"ходя":1545,"протягом":1546,"піз":1547,"футбо":1548,"такі":1549,"рес":1550,"пусти":1551,"переві":1552,"яким":1553,"нє":1554,"кру":1555,"наро":1556,"вець":1557,"чений":1558,"однак":1559,"наго":1560,"казу":1561,"іван":1562,"клада":1563,"міжнарод":1564,"чої":1565,"володи":1566,"лою":1567,"позовом":1568,"тка":1569,"києва":1570,"центра":1571,"нім":1572,"поста":1573,"дове":1574,"будин":1575,"сувати":1576,"альністю":1577,"їз":1578,"фактич":1579,"можливо":1580,"приват":1581,"дві":1582,"жах":1583,"треба":1584,"рек":1585,"33":1586,"врах":1587,"сід":1588,"доводи":1589,"вирі":1590,"триму":1591,"гова":1592,"роботи":1593,"сили":1594,"юриди":1595,"роках":1596,"стри":1597,"зая":1598,"ing":1599,"справа":1600,"близько":1601,"утво":1602,"бла":1603,"сно":1604,"ньої":1605,"um":1606,"якої":1607,"колегія":1608,"транспор":1609,"2004":1610,"мали":1611,"американ":1612,"збо":1613,"світу":1614,"ій":1615,"75":1616,"кана":1617,"призна":1618,"втра":1619,"гпк":1620,"джа":1621,"жін":1622,"48":1623,"стей":1624,"сели":1625,"ленні":1626,"офіцій":1627,"60":1628,"звіль":1629,"2002":1630,"віда":1631,"тування":1632,"просто":1633,"якому":1634,"вище":1635,"78":1636,"зроби":1637,"рішенням":1638,"новий":1639,"черво":1640,"tp":1641,"вищо":1642,"керів":1643,"дити":1644,"позову":1645,"всіх":1646,"ством":1647,"пого":1648,"очі":1649,"цький":1650,"села":1651,"харак":1652,"лід":1653,"суддя":1654,"золо":1655,"вищий":1656,"віта":1657,"хло":1658,"тно":1659,"пив":1660,"цим":1661,"двох":1662,"пись":1663,"шими":1664,"овими":1665,"реєстра":1666,"буду":1667,"частина":1668,"додатк":1669,"люб":1670,"мів":1671,"окре":1672,"залеж":1673,"станом":1674,"місті":1675,"разу":1676,"їй":1677,"лія":1678,"im":1679,"кня":1680,"програ":1681,"чим":1682,"ач":1683,"укладе":1684,"іва":1685,"музи":1686,"худо":1687,"вен":1688,"чається":1689,"тного":1690,"http":1691,"проду":1692,"знай":1693,"назва":1694,"президен":1695,"сен":1696,"рок":1697,"жива":1698,"фіка":1699,"щу":1700,"49":1701,"строк":1702,"заяви":1703,"якій":1704,"поря":1705,"зни":1706,"дола":1707,"сезо":1708,"анд":1709,"генера":1710,"тний":1711,"ent":1712,"техніч":1713,"встанови":1714,"вклю":1715,"рада":1716,"сні":1717,"лов":1718,"сія":1719,"мала":1720,"суб":1721,"період":1722,"зміни":1723,"підлягає":1724,"їм":1725,"сторін":1726,"сок":1727,"нувши":1728,"ut":1729,"bo":1730,"біо":1731,"ака":1732,"їха":1733,"залишити":1734,"цієї":1735,"дозво":1736,"розподі":1737,"кти":1738,"організа":1739,"2021":1740,"колиш":1741,"донець":1742,"реда":1743,"пора":1744,"диви":1745,"деся":1746,"гео":1747,"вул":1748,"тій":1749,"сері":1750,"бто":1751,"селі":1752,"запорі":1753,"пен":1754,"хів":1755,"боржника":1756,"готов":1757,"цького":1758,"нула":1759,"ір":1760,"початку":1761,"32":1762,"жив":1763,"петров":1764,"стані":1765,"ріб":1766,"міні":1767,"доказів":1768,"дере":1769,"дати":1770,"люд":1771,"кові":1772,"суди":1773,"2000":1774,"голова":1775,"нови":1776,"тори":1777,"оренди":1778,"помі":1779,"особа2":1780,"55":1781,"діа":1782,"поки":1783,"тків":1784,"46":1785,"кав":1786,"михай":1787,"вався":1788,"капі":1789,"вда":1790,"часу":1791,"анг":1792,"тель":1793,"режи":1794,"чий":1795,"проку":1796,"подіб":1797,"сами":1798,"замі":1799,"тай":1800,"податк":1801,"стів":1802,"нського":1803,"банкру":1804,"ванта":1805,"кості":1806,"бле":1807,"правиль":1808,"тебе":1809,"чити":1810,"проек":1811,"тав":1812,"99":1813,"рами":1814,"ляр":1815,"міг":1816,"ували":1817,"ie":1818,"торів":1819,"кара":1820,"ючий":1821,"цих":1822,"com":1823,"грош":1824,"команди":1825,"недо":1826,"влади":1827,"нар":1828,"повіт":1829,"пей":1830,"корот":1831,"кс":1832,"зії":1833,"газ":1834,"керу":1835,"2001":1836,"районі":1837,"єр":1838,"числі":1839,"нічого":1840,"шев":1841,"66":1842,"80":1843,"тє":1844,"зму":1845,"віці":1846,"завда":1847,"перший":1848,"мас":1849,"республі":1850,"хво":1851,"недійс":1852,"іга":1853,"валь":1854,"ель":1855,"пункту":1856,"рішень":1857,"єш":1858,"столі":1859,"мій":1860,"ad":1861,"заги":1862,"майно":1863,"єди":1864,"води":1865,"47":1866,"нальної":1867,"розмірі":1868,"істори":1869,"напри":1870,"iii":1871,"контро":1872,"хре":1873,"дося":1874,"to":1875,"уже":1876,"чну":1877,"ig":1878,"судових":1879,"зараз":1880,"ag":1881,"вим":1882,"рони":1883,"лля":1884,"пля":1885,"ділянки":1886,"кора":1887,"лок":1888,"воє":1889,"щось":1890,"належа":1891,"поза":1892,"оди":1893,"тобто":1894,"політич":1895,"природ":1896,"гур":1897,"страх":1898,"комплек":1899,"відмови":1900,"зга":1901,"давства":1902,"вас":1903,"lo":1904,"затвер":1905,"народи":1906,"мою":1907,"тарі":1908,"кази":1909,"ят":1910,"рахунок":1911,"чих":1912,"дан":1913,"забор":1914,"сайті":1915,"лин":1916,"бороть":1917,"функ":1918,"поши":1919,"сьогодні":1920,"бом":1921,"тором":1922,"ліквіда":1923,"шено":1924,"рен":1925,"44":1926,"вищого":1927,"льо":1928,"знаходи":1929,"житл":1930,"чя":1931,"сучас":1932,"кро":1933,"таке":1934,"стату":1935,"зві":1936,"ціа":1937,"уванням":1938,"зло":1939,"україна":1940,"маши":1941,"інтер":1942,"ючого":1943,"прин":1944,"центр":1945,"ухо":1946,"зупи":1947,"перше":1948,"ліку":1949,"гії":1950,"область":1951,"сим":1952,"колегії":1953,"мисте":1954,"ap":1955,"2003":1956,"ir":1957,"межах":1958,"особливо":1959,"найкра":1960,"поля":1961,"шою":1962,"актив":1963,"чоти":1964,"судовому":1965,"наслідок":1966,"вну":1967,"вої":1968,"квар":1969,"регу":1970,"сло":1971,"член":1972,"бой":1973,"хоч":1974,"нено":1975,"ul":1976,"архі":1977,"кримі":1978,"рр":1979,"віс":1980,"вияв":1981,"громад":1982,"нею":1983,"ськими":1984,"сторони":1985,"треть":1986,"нули":1987,"оку":1988,"щею":1989,"вигля":1990,"чить":1991,"аж":1992,"стоя":1993,"імені":1994,"тись":1995,"коза":1996,"тяг":1997,"ун":1998,"85":1999,"акаде":2000,"бив":2001,"часто":2002,"ниж":2003,"дирек":2004,"надання":2005,"умова":2006,"частиною":2007,"нерухо":2008,"ливість":2009,"никами":2010,"судові":2011,"міської":2012,"чува":2013,"відноси":2014,"засоб":2015,"йте":2016,"озна":2017,"ne":2018,"спеціаль":2019,"сказа":2020,"вин":2021,"мна":2022,"нового":2023,"мія":2024,"рам":2025,"плю":2026,"шому":2027,"70":2028,"стати":2029,"іде":2030,"експер":2031,"теж":2032,"олі":2033,"майже":2034,"ата":2035,"поте":2036,"худож":2037,"гай":2038,"спіль":2039,"матич":2040,"розгляд":2041,"усіх":2042,"перемо":2043,"чле":2044,"бою":2045,"тет":2046,"старо":2047,"сов":2048,"росії":2049,"овуючи":2050,"ось":2051,"норма":2052,"1998":2053,"рем":2054,"стом":2055,"інститу":2056,"дітей":2057,"взя":2058,"no":2059,"геро":2060,"новлення":2061,"іта":2062,"впли":2063,"43":2064,"хова":2065,"кіно":2066,"вважає":2067,"дум":2068,"цями":2069,"компанія":2070,"жений":2071,"площею":2072,"журна":2073,"несе":2074,"теа":2075,"служби":2076,"помер":2077,"викладе":2078,"ватися":2079,"стала":2080,"соціаль":2081,"тео":2082,"такий":2083,"тобі":2084,"em":2085,"суму":2086,"літа":2087,"держави":2088,"ведення":2089,"бай":2090,"завер":2091,"другої":2092,"76":2093,"рівня":2094,"анні":2095,"європей":2096,"ьох":2097,"лень":2098,"sp":2099,"урах":2100,"почина":2101,"свій":2102,"мотив":2103,"міністер":2104,"почав":2105,"номер":2106,"пута":2107,"слов":2108,"овід":2109,"мере":2110,"дю":2111,"залиша":2112,"отже":2113,"шляхом":2114,"ває":2115,"лич":2116,"добре":2117,"ачем":2118,"шив":2119,"тріш":2120,"ww":2121,"спад":2122,"тис":2123,"ристання":2124,"іншими":2125,"лами":2126,"такого":2127,"нг":2128,"нази":2129,"меді":2130,"посе":2131,"меди":2132,"дера":2133,"90":2134,"збере":2135,"одні":2136,"95":2137,"ллі":2138,"хоча":2139,"кв":2140,"позовних":2141,"випу":2142,"ченко":2143,"слуха":2144,"місти":2145,"судів":2146,"ухвалою":2147,"облас":2148,"спа":2149,"om":2150,"мето":2151,"знав":2152,"мані":2153,"спла":2154,"автом":2155,"мистец":2156,"ходив":2157,"вам":2158,"ств":2159,"мий":2160,"хлоп":2161,"автомобі":2162,"чину":2163,"1999":2164,"ночі":2165,"срср":2166,"францу":2167,"укла":2168,"викону":2169,"проми":2170,"клуб":2171,"дружи":2172,"внутріш":2173,"прото":2174,"ованих":2175,"оста":2176,"століття":2177,"фек":2178,"чок":2179,"дри":2180,"ніби":2181,"даними":2182,"хер":2183,"цар":2184,"послуг":2185,"чним":2186,"пояс":2187,"мого":2188,"обся":2189,"лив":2190,"бут":2191,"справу":2192,"тики":2193,"ката":2194,"рою":2195,"іно":2196,"піль":2197,"зверну":2198,"церк":2199,"правовід":2200,"дові":2201,"людини":2202,"пп":2203,"пое":2204,"понад":2205,"кол":2206,"ter":2207,"58":2208,"ски":2209,"розроб":2210,"вало":2211,"мах":2212,"фонду":2213,"прожи":2214,"ней":2215,"довго":2216,"відмов":2217,"тості":2218,"василь":2219,"чку":2220,"логії":2221,"форм":2222,"шки":2223,"системи":2224,"жди":2225,"закри":2226,"праців":2227,"бід":2228,"докази":2229,"тної":2230,"франції":2231,"коштів":2232,"місця":2233,"дає":2234,"нан":2235,"наче":2236,"стали":2237,"ходження":2238,"днів":2239,"68":2240,"тої":2241,"турні":2242,"te":2243,"бен":2244,"напря":2245,"сил":2246,"фінанс":2247,"твор":2248,"росія":2249,"нев":2250,"поро":2251,"належить":2252,"незалеж":2253,"сив":2254,"замов":2255,"будинку":2256,"запа":2257,"рас":2258,"гал":2259,"os":2260,"список":2261,"град":2262,"98":2263,"нський":2264,"потрі":2265,"фра":2266,"цька":2267,"сп":2268,"ніш":2269,"воно":2270,"ять":2271,"депута":2272,"ченого":2273,"нове":2274,"варті":2275,"лювання":2276,"історії":2277,"ухвалу":2278,"іпоте":2279,"сор":2280,"собою":2281,"музе":2282,"вимога":2283,"цпк":2284,"щини":2285,"буди":2286,"виник":2287,"запере":2288,"ation":2289,"42":2290,"вед":2291,"дах":2292,"галу":2293,"гори":2294,"завжди":2295,"парта":2296,"повітря":2297,"кати":2298,"зір":2299,"техні":2300,"голови":2301,"мпі":2302,"казав":2303,"аб":2304,"ist":2305,"перей":2306,"аф":2307,"торг":2308,"нив":2309,"іншого":2310,"овується":2311,"пова":2312,"джується":2313,"витрат":2314,"намага":2315,"мом":2316,"збер":2317,"рим":2318,"рад":2319,"банку":2320,"отримав":2321,"гий":2322,"вести":2323,"77":2324,"чук":2325,"осві":2326,"поми":2327,"ph":2328,"перебу":2329,"розраху":2330,"зок":2331,"умови":2332,"черні":2333,"країни":2334,"захисту":2335,"міст":2336,"пом":2337,"укр":2338,"мову":2339,"гна":2340,"лон":2341,"воєвод":2342,"трохи":2343,"секре":2344,"чання":2345,"реч":2346,"почу":2347,"єднання":2348,"цької":2349,"французь":2350,"заступ":2351,"конкур":2352,"диві":2353,"оване":2354,"дані":2355,"постій":2356,"медіана":2357,"просить":2358,"куб":2359,"зву":2360,"установ":2361,"пога":2362,"под":2363,"льйо":2364,"відбу":2365,"частково":2366,"аві":2367,"стаття":2368,"ліст":2369,"дале":2370,"запорізь":2371,"началь":2372,"продажу":2373,"плу":2374,"волю":2375,"гні":2376,"пізніше":2377,"направ":2378,"жити":2379,"входить":2380,"лий":2381,"плат":2382,"бель":2383,"зби":2384,"огляду":2385,"41":2386,"чена":2387,"праці":2388,"прокуро":2389,"користь":2390,"створе":2391,"широ":2392,"ходу":2393,"лян":2394,"лих":2395,"61":2396,"одним":2397,"здоров":2398,"чар":2399,"купів":2400,"97":2401,"холо":2402,"нальний":2403,"написа":2404,"овій":2405,"цін":2406,"пункт":2407,"досяг":2408,"граф":2409,"ає":2410,"жен":2411,"немає":2412,"відчу":2413,"vi":2414,"ціка":2415,"тував":2416,"строку":2417,"повно":2418,"оми":2419,"дор":2420,"чною":2421,"розвитку":2422,"федера":2423,"грі":2424,"випадку":2425,"зня":2426,"od":2427,"прийма":2428,"відно":2429,"шість":2430,"бачив":2431,"нью":2432,"німеч":2433,"департа":2434,"мл":2435,"67":2436,"город":2437,"слово":2438,"перегля":2439,"воду":2440,"облич":2441,"спри":2442,"лл":2443,"пропо":2444,"тею":2445,"наведе":2446,"пробле":2447,"спек":2448,"техно":2449,"бру":2450,"своєї":2451,"ур":2452,"фло":2453,"біблі":2454,"лем":2455,"мешка":2456,"валися":2457,"чили":2458,"перебува":2459,"працював":2460,"своїм":2461,"пари":2462,"капіта":2463,"88":2464,"63":2465,"тна":2466,"роль":2467,"57":2468,"вами":2469,"тіла":2470,"захис":2471,"справді":2472,"ers":2473,"предме":2474,"доведе":2475,"статтею":2476,"лікар":2477,"ус":2478,"остр":2479,"тивний":2480,"сумі":2481,"сур":2482,"стало":2483,"ост":2484,"брав":2485,"сусід":2486,"збира":2487,"ої":2488,"трак":2489,"for":2490,"плі":2491,"сона":2492,"партії":2493,"марі":2494,"нау":2495,"рив":2496,"відшко":2497,"погля":2498,"ae":2499,"виклю":2500,"стві":2501,"метою":2502,"жите":2503,"ніколи":2504,"лки":2505,"наф":2506,"жя":2507,"см":2508,"нез":2509,"скарга":2510,"нування":2511,"моде":2512,"зор":2513,"жан":2514,"анти":2515,"рай":2516,"бори":2517,"раніше":2518,"тивно":2519,"олімпі":2520,"зайня":2521,"ційний":2522,"чита":2523,"зовсім":2524,"леного":2525,"сить":2526,"постав":2527,"хоче":2528,"армії":2529,"нуло":2530,"ab":2531,"уго":2532,"лах":2533,"жінок":2534,"нових":2535,"зне":2536,"чоловік":2537,"групи":2538,"різних":2539,"зміст":2540,"торгів":2541,"літет":2542,"ання":2543,"рин":2544,"така":2545,"бок":2546,"іі":2547,"59":2548,"ine":2549,"ub":2550,"дома":2551,"характер":2552,"володі":2553,"69":2554,"бій":2555,"потріб":2556,"конститу":2557,"метрів":2558,"мм":2559,"bn":2560,"япо":2561,"суми":2562,"фото":2563,"еле":2564,"комітету":2565,"бажа":2566,"тера":2567,"ляється":2568,"завод":2569,"весь":2570,"доларів":2571,"фільм":2572,"ot":2573,"зберіга":2574,"se":2575,"реа":2576,"реалі":2577,"бог":2578,"туа":2579,"трав":2580,"кварти":2581,"мих":2582,"усе":2583,"дми":2584,"чав":2585,"тимчас":2586,"решті":2587,"самов":2588,"успі":2589,"ційного":2590,"нува":2591,"геть":2592,"меха":2593,"менем":2594,"оголо":2595,"sh":2596,"сах":2597,"овив":2598,"підстави":2599,"продук":2600,"куди":2601,"вай":2602,"момент":2603,"ході":2604,"повів":2605,"раке":2606,"несення":2607,"повідоми":2608,"застос":2609,"мей":2610,"згодом":2611,"великий":2612,"ленню":2613,"повністю":2614,"викли":2615,"пото":2616,"архітек":2617,"нику":2618,"норми":2619,"бав":2620,"повіту":2621,"яр":2622,"мона":2623,"тство":2624,"хов":2625,"роботу":2626,"ованого":2627,"авіа":2628,"тощо":2629,"гло":2630,"овують":2631,"зобра":2632,"транс":2633,"сей":2634,"оцінки":2635,"ланд":2636,"жного":2637,"росли":2638,"фір":2639,"хри":2640,"дійшов":2641,"pr":2642,"пота":2643,"єктів":2644,"руки":2645,"лює":2646,"довжи":2647,"62":2648,"жжя":2649,"жні":2650,"письмен":2651,"війська":2652,"ам":2653,"середня":2654,"смерті":2655,"мовою":2656,"коп":2657,"ігор":2658,"ухвали":2659,"вог":2660,"пуска":2661,"сол":2662,"вигу":2663,"задоволь":2664,"пру":2665,"світі":2666,"перші":2667,"оте":2668,"пси":2669,"ce":2670,"королів":2671,"одер":2672,"сайт":2673,"середи":2674,"мок":2675,"вба":2676,"водо":2677,"потре":2678,"жіно":2679,"вз":2680,"сфер":2681,"54":2682,"кабі":2683,"відзна":2684,"сергій":2685,"isbn":2686,"роман":2687,"овує":2688,"ma":2689,"довід":2690,"трьох":2691,"og":2692,"реєстр":2693,"підтри":2694,"поверх":2695,"розі":2696,"адреса":2697,"велика":2698,"колек":2699,"жер":2700,"лка":2701,"заборо":2702,"єкт":2703,"таки":2704,"служб":2705,"голос":2706,"громадян":2707,"рити":2708,"пунктом":2709,"види":2710,"дід":2711,"група":2712,"стану":2713,"тним":2714,"кате":2715,"li":2716,"побачи":2717,"чному":2718,"звід":2719,"хімі":2720,"крим":2721,"вшись":2722,"бюдже":2723,"1997":2724,"одну":2725,"пити":2726,"гаран":2727,"вулиця":2728,"1996":2729,"гон":2730,"питань":2731,"ефек":2732,"вияви":2733,"колі":2734,"сплати":2735,"ори":2736,"зів":2737,"електри":2738,"дис":2739,"1990":2740,"іменем":2741,"єте":2742,"тс":2743,"одне":2744,"79":2745,"арти":2746,"будинок":2747,"споді":2748,"залу":2749,"дам":2750,"ct":2751,"кінці":2752,"прой":2753,"брати":2754,"рін":2755,"ото":2756,"кг":2757,"чатку":2758,"слуг":2759,"ційних":2760,"команду":2761,"дене":2762,"di":2763,"зій":2764,"ходять":2765,"рап":2766,"даних":2767,"двер":2768,"всього":2769,"шка":2770,"зро":2771,"часом":2772,"поту":2773,"52":2774,"сель":2775,"da":2776,"передачі":2777,"мешкан":2778,"сс":2779,"шве":2780,"ходів":2781,"ua":2782,"глу":2783,"позиції":2784,"ційної":2785,"форми":2786,"тві":2787,"києві":2788,"білору":2789,"гали":2790,"особі":2791,"бре":2792,"подання":2793,"рішенні":2794,"ае":2795,"зно":2796,"рий":2797,"польщі":2798,"вають":2799,"автор":2800,"подаль":2801,"охоро":2802,"бло":2803,"конструк":2804,"волі":2805,"пове":2806,"оби":2807,"спочатку":2808,"лювати":2809,"обличчя":2810,"добро":2811,"енерго":2812,"ряду":2813,"чере":2814,"чес":2815,"клубу":2816,"пили":2817,"херсон":2818,"me":2819,"єра":2820,"йм":2821,"ны":2822,"культури":2823,"шенням":2824,"перша":2825,"альних":2826,"вартість":2827,"імпері":2828,"санк":2829,"віде":2830,"зм":2831,"ях":2832,"тика":2833,"деякі":2834,"батько":2835,"скас":2836,"1991":2837,"процеду":2838,"56":2839,"боку":2840,"нині":2841,"чотири":2842,"ніс":2843,"органів":2844,"погоди":2845,"посеред":2846,"дро":2847,"найбіль":2848,"роду":2849,"пали":2850,"53":2851,"кімна":2852,"відомі":2853,"школи":2854,"89":2855,"підготов":2856,"свобо":2857,"питав":2858,"край":2859,"1992":2860,"вив":2861,"купівлі":2862,"партій":2863,"сце":2864,"ленням":2865,"молод":2866,"жник":2867,"ані":2868,"кала":2869,"дому":2870,"надця":2871,"калі":2872,"сек":2873,"якими":2874,"стосу":2875,"sk":2876,"змага":2877,"ніхто":2878,"do":2879,"руму":2880,"хмель":2881,"нотарі":2882,"низ":2883,"якою":2884,"великої":2885,"нені":2886,"єд":2887,"паль":2888,"моменту":2889,"приз":2890,"нет":2891,"енергії":2892,"газу":2893,"супере":2894,"ix":2895,"міну":2896,"уповнова":2897,"попу":2898,"захист":2899,"чує":2900,"тв":2901,"51":2902,"філо":2903,"самовря":2904,"розмір":2905,"кає":2906,"доповід":2907,"яти":2908,"стає":2909,"art":2910,"життє":2911,"300":2912,"підрозді":2913,"німець":2914,"вич":2915,"штра":2916,"належним":2917,"нений":2918,"тивних":2919,"дата":2920,"тувати":2921,"органу":2922,"нена":2923,"2022":2924,"земле":2925,"кр":2926,"кажу":2927,"яко":2928,"бр":2929,"1995":2930,"андрій":2931,"кали":2932,"ай":2933,"повин":2934,"цею":2935,"потра":2936,"мана":2937,"ge":2938,"зовніш":2939,"вза":2940,"гія":2941,"людина":2942,"порядок":2943,"скарзі":2944,"вез":2945,"дат":2946,"особа4":2947,"ip":2948,"каже":2949,"поду":2950,"оз":2951,"вимага":2952,"земля":2953,"основні":2954,"вол":2955,"шкі":2956,"язань":2957,"жито":2958,"альної":2959,"вс":2960,"логія":2961,"вища":2962,"шен":2963,"all":2964,"знайо":2965,"станції":2966,"імпера":2967,"ванні":2968,"площа":2969,"овува":2970,"111":2971,"клопота":2972,"хро":2973,"нарах":2974,"1994":2975,"вперше":2976,"особа3":2977,"дали":2978,"європи":2979,"мої":2980,"принци":2981,"москов":2982,"старших":2983,"чах":2984,"ess":2985,"ресур":2986,"фи":2987,"участі":2988,"класи":2989,"іспа":2990,"самі":2991,"другий":2992,"тради":2993,"зні":2994,"qu":2995,"молоді":2996,"аби":2997,"перевір":2998,"87":2999,"мки":3000,"копі":3001,"відстані":3002,"проведе":3003,"часно":3004,"скоро":3005,"моги":3006,"дію":3007,"шлях":3008,"вулиці":3009,"нема":3010,"поле":3011,"ницької":3012,"відбува":3013,"ляв":3014,"правда":3015,"стання":3016,"кнув":3017,"ситуа":3018,"щині":3019,"релі":3020,"соло":3021,"дріб":3022,"фрон":3023,"ard":3024,"адресою":3025,"газе":3026,"1989":3027,"1944":3028,"лла":3029,"місці":3030,"четвер":3031,"мора":3032,"so":3033,"96":3034,"швидко":3035,"перевіря":3036,"губер":3037,"язок":3038,"пропону":3039,"овича":3040,"шах":3041,"сна":3042,"чей":3043,"оні":3044,"викла":3045,"незакон":3046,"палати":3047,"висновки":3048,"головою":3049,"ям":3050,"домо":3051,"сільська":3052,"зад":3053,"скаргою":3054,"провін":3055,"першого":3056,"багать":3057,"відсо":3058,"ред":3059,"знаю":3060,"жінки":3061,"сама":3062,"кілько":3063,"проводи":3064,"нем":3065,"рф":3066,"чорно":3067,"церкви":3068,"валося":3069,"маль":3070,"овуються":3071,"безпеки":3072,"ляти":3073,"можли":3074,"ченням":3075,"оборони":3076,"судове":3077,"пово":3078,"участю":3079,"порту":3080,"розпоря":3081,"церква":3082,"вино":3083,"залізни":3084,"угор":3085,"умовах":3086,"вартості":3087,"менше":3088,"окупан":3089,"акти":3090,"уваги":3091,"культур":3092,"англій":3093,"луган":3094,"1993":3095,"ліза":3096,"річки":3097,"горі":3098,"батьків":3099,"видно":3100,"кас":3101,"вини":3102,"відео":3103,"ціями":3104,"наші":3105,"займа":3106,"сад":3107,"відхи":3108,"досить":3109,"відділу":3110,"ляють":3111,"74":3112,"діти":3113,"жно":3114,"могли":3115,"полови":3116,"su":3117,"тне":3118,"єкта":3119,"прі":3120,"діє":3121,"go":3122,"даль":3123,"округу":3124,"кір":3125,"повинен":3126,"хор":3127,"пні":3128,"ареш":3129,"86":3130,"язків":3131,"предмет":3132,"спожива":3133,"теля":3134,"tr":3135,"тті":3136,"перева":3137,"збіль":3138,"біг":3139,"порт":3140,"ber":3141,"слава":3142,"юр":3143,"вийшов":3144,"типу":3145,"дба":3146,"кси":3147,"варі":3148,"терно":3149,"зброй":3150,"спря":3151,"буть":3152,"уз":3153,"шкоди":3154,"72":3155,"туру":3156,"тисяч":3157,"остато":3158,"моря":3159,"столи":3160,"шту":3161,"дяки":3162,"єва":3163,"ферен":3164,"джи":3165,"чень":3166,"чик":3167,"титу":3168,"силу":3169,"млн":3170,"язки":3171,"показ":3172,"84":3173,"лене":3174,"суді":3175,"na":3176,"1975":3177,"бол":3178,"угоди":3179,"ta":3180,"фан":3181,"руй":3182,"витрати":3183,"ске":3184,"зоря":3185,"1941":3186,"xv":3187,"майбут":3188,"фар":3189,"казом":3190,"щина":3191,"тари":3192,"тина":3193,"500":3194,"новок":3195,"очи":3196,"we":3197,"дця":3198,"твори":3199,"сріб":3200,"квалі":3201,"стовір":3202,"запи":3203,"обер":3204,"опис":3205,"опи":3206,"400":3207,"вигляді":3208,"шло":3209,"третьої":3210,"макси":3211,"частину":3212,"висновок":3213,"нагороди":3214,"механі":3215,"люби":3216,"землю":3217,"кожен":3218,"зареєстр":3219,"оформ":3220,"мабуть":3221,"лять":3222,"кування":3223,"банків":3224,"man":3225,"ci":3226,"петро":3227,"жені":3228,"жує":3229,"язк":3230,"ара":3231,"союз":3232,"змен":3233,"чір":3234,"92":3235,"нак":3236,"джон":3237,"обстрі":3238,"поруш":3239,"ill":3240,"експлу":3241,"чними":3242,"полтав":3243,"іні":3244,"мента":3245,"джо":3246,"93":3247,"зборів":3248,"міна":3249,"міського":3250,"чині":3251,"правомір":3252,"нуто":3253,"брат":3254,"револю":3255,"адже":3256,"1117":3257,"інше":3258,"чернігів":3259,"жних":3260,"пох":3261,"валася":3262,"невели":3263,"британ":3264,"лист":3265,"черка":3266,"катего":3267,"зується":3268,"оп":3269,"думку":3270,"ціалі":3271,"хан":3272,"спосіб":3273,"провів":3274,"завдяки":3275,"практи":3276,"вається":3277,"менти":3278,"тримання":3279,"гами":3280,"софі":3281,"шевчен":3282,"be":3283,"радіо":3284,"комісії":3285,"добу":3286,"термін":3287,"1945":3288,"суспіль":3289,"сму":3290,"своєму":3291,"розповід":3292,"почали":3293,"пір":3294,"ходили":3295,"94":3296,"вкла":3297,"йор":3298,"джено":3299,"статисти":3300,"кошти":3301,"спокій":3302,"ванню":3303,"лого":3304,"галузі":3305,"чов":3306,"лав":3307,"опла":3308,"виробни":3309,"перепису":3310,"дебю":3311,"йн":3312,"заснова":3313,"розподіл":3314,"статей":3315,"сар":3316,"супер":3317,"дно":3318,"реєстру":3319,"бах":3320,"олімпій":3321,"оль":3322,"вока":3323,"рух":3324,"видав":3325,"переваж":3326,"таєм":3327,"фін":3328,"зверта":3329,"дерев":3330,"оле":3331,"надій":3332,"видів":3333,"смо":3334,"бух":3335,"тиж":3336,"дитя":3337,"кп":3338,"провід":3339,"контролю":3340,"жний":3341,"pro":3342,"ривши":3343,"йде":3344,"освіти":3345,"заходів":3346,"ета":3347,"горо":3348,"брита":3349,"щен":3350,"чемпіон":3351,"валю":3352,"малень":3353,"емі":3354,"раптом":3355,"дору":3356,"910":3357,"язані":3358,"зія":3359,"оплати":3360,"актор":3361,"друга":3362,"інж":3363,"хіба":3364,"ver":3365,"зібра":3366,"судо":3367,"шити":3368,"бібліоте":3369,"інте":3370,"комуні":3371,"своєю":3372,"гада":3373,"основі":3374,"83":3375,"con":3376,"канди":3377,"всту":3378,"мур":3379,"шно":3380,"родини":3381,"силь":3382,"увій":3383,"mar":3384,"br":3385,"стої":3386,"скри":3387,"робити":3388,"кабіне":3389,"пені":3390,"навчання":3391,"освіта":3392,"сюди":3393,"ау":3394,"давно":3395,"способ":3396,"житомир":3397,"неза":3398,"організ":3399,"вибо":3400,"працює":3401,"вра":3402,"ходячи":3403,"руч":3404,"наді":3405,"ik":3406,"https":3407,"82":3408,"зва":3409,"шує":3410,"розір":3411,"контрак":3412,"відува":3413,"важаючи":3414,"страж":3415,"допомоги":3416,"шт":3417,"дз":3418,"монасти":3419,"лова":3420,"моно":3421,"ian":3422,"розгляда":3423,"приму":3424,"студен":3425,"хлі":3426,"ремон":3427,"хотів":3428,"73":3429,"тін":3430,"втрати":3431,"комер":3432,"уда":3433,"формі":3434,"дуть":3435,"нат":3436,"прем":3437,"руху":3438,"закінчив":3439,"коре":3440,"анто":3441,"кона":3442,"балан":3443,"au":3444,"точ":3445,"просив":3446,"їхав":3447,"прибу":3448,"стрій":3449,"закла":3450,"система":3451,"спрост":3452,"ly":3453,"ктич":3454,"кінця":3455,"одних":3456,"ментів":3457,"мира":3458,"збірної":3459,"заг":3460,"язаний":3461,"молоди":3462,"тихо":3463,"xx":3464,"першу":3465,"своїй":3466,"бого":3467,"слі":3468,"пта":3469,"доходів":3470,"виді":3471,"заявою":3472,"промисл":3473,"обладна":3474,"честь":3475,"належало":3476,"дп":3477,"uk":3478,"тком":3479,"інь":3480,"турі":3481,"актів":3482,"цо":3483,"нальних":3484,"особою":3485,"оренду":3486,"овувати":3487,"гель":3488,"тром":3489,"відзи":3490,"гаду":3491,"хвили":3492,"руку":3493,"аналі":3494,"рина":3495,"теро":3496,"вов":3497,"оренд":3498,"повинні":3499,"1980":3500,"повтор":3501,"корпу":3502,"морі":3503,"благо":3504,"тара":3505,"пріз":3506,"ділян":3507,"зин":3508,"редак":3509,"багатьох":3510,"водно":3511,"обслуг":3512,"позовні":3513,"одя":3514,"жки":3515,"агро":3516,"увався":3517,"будіве":3518,"серце":3519,"тивні":3520,"орі":3521,"зробити":3522,"тими":3523,"десь":3524,"тії":3525,"боже":3526,"ближ":3527,"заго":3528,"ok":3529,"кров":3530,"нює":3531,"нато":3532,"der":3533,"жено":3534,"отриму":3535,"нарешті":3536,"кафе":3537,"бата":3538,"акт":3539,"като":3540,"присут":3541,"sch":3542,"заслу":3543,"справж":3544,"фізичних":3545,"плану":3546,"сполу":3547,"пішов":3548,"зрозумі":3549,"бал":3550,"ck":3551,"жителів":3552,"чать":3553,"81":3554,"факт":3555,"прибли":3556,"дета":3557,"підтриму":3558,"сх":3559,"громадя":3560,"інозем":3561,"жор":3562,"вими":3563,"ційні":3564,"положень":3565,"інсти":3566,"колу":3567,"судової":3568,"орган":3569,"сподар":3570,"надано":3571,"кубка":3572,"вань":3573,"випадках":3574,"німи":3575,"коха":3576,"шені":3577,"анато":3578,"уро":3579,"нків":3580,"леному":3581,"розум":3582,"71":3583,"виріш":3584,"вест":3585,"моя":3586,"ювання":3587,"відомий":3588,"шку":3589,"поверта":3590,"застосу":3591,"пець":3592,"такої":3593,"носин":3594,"кання":3595,"речі":3596,"жо":3597,"зан":3598,"кордо":3599,"увагу":3600,"графії":3601,"альності":3602,"першою":3603,"двері":3604,"іншим":3605,"полков":3606,"торія":3607,"очо":3608,"електрон":3609,"включа":3610,"виступа":3611,"год":3612,"чко":3613,"наш":3614,"штаб":3615,"одному":3616,"михайло":3617,"боргу":3618,"одержа":3619,"рома":3620,"1943":3621,"тип":3622,"шар":3623,"педа":3624,"ws":3625,"ляли":3626,"поляга":3627,"взяв":3628,"льне":3629,"чора":3630,"льну":3631,"центру":3632,"мовив":3633,"нальна":3634,"рівні":3635,"лежа":3636,"гот":3637,"дохід":3638,"писом":3639,"відносин":3640,"бік":3641,"сказала":3642,"краще":3643,"бюро":3644,"оцінку":3645,"боротьби":3646,"генерал":3647,"товару":3648,"вихід":3649,"річних":3650,"вален":3651,"будуть":3652,"комен":3653,"підня":3654,"av":3655,"www":3656,"fr":3657,"водночас":3658,"жінка":3659,"перелік":3660,"конкре":3661,"товар":3662,"льним":3663,"тації":3664,"вби":3665,"тіло":3666,"ницького":3667,"христи":3668,"науково":3669,"схи":3670,"шин":3671,"самого":3672,"вчинення":3673,"батька":3674,"побуд":3675,"стов":3676,"поверну":3677,"валер":3678,"ace":3679,"південь":3680,"могла":3681,"позиція":3682,"назву":3683,"послуги":3684,"вважати":3685,"команда":3686,"матчі":3687,"відсутні":3688,"ливий":3689,"ціл":3690,"груп":3691,"виготов":3692,"1970":3693,"кількох":3694,"ігра":3695,"хтось":3696,"школа":3697,"кожного":3698,"1939":3699,"ak":3700,"91":3701,"мільйо":3702,"зар":3703,"стий":3704,"сина":3705,"yo":3706,"держ":3707,"передати":3708,"укладено":3709,"великого":3710,"сних":3711,"наказ":3712,"якби":3713,"франків":3714,"уряд":3715,"ура":3716,"позбав":3717,"домаш":3718,"вті":3719,"лог":3720,"випадків":3721,"оду":3722,"урср":3723,"маю":3724,"нової":3725,"вп":3726,"лку":3727,"відповів":3728,"попере":3729,"сезон":3730,"тяж":3731,"рім":3732,"інф":3733,"біга":3734,"ченої":3735,"нафто":3736,"майстер":3737,"нда":3738,"єру":3739,"стандар":3740,"ліга":3741,"віктор":3742,"судочин":3743,"охорони":3744,"продовж":3745,"гно":3746,"фінан":3747,"серії":3748,"ваго":3749,"ницю":3750,"межі":3751,"персона":3752,"ньою":3753,"музей":3754,"овища":3755,"хочу":3756,"дуб":3757,"дани":3758,"набра":3759,"колись":3760,"другого":3761,"1988":3762,"будівлі":3763,"огля":3764,"джі":3765,"фести":3766,"тепло":3767,"if":3768,"ству":3769,"ich":3770,"mo":3771,"навколо":3772,"сказати":3773,"ринку":3774,"створю":3775,"свято":3776,"видання":3777,"ційно":3778,"освіт":3779,"ната":3780,"вості":3781,"фікації":3782,"нік":3783,"католи":3784,"достат":3785,"визнано":3786,"режисер":3787,"спрямова":3788,"кував":3789,"процен":3790,"середині":3791,"громади":3792,"лях":3793,"спільно":3794,"статтями":3795,"україну":3796,"професор":3797,"льв":3798,"афри":3799,"катери":3800,"жів":3801,"чене":3802,"аналіз":3803,"допомогу":3804,"володар":3805,"вні":3806,"південно":3807,"гміні":3808,"опа":3809,"покри":3810,"педаго":3811,"доказа":3812,"рус":3813,"темпера":3814,"моти":3815,"лам":3816,"міно":3817,"іванович":3818,"лет":3819,"юрій":3820,"заяву":3821,"даній":3822,"спромож":3823,"систем":3824,"дай":3825,"оригі":3826,"станція":3827,"такими":3828,"повному":3829,"небезпе":3830,"ченні":3831,"заснов":3832,"різня":3833,"народу":3834,"ліка":3835,"країн":3836,"лену":3837,"правил":3838,"внесення":3839,"хати":3840,"містя":3841,"глибо":3842,"придба":3843,"чати":3844,"орде":3845,"пет":3846,"різні":3847,"першим":3848,"фактично":3849,"виника":3850,"pl":3851,"вимогам":3852,"po":3853,"пл":3854,"жність":3855,"нин":3856,"суті":3857,"альність":3858,"розпоча":3859,"опублі":3860,"пеня":3861,"популяр":3862,"достовір":3863,"тивної":3864,"інститут":3865,"галере":3866,"плато":3867,"серва":3868,"віку":3869,"мить":3870,"китай":3871,"рос":3872,"регіоні":3873,"чній":3874,"зроб":3875,"складе":3876,"покла":3877,"ліп":3878,"ництвом":3879,"щих":3880,"кового":3881,"поли":3882,"нації":3883,"лінії":3884,"мед":3885,"пані":3886,"випро":3887,"містить":3888,"партія":3889,"якості":3890,"перер":3891,"вом":3892,"пункти":3893,"тренер":3894,"порівня":3895,"куля":3896,"методи":3897,"оке":3898,"гран":3899,"альні":3900,"усу":3901,"замість":3902,"явився":3903,"правових":3904,"ролі":3905,"виходячи":3906,"місяць":3907,"карпат":3908,"доли":3909,"покара":3910,"аген":3911,"годин":3912,"кови":3913,"початок":3914,"паді":3915,"засобів":3916,"кубок":3917,"гала":3918,"поліції":3919,"cl":3920,"досі":3921,"увала":3922,"єпис":3923,"1960":3924,"письм":3925,"патрі":3926,"двигу":3927,"пунктів":3928,"сільське":3929,"нська":3930,"сподіва":3931,"када":3932,"існує":3933,"кольо":3934,"адреса1":3935,"ованої":3936,"per":3937,"нених":3938,"смерть":3939,"своїми":3940,"розши":3941,"слів":3942,"1986":3943,"зла":3944,"бара":3945,"далеко":3946,"таку":3947,"тви":3948,"удар":3949,"сміх":3950,"парла":3951,"стосов":3952,"пила":3953,"блу":3954,"інший":3955,"простро":3956,"імперії":3957,"зсу":3958,"надто":3959,"лович":3960,"процесі":3961,"дружина":3962,"нера":3963,"літо":3964,"віду":3965,"нерухоме":3966,"марія":3967,"коль":3968,"вистав":3969,"сний":3970,"ru":3971,"цикло":3972,"валі":3973,"спірних":3974,"класу":3975,"підви":3976,"обліку":3977,"зен":3978,"кове":3979,"пошко":3980,"учасник":3981,"ей":3982,"ay":3983,"паса":3984,"нився":3985,"згаду":3986,"доступ":3987,"посаду":3988,"дипло":3989,"боя":3990,"підій":3991,"орден":3992,"ноги":3993,"присі":3994,"1119":3995,"дур":3996,"артилер":3997,"дженні":3998,"відда":3999,"енерге":4000,"ant":4001,"техніки":4002,"галь":4003,"директор":4004,"вок":4005,"никам":4006,"інженер":4007,"налі":4008,"стосовно":4009,"мекси":4010,"против":4011,"деяких":4012,"зазначає":4013,"король":4014,"побли":4015,"війна":4016,"великі":4017,"he":4018,"1985":4019,"союзу":4020,"iz":4021,"усього":4022,"кен":4023,"загально":4024,"оборо":4025,"пуще":4026,"алек":4027,"єкти":4028,"їзд":4029,"івано":4030,"ес":4031,"загалі":4032,"вибор":4033,"загалом":4034,"бін":4035,"ючих":4036,"чила":4037,"брон":4038,"дорож":4039,"друге":4040,"нили":4041,"мобі":4042,"тож":4043,"плення":4044,"1987":4045,"жена":4046,"шів":4047,"сот":4048,"мно":4049,"рівнен":4050,"яро":4051,"заходи":4052,"старий":4053,"бала":4054,"разів":4055,"pe":4056,"акту":4057,"напрямку":4058,"1918":4059,"ають":4060,"гроші":4061,"здається":4062,"товано":4063,"cor":4064,"стере":4065,"звання":4066,"нню":4067,"показа":4068,"округ":4069,"постанов":4070,"регіону":4071,"гаря":4072,"академі":4073,"юсти":4074,"дрі":4075,"120":4076,"1940":4077,"гти":4078,"причин":4079,"ex":4080,"доктор":4081,"інди":4082,"кувати":4083,"справах":4084,"вал":4085,"очима":4086,"lin":4087,"леними":4088,"збору":4089,"wor":4090,"відмову":4091,"скільки":4092,"міц":4093,"здат":4094,"кл":4095,"ордина":4096,"теті":4097,"зник":4098,"плане":4099,"завдання":4100,"бург":4101,"товарів":4102,"мп":4103,"кових":4104,"постави":4105,"експерти":4106,"посла":4107,"тір":4108,"туди":4109,"ґрунту":4110,"ділянку":4111,"кай":4112,"часів":4113,"ствер":4114,"зам":4115,"пошу":4116,"ум":4117,"план":4118,"карти":4119,"дисци":4120,"пораз":4121,"апара":4122,"повинна":4123,"логічних":4124,"шили":4125,"олексій":4126,"ас":4127,"нень":4128,"готу":4129,"кві":4130,"казує":4131,"розміру":4132,"засуд":4133,"зон":4134,"поблизу":4135,"шер":4136,"каль":4137,"чотир":4138,"частин":4139,"зробив":4140,"1115":4141,"однією":4142,"демокра":4143,"концер":4144,"жили":4145,"зли":4146,"вах":4147,"комплекс":4148,"сукуп":4149,"перемож":4150,"знає":4151,"мате":4152,"важли":4153,"відправ":4154,"цеп":4155,"довжина":4156,"числ":4157,"окрім":4158,"ініціа":4159,"доводів":4160,"учасники":4161,"буття":4162,"0000":4163,"ряту":4164,"джер":4165,"1942":4166,"автоном":4167,"яна":4168,"рослин":4169,"сцена":4170,"тик":4171,"змагання":4172,"поже":4173,"ненні":4174,"1984":4175,"мим":4176,"голь":4177,"рд":4178,"місцеві":4179,"сію":4180,"стояв":4181,"вело":4182,"острова":4183,"політики":4184,"дивився":4185,"комбі":4186,"шні":4187,"італій":4188,"взагалі":4189,"події":4190,"влаш":4191,"іноді":4192,"посад":4193,"життєпис":4194,"ep":4195,"ens":4196,"дель":4197,"тними":4198,"дить":4199,"цям":4200,"скли":4201,"камі":4202,"рець":4203,"мами":4204,"штату":4205,"дев":4206,"додому":4207,"стеріга":4208,"компози":4209,"лев":4210,"місяців":4211,"покуп":4212,"люється":4213,"обій":4214,"стре":4215,"практич":4216,"доби":4217,"лити":4218,"бога":4219,"справед":4220,"факуль":4221,"виро":4222,"міністр":4223,"різно":4224,"рук":4225,"боротьба":4226,"ступа":4227,"мапі":4228,"похи":4229,"женням":4230,"перетво":4231,"ity":4232,"нію":4233,"любов":4234,"оспор":4235,"діяч":4236,"ону":4237,"виходить":4238,"озе":4239,"ята":4240,"1930":4241,"стане":4242,"одру":4243,"назвою":4244,"джує":4245,"виклада":4246,"обсязі":4247,"статус":4248,"вой":4249,"зброє":4250,"вбив":4251,"пана":4252,"муть":4253,"одразу":4254,"селище":4255,"жар":4256,"знати":4257,"умовами":4258,"aw":4259,"місте":4260,"прокура":4261,"овування":4262,"дять":4263,"поведі":4264,"збитків":4265,"світло":4266,"1979":4267,"кордон":4268,"кля":4269,"приєдна":4270,"мол":4271,"відкрито":4272,"нальному":4273,"сфері":4274,"відки":4275,"значно":4276,"демон":4277,"однієї":4278,"членів":4279,"минуло":4280,"чинності":4281,"родина":4282,"прямо":4283,"ort":4284,"давством":4285,"мід":4286,"und":4287,"наших":4288,"звіт":4289,"секретар":4290,"кут":4291,"профіль":4292,"ho":4293,"асо":4294,"str":4295,"терпі":4296,"відобра":4297,"ell":4298,"чоловіка":4299,"острів":4300,"італії":4301,"ями":4302,"назад":4303,"1976":4304,"зелен":4305,"сера":4306,"думки":4307,"сара":4308,"кабінету":4309,"сін":4310,"ґа":4311,"подібних":4312,"перешко":4313,"fe":4314,"сезону":4315,"лював":4316,"глиби":4317,"могу":4318,"мис":4319,"зазначив":4320,"аргу":4321,"мит":4322,"бля":4323,"аеро":4324,"стільки":4325,"гах":4326,"селя":4327,"стен":4328,"чають":4329,"юстиції":4330,"земельну":4331,"дмитро":4332,"1920":4333,"івана":4334,"пасажи":4335,"обу":4336,"холод":4337,"бл":4338,"невикона":4339,"праце":4340,"ем":4341,"мість":4342,"ліги":4343,"шений":4344,"льній":4345,"арбі":4346,"знак":4347,"книги":4348,"чами":4349,"нагород":4350,"рівна":4351,"1981":4352,"беру":4353,"форте":4354,"духов":4355,"отримала":4356,"залишено":4357,"моє":4358,"ційна":4359,"побачив":4360,"заявив":4361,"лим":4362,"тт":4363,"величе":4364,"краю":4365,"важко":4366,"циклопе":4367,"поко":4368,"наказом":4369,"сади":4370,"вирішив":4371,"функціо":4372,"дізна":4373,"код":4374,"святого":4375,"гей":4376,"білі":4377,"йон":4378,"папер":4379,"фр":4380,"взаємо":4381,"нської":4382,"присілок":4383,"кожна":4384,"лови":4385,"петер":4386,"мережі":4387,"резер":4388,"живе":4389,"нос":4390,"марш":4391,"двома":4392,"150":4393,"дисциплі":4394,"свідо":4395,"лейте":4396,"мари":4397,"поруч":4398,"пісні":4399,"всти":4400,"табли":4401,"гади":4402,"психо":4403,"місяця":4404,"fo":4405,"всебі":4406,"up":4407,"проект":4408,"бів":4409,"шей":4410,"1982":4411,"сюже":4412,"австра":4413,"перевез":4414,"доба":4415,"голів":4416,"строю":4417,"net":4418,"листа":4419,"координа":4420,"селищ":4421,"короля":4422,"консу":4423,"ve":4424,"державну":4425,"конвен":4426,"ляються":4427,"ет":4428,"сторона":4429,"110":4430,"газо":4431,"лець":4432,"словами":4433,"щастя":4434,"волин":4435,"gr":4436,"ано":4437,"статут":4438,"виня":4439,"розвиток":4440,"ризи":4441,"інвести":4442,"вплив":4443,"ой":4444,"альна":4445,"великих":4446,"наказу":4447,"сева":4448,"тіли":4449,"альбо":4450,"чергу":4451,"раї":4452,"віком":4453,"дженням":4454,"виходив":4455,"вель":4456,"ев":4457,"1983":4458,"додав":4459,"кле":4460,"рих":4461,"соро":4462,"труд":4463,"загальна":4464,"озброє":4465,"сма":4466,"свідчить":4467,"податку":4468,"ковий":4469,"перевагу":4470,"спорту":4471,"яті":4472,"робота":4473,"чаються":4474,"перекона":4475,"ах":4476,"приміщ":4477,"vid":4478,"ницький":4479,"пошире":4480,"легко":4481,"ляції":4482,"льський":4483,"губ":4484,"третя":4485,"уватися":4486,"вне":4487,"море":4488,"виступав":4489,"початк":4490,"іпотеки":4491,"книж":4492,"col":4493,"альний":4494,"присвя":4495,"іншої":4496,"живання":4497,"визнати":4498,"хра":4499,"примус":4500,"io":4501,"вечір":4502,"1950":4503,"дівча":4504,"інфра":4505,"бування":4506,"ованим":4507,"науки":4508,"доказу":4509,"вода":4510,"няття":4511,"кей":4512,"окремих":4513,"мною":4514,"метр":4515,"душі":4516,"гляда":4517,"органом":4518,"старший":4519,"загинув":4520,"напів":4521,"якийсь":4522,"високо":4523,"добр":4524,"тивна":4525,"позивачу":4526,"програми":4527,"дцять":4528,"їхні":4529,"декілька":4530,"живо":4531,"метри":4532,"відпо":4533,"ії":4534,"рої":4535,"миколай":4536,"боло":4537,"приро":4538,"галерея":4539,"допусти":4540,"позна":4541,"вихова":4542,"1972":4543,"торії":4544,"цілу":4545,"ально":4546,"агре":4547,"ед":4548,"становив":4549,"гвар":4550,"чувати":4551,"павло":4552,"дивізі":4553,"грошових":4554,"базі":4555,"посвід":4556,"фільму":4557,"григо":4558,"дівчина":4559,"низь":4560,"юва":4561,"1978":4562,"1974":4563,"978":4564,"власти":4565,"ада":4566,"поя":4567,"rom":4568,"ходити":4569,"москва":4570,"десяти":4571,"родин":4572,"альбом":4573,"люк":4574,"костя":4575,"леним":4576,"виру":4577,"проекту":4578,"штраф":4579,"жий":4580,"первіс":4581,"чився":4582,"головним":4583,"посади":4584,"стики":4585,"старі":4586,"скаржник":4587,"вень":4588,"сума":4589,"потрібно":4590,"співа":4591,"думав":4592,"органи":4593,"розслід":4594,"стого":4595,"журналі":4596,"будівель":4597,"немов":4598,"сімей":4599,"швей":4600,"ca":4601,"1937":4602,"релігій":4603,"віднов":4604,"ченим":4605,"ел":4606,"сиді":4607,"мена":4608,"церков":4609,"соня":4610,"підоз":4611,"говорити":4612,"леної":4613,"цілком":4614,"юна":4615,"севасто":4616,"сусідні":4617,"1977":4618,"набира":4619,"тварин":4620,"сного":4621,"гле":4622,"стой":4623,"службу":4624,"останні":4625,"кк":4626,"вру":4627,"якось":4628,"ib":4629,"відтак":4630,"переви":4631,"сена":4632,"пане":4633,"оповід":4634,"овець":4635,"вор":4636,"женого":4637,"арбітра":4638,"єдну":4639,"осере":4640,"1971":4641,"баром":4642,"люва":4643,"змістом":4644,"ang":4645,"допомага":4646,"писав":4647,"добри":4648,"окуп":4649,"виключно":4650,"красно":4651,"гав":4652,"регіонів":4653,"женню":4654,"дніпров":4655,"перших":4656,"воєн":4657,"зир":4658,"почала":4659,"меж":4660,"відразу":4661,"лиш":4662,"інстру":4663,"танк":4664,"гін":4665,"ченому":4666,"гідро":4667,"максима":4668,"скі":4669,"inter":4670,"дних":4671,"донь":4672,"вмі":4673,"конкурен":4674,"спробу":4675,"тику":4676,"чали":4677,"єри":4678,"ману":4679,"брали":4680,"вина":4681,"означає":4682,"перехід":4683,"хвилин":4684,"неу":4685,"чисель":4686,"відом":4687,"son":4688,"світла":4689,"конф":4690,"маса":4691,"поси":4692,"християн":4693,"чоловіки":4694,"1969":4695,"скасу":4696,"копа":4697,"потребу":4698,"процес":4699,"сервіс":4700,"підтрима":4701,"доказами":4702,"1917":4703,"страте":4704,"ати":4705,"адвока":4706,"знов":4707,"сонце":4708,"сана":4709,"полу":4710,"сталося":4711,"розумів":4712,"третій":4713,"стих":4714,"жами":4715,"жником":4716,"1919":4717,"наве":4718,"1967":4719,"яні":4720,"1938":4721,"єс":4722,"цієн":4723,"мікро":4724,"ціль":4725,"проблеми":4726,"майном":4727,"фонд":4728,"спитав":4729,"ступеня":4730,"уклада":4731,"аку":4732,"всю":4733,"тичних":4734,"чика":4735,"платі":4736,"дового":4737,"зація":4738,"кової":4739,"князь":4740,"org":4741,"люють":4742,"геор":4743,"знайде":4744,"спу":4745,"досвід":4746,"зато":4747,"рівень":4748,"роботі":4749,"1968":4750,"зує":4751,"архе":4752,"вдалося":4753,"ворі":4754,"нівка":4755,"ненням":4756,"пти":4757,"серйо":4758,"дорі":4759,"охорон":4760,"par":4761,"колго":4762,"ймовір":4763,"ефі":4764,"мисли":4765,"оче":4766,"1973":4767,"падає":4768,"ціях":4769,"мера":4770,"сході":4771,"дана":4772,"апо":4773,"північно":4774,"облік":4775,"належать":4776,"льд":4777,"дім":4778,"one":4779,"112":4780,"шок":4781,"обіця":4782,"епі":4783,"гам":4784,"дають":4785,"помил":4786,"країні":4787,"тичного":4788,"пісня":4789,"частка":4790,"шевченка":4791,"заува":4792,"систему":4793,"чував":4794,"дяться":4795,"чинного":4796,"статтю":4797,"черг":4798,"офіцер":4799,"крізь":4800,"bl":4801,"окрузі":4802,"тну":4803,"рев":4804,"періоду":4805,"здив":4806,"рав":4807,"виступи":4808,"прийшов":4809,"термі":4810,"чиною":4811,"льному":4812,"титул":4813,"знес":4814,"ляючи":4815,"сся":4816,"мени":4817,"привати":4818,"овище":4819,"бора":4820,"cr":4821,"гну":4822,"школі":4823,"няється":4824,"1933":4825,"окупа":4826,"капітан":4827,"робер":4828,"крем":4829,"винува":4830,"всім":4831,"надати":4832,"дала":4833,"товане":4834,"закли":4835,"прізвище":4836,"праві":4837,"вес":4838,"шила":4839,"bar":4840,"асоціа":4841,"jo":4842,"дату":4843,"розгляді":4844,"відби":4845,"голу":4846,"бей":4847,"бами":4848,"мс":4849,"лому":4850,"говорив":4851,"костян":4852,"кита":4853,"набли":4854,"погоджу":4855,"мара":4856,"ys":4857,"рили":4858,"селян":4859,"др":4860,"маріу":4861,"нією":4862,"женнями":4863,"утворю":4864,"даного":4865,"1965":4866,"даючи":4867,"тові":4868,"тичні":4869,"плав":4870,"театру":4871,"часті":4872,"вугі":4873,"лау":4874,"потуж":4875,"чолі":4876,"обере":4877,"воли":4878,"нехай":4879,"літети":4880,"зького":4881,"надав":4882,"конферен":4883,"нина":4884,"прийняв":4885,"прості":4886,"розмов":4887,"уряду":4888,"години":4889,"ive":4890,"скуль":4891,"особа5":4892,"жею":4893,"футболу":4894,"сприя":4895,"корпора":4896,"чується":4897,"контроль":4898,"ївна":4899,"літету":4900,"дійшли":4901,"почес":4902,"другою":4903,"рахунку":4904,"місцевих":4905,"згоди":4906,"ish":4907,"xix":4908,"min":4909,"стороні":4910,"няти":4911,"маршру":4912,"напру":4913,"нальні":4914,"варіан":4915,"спис":4916,"тичної":4917,"кіло":4918,"перемога":4919,"схе":4920,"ліна":4921,"єкту":4922,"брі":4923,"вторг":4924,"мію":4925,"центрі":4926,"рср":4927,"парк":4928,"1964":4929,"1932":4930,"моне":4931,"скульп":4932,"ами":4933,"логічні":4934,"нальну":4935,"буває":4936,"випа":4937,"цях":4938,"птах":4939,"оброб":4940,"досліди":4941,"сьому":4942,"кінець":4943,"порушень":4944,"ate":4945,"дивля":4946,"магі":4947,"11111":4948,"змісту":4949,"фінал":4950,"сінь":4951,"іо":4952,"хрест":4953,"воді":4954,"іден":4955,"велику":4956,"ева":4957,"мілі":4958,"направи":4959,"кістю":4960,"захво":4961,"зміню":4962,"спеціалі":4963,"вдо":4964,"обох":4965,"бет":4966,"поставки":4967,"тіс":4968,"ностей":4969,"річка":4970,"1966":4971,"виду":4972,"вя":4973,"пропа":4974,"тія":4975,"велико":4976,"вийшла":4977,"індивіду":4978,"дотрима":4979,"свідоц":4980,"наслідки":4981,"тко":4982,"кредиту":4983,"статі":4984,"вказ":4985,"білих":4986,"єги":4987,"художник":4988,"неви":4989,"клієн":4990,"жених":4991,"допомога":4992,"116":4993,"шлю":4994,"речови":4995,"архео":4996,"кожному":4997,"джені":4998,"рамках":4999,"зацію":5000,"півночі":5001,"ландії":5002,"ділянок":5003,"ass":5004,"устан":5005,"довж":5006,"du":5007,"завтра":5008,"програм":5009,"кет":5010,"функції":5011,"олег":5012,"небо":5013,"заду":5014,"менш":5015,"спец":5016,"запис":5017,"тивним":5018,"джор":5019,"ттям":5020,"рукою":5021,"індек":5022,"друж":5023,"дик":5024,"турнір":5025,"котри":5026,"посту":5027,"отримали":5028,"громада":5029,"кисло":5030,"полку":5031,"бази":5032,"таря":5033,"line":5034,"щину":5035,"плату":5036,"кірово":5037,"тир":5038,"стки":5039,"декла":5040,"особисто":5041,"нант":5042,"гун":5043,"ізраї":5044,"населені":5045,"1963":5046,"першому":5047,"чала":5048,"льського":5049,"нашої":5050,"утворе":5051,"ранку":5052,"вей":5053,"проголо":5054,"mon":5055,"ану":5056,"1934":5057,"тиме":5058,"вечер":5059,"двоє":5060,"піхо":5061,"премії":5062,"джують":5063,"моли":5064,"інтереси":5065,"одино":5066,"чека":5067,"премія":5068,"нці":5069,"пз":5070,"1946":5071,"стка":5072,"відрізня":5073,"постраж":5074,"знайти":5075,"живу":5076,"підряд":5077,"витре":5078,"слухавши":5079,"дим":5080,"век":5081,"такою":5082,"gen":5083,"car":5084,"печер":5085,"книга":5086,"ія":5087,"ight":5088,"луї":5089,"жила":5090,"перерах":5091,"ica":5092,"динамі":5093,"площі":5094,"рука":5095,"sy":5096,"заробіт":5097,"зат":5098,"уч":5099,"бачення":5100,"ko":5101,"вибу":5102,"князів":5103,"лями":5104,"кпк":5105,"полягає":5106,"клас":5107,"знання":5108,"яскра":5109,"бюджету":5110,"надцять":5111,"фай":5112,"берг":5113,"допов":5114,"вались":5115,"виста":5116,"металу":5117,"цеві":5118,"педагогі":5119,"втрат":5120,"ресурсів":5121,"ss":5122,"няє":5123,"нін":5124,"оцінка":5125,"копи":5126,"тований":5127,"росіяни":5128,"рекла":5129,"ляка":5130,"руд":5131,"членом":5132,"рекомен":5133,"обсерва":5134,"pol":5135,"діапа":5136,"єктом":5137,"бої":5138,"борис":5139,"послід":5140,"прикла":5141,"дороги":5142,"httpst":5143,"матчів":5144,"няв":5145,"позицію":5146,"пін":5147,"баг":5148,"сак":5149,"міль":5150,"лока":5151,"графічна":5152,"закрі":5153,"язується":5154,"рування":5155,"тифіка":5156,"піло":5157,"залі":5158,"даний":5159,"сіл":5160,"лес":5161,"ier":5162,"вчини":5163,"ляційну":5164,"ініціати":5165,"службов":5166,"часи":5167,"казах":5168,"шеного":5169,"дійшла":5170,"штур":5171,"позичаль":5172,"соці":5173,"конфлік":5174,"основних":5175,"пут":5176,"повного":5177,"носинах":5178,"заповід":5179,"1959":5180,"стягнуто":5181,"нашого":5182,"1961":5183,"1962":5184,"грудні":5185,"вигра":5186,"реак":5187,"httpwww":5188,"ланцю":5189,"крила":5190,"єдиного":5191,"березі":5192,"брази":5193,"idae":5194,"zn":5195,"erat":5196,"чотирьох":5197,"зруй":5198,"князя":5199,"джен":5200,"податків":5201,"1936":5202,"другій":5203,"аналізу":5204,"женим":5205,"стичної":5206,"канал":5207,"іспан":5208,"березні":5209,"сток":5210,"збуд":5211,"звідки":5212,"кину":5213,"літетів":5214,"сем":5215,"лай":5216,"запро":5217,"віри":5218,"портре":5219,"загальні":5220,"зве":5221,"неправи":5222,"фей":5223,"явилися":5224,"наша":5225,"war":5226,"пень":5227,"язаних":5228,"штат":5229,"логи":5230,"прихи":5231,"війні":5232,"cent":5233,"eu":5234,"руках":5235,"кири":5236,"динамо":5237,"нила":5238,"тієї":5239,"перепис":5240,"дзер":5241,"залише":5242,"нега":5243,"стара":5244,"вене":5245,"позові":5246,"сул":5247,"ходила":5248,"новому":5249,"сав":5250,"густо":5251,"медаль":5252,"війну":5253,"денні":5254,"гімна":5255,"віл":5256,"лею":5257,"триво":5258,"гію":5259,"степан":5260,"космі":5261,"льник":5262,"зброї":5263,"назви":5264,"1957":5265,"1956":5266,"vol":5267,"визво":5268,"дарем":5269,"хоро":5270,"втім":5271,"обл":5272,"ігр":5273,"числа":5274,"хії":5275,"уря":5276,"анна":5277,"ane":5278,"генрі":5279,"наймен":5280,"ele":5281,"дін":5282,"замок":5283,"стоїть":5284,"ала":5285,"ама":5286,"кодексом":5287,"шості":5288,"нафтогаз":5289,"cy":5290,"фанта":5291,"команд":5292,"my":5293,"перемоги":5294,"1958":5295,"страш":5296,"ліній":5297,"мину":5298,"двічі":5299,"поміч":5300,"даної":5301,"уд":5302,"спорт":5303,"державна":5304,"рози":5305,"сією":5306,"фірма":5307,"тками":5308,"запису":5309,"відома":5310,"збірну":5311,"тична":5312,"чемпіо":5313,"спон":5314,"ймен":5315,"театр":5316,"виш":5317,"метро":5318,"gu":5319,"гк":5320,"ленко":5321,"командир":5322,"акта":5323,"моле":5324,"швидше":5325,"травні":5326,"герцо":5327,"ходяться":5328,"лію":5329,"жод":5330,"рію":5331,"mus":5332,"штабу":5333,"відбуло":5334,"ния":5335,"певно":5336,"жіночої":5337,"сові":5338,"необґрун":5339,"їхати":5340,"стями":5341,"щенко":5342,"увалися":5343,"січні":5344,"пд":5345,"кредитор":5346,"язи":5347,"орієн":5348,"школу":5349,"лед":5350,"взяли":5351,"такому":5352,"номов":5353,"розрах":5354,"паки":5355,"іспанії":5356,"1864":5357,"відбувся":5358,"злочин":5359,"спірного":5360,"спеди":5361,"отримати":5362,"майдан":5363,"товані":5364,"статуту":5365,"фікова":5366,"поспі":5367,"тує":5368,"маси":5369,"бас":5370,"нівна":5371,"віз":5372,"стін":5373,"власне":5374,"ская":5375,"леген":5376,"парижа":5377,"101":5378,"виправ":5379,"відмін":5380,"воль":5381,"стика":5382,"розряд":5383,"ари":5384,"ствах":5385,"сел":5386,"ld":5387,"дяку":5388,"герой":5389,"опі":5390,"мети":5391,"напад":5392,"by":5393,"пери":5394,"105":5395,"фік":5396,"дозволяє":5397,"тивне":5398,"int":5399,"жної":5400,"нідер":5401,"аук":5402,"знаєш":5403,"жують":5404,"глі":5405,"бойових":5406,"думка":5407,"сну":5408,"власника":5409,"йорк":5410,"модель":5411,"нальній":5412,"пустив":5413,"табо":5414,"nation":5415,"експеди":5416,"ory":5417,"метра":5418,"нагаду":5419,"тичний":5420,"однораз":5421,"віді":5422,"ud":5423,"компен":5424,"текст":5425,"бел":5426,"житті":5427,"марк":5428,"зустріч":5429,"диха":5430,"асте":5431,"тору":5432,"відступ":5433,"спадко":5434,"десять":5435,"набирає":5436,"вересні":5437,"країна":5438,"окупанти":5439,"115":5440,"урочи":5441,"book":5442,"потерпі":5443,"руками":5444,"давності":5445,"гетьман":5446,"коопера":5447,"історію":5448,"яни":5449,"юся":5450,"ack":5451,"підпоряд":5452,"складає":5453,"солю":5454,"правило":5455,"розділу":5456,"viii":5457,"приписа":5458,"стрів":5459,"інструк":5460,"контракт":5461,"оспорюва":5462,"уяв":5463,"шир":5464,"зраз":5465,"випуск":5466,"петен":5467,"сять":5468,"1000":5469,"ава":5470,"японії":5471,"перекла":5472,"баз":5473,"проха":5474,"лик":5475,"тіна":5476,"uss":5477,"дитини":5478,"ціаліз":5479,"лізації":5480,"йом":5481,"чою":5482,"чкою":5483,"подав":5484,"бригади":5485,"bit":5486,"кот":5487,"риба":5488,"влада":5489,"машини":5490,"сидів":5491,"течі":5492,"жовтні":5493,"118":5494,"парку":5495,"1947":5496,"нувати":5497,"голові":5498,"гурту":5499,"нальне":5500,"реаліз":5501,"відпові":5502,"компетен":5503,"європі":5504,"бон":5505,"кажуть":5506,"щад":5507,"їж":5508,"особу":5509,"прожива":5510,"мові":5511,"фабри":5512,"ухвала":5513,"129":5514,"кален":5515,"площу":5516,"gra":5517,"бізнес":5518,"серія":5519,"інак":5520,"fer":5521,"їхали":5522,"ba":5523,"переду":5524,"міра":5525,"ke":5526,"погляд":5527,"охорона":5528,"природи":5529,"одяг":5530,"вимі":5531,"державне":5532,"чорного":5533,"подумав":5534,"спілки":5535,"ятник":5536,"вимогами":5537,"чинів":5538,"тства":5539,"праг":5540,"скона":5541,"запитав":5542,"ьо":5543,"ліж":5544,"написав":5545,"вікі":5546,"new":5547,"місяці":5548,"фіналу":5549,"матч":5550,"містом":5551,"місь":5552,"малю":5553,"бронз":5554,"her":5555,"тованим":5556,"дол":5557,"одній":5558,"серпні":5559,"ує":5560,"цві":5561,"лос":5562,"поняття":5563,"тоні":5564,"напа":5565,"вісім":5566,"супрово":5567,"коно":5568,"факти":5569,"завідува":5570,"лялося":5571,"місць":5572,"прапор":5573,"пився":5574,"гору":5575,"жується":5576,"ster":5577,"тал":5578,"ізо":5579,"1929":5580,"певне":5581,"узго":5582,"доне":5583,"дядь":5584,"експери":5585,"шкіль":5586,"силі":5587,"точки":5588,"інша":5589,"плате":5590,"унд":5591,"широко":5592,"даря":5593,"вось":5594,"ачу":5595,"прокурор":5596,"болга":5597,"учили":5598,"армія":5599,"астерої":5600,"ans":5601,"автобу":5602,"уль":5603,"нх":5604,"внесе":5605,"тимо":5606,"оце":5607,"ставки":5608,"корін":5609,"причини":5610,"знищи":5611,"розпоряд":5612,"відчува":5613,"ступу":5614,"входять":5615,"нежитл":5616,"мері":5617,"пошт":5618,"річна":5619,"1954":5620,"предмета":5621,"аре":5622,"125":5623,"візи":5624,"вилу":5625,"червні":5626,"гаррі":5627,"татар":5628,"наклад":5629,"абсолю":5630,"хромо":5631,"робить":5632,"греко":5633,"блю":5634,"узбере":5635,"слави":5636,"сіння":5637,"таж":5638,"контак":5639,"діапазо":5640,"1948":5641,"держава":5642,"радо":5643,"обчис":5644,"гера":5645,"чись":5646,"лад":5647,"правові":5648,"овах":5649,"потен":5650,"1921":5651,"остров":5652,"негай":5653,"послідов":5654,"пропу":5655,"крей":5656,"творів":5657,"бажання":5658,"міськра":5659,"театра":5660,"ds":5661,"вимогу":5662,"мю":5663,"падало":5664,"ницею":5665,"шан":5666,"філосо":5667,"рахун":5668,"чими":5669,"ka":5670,"тлу":5671,"дерева":5672,"петра":5673,"цілі":5674,"сезоні":5675,"стях":5676,"першій":5677,"land":5678,"пах":5679,"корабель":5680,"фре":5681,"астро":5682,"азі":5683,"здобув":5684,"моні":5685,"губи":5686,"заводу":5687,"розпа":5688,"гравця":5689,"євген":5690,"сви":5691,"пої":5692,"мець":5693,"мото":5694,"містять":5695,"заява":5696,"ворог":5697,"дрів":5698,"атом":5699,"липні":5700,"порож":5701,"сонця":5702,"поступ":5703,"єдиний":5704,"стаді":5705,"штов":5706,"квітні":5707,"діб":5708,"тному":5709,"уся":5710,"інспек":5711,"суванням":5712,"переможе":5713,"волосся":5714,"кулярна":5715,"цьких":5716,"нотаріу":5717,"зарах":5718,"кос":5719,"білорусі":5720,"заході":5721,"зіт":5722,"міська":5723,"ty":5724,"установи":5725,"нижче":5726,"бун":5727,"норве":5728,"правила":5729,"сором":5730,"іншій":5731,"бездіяль":5732,"харч":5733,"коня":5734,"зами":5735,"пункті":5736,"парти":5737,"приписів":5738,"лили":5739,"air":5740,"іграх":5741,"учи":5742,"ленін":5743,"кз":5744,"кулі":5745,"порушено":5746,"кадастр":5747,"лився":5748,"посаді":5749,"юк":5750,"ite":5751,"відносно":5752,"бов":5753,"віру":5754,"вказані":5755,"розкри":5756,"малі":5757,"наукових":5758,"радою":5759,"основним":5760,"сне":5761,"хнув":5762,"телі":5763,"проф":5764,"1935":5765,"білок":5766,"рештою":5767,"стіни":5768,"призер":5769,"котрі":5770,"екра":5771,"вікна":5772,"австрі":5773,"закарпат":5774,"ies":5775,"століт":5776,"les":5777,"щені":5778,"дс":5779,"цікави":5780,"річний":5781,"резо":5782,"250":5783,"лабора":5784,"фігу":5785,"ядер":5786,"діл":5787,"шука":5788,"жодного":5789,"фаль":5790,"наразі":5791,"рювання":5792,"помешка":5793,"national":5794,"мось":5795,"маючи":5796,"ап":5797,"1928":5798,"чан":5799,"дитин":5800,"сора":5801,"ота":5802,"зміна":5803,"вітчи":5804,"старші":5805,"руб":5806,"ліцен":5807,"дух":5808,"чув":5809,"ин":5810,"мні":5811,"from":5812,"тисячі":5813,"важливі":5814,"бомбар":5815,"зміну":5816,"sa":5817,"tra":5818,"космо":5819,"des":5820,"нував":5821,"наступні":5822,"стор":5823,"телем":5824,"вкладів":5825,"пою":5826,"альним":5827,"ері":5828,"накла":5829,"моделі":5830,"ув":5831,"поку":5832,"розби":5833,"щів":5834,"ние":5835,"поширю":5836,"зіграв":5837,"лева":5838,"підпису":5839,"судовий":5840,"брю":5841,"бухгал":5842,"новим":5843,"торами":5844,"ництві":5845,"валась":5846,"риб":5847,"гумані":5848,"опису":5849,"соль":5850,"теоре":5851,"600":5852,"ata":5853,"сир":5854,"сигна":5855,"джень":5856,"запла":5857,"очей":5858,"чорних":5859,"спала":5860,"щено":5861,"останнім":5862,"лідер":5863,"лікарні":5864,"парт":5865,"щений":5866,"чуд":5867,"світи":5868,"лівка":5869,"боб":5870,"династі":5871,"відвід":5872,"золота":5873,"шляху":5874,"лиши":5875,"величез":5876,"терна":5877,"ser":5878,"правом":5879,"своєчас":5880,"подру":5881,"самим":5882,"важливо":5883,"стороною":5884,"околи":5885,"будинків":5886,"третьою":5887,"вітер":5888,"хол":5889,"свер":5890,"туреч":5891,"дка":5892,"максим":5893,"сльо":5894,"щасли":5895,"800":5896,"машин":5897,"лука":5898,"депутат":5899,"реві":5900,"ze":5901,"азії":5902,"басей":5903,"ючі":5904,"хімічно":5905,"hy":5906,"проща":5907,"жаль":5908,"криму":5909,"храм":5910,"центром":5911,"специ":5912,"чену":5913,"вела":5914,"бота":5915,"треті":5916,"кун":5917,"втру":5918,"don":5919,"контра":5920,"1923":5921,"жився":5922,"здор":5923,"магні":5924,"цивільне":5925,"найближ":5926,"фікс":5927,"семен":5928,"тік":5929,"претен":5930,"pa":5931,"лега":5932,"вночі":5933,"неналеж":5934,"тованого":5935,"йно":5936,"інакше":5937,"боє":5938,"руха":5939,"1955":5940,"зький":5941,"press":5942,"ue":5943,"1927":5944,"мама":5945,"доло":5946,"публіка":5947,"подібні":5948,"xviii":5949,"фс":5950,"намі":5951,"кує":5952,"тву":5953,"єврей":5954,"епіз":5955,"вага":5956,"обід":5957,"лютому":5958,"різа":5959,"колом":5960,"спадщини":5961,"дової":5962,"захисник":5963,"захища":5964,"закор":5965,"хромосо":5966,"супереч":5967,"ціни":5968,"wi":5969,"англії":5970,"смт":5971,"тинг":5972,"віднови":5973,"кинув":5974,"кб":5975,"філа":5976,"факту":5977,"працюють":5978,"збірна":5979,"ліквід":5980,"соціалі":5981,"перемі":5982,"107":5983,"нувшись":5984,"ігри":5985,"епізод":5986,"шоу":5987,"113":5988,"країнах":5989,"румунії":5990,"надалі":5991,"пай":5992,"людя":5993,"іл":5994,"грошей":5995,"шина":5996,"словості":5997,"203":5998,"сотні":5999,"зосере":6000,"еваку":6001,"літку":6002,"обвинува":6003,"mer":6004,"кладено":6005,"актом":6006,"стон":6007,"квартири":6008,"спортс":6009,"ной":6010,"брата":6011,"доля":6012,"бач":6013,"овик":6014,"матчах":6015,"зада":6016,"нюк":6017,"тепл":6018,"екі":6019,"чують":6020,"1949":6021,"акцій":6022,"вд":6023,"лео":6024,"гора":6025,"язана":6026,"ючим":6027,"взяти":6028,"льє":6029,"бек":6030,"трен":6031,"тана":6032,"ніяк":6033,"супут":6034,"1914":6035,"карл":6036,"знайшли":6037,"ненню":6038,"обидва":6039,"кало":6040,"пройшов":6041,"слаб":6042,"сал":6043,"дір":6044,"ціліс":6045,"мистецтв":6046,"архів":6047,"сюжет":6048,"керівник":6049,"чеві":6050,"миро":6051,"зрештою":6052,"допуска":6053,"очах":6054,"сумні":6055,"солдат":6056,"веб":6057,"біл":6058,"усунення":6059,"117":6060,"world":6061,"ол":6062,"жих":6063,"тюр":6064,"ger":6065,"пром":6066,"дозволу":6067,"тобою":6068,"музею":6069,"чука":6070,"раду":6071,"щим":6072,"коні":6073,"подано":6074,"співав":6075,"єнко":6076,"зал":6077,"похова":6078,"герої":6079,"столітті":6080,"тованими":6081,"неді":6082,"адресу":6083,"хлопці":6084,"стань":6085,"тома":6086,"сва":6087,"витяг":6088,"саму":6089,"шот":6090,"дивізії":6091,"прес":6092,"вчин":6093,"кіна":6094,"тини":6095,"дес":6096,"рот":6097,"іпотеко":6098,"приймає":6099,"лива":6100,"хворо":6101,"дещо":6102,"створено":6103,"лізі":6104,"плив":6105,"ційну":6106,"je":6107,"наступне":6108,"фікація":6109,"чинній":6110,"інду":6111,"краси":6112,"навчався":6113,"фактичні":6114,"небудь":6115,"похід":6116,"вак":6117,"ненко":6118,"поверхні":6119,"виходу":6120,"che":6121,"1925":6122,"митро":6123,"засоби":6124,"десят":6125,"gl":6126,"102":6127,"олена":6128,"1953":6129,"запрова":6130,"версія":6131,"казали":6132,"operat":6133,"язано":6134,"подій":6135,"1952":6136,"формова":6137,"варша":6138,"вказує":6139,"щує":6140,"мило":6141,"база":6142,"збирати":6143,"поліцей":6144,"зької":6145,"сплатити":6146,"зрозумів":6147,"записа":6148,"вигляд":6149,"команді":6150,"гау":6151,"залишив":6152,"ha":6153,"заби":6154,"непри":6155,"грошові":6156,"банком":6157,"головне":6158,"дорів":6159,"тність":6160,"філії":6161,"ворога":6162,"меда":6163,"аналогі":6164,"розв":6165,"пісень":6166,"йти":6167,"плата":6168,"відміну":6169,"немож":6170,"члени":6171,"аукціо":6172,"бабу":6173,"куле":6174,"виконати":6175,"діть":6176,"обтя":6177,"ключ":6178,"власник":6179,"двадцять":6180,"концеп":6181,"жем":6182,"знаєте":6183,"пори":6184,"ляться":6185,"парафі":6186,"пур":6187,"недолі":6188,"ласка":6189,"тлума":6190,"актами":6191,"військо":6192,"загальну":6193,"боржник":6194,"литов":6195,"фф":6196,"hist":6197,"вані":6198,"крав":6199,"уванні":6200,"мими":6201,"полк":6202,"кано":6203,"hd":6204,"1924":6205,"нагоро":6206,"металур":6207,"неться":6208,"вія":6209,"дьми":6210,"ry":6211,"тона":6212,"1926":6213,"алу":6214,"кома":6215,"ja":6216,"леоні":6217,"ung":6218,"гурт":6219,"їхніх":6220,"ївка":6221,"телефо":6222,"котрий":6223,"родині":6224,"надісла":6225,"повсю":6226,"ann":6227,"утриму":6228,"особами":6229,"трене":6230,"130":6231,"доль":6232,"zsu":6233,"сухо":6234,"шується":6235,"ina":6236,"америки":6237,"оподатк":6238,"львові":6239,"215":6240,"напрям":6241,"структур":6242,"пише":6243,"робив":6244,"масштаб":6245,"словач":6246,"лими":6247,"джений":6248,"праць":6249,"sc":6250,"вугілля":6251,"старого":6252,"віст":6253,"ольга":6254,"ленд":6255,"піде":6256,"царя":6257,"мя":6258,"моз":6259,"ium":6260,"стріль":6261,"розпочав":6262,"ure":6263,"знайшов":6264,"торгівлі":6265,"пуль":6266,"священ":6267,"теорії":6268,"велике":6269,"крає":6270,"крові":6271,"ефектив":6272,"ivno":6273,"наведені":6274,"межами":6275,"молодші":6276,"нулася":6277,"тили":6278,"жене":6279,"блаки":6280,"скрі":6281,"якусь":6282,"сос":6283,"рона":6284,"прито":6285,"русі":6286,"сьо":6287,"зд":6288,"торгове":6289,"arch":6290,"хлопець":6291,"компенса":6292,"матір":6293,"руш":6294,"листя":6295,"тності":6296,"дний":6297,"владу":6298,"всьому":6299,"шена":6300,"півдні":6301,"місцевим":6302,"нала":6303,"ілю":6304,"цілому":6305,"ivnozsu":6306,"оціню":6307,"тній":6308,"яй":6309,"птахів":6310,"коротко":6311,"йоси":6312,"продю":6313,"комуніка":6314,"творчі":6315,"вому":6316,"інтерес":6317,"1922":6318,"договорі":6319,"заста":6320,"стягнути":6321,"приту":6322,"судно":6323,"танцю":6324,"твій":6325,"чорний":6326,"атації":6327,"жого":6328,"включає":6329,"геном":6330,"австрій":6331,"відро":6332,"серця":6333,"зумов":6334,"питала":6335,"фрід":6336,"стою":6337,"меморі":6338,"курс":6339,"лера":6340,"майор":6341,"кн":6342,"тиву":6343,"частіше":6344,"106":6345,"упа":6346,"москві":6347,"ніна":6348,"ага":6349,"вогонь":6350,"вики":6351,"судовими":6352,"ступінь":6353,"всесвіт":6354,"хами":6355,"валерій":6356,"розвід":6357,"франція":6358,"люються":6359,"тест":6360,"кал":6361,"менко":6362,"річчя":6363,"суль":6364,"ііі":6365,"114":6366,"говорить":6367,"листом":6368,"бран":6369,"фахів":6370,"паро":6371,"уточ":6372,"гов":6373,"конти":6374,"ютер":6375,"свяще":6376,"ярослав":6377,"ісла":6378,"правочин":6379,"жна":6380,"періоди":6381,"мешканця":6382,"ow":6383,"вира":6384,"гає":6385,"випадок":6386,"act":6387,"108":6388,"довіре":6389,"наголо":6390,"продав":6391,"визначає":6392,"ченими":6393,"енько":6394,"муль":6395,"куляр":6396,"жорсто":6397,"джерело":6398,"звинува":6399,"філі":6400,"застосов":6401,"столиці":6402,"суттє":6403,"думає":6404,"екіпа":6405,"1931":6406,"form":6407,"номе":6408,"ivers":6409,"ict":6410,"верей":6411,"нали":6412,"дженого":6413,"шенко":6414,"монастир":6415,"маз":6416,"сфе":6417,"вивчення":6418,"законів":6419,"освіту":6420,"семи":6421,"магази":6422,"трем":6423,"рович":6424,"чості":6425,"кредит":6426,"проблем":6427,"наявні":6428,"vii":6429,"острові":6430,"нуті":6431,"кула":6432,"внес":6433,"зорі":6434,"ult":6435,"захисти":6436,"місцем":6437,"орендар":6438,"філософі":6439,"тиждень":6440,"александ":6441,"впливу":6442,"фк":6443,"дверей":6444,"споруди":6445,"шести":6446,"споруд":6447,"набрання":6448,"мінера":6449,"спостере":6450,"стами":6451,"1951":6452,"топ":6453,"влітку":6454,"зде":6455,"ukra":6456,"дного":6457,"григор":6458,"эн":6459,"автори":6460,"носить":6461,"нікчем":6462,"рож":6463,"обраний":6464,"чорні":6465,"атлан":6466,"частки":6467,"служба":6468,"дем":6469,"терори":6470,"районах":6471,"діяти":6472,"дре":6473,"лінг":6474,"телів":6475,"водою":6476,"лас":6477,"лівна":6478,"рс":6479,"тарас":6480,"поет":6481,"зрі":6482,"стояли":6483,"вказаних":6484,"петрович":6485,"їзду":6486,"пішли":6487,"ментом":6488,"очіку":6489,"штрафу":6490,"ніг":6491,"первин":6492,"атле":6493,"рис":6494,"зс":6495,"тира":6496,"таабо":6497,"леною":6498,"дорозі":6499,"яки":6500,"ga":6501,"вича":6502,"104":6503,"хліб":6504,"плечі":6505,"фільмі":6506,"даному":6507,"починає":6508,"календар":6509,"шись":6510,"прися":6511,"наданих":6512,"образ":6513,"музики":6514,"ділянкою":6515,"кух":6516,"кви":6517,"затрима":6518,"стояла":6519,"іншому":6520,"дорогу":6521,"єпископ":6522,"льною":6523,"неба":6524,"дівчин":6525,"флоту":6526,"оспо":6527,"деклара":6528,"партнер":6529,"бачу":6530,"навколиш":6531,"кевич":6532,"проєкт":6533,"хам":6534,"передано":6535,"цент":6536,"ire":6537,"хвороби":6538,"млрд":6539,"ділянка":6540,"автомати":6541,"пост":6542,"санкцій":6543,"одеса":6544,"гес":6545,"брала":6546,"перероб":6547,"петербур":6548,"будови":6549,"печа":6550,"джених":6551,"тували":6552,"усім":6553,"ливих":6554,"числи":6555,"межею":6556,"замку":6557,"xt":6558,"свідчать":6559,"кафедри":6560,"інвест":6561,"окремі":6562,"філософ":6563,"виявлено":6564,"суспі":6565,"кандидат":6566,"вклад":6567,"розділ":6568,"спекції":6569,"ватись":6570,"кінце":6571,"age":6572,"стійно":6573,"лінія":6574,"футболі":6575,"кольору":6576,"win":6577,"виступів":6578,"певні":6579,"af":6580,"кімнати":6581,"синг":6582,"комуни":6583,"ятки":6584,"заявник":6585,"беруть":6586,"зане":6587,"виплати":6588,"комітет":6589,"заса":6590,"блід":6591,"пішла":6592,"рога":6593,"перегляд":6594,"нічний":6595,"iss":6596,"покли":6597,"випуска":6598,"переслід":6599,"зах":6600,"доки":6601,"іллі":6602,"ніка":6603,"берег":6604,"цев":6605,"ливості":6606,"долу":6607,"рб":6608,"бідності":6609,"бак":6610,"сестра":6611,"душу":6612,"механіз":6613,"зору":6614,"побачити":6615,"тивну":6616,"устрою":6617,"голи":6618,"фом":6619,"хоті":6620,"ice":6621,"ранці":6622,"свобод":6623,"ваються":6624,"подала":6625,"введення":6626,"мирович":6627,"стин":6628,"карпа":6629,"ччя":6630,"приго":6631,"pp":6632,"пки":6633,"стилі":6634,"бари":6635,"номовних":6636,"небе":6637,"модер":6638,"вечері":6639,"баланс":6640,"підсум":6641,"другому":6642,"невідомо":6643,"темно":6644,"мексико":6645,"гара":6646,"ath":6647,"сторон":6648,"вираз":6649,"рівнем":6650,"ment":6651,"тетя":6652,"форд":6653,"континен":6654,"нальним":6655,"трам":6656,"їн":6657,"комбінат":6658,"коти":6659,"принцип":6660,"ковані":6661,"звича":6662,"вчора":6663,"описа":6664,"швед":6665,"гим":6666,"елі":6667,"графи":6668,"невже":6669,"йся":6670,"зустрічі":6671,"десан":6672,"вантажу":6673,"шукати":6674,"рота":6675,"угоду":6676,"кида":6677,"стим":6678,"yout":6679,"тропі":6680,"добра":6681,"органами":6682,"знала":6683,"червоно":6684,"окремо":6685,"бачити":6686,"їжджа":6687,"cd":6688,"почуття":6689,"строки":6690,"коронаві":6691,"надає":6692,"списку":6693,"юсь":6694,"реєстрі":6695,"заво":6696,"пау":6697,"ницька":6698,"расовий":6699,"попри":6700,"регуляр":6701,"вступив":6702,"ґрунт":6703,"темря":6704,"невід":6705,"палац":6706,"полта":6707,"cer":6708,"фіналі":6709,"розпові":6710,"азов":6711,"самому":6712,"альтерна":6713,"атмо":6714,"ical":6715,"джейм":6716,"імен":6717,"цькі":6718,"надані":6719,"викон":6720,"молодий":6721,"стіл":6722,"понен":6723,"поклада":6724,"рідною":6725,"розповсю":6726,"число":6727,"бє":6728,"шк":6729,"дени":6730,"приклад":6731,"ase":6732,"свободи":6733,"рівка":6734,"ary":6735,"явились":6736,"pt":6737,"культура":6738,"повіті":6739,"констан":6740,"лт":6741,"жувані":6742,"обсяг":6743,"сильно":6744,"vo":6745,"цікаві":6746,"візь":6747,"всій":6748,"щува":6749,"сау":6750,"джува":6751,"перемогу":6752,"блиску":6753,"роже":6754,"білий":6755,"ауди":6756,"турою":6757,"віковим":6758,"закордон":6759,"встиг":6760,"bu":6761,"договори":6762,"відправи":6763,"системі":6764,"наведене":6765,"знали":6766,"мешкало":6767,"загибли":6768,"доброві":6769,"обгово":6770,"певних":6771,"мості":6772,"армій":6773,"законним":6774,"призвело":6775,"передачу":6776,"350":6777,"спіл":6778,"шують":6779,"фунда":6780,"довелося":6781,"неможли":6782,"буль":6783,"fb":6784,"сної":6785,"оплату":6786,"гривень":6787,"овану":6788,"залежить":6789,"островів":6790,"великим":6791,"існують":6792,"перене":6793,"відзив":6794,"повинно":6795,"маємо":6796,"кореспон":6797,"біла":6798,"dr":6799,"женої":6800,"варто":6801,"міт":6802,"que":6803,"ляла":6804,"пряму":6805,"підвод":6806,"негайно":6807,"ледве":6808,"особа6":6809,"рекор":6810,"сміха":6811,"скориста":6812,"захоп":6813,"іра":6814,"стриб":6815,"нормами":6816,"ence":6817,"вислов":6818,"va":6819,"шлюб":6820,"лд":6821,"повне":6822,"місцях":6823,"людьми":6824,"вир":6825,"подару":6826,"стають":6827,"цифр":6828,"sm":6829,"ерго":6830,"приводу":6831,"дизай":6832,"припа":6833,"нями":6834,"яків":6835,"фірми":6836,"чев":6837,"розгор":6838,"телеві":6839,"val":6840,"вр":6841,"ледь":6842,"солід":6843,"цькому":6844,"128":6845,"суть":6846,"мила":6847,"служив":6848,"математи":6849,"180":6850,"зміг":6851,"схова":6852,"суході":6853,"собор":6854,"введе":6855,"вважав":6856,"домашнє":6857,"вважають":6858,"віце":6859,"103":6860,"корпусу":6861,"коричне":6862,"ріг":6863,"кера":6864,"xvii":6865,"загинули":6866,"герб":6867,"нуть":6868,"літеті":6869,"сані":6870,"віч":6871,"вантажів":6872,"роздріб":6873,"мовчки":6874,"ste":6875,"відсоток":6876,"торгівля":6877,"вису":6878,"дорога":6879,"журнал":6880,"тацію":6881,"зони":6882,"виму":6883,"резолю":6884,"живуть":6885,"єктами":6886,"джей":6887,"адвокат":6888,"віталій":6889,"новини":6890,"застави":6891,"іще":6892,"дозволи":6893,"скор":6894,"pan":6895,"загро":6896,"зоні":6897,"сфери":6898,"кіт":6899,"1900":6900,"рат":6901,"невда":6902,"вирішено":6903,"народів":6904,"людину":6905,"стародав":6906,"зважаючи":6907,"сити":6908,"будівля":6909,"лежить":6910,"якісь":6911,"мініма":6912,"зможе":6913,"єць":6914,"ллю":6915,"вря":6916,"арген":6917,"ходило":6918,"мару":6919,"univers":6920,"виникли":6921,"інтелек":6922,"кзпп":6923,"азер":6924,"122":6925,"альне":6926,"linear":6927,"ps":6928,"великій":6929,"миру":6930,"зру":6931,"ube":6932,"нях":6933,"долі":6934,"високий":6935,"могло":6936,"датів":6937,"газети":6938,"бн":6939,"оон":6940,"валось":6941,"народних":6942,"тежів":6943,"домі":6944,"нідерлан":6945,"жодних":6946,"лізин":6947,"мороз":6948,"шма":6949,"bi":6950,"подиви":6951,"золото":6952,"нич":6953,"веду":6954,"випуску":6955,"медалі":6956,"суходіл":6957,"платежів":6958,"ємець":6959,"вибух":6960,"святої":6961,"нести":6962,"логу":6963,"копії":6964,"olog":6965,"дружини":6966,"дт":6967,"подоба":6968,"чвер":6969,"ґо":6970,"шпи":6971,"висл":6972,"слове":6973,"силля":6974,"жителі":6975,"витя":6976,"верта":6977,"сент":6978,"столу":6979,"вільям":6980,"тривало":6981,"навпаки":6982,"вибір":6983,"значить":6984,"грати":6985,"походить":6986,"льними":6987,"музикан":6988,"inst":6989,"побут":6990,"рять":6991,"богдан":6992,"будемо":6993,"жжі":6994,"ато":6995,"лондон":6996,"пропаган":6997,"степ":6998,"псе":6999,"няючи":7000,"дили":7001,"сокор":7002,"більшого":7003,"маг":7004,"ань":7005,"рум":7006,"966":7007,"пій":7008,"сір":7009,"їхала":7010,"уби":7011,"140":7012,"швейца":7013,"ору":7014,"різними":7015,"дочка":7016,"долари":7017,"мужність":7018,"душ":7019,"талан":7020,"fl":7021,"іншу":7022,"грун":7023,"переліку":7024,"wo":7025,"бруд":7026,"будинки":7027,"сокорро":7028,"передав":7029,"тною":7030,"корпус":7031,"кнула":7032,"засобами":7033,"густота":7034,"wn":7035,"бера":7036,"біж":7037,"щойно":7038,"всебічно":7039,"повний":7040,"фронт":7041,"дого":7042,"музика":7043,"байджа":7044,"вийшли":7045,"сверд":7046,"агра":7047,"поміж":7048,"афро":7049,"помітив":7050,"трапля":7051,"прила":7052,"оф":7053,"цере":7054,"зворо":7055,"чарів":7056,"відділ":7057,"женні":7058,"львова":7059,"інвен":7060,"кинувся":7061,"дки":7062,"збу":7063,"блок":7064,"психі":7065,"середнь":7066,"опини":7067,"обумов":7068,"аван":7069,"цими":7070,"клімат":7071,"разд":7072,"юні":7073,"жин":7074,"заходу":7075,"продаж":7076,"думаю":7077,"іль":7078,"золотий":7079,"принай":7080,"end":7081,"пенсій":7082,"res":7083,"коду":7084,"лє":7085,"скін":7086,"вищої":7087,"шся":7088,"ваги":7089,"триває":7090,"крити":7091,"блів":7092,"сіті":7093,"ріо":7094,"державні":7095,"костю":7096,"довзі":7097,"федор":7098,"господи":7099,"дельта":7100,"маке":7101,"цінних":7102,"випли":7103,"виносила":7104,"повстан":7105,"потреб":7106,"пусте":7107,"чам":7108,"чорномор":7109,"тривали":7110,"альбому":7111,"перш":7112,"невдовзі":7113,"стійних":7114,"tim":7115,"польо":7116,"промовив":7117,"друзі":7118,"прошу":7119,"правову":7120,"бував":7121,"поразки":7122,"вперед":7123,"євре":7124,"covid":7125,"неустой":7126,"лиша":7127,"графа":7128,"lon":7129,"овищі":7130,"кували":7131,"дерево":7132,"новою":7133,"вартістю":7134,"стори":7135,"еска":7136,"документ":7137,"бувати":7138,"містах":7139,"вач":7140,"нини":7141,"озера":7142,"йдеться":7143,"прогу":7144,"програму":7145,"гові":7146,"якась":7147,"розповів":7148,"новови":7149,"глиб":7150,"лінд":7151,"свідомо":7152,"ділянці":7153,"124":7154,"оспожива":7155,"інтернет":7156,"нашу":7157,"орке":7158,"ics":7159,"відсту":7160,"ale":7161,"кожної":7162,"версії":7163,"медици":7164,"потреби":7165,"вт":7166,"109":7167,"прихиль":7168,"мка":7169,"буха":7170,"фоп":7171,"ходом":7172,"практики":7173,"діями":7174,"носини":7175,"мік":7176,"лісу":7177,"точно":7178,"700":7179,"учасника":7180,"фео":7181,"інтерв":7182,"барв":7183,"няк":7184,"сексу":7185,"хорва":7186,"ційне":7187,"лої":7188,"санкції":7189,"ційним":7190,"виникає":7191,"али":7192,"покупець":7193,"жуваних":7194,"враз":7195,"зим":7196,"хвилину":7197,"навіщо":7198,"залишає":7199,"ринок":7200,"сіс":7201,"220":7202,"315":7203,"нововияв":7204,"глянув":7205,"кохання":7206,"очевидно":7207,"вк":7208,"інва":7209,"малий":7210,"корінних":7211,"східній":7212,"самий":7213,"етно":7214,"підзем":7215,"ный":7216,"пома":7217,"виділя":7218,"гравець":7219,"нально":7220,"укра":7221,"цілий":7222,"іг":7223,"літак":7224,"каме":7225,"нічних":7226,"протиле":7227,"нхл":7228,"океан":7229,"заку":7230,"читати":7231,"потрапив":7232,"кораблі":7233,"колум":7234,"єро":7235,"конкурсу":7236,"енергію":7237,"пс":7238,"308":7239,"єпар":7240,"хв":7241,"підставу":7242,"леніна":7243,"зені":7244,"санкт":7245,"сталі":7246,"зра":7247,"зова":7248,"виборів":7249,"осі":7250,"хав":7251,"ide":7252,"марії":7253,"заспо":7254,"gro":7255,"парале":7256,"коефі":7257,"хазя":7258,"пас":7259,"діо":7260,"відпу":7261,"коней":7262,"гаразд":7263,"uane":7264,"заявника":7265,"суміс":7266,"корі":7267,"патріар":7268,"людям":7269,"показав":7270,"озер":7271,"непода":7272,"кампа":7273,"скаже":7274,"хочеш":7275,"андрі":7276,"ml":7277,"ціна":7278,"провести":7279,"новій":7280,"одиниця":7281,"водой":7282,"надія":7283,"перу":7284,"зброю":7285,"морських":7286,"хату":7287,"замовник":7288,"увійшов":7289,"верши":7290,"мотиви":7291,"самови":7292,"особам":7293,"карто":7294,"їсти":7295,"urn":7296,"неначе":7297,"каналу":7298,"числен":7299,"активно":7300,"увавши":7301,"ливом":7302,"екологі":7303,"корабля":7304,"прекра":7305,"ера":7306,"проходив":7307,"мура":7308,"катастро":7309,"домов":7310,"вы":7311,"ther":7312,"зін":7313,"набуття":7314,"ской":7315,"вдя":7316,"пласти":7317,"прилюд":7318,"другу":7319,"студії":7320,"ny":7321,"коштов":7322,"критері":7323,"неща":7324,"тину":7325,"спожи":7326,"дійсно":7327,"вимагати":7328,"звідси":7329,"спекти":7330,"вузь":7331,"шуючи":7332,"синте":7333,"візан":7334,"кору":7335,"подружжя":7336,"вдома":7337,"ливим":7338,"колір":7339,"щоден":7340,"жертв":7341,"ius":7342,"федо":7343,"дия":7344,"визнав":7345,"обговори":7346,"богу":7347,"дитина":7348,"ks":7349,"батьки":7350,"явлення":7351,"червоні":7352,"заареш":7353,"арі":7354,"матери":7355,"416":7356,"віра":7357,"тський":7358,"узагаль":7359,"колишня":7360,"хвилі":7361,"харкова":7362,"назвали":7363,"ліва":7364,"отру":7365,"латин":7366,"поїзд":7367,"довести":7368,"тед":7369,"ms":7370,"капе":7371,"дочір":7372,"пік":7373,"розстрі":7374,"бібліо":7375,"магістра":7376,"есто":7377,"африкан":7378,"can":7379,"створити":7380,"бії":7381,"борг":7382,"кають":7383,"діста":7384,"голосів":7385,"запропо":7386,"міл":7387,"1915":7388,"великою":7389,"журналу":7390,"додержа":7391,"турніру":7392,"самих":7393,"метод":7394,"оре":7395,"пасажир":7396,"препара":7397,"1912":7398,"раунд":7399,"вії":7400,"кат":7401,"кубку":7402,"гіт":7403,"антон":7404,"ківська":7405,"1910":7406,"гірни":7407,"численні":7408,"ванням":7409,"зведе":7410,"більшови":7411,"сіо":7412,"їхній":7413,"нікого":7414,"шепо":7415,"телефон":7416,"губерна":7417,"ros":7418,"ситуація":7419,"орденом":7420,"шель":7421,"збори":7422,"польща":7423,"рит":7424,"врегу":7425,"ваш":7426,"160":7427,"хвиль":7428,"hn":7429,"пон":7430,"набагато":7431,"внесок":7432,"сестри":7433,"чимало":7434,"речових":7435,"овини":7436,"трей":7437,"шенню":7438,"рати":7439,"строків":7440,"ганна":7441,"обґрунт":7442,"знищення":7443,"географі":7444,"шкода":7445,"дніст":7446,"зуб":7447,"твір":7448,"фронту":7449,"середини":7450,"піти":7451,"способом":7452,"логій":7453,"штей":7454,"пару":7455,"відпочи":7456,"дозві":7457,"ковому":7458,"звязку":7459,"яну":7460,"знайоми":7461,"мислив":7462,"шній":7463,"гвардій":7464,"міський":7465,"ts":7466,"хотіла":7467,"москви":7468,"1913":7469,"стром":7470,"тивному":7471,"вимагає":7472,"стратегі":7473,"залежно":7474,"закладів":7475,"щена":7476,"виступає":7477,"пак":7478,"роберт":7479,"ский":7480,"альну":7481,"кожний":7482,"відмі":7483,"тського":7484,"лауре":7485,"ставку":7486,"донецьк":7487,"водя":7488,"атацію":7489,"груди":7490,"мереж":7491,"med":7492,"коме":7493,"die":7494,"мвс":7495,"russ":7496,"вкри":7497,"нічного":7498,"ближче":7499,"спершу":7500,"леви":7501,"ованими":7502,"поразка":7503,"стам":7504,"правду":7505,"режим":7506,"сержан":7507,"селища":7508,"тить":7509,"япон":7510,"увесь":7511,"тованих":7512,"весело":7513,"увань":7514,"світа":7515,"прийшли":7516,"пош":7517,"зробили":7518,"поручи":7519,"цов":7520,"дих":7521,"spe":7522,"середні":7523,"злов":7524,"прову":7525,"зель":7526,"вказів":7527,"око":7528,"лор":7529,"ug":7530,"таблиця":7531,"дона":7532,"тривалі":7533,"голосом":7534,"заподія":7535,"душа":7536,"бачили":7537,"власних":7538,"відчув":7539,"дрого":7540,"марке":7541,"hr":7542,"втратив":7543,"фен":7544,"вози":7545,"переміг":7546,"двір":7547,"мінь":7548,"гарні":7549,"сала":7550,"open":7551,"намір":7552,"успіш":7553,"районів":7554,"довжиною":7555,"сформу":7556,"волості":7557,"відгу":7558,"поруки":7559,"власні":7560,"тонн":7561,"зава":7562,"основи":7563,"крес":7564,"904":7565,"френ":7566,"кель":7567,"створив":7568,"ствен":7569,"експо":7570,"капіталу":7571,"активів":7572,"аси":7573,"тлі":7574,"никові":7575,"ери":7576,"лло":7577,"чці":7578,"болі":7579,"ворота":7580,"youtube":7581,"основу":7582,"іди":7583,"лайн":7584,"вранці":7585,"донецька":7586,"миколи":7587,"третього":7588,"програма":7589,"зупини":7590,"створена":7591,"230":7592,"головні":7593,"камінь":7594,"прибув":7595,"визнає":7596,"мету":7597,"італія":7598,"лиси":7599,"дисер":7600,"face":7601,"вибра":7602,"донба":7603,"ліч":7604,"рого":7605,"нек":7606,"землею":7607,"хреста":7608,"ваючи":7609,"спадкоєм":7610,"позицій":7611,"виникла":7612,"британія":7613,"драматич":7614,"недостат":7615,"індії":7616,"яблу":7617,"камер":7618,"джуються":7619,"gre":7620,"хий":7621,"символі":7622,"читав":7623,"викра":7624,"верхня":7625,"вогню":7626,"text":7627,"рішу":7628,"річці":7629,"володими":7630,"шевченко":7631,"сбу":7632,"брен":7633,"ґу":7634,"власний":7635,"мовила":7636,"web":7637,"нутий":7638,"чало":7639,"вчитель":7640,"ліх":7641,"леон":7642,"моду":7643,"англ":7644,"хаті":7645,"машина":7646,"індій":7647,"юрис":7648,"стабіль":7649,"моди":7650,"вітчизня":7651,"чивши":7652,"кім":7653,"прогре":7654,"126":7655,"язати":7656,"ных":7657,"лювали":7658,"вакци":7659,"комісія":7660,"fil":7661,"рт":7662,"планети":7663,"подорож":7664,"ватиме":7665,"відомих":7666,"зафікс":7667,"марка":7668,"євге":7669,"нять":7670,"дені":7671,"ваша":7672,"жіть":7673,"xvi":7674,"піт":7675,"нівці":7676,"стягува":7677,"уп":7678,"передо":7679,"кредитом":7680,"пісню":7681,"тині":7682,"присвоє":7683,"ковим":7684,"головних":7685,"взаєм":7686,"ніко":7687,"наше":7688,"ачів":7689,"рила":7690,"чинним":7691,"останніх":7692,"ki":7693,"подоро":7694,"ора":7695,"певний":7696,"померла":7697,"техніку":7698,"впрова":7699,"пущення":7700,"довою":7701,"інвалід":7702,"овували":7703,"вогне":7704,"банкрута":7705,"389":7706,"діло":7707,"сени":7708,"удо":7709,"язково":7710,"фла":7711,"кову":7712,"троє":7713,"короб":7714,"зусилля":7715,"кир":7716,"сало":7717,"квадра":7718,"швеції":7719,"вказав":7720,"лінням":7721,"317":7722,"obo":7723,"овичу":7724,"зію":7725,"каліфор":7726,"щав":7727,"1905":7728,"кольор":7729,"відій":7730,"истори":7731,"бізне":7732,"фос":7733,"змінити":7734,"книг":7735,"ial":7736,"льської":7737,"козаків":7738,"котра":7739,"номіна":7740,"ore":7741,"216":7742,"злочину":7743,"явилася":7744,"розь":7745,"ясу":7746,"списа":7747,"стична":7748,"потяг":7749,"михайла":7750,"лозі":7751,"меліто":7752,"жувати":7753,"прикра":7754,"джена":7755,"юго":7756,"протокол":7757,"вікон":7758,"гового":7759,"туре":7760,"гайда":7761,"ные":7762,"тована":7763,"пдв":7764,"адво":7765,"псевдо":7766,"ченка":7767,"формою":7768,"пок":7769,"силою":7770,"звісно":7771,"правди":7772,"рене":7773,"147":7774,"дощ":7775,"учнів":7776,"ріс":7777,"вуха":7778,"мату":7779,"назвав":7780,"батькові":7781,"насам":7782,"підписав":7783,"шенні":7784,"фільмів":7785,"оберта":7786,"почув":7787,"фінлян":7788,"ленерго":7789,"1916":7790,"вип":7791,"феро":7792,"єре":7793,"рідкі":7794,"гс":7795,"грамо":7796,"ідеї":7797,"берт":7798,"шкоду":7799,"проєкту":7800,"просила":7801,"боль":7802,"сіла":7803,"погано":7804,"стріле":7805,"шених":7806,"ana":7807,"del":7808,"мете":7809,"деш":7810,"нати":7811,"ясно":7812,"зою":7813,"полег":7814,"дотриму":7815,"юридичну":7816,"чками":7817,"діль":7818,"посоль":7819,"заці":7820,"опти":7821,"депози":7822,"ґі":7823,"стадії":7824,"ракети":7825,"наци":7826,"rev":7827,"tv":7828,"119":7829,"статусу":7830,"воїнів":7831,"прат":7832,"річку":7833,"нібито":7834,"техніка":7835,"ank":7836,"слобо":7837,"рази":7838,"інді":7839,"запов":7840,"талі":7841,"зітк":7842,"верто":7843,"марки":7844,"конгре":7845,"pub":7846,"uanews":7847,"яков":7848,"заради":7849,"кімнаті":7850,"настав":7851,"бене":7852,"підні":7853,"922":7854,"належних":7855,"підпри":7856,"козаки":7857,"причиною":7858,"селищі":7859,"низу":7860,"здале":7861,"наванта":7862,"звідти":7863,"zy":7864,"вирок":7865,"рини":7866,"плей":7867,"вугле":7868,"східної":7869,"висота":7870,"award":7871,"сльози":7872,"настання":7873,"єгип":7874,"sport":7875,"трон":7876,"стичних":7877,"202":7878,"прийшла":7879,"наукова":7880,"завою":7881,"функцій":7882,"дова":7883,"году":7884,"державою":7885,"чути":7886,"вечора":7887,"стку":7888,"жним":7889,"900":7890,"могила":7891,"рахунком":7892,"вро":7893,"філіп":7894,"храму":7895,"тація":7896,"rav":7897,"джерел":7898,"заявляє":7899,"гетьмана":7900,"пропор":7901,"ваний":7902,"самої":7903,"щоріч":7904,"аеропорт":7905,"метрі":7906,"дару":7907,"синів":7908,"інтен":7909,"годину":7910,"елементи":7911,"бія":7912,"ob":7913,"meoperat":7914,"повільно":7915,"135":7916,"ваші":7917,"нерв":7918,"пя":7919,"тта":7920,"моїх":7921,"кузь":7922,"неного":7923,"летів":7924,"винятком":7925,"лісі":7926,"збага":7927,"випадки":7928,"вгору":7929,"земельні":7930,"mat":7931,"атів":7932,"побі":7933,"драма":7934,"запобіга":7935,"квартиру":7936,"тетяна":7937,"стиль":7938,"сильні":7939,"осман":7940,"зника":7941,"цир":7942,"краз":7943,"гвин":7944,"ton":7945,"призво":7946,"дила":7947,"крок":7948,"ensis":7949,"пристро":7950,"вітри":7951,"сипа":7952,"джувати":7953,"заяві":7954,"фіку":7955,"пустити":7956,"mi":7957,"відзиві":7958,"думати":7959,"лауреат":7960,"удару":7961,"фельд":7962,"оун":7963,"компонен":7964,"заробі":7965,"уж":7966,"цвин":7967,"головна":7968,"гравцем":7969,"розлу":7970,"обсягу":7971,"cal":7972,"саду":7973,"героїв":7974,"жіноча":7975,"леонід":7976,"oboz":7977,"123":7978,"нивши":7979,"літніх":7980,"рур":7981,"наказав":7982,"підвів":7983,"кремен":7984,"мой":7985,"цс":7986,"поліп":7987,"оператор":7988,"dy":7989,"зару":7990,"цікаво":7991,"мака":7992,"поділ":7993,"ліво":7994,"зю":7995,"половині":7996,"лізм":7997,"сталь":7998,"місцезна":7999,"сторінка":8000,"героя":8001,"ціну":8002,"відстань":8003,"брова":8004,"редактор":8005,"саль":8006,"za":8007,"затри":8008,"подвій":8009,"уто":8010,"ринк":8011,"пка":8012,"осе":8013,"136":8014,"терміну":8015,"чували":8016,"нель":8017,"довгий":8018,"врешті":8019,"чій":8020,"121":8021,"усміх":8022,"соба":8023,"бул":8024,"допи":8025,"подати":8026,"ремонту":8027,"єдиним":8028,"ski":8029,"зберег":8030,"fa":8031,"тені":8032,"плюс":8033,"мерт":8034,"лицар":8035,"іншою":8036,"рівно":8037,"книзі":8038,"цьку":8039,"зроблено":8040,"1906":8041,"східного":8042,"простір":8043,"dis":8044,"власного":8045,"відкла":8046,"мандрів":8047,"битва":8048,"вірно":8049,"вто":8050,"вхід":8051,"аукціону":8052,"вздовж":8053,"повз":8054,"ату":8055,"влу":8056,"916":8057,"герцог":8058,"мк":8059,"поясню":8060,"північна":8061,"фрі":8062,"андже":8063,"остання":8064,"згодою":8065,"араб":8066,"зніма":8067,"жає":8068,"ливого":8069,"чисто":8070,"вікно":8071,"ткою":8072,"нага":8073,"славу":8074,"отож":8075,"вікімапі":8076,"кіл":8077,"чверть":8078,"коб":8079,"чило":8080,"145":8081,"вичер":8082,"медіа":8083,"цьке":8084,"зька":8085,"рано":8086,"косте":8087,"фт":8088,"житлово":8089,"сучасних":8090,"хотілося":8091,"тією":8092,"вийти":8093,"адвоката":8094,"рян":8095,"пони":8096,"інтегра":8097,"канад":8098,"правова":8099,"виконує":8100,"заслуги":8101,"серіал":8102,"посмер":8103,"бож":8104,"смія":8105,"готів":8106,"стате":8107,"ple":8108,"1911":8109,"розробки":8110,"вжи":8111,"тексту":8112,"острови":8113,"ance":8114,"катерина":8115,"ni":8116,"хвилю":8117,"берега":8118,"опер":8119,"вірші":8120,"давні":8121,"веро":8122,"надцяти":8123,"чекати":8124,"ристів":8125,"клітин":8126,"127":8127,"вільна":8128,"видано":8129,"лявся":8130,"насиль":8131,"номером":8132,"забув":8133,"займає":8134,"португа":8135,"зміша":8136,"імперія":8137,"діях":8138,"гелі":8139,"одиниць":8140,"доведено":8141,"red":8142,"рейн":8143,"чався":8144,"пізна":8145,"мело":8146,"спати":8147,"декора":8148,"пісто":8149,"епізо":8150,"продюсер":8151,"нічні":8152,"регіон":8153,"жне":8154,"сумнів":8155,"рився":8156,"бачить":8157,"апосто":8158,"зігра":8159,"кордону":8160,"хх":8161,"лице":8162,"захистом":8163,"баба":8164,"південна":8165,"nor":8166,"несено":8167,"овський":8168,"людиною":8169,"ливістю":8170,"персо":8171,"щем":8172,"будівлю":8173,"ударів":8174,"ten":8175,"ухвалено":8176,"уста":8177,"деякий":8178,"пал":8179,"циві":8180,"крива":8181,"old":8182,"незна":8183,"бору":8184,"526":8185,"дніпра":8186,"консерва":8187,"казала":8188,"лина":8189,"науков":8190,"моро":8191,"tw":8192,"режиму":8193,"андер":8194,"дзвін":8195,"625":8196,"мовляв":8197,"скажу":8198,"чомусь":8199,"менів":8200,"змогу":8201,"жодної":8202,"нахи":8203,"марша":8204,"чинку":8205,"дзь":8206,"пкс":8207,"водойми":8208,"хвилини":8209,"тити":8210,"чею":8211,"ець":8212,"трапи":8213,"переклад":8214,"серйоз":8215,"пострі":8216,"баль":8217,"минулого":8218,"рези":8219,"дякую":8220,"системою":8221,"сино":8222,"ованому":8223,"свята":8224,"bor":8225,"неш":8226,"тично":8227,"amer":8228,"легі":8229,"додатку":8230,"усіма":8231,"лізму":8232,"єли":8233,"фоль":8234,"зона":8235,"кап":8236,"вільно":8237,"владних":8238,"vel":8239,"шків":8240,"цин":8241,"їхнього":8242,"вирішили":8243,"гені":8244,"писати":8245,"нерів":8246,"озеро":8247,"пустили":8248,"зур":8249,"пацієн":8250,"білого":8251,"занадто":8252,"чогось":8253,"чність":8254,"весі":8255,"lay":8256,"сніг":8257,"виборах":8258,"ченню":8259,"зміц":8260,"чю":8261,"єт":8262,"силами":8263,"горизон":8264,"боги":8265,"309":8266,"are":8267,"сибі":8268,"ола":8269,"фів":8270,"нава":8271,"метале":8272,"ction":8273,"азіатів":8274,"колгосп":8275,"загиблих":8276,"рена":8277,"таль":8278,"усвідом":8279,"щик":8280,"газета":8281,"давньо":8282,"ока":8283,"завдань":8284,"заміж":8285,"виявлені":8286,"нагля":8287,"запу":8288,"законами":8289,"несли":8290,"увалася":8291,"церкві":8292,"охоплю":8293,"поспіша":8294,"операція":8295,"mic":8296,"рідко":8297,"lu":8298,"таї":8299,"степа":8300,"поїз":8301,"політи":8302,"забив":8303,"піду":8304,"вищих":8305,"варіант":8306,"гості":8307,"василя":8308,"словник":8309,"мірою":8310,"ліси":8311,"мун":8312,"користу":8313,"понов":8314,"вос":8315,"аграр":8316,"битві":8317,"отак":8318,"поє":8319,"ссі":8320,"будувати":8321,"ball":8322,"погода":8323,"сми":8324,"довкола":8325,"марок":8326,"соц":8327,"йшли":8328,"енка":8329,"1907":8330,"wh":8331,"загін":8332,"улюб":8333,"теорія":8334,"водопо":8335,"дуж":8336,"можливе":8337,"фрак":8338,"платежу":8339,"усклад":8340,"серіалу":8341,"закриття":8342,"185":8343,"інтересу":8344,"видобу":8345,"поглядом":8346,"клубна":8347,"посів":8348,"лихо":8349,"нкою":8350,"аз":8351,"серди":8352,"обидві":8353,"сформова":8354,"тіні":8355,"зують":8356,"телю":8357,"судова":8358,"чут":8359,"мося":8360,"зуби":8361,"єві":8362,"вступ":8363,"ірина":8364,"фермер":8365,"ресурси":8366,"янка":8367,"човен":8368,"купу":8369,"прогно":8370,"чорна":8371,"бот":8372,"дану":8373,"випла":8374,"мут":8375,"твою":8376,"доволь":8377,"олів":8378,"чики":8379,"м2":8380,"уник":8381,"ливе":8382,"заванта":8383,"енд":8384,"проміж":8385,"ногами":8386,"стора":8387,"солод":8388,"пух":8389,"годі":8390,"цілей":8391,"коваль":8392,"наукові":8393,"виходили":8394,"голосу":8395,"миха":8396,"щодня":8397,"етап":8398,"тями":8399,"новгород":8400,"нулися":8401,"джона":8402,"фро":8403,"нікому":8404,"групу":8405,"пто":8406,"одеси":8407,"терів":8408,"зразу":8409,"містер":8410,"ляція":8411,"болгар":8412,"хана":8413,"кив":8414,"ченою":8415,"політика":8416,"ате":8417,"зелені":8418,"очолював":8419,"cap":8420,"любить":8421,"пропуску":8422,"дозвіл":8423,"труб":8424,"стефа":8425,"болю":8426,"раши":8427,"пагор":8428,"екві":8429,"нео":8430,"церемо":8431,"132":8432,"зірки":8433,"андрія":8434,"успішно":8435,"тінь":8436,"дивно":8437,"риси":8438,"ванія":8439,"бос":8440,"особа7":8441,"ісу":8442,"зоо":8443,"мб":8444,"музеї":8445,"нац":8446,"посіб":8447,"тараса":8448,"молодих":8449,"льйон":8450,"каран":8451,"мотор":8452,"цько":8453,"відокрем":8454,"підряду":8455,"городи":8456,"модерні":8457,"way":8458,"огляд":8459,"добрий":8460,"жка":8461,"ick":8462,"вірмен":8463,"240":8464,"неві":8465,"плену":8466,"поп":8467,"твоя":8468,"премію":8469,"паперів":8470,"напи":8471,"акції":8472,"стичного":8473,"франк":8474,"льйону":8475,"річар":8476,"новано":8477,"met":8478,"обрання":8479,"єгипет":8480,"тово":8481,"любив":8482,"арешт":8483,"джек":8484,"режисера":8485,"адміра":8486,"фри":8487,"решта":8488,"арешту":8489,"спар":8490,"пше":8491,"непо":8492,"відтво":8493,"світлі":8494,"дири":8495,"щук":8496,"строком":8497,"глоба":8498,"уєфа":8499,"австрії":8500,"нували":8501,"міню":8502,"горит":8503,"мем":8504,"портрет":8505,"зустрів":8506,"орбі":8507,"угода":8508,"діяв":8509,"вуз":8510,"полон":8511,"суво":8512,"лежав":8513,"нене":8514,"пивши":8515,"попов":8516,"маш":8517,"моєї":8518,"они":8519,"народна":8520,"дання":8521,"індустрі":8522,"шинг":8523,"137":8524,"власної":8525,"ital":8526,"хія":8527,"презен":8528,"сином":8529,"прия":8530,"ov":8531,"жному":8532,"діють":8533,"скля":8534,"кань":8535,"стіль":8536,"шам":8537,"кислот":8538,"єднаного":8539,"вниз":8540,"матичних":8541,"картини":8542,"алгорит":8543,"вчинити":8544,"1500":8545,"оборон":8546,"торин":8547,"міни":8548,"люючи":8549,"студент":8550,"робили":8551,"містобу":8552,"нр":8553,"тувала":8554,"тингу":8555,"1908":8556,"141":8557,"селення":8558,"невизна":8559,"льот":8560,"падіння":8561,"курсу":8562,"листи":8563,"фіска":8564,"якраз":8565,"осна":8566,"ролях":8567,"дивиться":8568,"бігу":8569,"стичний":8570,"лога":8571,"підда":8572,"юридична":8573,"доступу":8574,"процесів":8575,"170":8576,"гової":8577,"facebook":8578,"аміно":8579,"ляційне":8580,"чітко":8581,"вибори":8582,"здри":8583,"белі":8584,"режимі":8585,"заве":8586,"набува":8587,"увало":8588,"gal":8589,"женими":8590,"спірні":8591,"sw":8592,"зати":8593,"яно":8594,"гаври":8595,"одержува":8596,"товий":8597,"очолив":8598,"320":8599,"знамени":8600,"дзві":8601,"воз":8602,"чності":8603,"висоті":8604,"вига":8605,"вимогою":8606,"адам":8607,"chr":8608,"нбу":8609,"покра":8610,"таун":8611,"проби":8612,"лини":8613,"робочих":8614,"хірур":8615,"георгій":8616,"гування":8617,"134":8618,"дружиною":8619,"144":8620,"логічна":8621,"кінь":8622,"вача":8623,"білка":8624,"святий":8625,"йонного":8626,"cam":8627,"нашому":8628,"литви":8629,"гих":8630,"домови":8631,"красу":8632,"бат":8633,"броне":8634,"наближа":8635,"тес":8636,"трибу":8637,"лікаря":8638,"церкву":8639,"вигукнув":8640,"fin":8641,"розмови":8642,"301":8643,"бухаре":8644,"вищі":8645,"роблять":8646,"третє":8647,"особисті":8648,"епо":8649,"олімпіа":8650,"wer":8651,"ула":8652,"руці":8653,"пунктах":8654,"har":8655,"топо":8656,"укрі":8657,"спричи":8658,"кольори":8659,"dat":8660,"водить":8661,"перехо":8662,"спеці":8663,"тельно":8664,"скарг":8665,"безліч":8666,"xiv":8667,"богороди":8668,"мотивува":8669,"павла":8670,"поліція":8671,"блиска":8672,"ніки":8673,"рухо":8674,"друкова":8675,"владою":8676,"вагонів":8677,"старшого":8678,"надсила":8679,"дент":8680,"310":8681,"академія":8682,"серій":8683,"пітера":8684,"бачила":8685,"ог":8686,"ґе":8687,"por":8688,"машино":8689,"ял":8690,"155":8691,"кораблів":8692,"твої":8693,"боєприпа":8694,"жим":8695,"вайте":8696,"пітер":8697,"ренням":8698,"отримує":8699,"из":8700,"командою":8701,"кані":8702,"хотіли":8703,"ставши":8704,"138":8705,"виконані":8706,"тексті":8707,"дцяти":8708,"сибір":8709,"сесії":8710,"друзів":8711,"книжки":8712,"включно":8713,"угодою":8714,"133":8715,"воля":8716,"bra":8717,"гані":8718,"говорили":8719,"ition":8720,"стачання":8721,"тепері":8722,"монети":8723,"способу":8724,"жать":8725,"няються":8726,"шем":8727,"західна":8728,"джеймс":8729,"publ":8730,"190":8731,"державі":8732,"примір":8733,"чаючи":8734,"жними":8735,"першо":8736,"множи":8737,"земельна":8738,"галакти":8739,"солідар":8740,"az":8741,"ремонт":8742,"давця":8743,"let":8744,"причому":8745,"викори":8746,"наталія":8747,"баш":8748,"повтори":8749,"колоні":8750,"ідео":8751,"куро":8752,"287":8753,"ливу":8754,"ll":8755,"щоби":8756,"прапора":8757,"сидить":8758,"книгу":8759,"райони":8760,"язався":8761,"зао":8762,"лопа":8763,"дією":8764,"поєдин":8765,"тримати":8766,"додаток":8767,"сяться":8768,"словом":8769,"сійну":8770,"овував":8771,"літаків":8772,"ash":8773,"тино":8774,"щиро":8775,"взяла":8776,"вож":8777,"торію":8778,"запе":8779,"номер1":8780,"торій":8781,"дзе":8782,"поклав":8783,"зк":8784,"показу":8785,"впев":8786,"ском":8787,"авгу":8788,"ставити":8789,"угод":8790,"дфс":8791,"поставив":8792,"сталін":8793,"ft":8794,"заклад":8795,"валу":8796,"жінку":8797,"почува":8798,"цилінд":8799,"єшся":8800,"mag":8801,"фактів":8802,"казна":8803,"крісті":8804,"ng":8805,"бойові":8806,"вказано":8807,"боях":8808,"рені":8809,"відігра":8810,"зх":8811,"поцілу":8812,"приписи":8813,"веле":8814,"фізична":8815,"тему":8816,"темні":8817,"мал":8818,"третей":8819,"center":8820,"правни":8821,"евакуа":8822,"нт":8823,"мотивів":8824,"житло":8825,"розвідки":8826,"якогось":8827,"впливом":8828,"прояв":8829,"часі":8830,"зеф":8831,"середньо":8832,"обережно":8833,"горя":8834,"пами":8835,"ваних":8836,"попи":8837,"star":8838,"потребує":8839,"доні":8840,"вихо":8841,"початком":8842,"всієї":8843,"буря":8844,"сходу":8845,"вана":8846,"крив":8847,"судна":8848,"театрі":8849,"нічної":8850,"емо":8851,"вашинг":8852,"окси":8853,"шип":8854,"зірка":8855,"макар":8856,"ідея":8857,"сюр":8858,"твоє":8859,"вільний":8860,"вулицю":8861,"ятка":8862,"восени":8863,"двору":8864,"флот":8865,"обира":8866,"допуще":8867,"све":8868,"зіо":8869,"нує":8870,"подола":8871,"бердян":8872,"нп":8873,"китаю":8874,"лтд":8875,"тять":8876,"гві":8877,"донька":8878,"майкл":8879,"норман":8880,"ордена":8881,"нічна":8882,"виграв":8883,"тям":8884,"арт":8885,"доброво":8886,"скрізь":8887,"альному":8888,"mac":8889,"понесе":8890,"січень":8891,"pet":8892,"карла":8893,"with":8894,"гіль":8895,"посміх":8896,"легка":8897,"нал":8898,"ner":8899,"мато":8900,"рик":8901,"ast":8902,"тижня":8903,"боротьбі":8904,"chen":8905,"кис":8906,"мадри":8907,"забарв":8908,"сезони":8909,"till":8910,"ційному":8911,"httpsbit":8912,"належав":8913,"236":8914,"двор":8915,"тривала":8916,"приче":8917,"уса":8918,"обмін":8919,"харкові":8920,"off":8921,"ріх":8922,"est":8923,"inc":8924,"нижня":8925,"знавства":8926,"спричини":8927,"розумію":8928,"наука":8929,"сміт":8930,"euro":8931,"брех":8932,"вказане":8933,"передає":8934,"попереду":8935,"пунктами":8936,"глибоко":8937,"кадастру":8938,"чехо":8939,"похму":8940,"інтенсив":8941,"тової":8942,"kr":8943,"довіда":8944,"411":8945,"мовір":8946,"жай":8947,"принце":8948,"розта":8949,"довжки":8950,"мовча":8951,"політику":8952,"вказу":8953,"чак":8954,"іванівна":8955,"лип":8956,"чник":8957,"спроби":8958,"завершив":8959,"впродовж":8960,"балансу":8961,"вирішити":8962,"148":8963,"пекуляр":8964,"увійшли":8965,"проник":8966,"публічне":8967,"ды":8968,"муж":8969,"сходи":8970,"контр":8971,"ланцюга":8972,"кажучи":8973,"переми":8974,"pre":8975,"прим":8976,"торка":8977,"греції":8978,"ївська":8979,"біле":8980,"запорож":8981,"делега":8982,"клубі":8983,"власну":8984,"повторю":8985,"потрібні":8986,"ухвалене":8987,"рн":8988,"нний":8989,"нить":8990,"мале":8991,"ціною":8992,"станцію":8993,"210":8994,"стичні":8995,"волон":8996,"xii":8997,"червона":8998,"букови":8999,"казати":9000,"хала":9001,"тримає":9002,"хрести":9003,"били":9004,"парижі":9005,"175":9006,"схожі":9007,"забруд":9008,"тетом":9009,"заї":9010,"прибутку":9011,"скан":9012,"твору":9013,"їхня":9014,"дівчата":9015,"лялися":9016,"деталі":9017,"оса":9018,"засадах":9019,"верхній":9020,"можемо":9021,"мусить":9022,"проспек":9023,"1909":9024,"маном":9025,"ogra":9026,"співвлас":9027,"небі":9028,"ландія":9029,"бря":9030,"політ":9031,"давець":9032,"сергія":9033,"яний":9034,"гідь":9035,"задля":9036,"західно":9037,"вчиненні":9038,"mn":9039,"братів":9040,"греб":9041,"діагно":9042,"сплату":9043,"роками":9044,"винищува":9045,"йшов":9046,"тових":9047,"тря":9048,"ena":9049,"сприйня":9050,"wil":9051,"німецько":9052,"повноту":9053,"новополо":9054,"марга":9055,"самій":9056,"ризик":9057,"дуна":9058,"ri":9059,"тала":9060,"гем":9061,"річного":9062,"нований":9063,"грудень":9064,"пізно":9065,"сержант":9066,"ya":9067,"жовтне":9068,"заказ":9069,"квартир":9070,"нута":9071,"розшу":9072,"прибули":9073,"частку":9074,"шіст":9075,"стрий":9076,"житлові":9077,"шень":9078,"батьком":9079,"угорщини":9080,"активі":9081,"менті":9082,"набу":9083,"джував":9084,"практику":9085,"знають":9086,"різко":9087,"узяв":9088,"образи":9089,"носити":9090,"ухвалити":9091,"схва":9092,"сним":9093,"підозрю":9094,"основна":9095,"застав":9096,"білорусь":9097,"створює":9098,"святку":9099,"зляка":9100,"тікає":9101,"овість":9102,"більшу":9103,"сіонер":9104,"принципу":9105,"абза":9106,"монар":9107,"сини":9108,"кува":9109,"підхо":9110,"зелений":9111,"нора":9112,"збитки":9113,"всупереч":9114,"патру":9115,"оголосив":9116,"пепти":9117,"фаши":9118,"платника":9119,"bro":9120,"складено":9121,"лебе":9122,"ravda":9123,"римська":9124,"пало":9125,"законних":9126,"закінчи":9127,"ins":9128,"покр":9129,"грани":9130,"ситуацію":9131,"вел":9132,"ут":9133,"вмістом":9134,"вілей":9135,"bur":9136,"когось":9137,"підвище":9138,"напов":9139,"жорст":9140,"оді":9141,"рахунки":9142,"загарб":9143,"foot":9144,"дало":9145,"засобу":9146,"заверши":9147,"пос":9148,"никах":9149,"дядько":9150,"повітрі":9151,"акторка":9152,"задія":9153,"тиску":9154,"кой":9155,"слухай":9156,"тером":9157,"притяг":9158,"dra":9159,"fi":9160,"пог":9161,"карта":9162,"захоплю":9163,"mod":9164,"забира":9165,"довгі":9166,"антоні":9167,"ввій":9168,"шлюбу":9169,"подані":9170,"ная":9171,"тридцять":9172,"футбол":9173,"засмія":9174,"переходу":9175,"мовами":9176,"монополь":9177,"лук":9178,"music":9179,"випливає":9180,"плани":9181,"історик":9182,"націй":9183,"ніші":9184,"федір":9185,"лила":9186,"баро":9187,"життям":9188,"баб":9189,"виступ":9190,"жир":9191,"невелич":9192,"тримав":9193,"152":9194,"заро":9195,"history":9196,"щенням":9197,"моль":9198,"зробила":9199,"дивізіон":9200,"wat":9201,"ште":9202,"1904":9203,"шкою":9204,"ben":9205,"si":9206,"вавши":9207,"їхньої":9208,"фраг":9209,"нікола":9210,"привіта":9211,"фур":9212,"половина":9213,"просторі":9214,"праця":9215,"хоке":9216,"речей":9217,"тверде":9218,"будова":9219,"мережа":9220,"генерала":9221,"доктора":9222,"люблю":9223,"зниження":9224,"враження":9225,"ского":9226,"бич":9227,"підруч":9228,"херсо":9229,"вільгель":9230,"ряди":9231,"похо":9232,"ust":9233,"нівська":9234,"змагань":9235,"нько":9236,"софія":9237,"лісо":9238,"депутати":9239,"радник":9240,"юн":9241,"рослини":9242,"lit":9243,"oph":9244,"дивитися":9245,"заміну":9246,"139":9247,"щер":9248,"лютий":9249,"резерв":9250,"діяла":9251,"лар":9252,"тижні":9253,"долю":9254,"актри":9255,"артем":9256,"найма":9257,"громаді":9258,"узя":9259,"манні":9260,"уніка":9261,"юча":9262,"останню":9263,"px":9264,"цтва":9265,"рахунків":9266,"314":9267,"грані":9268,"пить":9269,"трьо":9270,"санітар":9271,"уяви":9272,"битви":9273,"верхів":9274,"вжива":9275,"пку":9276,"ракет":9277,"являє":9278,"you":9279,"нижній":9280,"золоті":9281,"мільяр":9282,"дворі":9283,"певну":9284,"коруп":9285,"soci":9286,"раціо":9287,"пола":9288,"бізнесу":9289,"mit":9290,"чима":9291,"гир":9292,"щонай":9293,"успіху":9294,"примор":9295,"gam":9296,"відіграв":9297,"мусуль":9298,"прива":9299,"рено":9300,"гани":9301,"денис":9302,"америці":9303,"зацікав":9304,"хворих":9305,"слухав":9306,"мес":9307,"відь":9308,"теми":9309,"другим":9310,"наси":9311,"половини":9312,"дивізія":9313,"натов":9314,"188":9315,"маха":9316,"універса":9317,"госпі":9318,"лікарня":9319,"текти":9320,"бували":9321,"прив":9322,"шкіл":9323,"видачі":9324,"ознаки":9325,"ti":9326,"можете":9327,"закладу":9328,"жовтень":9329,"плута":9330,"рет":9331,"гармат":9332,"успіх":9333,"квітень":9334,"сець":9335,"256":9336,"пять":9337,"друг":9338,"den":9339,"алкого":9340,"здіб":9341,"207":9342,"cc":9343,"унр":9344,"позовна":9345,"околиці":9346,"овер":9347,"солі":9348,"срібний":9349,"зазнав":9350,"нька":9351,"хочуть":9352,"гати":9353,"верш":9354,"кавалер":9355,"ованій":9356,"купа":9357,"нагороду":9358,"роману":9359,"чатися":9360,"назем":9361,"жували":9362,"простору":9363,"вша":9364,"хутір":9365,"простяг":9366,"роти":9367,"ты":9368,"коне":9369,"порушує":9370,"листів":9371,"несла":9372,"службі":9373,"згадав":9374,"ела":9375,"останнє":9376,"раун":9377,"пустила":9378,"атаки":9379,"виступив":9380,"316":9381,"істи":9382,"хлопчик":9383,"1890":9384,"ukraine":9385,"різнови":9386,"приду":9387,"вдруге":9388,"наре":9389,"регла":9390,"арка":9391,"серві":9392,"торк":9393,"бави":9394,"авіації":9395,"чинов":9396,"партиза":9397,"листі":9398,"певної":9399,"142":9400,"референ":9401,"любові":9402,"росіян":9403,"коліс":9404,"cz":9405,"давид":9406,"gy":9407,"берлін":9408,"руко":9409,"прикри":9410,"голоси":9411,"спорів":9412,"підпи":9413,"соціо":9414,"такій":9415,"цькій":9416,"канади":9417,"ниніш":9418,"мита":9419,"іпотеку":9420,"будучи":9421,"щеного":9422,"bal":9423,"нашій":9424,"неними":9425,"галя":9426,"наса":9427,"мазе":9428,"yor":9429,"весели":9430,"сімферо":9431,"маєш":9432,"змінами":9433,"технічне":9434,"країну":9435,"еволю":9436,"тече":9437,"багаток":9438,"bc":9439,"поспо":9440,"погір":9441,"прийде":9442,"капітал":9443,"кожній":9444,"вірмені":9445,"тренера":9446,"називали":9447,"язує":9448,"живий":9449,"розмову":9450,"дях":9451,"паке":9452,"дий":9453,"високі":9454,"комсо":9455,"інколи":9456,"паву":9457,"торпе":9458,"покладе":9459,"теп":9460,"активну":9461,"дівчат":9462,"позовну":9463,"томас":9464,"розміром":9465,"відкрив":9466,"камен":9467,"гім":9468,"росією":9469,"хим":9470,"онлайн":9471,"гва":9472,"пленуму":9473,"сни":9474,"трій":9475,"парний":9476,"ппо":9477,"виявили":9478,"ff":9479,"склав":9480,"групі":9481,"резиден":9482,"чику":9483,"йменним":9484,"домовле":9485,"технічні":9486,"рк":9487,"epravda":9488,"розпи":9489,"колегією":9490,"інве":9491,"дарі":9492,"володіє":9493,"капіталі":9494,"дмитр":9495,"знань":9496,"recor":9497,"замк":9498,"жак":9499,"мією":9500,"трьома":9501,"поради":9502,"мовчав":9503,"готовий":9504,"ненави":9505,"вкладу":9506,"енства":9507,"покриття":9508,"звір":9509,"окремої":9510,"zp":9511,"ніяких":9512,"женою":9513,"збаг":9514,"речовин":9515,"лізи":9516,"перерв":9517,"sim":9518,"стити":9519,"крам":9520,"есте":9521,"ємося":9522,"218":9523,"бы":9524,"спіра":9525,"управлін":9526,"овищ":9527,"щами":9528,"франка":9529,"яма":9530,"ited":9531,"доросли":9532,"упродовж":9533,"німці":9534,"увазі":9535,"позики":9536,"провулок":9537,"тун":9538,"турно":9539,"спалах":9540,"помітно":9541,"резерву":9542,"341":9543,"ухи":9544,"ach":9545,"закупів":9546,"нками":9547,"дитину":9548,"осібкм":9549,"іннова":9550,"весілля":9551,"скру":9552,"lag":9553,"диску":9554,"боротьбу":9555,"сером":9556,"гією":9557,"анге":9558,"помор":9559,"відчуття":9560,"зама":9561,"королем":9562,"султан":9563,"усмі":9564,"mp":9565,"терміна":9566,"king":9567,"карі":9568,"вигна":9569,"хвиля":9570,"великими":9571,"автора":9572,"cat":9573,"нафти":9574,"потрібна":9575,"канада":9576,"днем":9577,"восьми":9578,"владимир":9579,"зйо":9580,"дається":9581,"вельми":9582,"сиділи":9583,"nat":9584,"спов":9585,"дорівнює":9586,"тата":9587,"динаміка":9588,"тайте":9589,"байду":9590,"більша":9591,"політик":9592,"tro":9593,"тол":9594,"кишені":9595,"зара":9596,"ляри":9597,"девід":9598,"сучасні":9599,"галузе":9600,"ул":9601,"ранок":9602,"щувати":9603,"пале":9604,"підсу":9605,"граду":9606,"опадів":9607,"листопад":9608,"грає":9609,"янець":9610,"stu":9611,"няли":9612,"посполи":9613,"свобода":9614,"центри":9615,"нату":9616,"нави":9617,"дир":9618,"сину":9619,"двигун":9620,"зми":9621,"дак":9622,"глуз":9623,"ставив":9624,"симво":9625,"пило":9626,"пройшли":9627,"леві":9628,"тричі":9629,"нащад":9630,"каре":9631,"прийому":9632,"житла":9633,"трої":9634,"зну":9635,"шум":9636,"гітара":9637,"неповно":9638,"бова":9639,"титули":9640,"bel":9641,"дзи":9642,"семіна":9643,"молода":9644,"вертика":9645,"здобула":9646,"джордж":9647,"вард":9648,"житлових":9649,"159":9650,"арте":9651,"трудно":9652,"натура":9653,"гвардії":9654,"менеджер":9655,"чел":9656,"боці":9657,"бати":9658,"помір":9659,"весня":9660,"пає":9661,"дець":9662,"еду":9663,"потя":9664,"покров":9665,"стадіон":9666,"вільного":9667,"повернув":9668,"поче":9669,"локо":9670,"установа":9671,"денний":9672,"бері":9673,"бела":9674,"ясування":9675,"нину":9676,"оболо":9677,"льність":9678,"lim":9679,"щасти":9680,"вересень":9681,"палацу":9682,"березень":9683,"квіти":9684,"мешкали":9685,"hel":9686,"значні":9687,"плід":9688,"вищу":9689,"покупця":9690,"породи":9691,"зате":9692,"цикл":9693,"фун":9694,"погли":9695,"1903":9696,"змінено":9697,"річок":9698,"дорого":9699,"нере":9700,"мешканці":9701,"жур":9702,"діла":9703,"410":9704,"ler":9705,"зборах":9706,"ступив":9707,"прокля":9708,"бити":9709,"дови":9710,"фізики":9711,"приватне":9712,"робітник":9713,"точні":9714,"шій":9715,"обсте":9716,"ye":9717,"слан":9718,"149":9719,"дире":9720,"ces":9721,"кок":9722,"гіл":9723,"медичних":9724,"поета":9725,"дітьми":9726,"дери":9727,"окремий":9728,"немо":9729,"поїхав":9730,"серб":9731,"реж":9732,"оси":9733,"143":9734,"машину":9735,"якість":9736,"225":9737,"stop":9738,"єдина":9739,"імовір":9740,"відчини":9741,"мону":9742,"сплаті":9743,"263":9744,"оприлюд":9745,"липень":9746,"просило":9747,"людмила":9748,"хочете":9749,"вагу":9750,"ннями":9751,"біч":9752,"надії":9753,"дора":9754,"мани":9755,"перегово":9756,"хочеться":9757,"христа":9758,"прозо":9759,"даним":9760,"патріо":9761,"міла":9762,"схоже":9763,"звали":9764,"дері":9765,"ile":9766,"чиків":9767,"глядачів":9768,"фарма":9769,"оплатити":9770,"стосунки":9771,"дувати":9772,"керував":9773,"жену":9774,"червень":9775,"іран":9776,"крас":9777,"хліба":9778,"містечко":9779,"ливими":9780,"233":9781,"тато":9782,"руї":9783,"маї":9784,"забу":9785,"хат":9786,"музику":9787,"крик":9788,"славної":9789,"146":9790,"групова":9791,"рестав":9792,"нюється":9793,"205":9794,"нья":9795,"ізраїль":9796,"тивними":9797,"ax":9798,"кону":9799,"вартир":9800,"продукти":9801,"літака":9802,"яток":9803,"льод":9804,"підняв":9805,"природо":9806,"217":9807,"груд":9808,"твердо":9809,"доброго":9810,"кули":9811,"хімії":9812,"травень":9813,"будеш":9814,"раб":9815,"каналі":9816,"дівчинка":9817,"твого":9818,"герман":9819,"незнайо":9820,"ari":9821,"мости":9822,"187":9823,"131":9824,"копію":9825,"ренні":9826,"напередо":9827,"стояти":9828,"праворуч":9829,"вважали":9830,"156":9831,"бали":9832,"кількома":9833,"іспанія":9834,"почалася":9835,"port":9836,"fre":9837,"фінансів":9838,"вийшло":9839,"гравців":9840,"спори":9841,"208":9842,"лейбу":9843,"лізація":9844,"загроз":9845,"рецеп":9846,"ford":9847,"грудях":9848,"жіння":9849,"леп":9850,"турнірі":9851,"горе":9852,"чіт":9853,"передача":9854,"устрій":9855,"ованою":9856,"притока":9857,"гіган":9858,"бери":9859,"мрія":9860,"тують":9861,"надавати":9862,"символ":9863,"шке":9864,"крути":9865,"заки":9866,"століть":9867,"неним":9868,"граб":9869,"колгоспу":9870,"нян":9871,"проблема":9872,"гад":9873,"хмари":9874,"йдуть":9875,"спірної":9876,"землях":9877,"відчував":9878,"ino":9879,"великому":9880,"сяк":9881,"оволо":9882,"всіма":9883,"165":9884,"ura":9885,"тивній":9886,"хлопця":9887,"вікторія":9888,"вогнем":9889,"нашим":9890,"укласти":9891,"яли":9892,"відмова":9893,"ваг":9894,"давай":9895,"пригоди":9896,"сик":9897,"щоміся":9898,"тіль":9899,"сіїв":9900,"м3":9901,"роком":9902,"alb":9903,"шляхе":9904,"рейтинг":9905,"собору":9906,"позаду":9907,"штаті":9908,"play":9909,"риби":9910,"мірі":9911,"990":9912,"напевно":9913,"ven":9914,"одиниці":9915,"гой":9916,"міцно":9917,"просили":9918,"aceae":9919,"york":9920,"міліції":9921,"вислови":9922,"низку":9923,"поясу":9924,"матичні":9925,"буда":9926,"гарі":9927,"добрі":9928,"штурм":9929,"льника":9930,"1902":9931,"коліна":9932,"пати":9933,"альними":9934,"посмі":9935,"дорогою":9936,"палива":9937,"насіння":9938,"паспор":9939,"можеш":9940,"теристи":9941,"нагорода":9942,"спірне":9943,"нулась":9944,"голосно":9945,"204":9946,"училище":9947,"вирішує":9948,"гостро":9949,"побачила":9950,"сірі":9951,"стиму":9952,"біологі":9953,"слідчого":9954,"перво":9955,"зькому":9956,"виконано":9957,"сорок":9958,"живи":9959,"версією":9960,"памята":9961,"оплата":9962,"методів":9963,"ign":9964,"ознак":9965,"ost":9966,"вано":9967,"уважно":9968,"впі":9969,"нутися":9970,"обтяжень":9971,"східна":9972,"санта":9973,"повну":9974,"палу":9975,"довга":9976,"sz":9977,"баку":9978,"третіх":9979,"механізм":9980,"правним":9981,"дуванням":9982,"лісах":9983,"мігра":9984,"ційною":9985,"господь":9986,"глава":9987,"закріп":9988,"набрав":9989,"боків":9990,"марку":9991,"румун":9992,"покинув":9993,"їхню":9994,"посу":9995,"указом":9996,"табір":9997,"їде":9998,"ляй":9999,"грам":10000,"рівне":10001,"360":10002,"відклю":10003,"філд":10004,"вибира":10005,"закони":10006,"оксана":10007,"честер":10008,"боїв":10009,"турбо":10010,"ліг":10011,"групою":10012,"радість":10013,"бс":10014,"рего":10015,"хвіст":10016,"1897":10017,"членами":10018,"віддав":10019,"лятися":10020,"зірок":10021,"друку":10022,"кімнату":10023,"вон":10024,"областях":10025,"гарно":10026,"накопи":10027,"діду":10028,"круг":10029,"суворо":10030,"приїхав":10031,"існувала":10032,"комуна":10033,"стол":10034,"russia":10035,"елемен":10036,"заслуг":10037,"поезії":10038,"цінні":10039,"ніших":10040,"матично":10041,"властиво":10042,"тату":10043,"ріди":10044,"зброя":10045,"здалося":10046,"проценти":10047,"штрафних":10048,"богдана":10049,"спитала":10050,"язниці":10051,"юрія":10052,"bre":10053,"цева":10054,"заві":10055,"оба":10056,"готові":10057,"єднаної":10058,"бігти":10059,"news":10060,"цтво":10061,"опинився":10062,"кабінет":10063,"157":10064,"мініму":10065,"vis":10066,"почи":10067,"хреб":10068,"кандида":10069,"нальною":10070,"реформи":10071,"показує":10072,"специфі":10073,"шею":10074,"глави":10075,"шиї":10076,"артист":10077,"студій":10078,"чеслав":10079,"плечима":10080,"десятки":10081,"існували":10082,"проживає":10083,"стався":10084,"селе":10085,"майо":10086,"поволі":10087,"дівчину":10088,"монта":10089,"доросло":10090,"зітхнув":10091,"берта":10092,"304":10093,"подвір":10094,"ano":10095,"football":10096,"турець":10097,"скажи":10098,"марко":10099,"фіксу":10100,"бані":10101,"фортеці":10102,"старих":10103,"пес":10104,"серці":10105,"трудових":10106,"oft":10107,"ram":10108,"нейро":10109,"княги":10110,"гард":10111,"злочинів":10112,"прихова":10113,"нутись":10114,"мая":10115,"перевер":10116,"льніше":10117,"кая":10118,"сове":10119,"типи":10120,"чекає":10121,"бригада":10122,"plan":10123,"свободу":10124,"грей":10125,"стими":10126,"засіб":10127,"пристра":10128,"uc":10129,"сувере":10130,"наведено":10131,"ek":10132,"баби":10133,"скарб":10134,"тулу":10135,"няють":10136,"фронті":10137,"ужгород":10138,"париж":10139,"гент":10140,"356":10141,"києво":10142,"сільрада":10143,"бк":10144,"полтава":10145,"міських":10146,"євреїв":10147,"спові":10148,"галі":10149,"заснував":10150,"едуар":10151,"морфо":10152,"фред":10153,"158":10154,"точок":10155,"обігу":10156,"криворі":10157,"154":10158,"поворо":10159,"windo":10160,"ческий":10161,"виїз":10162,"кота":10163,"цова":10164,"color":10165,"точка":10166,"349":10167,"ляційна":10168,"сфера":10169,"австро":10170,"пальці":10171,"голом":10172,"лізинг":10173,"грузії":10174,"itf":10175,"постача":10176,"африки":10177,"доволі":10178,"ченій":10179,"пріори":10180,"юлія":10181,"штатів":10182,"відмовив":10183,"юнай":10184,"схожий":10185,"ліворуч":10186,"ские":10187,"ладу":10188,"лета":10189,"дістав":10190,"станцій":10191,"лить":10192,"кордоном":10193,"206":10194,"пато":10195,"озву":10196,"нюють":10197,"носа":10198,"sol":10199,"525":10200,"привер":10201,"ози":10202,"природно":10203,"валентин":10204,"рп":10205,"просу":10206,"речовини":10207,"папа":10208,"серпень":10209,"везли":10210,"змогли":10211,"капли":10212,"диву":10213,"матеріал":10214,"юлі":10215,"впав":10216,"леді":10217,"украи":10218,"належну":10219,"бувають":10220,"тарем":10221,"прихо":10222,"сівер":10223,"спли":10224,"капітана":10225,"половину":10226,"навесні":10227,"тяжко":10228,"212":10229,"потік":10230,"спірний":10231,"тепли":10232,"530":10233,"охорону":10234,"юпітера":10235,"тичну":10236,"пояснив":10237,"ift":10238,"палив":10239,"підпис":10240,"мартін":10241,"латві":10242,"давцем":10243,"зив":10244,"диться":10245,"целя":10246,"ковано":10247,"174":10248,"траге":10249,"1898":10250,"закоха":10251,"заборони":10252,"бондар":10253,"розміри":10254,"1901":10255,"клуби":10256,"язковим":10257,"відомого":10258,"заряд":10259,"гадаю":10260,"овок":10261,"192":10262,"гірше":10263,"186":10264,"вокал":10265,"вільним":10266,"вручення":10267,"вчений":10268,"розсуд":10269,"овин":10270,"пель":10271,"солдатів":10272,"страшно":10273,"льності":10274,"спону":10275,"молодого":10276,"внеску":10277,"чуть":10278,"інжене":10279,"виробів":10280,"прохання":10281,"ськи":10282,"шини":10283,"овського":10284,"спожив":10285,"єлизаве":10286,"додавець":10287,"єван":10288,"знаки":10289,"значну":10290,"логію":10291,"лібера":10292,"копій":10293,"юнайтед":10294,"флори":10295,"переведе":10296,"покрови":10297,"шна":10298,"сингл":10299,"пропуще":10300,"вряту":10301,"abase":10302,"гончар":10303,"вкп":10304,"ансам":10305,"267":10306,"цьким":10307,"шай":10308,"таблиці":10309,"вецької":10310,"побачили":10311,"aut":10312,"арку":10313,"валюті":10314,"неприєм":10315,"славна":10316,"єрі":10317,"єпископа":10318,"mor":10319,"вдоскона":10320,"козак":10321,"van":10322,"сєв":10323,"почне":10324,"цик":10325,"юридичні":10326,"вісник":10327,"445":10328,"рельє":10329,"виданий":10330,"етапі":10331,"спілку":10332,"допоміж":10333,"напис":10334,"мозку":10335,"bus":10336,"уві":10337,"певного":10338,"гас":10339,"супротив":10340,"звіту":10341,"чет":10342,"стоять":10343,"vie":10344,"мань":10345,"ничий":10346,"змінює":10347,"жуваного":10348,"суверені":10349,"сайту":10350,"шахтар":10351,"тенден":10352,"чаю":10353,"якесь":10354,"гек":10355,"аес":10356,"ряді":10357,"засвід":10358,"колектив":10359,"нон":10360,"базу":10361,"плані":10362,"401":10363,"номір":10364,"педагог":10365,"чудово":10366,"куз":10367,"тового":10368,"ріння":10369,"лість":10370,"зити":10371,"польська":10372,"олій":10373,"коштами":10374,"стир":10375,"прибуток":10376,"amp":10377,"боки":10378,"тці":10379,"edia":10380,"пройшла":10381,"lc":10382,"зало":10383,"фабрика":10384,"сук":10385,"табору":10386,"їда":10387,"зала":10388,"гелію":10389,"перего":10390,"httpswww":10391,"жку":10392,"думи":10393,"моєму":10394,"океану":10395,"вуд":10396,"одесі":10397,"гіпер":10398,"рой":10399,"зерна":10400,"тичне":10401,"племін":10402,"убив":10403,"908":10404,"туман":10405,"ленка":10406,"цукр":10407,"bat":10408,"tor":10409,"ведуть":10410,"янс":10411,"рівнова":10412,"питати":10413,"сіли":10414,"безо":10415,"лічи":10416,"вбачає":10417,"гана":10418,"ініцію":10419,"акті":10420,"обе":10421,"передчас":10422,"типів":10423,"мата":10424,"довідник":10425,"ціон":10426,"створені":10427,"галина":10428,"фср":10429,"танків":10430,"суден":10431,"дворів":10432,"пенсіль":10433,"рятуваль":10434,"доходи":10435,"угрупова":10436,"зупинити":10437,"цари":10438,"потрапля":10439,"історико":10440,"xi":10441,"лот":10442,"кварта":10443,"шкід":10444,"артур":10445,"східний":10446,"вулиць":10447,"мешкає":10448,"тивність":10449,"віден":10450,"тижнів":10451,"mal":10452,"280":10453,"локаліз":10454,"сказали":10455,"чуючи":10456,"йшла":10457,"рений":10458,"ційними":10459,"правами":10460,"ливою":10461,"windows":10462,"отримані":10463,"лати":10464,"митного":10465,"дячи":10466,"онов":10467,"корей":10468,"ican":10469,"ise":10470,"турна":10471,"іса":10472,"ницькій":10473,"поділу":10474,"обстрілу":10475,"достав":10476,"людині":10477,"gi":10478,"квт":10479,"винятк":10480,"наявних":10481,"зону":10482,"бачиш":10483,"обличчі":10484,"розуму":10485,"кухні":10486,"заче":10487,"cre":10488,"льська":10489,"нормам":10490,"фізіо":10491,"лінію":10492,"укрін":10493,"гіпоте":10494,"ship":10495,"дивови":10496,"сіона":10497,"розташов":10498,"змінив":10499,"наступа":10500,"сліди":10501,"новані":10502,"кудись":10503,"уя":10504,"франко":10505,"конкурс":10506,"будували":10507,"загону":10508,"сторону":10509,"dio":10510,"бана":10511,"кпр":10512,"ценко":10513,"влашту":10514,"database":10515,"кожним":10516,"провели":10517,"йтеся":10518,"виг":10519,"єруса":10520,"use":10521,"ввечері":10522,"звернув":10523,"уна":10524,"пробу":10525,"гармати":10526,"містечка":10527,"ниш":10528,"вили":10529,"долина":10530,"тиша":10531,"розуміти":10532,"вказаним":10533,"калу":10534,"зерно":10535,"складні":10536,"носили":10537,"йок":10538,"путін":10539,"тютю":10540,"ric":10541,"учитель":10542,"клубів":10543,"каючи":10544,"bs":10545,"взи":10546,"рядів":10547,"суміж":10548,"1899":10549,"ворогів":10550,"прус":10551,"гомо":10552,"норід":10553,"пілот":10554,"чальник":10555,"wa":10556,"ткаченко":10557,"кований":10558,"ція1":10559,"анаста":10560,"розігра":10561,"сергі":10562,"пожежі":10563,"хлібо":10564,"nam":10565,"уми":10566,"підклю":10567,"клубом":10568,"йосип":10569,"224":10570,"альпи":10571,"сійних":10572,"ліття":10573,"аспек":10574,"архи":10575,"впадає":10576,"шек":10577,"нападу":10578,"211":10579,"пропонує":10580,"німецька":10581,"тість":10582,"168":10583,"спадщину":10584,"умі":10585,"ников":10586,"японія":10587,"автором":10588,"норму":10589,"надмір":10590,"вила":10591,"диво":10592,"хт":10593,"355":10594,"stem":10595,"франци":10596,"увачів":10597,"zh":10598,"заміни":10599,"гармо":10600,"гурто":10601,"звук":10602,"ода":10603,"гміна":10604,"відтоді":10605,"вадим":10606,"ковій":10607,"самові":10608,"html":10609,"набуває":10610,"взявши":10611,"марно":10612,"заводі":10613,"зауважив":10614,"вість":10615,"впливає":10616,"єпархії":10617,"ціле":10618,"побу":10619,"тиск":10620,"зверху":10621,"ену":10622,"лісів":10623,"вичерп":10624,"260":10625,"їд":10626,"колю":10627,"ючої":10628,"xiii":10629,"доводами":10630,"єднує":10631,"погляду":10632,"садів":10633,"скле":10634,"палата":10635,"мога":10636,"как":10637,"овиків":10638,"270":10639,"фолькло":10640,"югосла":10641,"жував":10642,"доріг":10643,"гостей":10644,"смертю":10645,"лоу":10646,"древ":10647,"розмірів":10648,"знавець":10649,"принц":10650,"ini":10651,"стай":10652,"обробки":10653,"ціан":10654,"страху":10655,"тел":10656,"зану":10657,"путіна":10658,"рь":10659,"відвер":10660,"епохи":10661,"кавка":10662,"сучасна":10663,"літаки":10664,"парафія":10665,"свідомі":10666,"кивнув":10667,"вітру":10668,"енде":10669,"лізингу":10670,"армію":10671,"активних":10672,"крейсер":10673,"слух":10674,"утвори":10675,"серіалі":10676,"164":10677,"висока":10678,"зумів":10679,"надали":10680,"знаємо":10681,"дмитра":10682,"звичаїв":10683,"середзем":10684,"довідки":10685,"гено":10686,"переважа":10687,"чернівці":10688,"світлана":10689,"медицини":10690,"словенія":10691,"мина":10692,"дочки":10693,"овувався":10694,"основою":10695,"митної":10696,"ногу":10697,"діна":10698,"шнього":10699,"суддю":10700,"рідного":10701,"дзі":10702,"гранд":10703,"вказана":10704,"захищав":10705,"відомим":10706,"стрім":10707,"нувала":10708,"повторно":10709,"176":10710,"жали":10711,"імя":10712,"бомбарду":10713,"байдуже":10714,"везе":10715,"допоміг":10716,"натурі":10717,"чекав":10718,"юрі":10719,"нагоди":10720,"ційній":10721,"phy":10722,"сюк":10723,"очере":10724,"коштори":10725,"власним":10726,"сприяння":10727,"trans":10728,"підвівся":10729,"сиділа":10730,"данії":10731,"одеська":10732,"mel":10733,"чін":10734,"дівчини":10735,"сова":10736,"409":10737,"очок":10738,"імена":10739,"столом":10740,"малого":10741,"заважа":10742,"меті":10743,"рушив":10744,"біографі":10745,"слухати":10746,"ясувати":10747,"винахід":10748,"кропив":10749,"масив":10750,"911":10751,"цивільно":10752,"167":10753,"моска":10754,"вирішила":10755,"публічно":10756,"фільми":10757,"спуска":10758,"щого":10759,"вбивство":10760,"новими":10761,"хода":10762,"sam":10763,"уникнути":10764,"агент":10765,"макс":10766,"залишки":10767,"секу":10768,"зростає":10769,"уперше":10770,"мосту":10771,"моту":10772,"поєдна":10773,"денного":10774,"управлі":10775,"брови":10776,"чуття":10777,"men":10778,"мовлення":10779,"думала":10780,"квін":10781,"важливим":10782,"тренером":10783,"присуд":10784,"фана":10785,"ations":10786,"сенко":10787,"san":10788,"вжиття":10789,"перешкод":10790,"рішеннях":10791,"вата":10792,"шня":10793,"квартирі":10794,"жуються":10795,"vir":10796,"однаково":10797,"маті":10798,"марина":10799,"напевне":10800,"лондоні":10801,"плавання":10802,"метал":10803,"селяни":10804,"новин":10805,"аварій":10806,"плече":10807,"шну":10808,"врахував":10809,"поєдинку":10810,"класів":10811,"ллер":10812,"ідей":10813,"проро":10814,"фортепі":10815,"pat":10816,"націона":10817,"доповідь":10818,"присутні":10819,"py":10820,"приніс":10821,"тьє":10822,"wal":10823,"інтерне":10824,"картина":10825,"магазин":10826,"діда":10827,"цы":10828,"експор":10829,"покій":10830,"цієнт":10831,"виникло":10832,"піща":10833,"сило":10834,"уа":10835,"строф":10836,"охороню":10837,"святих":10838,"узбе":10839,"секун":10840,"фій":10841,"тівка":10842,"квартира":10843,"пересе":10844,"швейцар":10845,"почалося":10846,"дук":10847,"голуб":10848,"апарат":10849,"179":10850,"шаф":10851,"235":10852,"люба":10853,"наполе":10854,"обороту":10855,"штовх":10856,"тивності":10857,"тках":10858,"назавжди":10859,"щан":10860,"232":10861,"металів":10862,"поширені":10863,"виявився":10864,"овика":10865,"сподоба":10866,"blo":10867,"sci":10868,"хокей":10869,"дзвони":10870,"джене":10871,"1896":10872,"майнові":10873,"177":10874,"ліф":10875,"папір":10876,"черги":10877,"вара":10878,"вілі":10879,"кпрс":10880,"огоро":10881,"параметр":10882,"діння":10883,"царство":10884,"проектів":10885,"мега":10886,"mark":10887,"дснс":10888,"лиця":10889,"штейн":10890,"kar":10891,"жев":10892,"увійшла":10893,"особа8":10894,"вато":10895,"предмету":10896,"єписко":10897,"лімі":10898,"тальний":10899,"процеси":10900,"кура":10901,"рідний":10902,"дивіться":10903,"тила":10904,"середню":10905,"шува":10906,"слідом":10907,"сково":10908,"каю":10909,"шкін":10910,"дикції":10911,"джували":10912,"хей":10913,"вбивства":10914,"аристо":10915,"space":10916,"обгрун":10917,"чагар":10918,"кожну":10919,"друкар":10920,"ham":10921,"153":10922,"хій":10923,"кван":10924,"ірланд":10925,"розкі":10926,"mil":10927,"тенко":10928,"кувала":10929,"іду":10930,"прізви":10931,"дружину":10932,"говорила":10933,"black":10934,"порушив":10935,"мамо":10936,"кажи":10937,"їла":10938,"кінг":10939,"мг":10940,"курси":10941,"росси":10942,"шану":10943,"страшен":10944,"вмотив":10945,"збільши":10946,"part":10947,"промі":10948,"жере":10949,"ніл":10950,"голланд":10951,"індоне":10952,"ніде":10953,"дитиною":10954,"сє":10955,"торон":10956,"постать":10957,"вежі":10958,"засу":10959,"жну":10960,"сяй":10961,"еква":10962,"1895":10963,"росте":10964,"перелі":10965,"sil":10966,"позицією":10967,"пильно":10968,"сун":10969,"опір":10970,"обіцяв":10971,"пят":10972,"центрів":10973,"оран":10974,"ушко":10975,"троян":10976,"знаючи":10977,"td":10978,"загад":10979,"records":10980,"відкрита":10981,"здоровя":10982,"238":10983,"робото":10984,"арсена":10985,"коміса":10986,"мад":10987,"правними":10988,"успад":10989,"функція":10990,"хал":10991,"330":10992,"матри":10993,"пани":10994,"стефан":10995,"хари":10996,"існувало":10997,"прошепо":10998,"удари":10999,"чалися":11000,"повна":11001,"єктивно":11002,"джає":11003,"аніж":11004,"нестер":11005,"міфо":11006,"тати":11007,"ницькому":11008,"каролі":11009,"шляхи":11010,"міське":11011,"жуючи":11012,"гіта":11013,"високих":11014,"невиди":11015,"проєк":11016,"показати":11017,"322":11018,"pal":11019,"їжі":11020,"порід":11021,"куку":11022,"орлов":11023,"жав":11024,"вимірю":11025,"руши":11026,"вміст":11027,"нців":11028,"люблі":11029,"sub":11030,"неннями":11031,"відкли":11032,"кафедра":11033,"зазнали":11034,"сками":11035,"vil":11036,"запорозь":11037,"припуска":11038,"ррфср":11039,"довір":11040,"легше":11041,"теха":11042,"щених":11043,"носив":11044,"йоми":11045,"партне":11046,"русь":11047,"павлович":11048,"шор":11049,"обміну":11050,"роботою":11051,"надана":11052,"їхнє":11053,"тетів":11054,"нарі":11055,"енню":11056,"створили":11057,"двигуна":11058,"дн":11059,"диплом":11060,"его":11061,"сцені":11062,"визнані":11063,"359":11064,"збіга":11065,"відсутня":11066,"язане":11067,"вило":11068,"граді":11069,"заявлено":11070,"дасть":11071,"леті":11072,"манітні":11073,"сіда":11074,"чорт":11075,"аспі":11076,"фільмо":11077,"альфа":11078,"брані":11079,"чарль":11080,"скочив":11081,"народні":11082,"екрані":11083,"стилю":11084,"лоб":11085,"еліза":11086,"184":11087,"суа":11088,"черепа":11089,"римо":11090,"угорщина":11091,"отець":11092,"тесь":11093,"прибере":11094,"кільце":11095,"щити":11096,"ухвалі":11097,"відвіда":11098,"нована":11099,"john":11100,"освітня":11101,"набув":11102,"стос":11103,"полю":11104,"cu":11105,"робітни":11106,"кіо":11107,"бодай":11108,"дженої":11109,"барсело":11110,"von":11111,"погляди":11112,"конфлікт":11113,"язанні":11114,"високого":11115,"коши":11116,"зайшов":11117,"міською":11118,"додану":11119,"річард":11120,"глад":11121,"гірських":11122,"ветера":11123,"дитячий":11124,"скелі":11125,"любо":11126,"носять":11127,"уе":11128,"гадав":11129,"шав":11130,"nas":11131,"ars":11132,"мемо":11133,"мики":11134,"hom":11135,"заздале":11136,"недалеко":11137,"безумов":11138,"ствами":11139,"усю":11140,"еру":11141,"міру":11142,"колишніх":11143,"шає":11144,"захворю":11145,"доміні":11146,"сійної":11147,"місіс":11148,"1200":11149,"вироку":11150,"вивчи":11151,"hol":11152,"симфо":11153,"ефект":11154,"держгео":11155,"шосе":11156,"обмежень":11157,"града":11158,"горах":11159,"1880":11160,"клав":11161,"скло":11162,"відзиву":11163,"віктора":11164,"мвт":11165,"обговорю":11166,"char":11167,"зінь":11168,"189":11169,"eng":11170,"падають":11171,"диск":11172,"перекри":11173,"приво":11174,"вмс":11175,"госп":11176,"читання":11177,"снігу":11178,"кари":11179,"привіт":11180,"щив":11181,"вкрай":11182,"крама":11183,"хлопців":11184,"долар":11185,"загрози":11186,"значний":11187,"пн":11188,"юніор":11189,"ністів":11190,"яслав":11191,"оподатку":11192,"щоправда":11193,"польоту":11194,"гонча":11195,"ріше":11196,"велі":11197,"судовим":11198,"урядом":11199,"wr":11200,"london":11201,"ставав":11202,"жувала":11203,"борту":11204,"загинуло":11205,"застере":11206,"дун":11207,"шеле":11208,"записів":11209,"aria":11210,"патен":11211,"спиною":11212,"1885":11213,"lor":11214,"кури":11215,"аерод":11216,"апостроф":11217,"атмосфер":11218,"сіле":11219,"йов":11220,"вито":11221,"доказам":11222,"шний":11223,"173":11224,"метео":11225,"фг":11226,"іро":11227,"однорід":11228,"дал":11229,"індіан":11230,"зусиль":11231,"1800":11232,"класі":11233,"лійович":11234,"внесено":11235,"неплато":11236,"вагі":11237,"255":11238,"минулому":11239,"іденти":11240,"водовід":11241,"209":11242,"пела":11243,"system":11244,"продукт":11245,"очевид":11246,"кожне":11247,"відстро":11248,"товариш":11249,"старт":11250,"братом":11251,"тема":11252,"чуються":11253,"цілкови":11254,"селищна":11255,"гує":11256,"черкаси":11257,"європа":11258,"уклав":11259,"лівська":11260,"стив":11261,"166":11262,"чилися":11263,"кт":11264,"праву":11265,"джерелом":11266,"струн":11267,"картин":11268,"еста":11269,"228":11270,"рому":11271,"хара":11272,"бад":11273,"енергією":11274,"місії":11275,"нещо":11276,"заняття":11277,"стис":11278,"будову":11279,"лат":11280,"тіл":11281,"форт":11282,"згоду":11283,"коля":11284,"читися":11285,"ogle":11286,"голод":11287,"фізико":11288,"язковою":11289,"сса":11290,"миті":11291,"ігрової":11292,"турний":11293,"зовнішні":11294,"лесі":11295,"чком":11296,"яних":11297,"піклу":11298,"язкові":11299,"обстріли":11300,"буква":11301,"водосх":11302,"прові":11303,"адреса2":11304,"воріт":11305,"гріш":11306,"просте":11307,"коменту":11308,"погро":11309,"виходити":11310,"монт":11311,"строкове":11312,"dom":11313,"цук":11314,"монтаж":11315,"альною":11316,"поряту":11317,"костянти":11318,"шенка":11319,"пошуку":11320,"182":11321,"кво":11322,"рестора":11323,"388":11324,"йорку":11325,"особисте":11326,"луна":11327,"мрі":11328,"покупцем":11329,"аа":11330,"введено":11331,"македо":11332,"робочого":11333,"посол":11334,"китаї":11335,"освя":11336,"аква":11337,"давство":11338,"порта":11339,"фігур":11340,"атеста":11341,"німецькі":11342,"портів":11343,"водних":11344,"західних":11345,"степу":11346,"дольф":11347,"кава":11348,"трубо":11349,"кібер":11350,"експерта":11351,"нападник":11352,"ong":11353,"появи":11354,"єна":11355,"зібрані":11356,"дарма":11357,"df":11358,"рибо":11359,"солдати":11360,"малих":11361,"бійців":11362,"450":11363,"хен":11364,"іванов":11365,"тується":11366,"аг":11367,"лиха":11368,"3000":11369,"очки":11370,"попа":11371,"росту":11372,"виши":11373,"уявлення":11374,"літні":11375,"газеті":11376,"спл":11377,"денням":11378,"зброєю":11379,"здій":11380,"біжен":11381,"181":11382,"stre":11383,"обіг":11384,"шкіри":11385,"матро":11386,"духу":11387,"капелю":11388,"рова":11389,"бам":11390,"орендаря":11391,"захопили":11392,"належали":11393,"частинах":11394,"уватись":11395,"недавно":11396,"піл":11397,"group":11398,"розмова":11399,"фах":11400,"здатні":11401,"пенко":11402,"румуни":11403,"торонто":11404,"щують":11405,"ясо":11406,"ніщо":11407,"яру":11408,"гази":11409,"кована":11410,"яч":11411,"поч":11412,"довів":11413,"162":11414,"швеція":11415,"луки":11416,"oc":11417,"недоведе":11418,"розрізня":11419,"полум":11420,"несуть":11421,"top":11422,"пече":11423,"вовк":11424,"ley":11425,"іслам":11426,"нагадує":11427,"безпере":11428,"ind":11429,"бм":11430,"рэ":11431,"google":11432,"кау":11433,"фель":11434,"повної":11435,"178":11436,"тілі":11437,"нило":11438,"чорноби":11439,"водій":11440,"чалося":11441,"приналеж":11442,"нювати":11443,"мазове":11444,"клаві":11445,"струм":11446,"формат":11447,"грін":11448,"давати":11449,"тварини":11450,"что":11451,"академік":11452,"зайняв":11453,"чую":11454,"ківка":11455,"досвіду":11456,"голі":11457,"дика":11458,"жати":11459,"хах":11460,"цито":11461,"моїм":11462,"примітка":11463,"андре":11464,"сезонів":11465,"чули":11466,"думу":11467,"воскре":11468,"єспл":11469,"помилки":11470,"співачка":11471,"фрей":11472,"керамі":11473,"257":11474,"234":11475,"метром":11476,"жуваної":11477,"практиці":11478,"боявся":11479,"високу":11480,"заклада":11481,"згор":11482,"фондом":11483,"годинник":11484,"вхо":11485,"звів":11486,"доходу":11487,"входили":11488,"шляхів":11489,"загибелі":11490,"широкий":11491,"фікацію":11492,"повні":11493,"хосе":11494,"літній":11495,"неа":11496,"сцен":11497,"пощасти":11498,"відоме":11499,"sn":11500,"юнак":11501,"берлі":11502,"органах":11503,"life":11504,"антро":11505,"субо":11506,"заказник":11507,"жалі":11508,"концерт":11509,"недоліки":11510,"гороб":11511,"169":11512,"їст":11513,"естонії":11514,"вет":11515,"крово":11516,"енергія":11517,"янов":11518,"крикнув":11519,"кучер":11520,"sky":11521,"вину":11522,"мелі":11523,"345":11524,"енька":11525,"налічува":11526,"офіцерів":11527,"опу":11528,"протест":11529,"тзов":11530,"щиною":11531,"покло":11532,"пишу":11533,"контей":11534,"сидіти":11535,"tur":11536,"км2":11537,"немато":11538,"знищили":11539,"уті":11540,"англо":11541,"фара":11542,"нація":11543,"втратили":11544,"hor":11545,"сталася":11546,"диферен":11547,"печі":11548,"чесно":11549,"колонії":11550,"взимку":11551,"муля":11552,"ніякого":11553,"янського":11554,"державу":11555,"походив":11556,"alis":11557,"таємни":11558,"додавця":11559,"відкрите":11560,"ly3":11561,"хороб":11562,"теся":11563,"аматор":11564,"love":11565,"зберегти":11566,"начебто":11567,"набрало":11568,"знищити":11569,"коледж":11570,"зберіг":11571,"ox":11572,"пояснити":11573,"тону":11574,"чобо":11575,"стіні":11576,"183":11577,"вірність":11578,"пенсії":11579,"заборону":11580,"іти":11581,"основною":11582,"вте":11583,"науковці":11584,"балка":11585,"елемент":11586,"mot":11587,"птахи":11588,"панте":11589,"супутник":11590,"законне":11591,"ігна":11592,"зелена":11593,"гуль":11594,"тович":11595,"рош":11596,"просити":11597,"біс":11598,"кирило":11599,"насу":11600,"ризику":11601,"йду":11602,"мити":11603,"вороне":11604,"обрано":11605,"терміни":11606,"глих":11607,"комо":11608,"шири":11609,"логів":11610,"дедалі":11611,"розробка":11612,"inform":11613,"вийде":11614,"ings":11615,"lat":11616,"принципи":11617,"мовби":11618,"перетина":11619,"споку":11620,"цьк":11621,"біт":11622,"екіпажу":11623,"спогади":11624,"151":11625,"старе":11626,"часток":11627,"розуміє":11628,"дочку":11629,"кодекс":11630,"чальника":11631,"бачите":11632,"awards":11633,"tele":11634,"будував":11635,"течії":11636,"збі":11637,"кроки":11638,"вибору":11639,"рекорд":11640,"213":11641,"227":11642,"цлав":11643,"існував":11644,"чикаго":11645,"судам":11646,"ron":11647,"східно":11648,"журав":11649,"ковими":11650,"ятої":11651,"прибутк":11652,"кно":11653,"діли":11654,"214":11655,"іді":11656,"бельгії":11657,"мався":11658,"клей":11659,"дане":11660,"несені":11661,"афі":11662,"376":11663,"купити":11664,"шлу":11665,"товариша":11666,"воле":11667,"візу":11668,"єднаних":11669,"критиків":11670,"тня":11671,"дько":11672,"трави":11673,"проповід":11674,"нкових":11675,"попросив":11676,"партизан":11677,"лика":11678,"королева":11679,"скром":11680,"запах":11681,"цивільні":11682,"237":11683,"370":11684,"чат":11685,"ky":11686,"альній":11687,"ont":11688,"226":11689,"батаре":11690,"зма":11691,"хає":11692,"жінкою":11693,"підкрес":11694,"soc":11695,"кач":11696,"зату":11697,"зовні":11698,"бя":11699,"проводу":11700,"язкове":11701,"cra":11702,"різниця":11703,"бава":11704,"смуги":11705,"1886":11706,"живі":11707,"dn":11708,"berg":11709,"реставра":11710,"ішов":11711,"наявними":11712,"півдня":11713,"регіона":11714,"уздовж":11715,"ґан":11716,"1894":11717,"алба":11718,"енький":11719,"чула":11720,"вірю":11721,"поважних":11722,"шками":11723,"записи":11724,"іда":11725,"сків":11726,"хуан":11727,"взає":11728,"родовища":11729,"ети":11730,"поверсі":11731,"настро":11732,"ности":11733,"місцеве":11734,"тяга":11735,"ced":11736,"мотиву":11737,"гукнув":11738,"пройти":11739,"оздо":11740,"нацька":11741,"нева":11742,"тексти":11743,"одягу":11744,"спира":11745,"сьє":11746,"cur":11747,"шлося":11748,"попе":11749,"ляційні":11750,"блага":11751,"велоси":11752,"вчені":11753,"заявила":11754,"спектра":11755,"зросла":11756,"ene":11757,"австрія":11758,"рости":11759,"тився":11760,"стрілець":11761,"розваги":11762,"багаторі":11763,"нейтра":11764,"прислуха":11765,"адрі":11766,"викликає":11767,"1870":11768,"афгані":11769,"вм":11770,"римі":11771,"има":11772,"пно":11773,"якоїсь":11774,"тіння":11775,"ваше":11776,"апарату":11777,"єєв":11778,"колекти":11779,"єдине":11780,"данило":11781,"африці":11782,"заря":11783,"основа":11784,"not":11785,"імпор":11786,"окремого":11787,"менедж":11788,"поданих":11789,"planet":11790,"розмно":11791,"сійний":11792,"mc":11793,"day":11794,"плений":11795,"дік":11796,"риса":11797,"меч":11798,"карпаття":11799,"помічник":11800,"хін":11801,"перспек":11802,"банки":11803,"дністров":11804,"шпа":11805,"ґра":11806,"карту":11807,"глибині":11808,"усієї":11809,"алю":11810,"лс":11811,"блоку":11812,"голоду":11813,"zo":11814,"11110":11815,"більші":11816,"нарко":11817,"терапі":11818,"их":11819,"ori":11820,"асистен":11821,"вмира":11822,"миль":11823,"фру":11824,"діяли":11825,"каміння":11826,"ции":11827,"фія":11828,"училища":11829,"офісу":11830,"cro":11831,"відчи":11832,"тської":11833,"мука":11834,"грудей":11835,"терпля":11836,"ося":11837,"юм":11838,"вдень":11839,"комісією":11840,"atus":11841,"cher":11842,"кіст":11843,"231":11844,"прита":11845,"бактері":11846,"mb":11847,"знахід":11848,"маршрут":11849,"офіце":11850,"укри":11851,"трагі":11852,"бюджет":11853,"клер":11854,"світом":11855,"ілюстра":11856,"термо":11857,"містити":11858,"прича":11859,"ерік":11860,"минули":11861,"простя":11862,"сков":11863,"камери":11864,"складена":11865,"стриму":11866,"ливши":11867,"берн":11868,"реклам":11869,"nis":11870,"хім":11871,"лети":11872,"ola":11873,"конвер":11874,"навчаль":11875,"сєвєро":11876,"мовити":11877,"жертви":11878,"жалю":11879,"чорне":11880,"мусив":11881,"подана":11882,"ест":11883,"поби":11884,"подібне":11885,"ючими":11886,"шию":11887,"хвилині":11888,"засади":11889,"публіци":11890,"ювілей":11891,"вашого":11892,"апте":11893,"висотою":11894,"нм":11895,"живих":11896,"члена":11897,"лиці":11898,"венти":11899,"горді":11900,"ніякої":11901,"сумно":11902,"скуп":11903,"няла":11904,"басейну":11905,"спога":11906,"бабуся":11907,"шуль":11908,"ділового":11909,"істотних":11910,"сильний":11911,"рда":11912,"конкурсі":11913,"reg":11914,"борж":11915,"можливі":11916,"вищим":11917,"прих":11918,"прохід":11919,"ology":11920,"йтесь":11921,"понови":11922,"мам":11923,"года":11924,"друзя":11925,"комір":11926,"звуки":11927,"зуються":11928,"фігура":11929,"кроків":11930,"зак":11931,"міськ":11932,"транзи":11933,"скрип":11934,"отримано":11935,"уру":11936,"кмгод":11937,"донбасі":11938,"префек":11939,"комендан":11940,"914":11941,"тоном":11942,"ku":11943,"жва":11944,"хорват":11945,"щенка":11946,"випустив":11947,"потреба":11948,"пірам":11949,"депутата":11950,"долині":11951,"спій":11952,"увача":11953,"їл":11954,"905":11955,"імпер":11956,"велетен":11957,"мобіліз":11958,"сік":11959,"нічим":11960,"лак":11961,"аро":11962,"чиї":11963,"значна":11964,"дена":11965,"білу":11966,"тичному":11967,"призвели":11968,"бадь":11969,"макі":11970,"захисті":11971,"леній":11972,"чехії":11973,"темряві":11974,"ощад":11975,"впала":11976,"обласна":11977,"середину":11978,"компанію":11979,"канаді":11980,"виходять":11981,"навряд":11982,"черга":11983,"вогни":11984,"лям":11985,"секунд":11986,"малай":11987,"встав":11988,"монте":11989,"охоло":11990,"нота":11991,"хроно":11992,"тіссера":11993,"індія":11994,"переко":11995,"богослов":11996,"дверима":11997,"всюди":11998,"язнення":11999,"прізвища":12000,"610":12001,"їзм":12002,"загу":12003,"долоні":12004,"єво":12005,"яскраво":12006,"подія":12007,"ліри":12008,"морські":12009,"вільні":12010,"справжнє":12011,"ux":12012,"лилася":12013,"першими":12014,"способи":12015,"хма":12016,"партію":12017,"актриса":12018,"моїй":12019,"уточне":12020,"залишили":12021,"ухвалив":12022,"округи":12023,"носії":12024,"куба":12025,"абра":12026,"бки":12027,"тілом":12028,"передані":12029,"хата":12030,"ly2":12031,"коби":12032,"ньки":12033,"спартак":12034,"тус":12035,"unt":12036,"нанта":12037,"навпроти":12038,"нв":12039,"мульт":12040,"ляцію":12041,"сцени":12042,"східному":12043,"природа":12044,"басейн":12045,"ттів":12046,"опору":12047,"кременчу":12048,"сухопу":12049,"голодомо":12050,"указ":12051,"натх":12052,"дк":12053,"рими":12054,"піхоти":12055,"головно":12056,"предмети":12057,"невеликі":12058,"важкі":12059,"фінали":12060,"селом":12061,"запаси":12062,"арк":12063,"померли":12064,"лежала":12065,"тівки":12066,"весна":12067,"1893":12068,"архан":12069,"наблизи":12070,"1878":12071,"агресії":12072,"змом":12073,"пілля":12074,"гість":12075,"ah":12076,"докла":12077,"порів":12078,"жими":12079,"ges":12080,"вера":12081,"підго":12082,"gs":12083,"ченості":12084,"гань":12085,"фахівців":12086,"дикта":12087,"шотланд":12088,"pi":12089,"дека":12090,"належала":12091,"юї":12092,"нот":12093,"крип":12094,"261":12095,"шене":12096,"тюк":12097,"тягне":12098,"compan":12099,"просвіт":12100,"давчих":12101,"німців":12102,"суці":12103,"ляль":12104,"вити":12105,"людських":12106,"зап":12107,"відкриті":12108,"лім":12109,"висоти":12110,"тію":12111,"deut":12112,"жок":12113,"підхід":12114,"світо":12115,"мірку":12116,"мзс":12117,"пеню":12118,"обличчям":12119,"методики":12120,"консуль":12121,"задні":12122,"зол":12123,"головною":12124,"інформу":12125,"балтій":12126,"172":12127,"чорному":12128,"цінності":12129,"маленька":12130,"реформа":12131,"pos":12132,"ella":12133,"дрогоби":12134,"порушені":12135,"343":12136,"городі":12137,"оро":12138,"city":12139,"бачте":12140,"протікає":12141,"аспіран":12142,"побою":12143,"сень":12144,"купив":12145,"кінемато":12146,"пласт":12147,"богів":12148,"трамвай":12149,"справжні":12150,"виявив":12151,"човна":12152,"sal":12153,"дітям":12154,"катерино":12155,"овина":12156,"авторів":12157,"втік":12158,"підсуд":12159,"говорять":12160,"мельник":12161,"лоба":12162,"340":12163,"минуле":12164,"робила":12165,"зазнала":12166,"ліде":12167,"знищено":12168,"тиском":12169,"гоні":12170,"йоган":12171,"догля":12172,"платити":12173,"краматор":12174,"інтерпре":12175,"марта":12176,"pen":12177,"пригаду":12178,"спину":12179,"дела":12180,"гг":12181,"ізраїлю":12182,"забудови":12183,"збірка":12184,"гало":12185,"масової":12186,"bill":12187,"брид":12188,"ливої":12189,"тарних":12190,"важливих":12191,"лерів":12192,"срібло":12193,"островах":12194,"дпі":12195,"шував":12196,"банди":12197,"1892":12198,"молодо":12199,"стівен":12200,"повноти":12201,"світова":12202,"оборону":12203,"русс":12204,"буча":12205,"1889":12206,"значних":12207,"ссср":12208,"рецен":12209,"жовтий":12210,"брюс":12211,"kl":12212,"надвір":12213,"констру":12214,"ліжка":12215,"кід":12216,"готель":12217,"азо":12218,"плями":12219,"зяв":12220,"манів":12221,"live":12222,"іт":12223,"незмін":12224,"288":12225,"проектом":12226,"ранні":12227,"опери":12228,"весе":12229,"копія":12230,"зразок":12231,"названо":12232,"мане":12233,"мушу":12234,"ганс":12235,"фізичні":12236,"ляк":12237,"росію":12238,"hon":12239,"входив":12240,"286":12241,"стороння":12242,"татари":12243,"фернан":12244,"переваги":12245,"мачу":12246,"якнай":12247,"донеч":12248,"маєте":12249,"вважаючи":12250,"назвати":12251,"беручи":12252,"цькою":12253,"решту":12254,"ade":12255,"особисту":12256,"викри":12257,"богом":12258,"охоплює":12259,"дужче":12260,"виплату":12261,"пап":12262,"циклу":12263,"наміс":12264,"бувано":12265,"дорослих":12266,"причина":12267,"всіля":12268,"видом":12269,"wy":12270,"розробку":12271,"gov":12272,"зри":12273,"подало":12274,"sing":12275,"ваті":12276,"жоден":12277,"рішуче":12278,"пенів":12279,"безу":12280,"163":12281,"тані":12282,"zer":12283,"генріх":12284,"випи":12285,"подорожі":12286,"йт":12287,"вірту":12288,"зувати":12289,"торо":12290,"решти":12291,"видати":12292,"піді":12293,"насту":12294,"челя":12295,"блек":12296,"бесід":12297,"збірник":12298,"264":12299,"вари":12300,"холодно":12301,"pra":12302,"яйце":12303,"султана":12304,"gram":12305,"детек":12306,"спав":12307,"чиком":12308,"verlag":12309,"могили":12310,"гнув":12311,"непере":12312,"161":12313,"світл":12314,"зачи":12315,"жда":12316,"подя":12317,"обєктів":12318,"дінг":12319,"палі":12320,"жуваному":12321,"індекс":12322,"што":12323,"242":12324,"дивилася":12325,"показали":12326,"minor":12327,"буй":12328,"перебіг":12329,"затоки":12330,"склала":12331,"тських":12332,"tech":12333,"спер":12334,"нескін":12335,"правничу":12336,"реакції":12337,"наперед":12338,"вінниця":12339,"штор":12340,"викладав":12341,"кад":12342,"ставка":12343,"ops":12344,"жуване":12345,"кони":12346,"затримки":12347,"розій":12348,"рослина":12349,"давав":12350,"аніма":12351,"чилі":12352,"камін":12353,"найму":12354,"сповід":12355,"філ":12356,"гіє":12357,"судах":12358,"зроблені":12359,"схеми":12360,"поу":12361,"часо":12362,"водиться":12363,"краків":12364,"ita":12365,"box":12366,"драматур":12367,"станні":12368,"гірничо":12369,"колії":12370,"вбити":12371,"немину":12372,"царів":12373,"жертва":12374,"тального":12375,"tre":12376,"взу":12377,"зрад":12378,"сег":12379,"ураження":12380,"клієнта":12381,"ий":12382,"тивною":12383,"старої":12384,"змогла":12385,"прида":12386,"кост":12387,"котро":12388,"санації":12389,"гуртожи":12390,"дену":12391,"ставили":12392,"фіналіст":12393,"заплю":12394,"руси":12395,"бенте":12396,"гніз":12397,"панів":12398,"тичним":12399,"амк":12400,"жіночий":12401,"можливих":12402,"смуга":12403,"time":12404,"шить":12405,"ландшаф":12406,"вери":12407,"мається":12408,"менка":12409,"осели":12410,"виклика":12411,"ознаками":12412,"гнів":12413,"284":12414,"солом":12415,"циган":12416,"ions":12417,"збільше":12418,"злочини":12419,"упоряд":12420,"правах":12421,"знятий":12422,"турбу":12423,"щорічно":12424,"видами":12425,"першості":12426,"зняв":12427,"конь":12428,"запитала":12429,"устат":12430,"озир":12431,"спини":12432,"пє":12433,"давніх":12434,"одначе":12435,"радіа":12436,"берга":12437,"дефі":12438,"чаклу":12439,"245":12440,"книжку":12441,"варіанти":12442,"телефону":12443,"март":12444,"меле":12445,"інтелі":12446,"відкрили":12447,"дивер":12448,"часткове":12449,"ju":12450,"дизайн":12451,"фосфо":12452,"політен":12453,"мухам":12454,"трава":12455,"старшим":12456,"кози":12457,"марти":12458,"вдається":12459,"днк":12460,"бль":12461,"еге":12462,"увага":12463,"каш":12464,"єння":12465,"нському":12466,"вірш":12467,"кривий":12468,"ростов":12469,"стина":12470,"страхова":12471,"нуль":12472,"видо":12473,"опіку":12474,"америка":12475,"вказану":12476,"враховує":12477,"нижньо":12478,"раль":12479,"вантаж":12480,"258":12481,"goo":12482,"розри":12483,"спід":12484,"містечку":12485,"glo":12486,"хмар":12487,"жої":12488,"265":12489,"фінанси":12490,"deutsch":12491,"написати":12492,"повість":12493,"пальцями":12494,"дехто":12495,"спокою":12496,"обсягів":12497,"гат":12498,"впа":12499,"втекти":12500,"чків":12501,"rich":12502,"анни":12503,"поверху":12504,"умовою":12505,"вивчав":12506,"гю":12507,"розчи":12508,"шть":12509,"незавер":12510,"падали":12511,"впс":12512,"змо":12513,"флорен":12514,"вироком":12515,"ілля":12516,"вері":12517,"сава":12518,"екіпаж":12519,"тісно":12520,"рафа":12521,"сторінки":12522,"ресурс":12523,"коси":12524,"серію":12525,"speci":12526,"котре":12527,"class":12528,"pg":12529,"владі":12530,"розгорта":12531,"суперник":12532,"безсмер":12533,"різного":12534,"втратила":12535,"436":12536,"горь":12537,"тітка":12538,"зний":12539,"ідею":12540,"тау":12541,"адмірал":12542,"1100":12543,"стера":12544,"перебра":12545,"соки":12546,"дку":12547,"мн":12548,"1888":12549,"хось":12550,"єдр":12551,"бук":12552,"чилася":12553,"набір":12554,"воїни":12555,"рівська":12556,"urnal":12557,"англія":12558,"риму":12559,"капу":12560,"подає":12561,"пакет":12562,"прогулу":12563,"750":12564,"тепла":12565,"колишні":12566,"629":12567,"bert":12568,"лівому":12569,"ворожих":12570,"пилася":12571,"сторіччя":12572,"зованого":12573,"досягти":12574,"велосипе":12575,"певна":12576,"dar":12577,"уника":12578,"полит":12579,"матчу":12580,"бігла":12581,"бб":12582,"платежі":12583,"скер":12584,"дзю":12585,"гілки":12586,"гарна":12587,"поша":12588,"гром":12589,"виско":12590,"екологія":12591,"знайом":12592,"інфек":12593,"моделей":12594,"читься":12595,"операцію":12596,"запит":12597,"срі":12598,"генів":12599,"ker":12600,"дбав":12601,"кордоні":12602,"super":12603,"зібрав":12604,"башки":12605,"покинути":12606,"phil":12607,"значною":12608,"люка":12609,"наступу":12610,"неско":12611,"охоче":12612,"спільну":12613,"хою":12614,"картка":12615,"унеможли":12616,"питає":12617,"скоріше":12618,"віро":12619,"катерин":12620,"елізабет":12621,"рима":12622,"зазначав":12623,"цвинтарі":12624,"вчиняти":12625,"видань":12626,"cin":12627,"404":12628,"band":12629,"укртранс":12630,"вка":12631,"забути":12632,"тауншип":12633,"друже":12634,"вальних":12635,"лун":12636,"картки":12637,"показник":12638,"поті":12639,"борони":12640,"bir":12641,"мінно":12642,"дослідив":12643,"людства":12644,"заохо":12645,"гастро":12646,"сували":12647,"напо":12648,"вічно":12649,"градська":12650,"явно":12651,"давали":12652,"ярослава":12653,"триманні":12654,"внизу":12655,"вечо":12656,"тарів":12657,"русу":12658,"джим":12659,"248":12660,"бувало":12661,"дивилися":12662,"разовий":12663,"терміном":12664,"mu":12665,"настоя":12666,"видатні":12667,"дозволив":12668,"біли":12669,"віддати":12670,"семе":12671,"маленькі":12672,"стелі":12673,"госпіта":12674,"305":12675,"коми":12676,"смак":12677,"торгіве":12678,"багат":12679,"гни":12680,"цеху":12681,"індексу":12682,"tt":12683,"нське":12684,"овод":12685,"написано":12686,"ятий":12687,"hal":12688,"out":12689,"співак":12690,"синд":12691,"діїв":12692,"милосер":12693,"селах":12694,"юра":12695,"вашу":12696,"чимось":12697,"податок":12698,"оком":12699,"муться":12700,"марті":12701,"турних":12702,"збройні":12703,"191":12704,"таємниці":12705,"460":12706,"бойко":12707,"заклади":12708,"грою":12709,"виставка":12710,"вчасно":12711,"винес":12712,"стили":12713,"слуга":12714,"схема":12715,"невдово":12716,"зарі":12717,"зачі":12718,"рка":12719,"захопити":12720,"січі":12721,"увагою":12722,"єдиною":12723,"активні":12724,"програмі":12725,"єгипту":12726,"доказом":12727,"1600":12728,"лювала":12729,"нковий":12730,"тендер":12731,"головну":12732,"посили":12733,"немай":12734,"кович":12735,"ліо":12736,"ien":12737,"загальне":12738,"вири":12739,"борт":12740,"туризму":12741,"досягли":12742,"1860":12743,"колишнє":12744,"довжину":12745,"watch":12746,"відклада":12747,"дону":12748,"неста":12749,"репута":12750,"виставки":12751,"діалек":12752,"бронь":12753,"вені":12754,"board":12755,"bad":12756,"бале":12757,"висна":12758,"графік":12759,"засла":12760,"пейза":12761,"видатк":12762,"остро":12763,"зняття":12764,"свен":12765,"метів":12766,"коса":12767,"ракетних":12768,"величину":12769,"міжоблас":12770,"богда":12771,"стрічки":12772,"свідків":12773,"панде":12774,"щах":12775,"долини":12776,"нованих":12777,"посміха":12778,"антоніо":12779,"молодь":12780,"617":12781,"згра":12782,"ане":12783,"жило":12784,"їжу":12785,"викладач":12786,"впер":12787,"хон":12788,"муси":12789,"джан":12790,"абонен":12791,"ora":12792,"круп":12793,"433":12794,"правив":12795,"оцінює":12796,"репре":12797,"ходімо":12798,"кул":12799,"прискор":12800,"стери":12801,"328":12802,"cus":12803,"почався":12804,"лізацію":12805,"теплі":12806,"311":12807,"вв":12808,"жодна":12809,"307":12810,"оздоров":12811,"надають":12812,"підір":12813,"вчителя":12814,"розважа":12815,"больше":12816,"company":12817,"ччі":12818,"хвороба":12819,"вибуху":12820,"домів":12821,"refer":12822,"радісно":12823,"тую":12824,"волевияв":12825,"папери":12826,"night":12827,"дорф":12828,"утрима":12829,"андреа":12830,"священик":12831,"вагою":12832,"збірки":12833,"247":12834,"трейд":12835,"деми":12836,"гарт":12837,"профспіл":12838,"шкіна":12839,"нквс":12840,"dan":12841,"торгово":12842,"нагляду":12843,"щас":12844,"412":12845,"ібн":12846,"низько":12847,"грошову":12848,"dv":12849,"квітки":12850,"уст":12851,"шеф":12852,"яйця":12853,"царства":12854,"провела":12855,"сині":12856,"давність":12857,"суттєво":12858,"лорен":12859,"гел":12860,"проле":12861,"видачу":12862,"відні":12863,"критика":12864,"урочисто":12865,"рита":12866,"насоло":12867,"уроджен":12868,"296":12869,"подібна":12870,"овики":12871,"кія":12872,"5000":12873,"третім":12874,"заявлені":12875,"парі":12876,"вуса":12877,"пошта":12878,"тіо":12879,"курган":12880,"алла":12881,"щується":12882,"пуск":12883,"захистив":12884,"берегів":12885,"им":12886,"сприй":12887,"будапе":12888,"пасту":12889,"tal":12890,"поверхню":12891,"дв":12892,"гається":12893,"1891":12894,"грали":12895,"275":12896,"зйомки":12897,"павіль":12898,"ris":12899,"висвіт":12900,"era":12901,"жності":12902,"ницьких":12903,"дрібні":12904,"радика":12905,"зування":12906,"шукав":12907,"святк":12908,"виноград":12909,"танки":12910,"бус":12911,"290":12912,"пошук":12913,"якихось":12914,"дист":12915,"безна":12916,"ull":12917,"диско":12918,"ьов":12919,"244":12920,"майстра":12921,"gn":12922,"оціно":12923,"нежи":12924,"неод":12925,"лери":12926,"тська":12927,"скликань":12928,"окс":12929,"горба":12930,"ордену":12931,"ланка":12932,"годині":12933,"екстра":12934,"кресли":12935,"доміну":12936,"одної":12937,"спасибі":12938,"релігії":12939,"малу":12940,"херсоні":12941,"зиму":12942,"каналів":12943,"journal":12944,"розбій":12945,"відвідав":12946,"орди":12947,"спільне":12948,"закликав":12949,"вишки":12950,"шоло":12951,"дама":12952,"чудо":12953,"клітини":12954,"ристані":12955,"stat":12956,"ознайом":12957,"невин":12958,"туне":12959,"міли":12960,"чол":12961,"герцога":12962,"сував":12963,"легенда":12964,"map":12965,"фюр":12966,"ксе":12967,"вірджи":12968,"509":12969,"ачі":12970,"мислення":12971,"якомога":12972,"аба":12973,"атаку":12974,"ліки":12975,"екстре":12976,"elect":12977,"нікуди":12978,"фрідріх":12979,"kra":12980,"побудови":12981,"утворена":12982,"папу":12983,"належне":12984,"11112":12985,"язком":12986,"ескадри":12987,"матвій":12988,"поно":12989,"водного":12990,"позбави":12991,"ute":12992,"приємно":12993,"поділь":12994,"завдав":12995,"239":12996,"stra":12997,"нащо":12998,"натя":12999,"двадцяти":13000,"послав":13001,"смир":13002,"города":13003,"бетон":13004,"ґен":13005,"азій":13006,"стіна":13007,"380":13008,"марій":13009,"баске":13010,"кондра":13011,"проводив":13012,"усьому":13013,"багатьма":13014,"405":13015,"brid":13016,"збільш":13017,"ттю":13018,"album":13019,"точку":13020,"четверо":13021,"прийом":13022,"gh":13023,"славі":13024,"пільг":13025,"611":13026,"229":13027,"факторів":13028,"icht":13029,"комісар":13030,"опор":13031,"люксем":13032,"спілка":13033,"аса":13034,"ячеслав":13035,"обліга":13036,"зможуть":13037,"токіо":13038,"природою":13039,"жаю":13040,"карло":13041,"імпуль":13042,"спині":13043,"anth":13044,"gon":13045,"itter":13046,"східних":13047,"вальні":13048,"оги":13049,"подумала":13050,"магазину":13051,"enter":13052,"скасував":13053,"мос":13054,"ретельно":13055,"перейти":13056,"зле":13057,"увечері":13058,"1848":13059,"досягла":13060,"методом":13061,"вагон":13062,"гравці":13063,"овувала":13064,"океа":13065,"луїс":13066,"згода":13067,"ors":13068,"редакція":13069,"канцеля":13070,"передач":13071,"вирощ":13072,"шева":13073,"інг":13074,"експози":13075,"монет":13076,"312":13077,"воєнного":13078,"естафе":13079,"взято":13080,"хвороб":13081,"блення":13082,"улі":13083,"захопив":13084,"волині":13085,"comm":13086,"матична":13087,"рекоменд":13088,"кадрів":13089,"євський":13090,"дився":13091,"христ":13092,"простих":13093,"кем":13094,"щит":13095,"належно":13096,"state":13097,"симпа":13098,"нером":13099,"обкла":13100,"стилем":13101,"походу":13102,"мела":13103,"високої":13104,"коалі":13105,"родичів":13106,"реал":13107,"сати":13108,"турніри":13109,"зака":13110,"адреси":13111,"лізинго":13112,"почало":13113,"казки":13114,"далих":13115,"номен":13116,"826":13117,"браун":13118,"напрямок":13119,"офіс":13120,"згадка":13121,"мисне":13122,"спусти":13123,"001":13124,"засту":13125,"наполяга":13126,"жовті":13127,"гнав":13128,"язування":13129,"кореї":13130,"епід":13131,"ступенів":13132,"загрозу":13133,"підозрі":13134,"шуються":13135,"музичних":13136,"sco":13137,"студія":13138,"бажанням":13139,"bab":13140,"ристати":13141,"жовто":13142,"трикут":13143,"шило":13144,"земної":13145,"виноски":13146,"риф":13147,"барі":13148,"rock":13149,"сканда":13150,"дивись":13151,"петру":13152,"eld":13153,"зізна":13154,"шевчук":13155,"тованою":13156,"обіймав":13157,"потрібен":13158,"смузі":13159,"звертає":13160,"рівняння":13161,"регіонах":13162,"вальний":13163,"прибуття":13164,"зой":13165,"іх":13166,"морфі":13167,"gar":13168,"спроба":13169,"best":13170,"солов":13171,"істотне":13172,"реаг":13173,"hot":13174,"справою":13175,"вальної":13176,"розко":13177,"ємось":13178,"захар":13179,"цім":13180,"діт":13181,"страхува":13182,"лягає":13183,"місту":13184,"254":13185,"залучено":13186,"рату":13187,"печери":13188,"позовною":13189,"креа":13190,"особа9":13191,"american":13192,"худоби":13193,"нии":13194,"курі":13195,"eral":13196,"гарний":13197,"низки":13198,"правому":13199,"вчених":13200,"1887":13201,"сплачує":13202,"атри":13203,"читайте":13204,"zap":13205,"уче":13206,"бий":13207,"хаб":13208,"споживач":13209,"нацист":13210,"ency":13211,"жеж":13212,"дизе":13213,"птаха":13214,"link":13215,"ачами":13216,"обшу":13217,"хазяй":13218,"відбір":13219,"icus":13220,"краєзнав":13221,"лівобере":13222,"ставить":13223,"швидкі":13224,"робиться":13225,"люся":13226,"мілан":13227,"теран":13228,"правною":13229,"хард":13230,"лідерів":13231,"ваших":13232,"нічно":13233,"планом":13234,"банду":13235,"півтора":13236,"дими":13237,"одружи":13238,"вілл":13239,"носиться":13240,"захищати":13241,"усміха":13242,"запам":13243,"природні":13244,"гають":13245,"сигнал":13246,"трек":13247,"набула":13248,"кахов":13249,"маркі":13250,"крил":13251,"1700":13252,"поспіль":13253,"стояння":13254,"переворо":13255,"tle":13256,"жається":13257,"шкіря":13258,"костел":13259,"горло":13260,"своєрід":13261,"таборі":13262,"дне":13263,"живопис":13264,"302":13265,"пролу":13266,"обоє":13267,"важливе":13268,"окла":13269,"гроб":13270,"micros":13271,"форум":13272,"карбова":13273,"відзнаки":13274,"вмер":13275,"1884":13276,"третьому":13277,"обіз":13278,"знайшла":13279,"профі":13280,"прочита":13281,"бігли":13282,"процесах":13283,"ясовано":13284,"важливу":13285,"ницьке":13286,"обізна":13287,"каталозі":13288,"затяг":13289,"бура":13290,"смолен":13291,"team":13292,"руслан":13293,"антар":13294,"оточення":13295,"купи":13296,"включено":13297,"вишне":13298,"гет":13299,"nik":13300,"поди":13301,"зникла":13302,"манн":13303,"чуєш":13304,"прояви":13305,"чках":13306,"романа":13307,"йс":13308,"кіров":13309,"sur":13310,"крижа":13311,"величини":13312,"важкий":13313,"зави":13314,"єднані":13315,"вачем":13316,"стіну":13317,"ec":13318,"ноти":13319,"думок":13320,"підлогу":13321,"риту":13322,"раптово":13323,"підтрим":13324,"паперу":13325,"складова":13326,"межує":13327,"біда":13328,"племен":13329,"ятдесят":13330,"озвався":13331,"нама":13332,"увалося":13333,"григорія":13334,"соко":13335,"хнула":13336,"олега":13337,"аварії":13338,"загор":13339,"доти":13340,"станнє":13341,"внести":13342,"ставали":13343,"авжеж":13344,"виглядає":13345,"жностей":13346,"істин":13347,"виправда":13348,"онів":13349,"служити":13350,"бернар":13351,"акціо":13352,"окрема":13353,"вський":13354,"стаціо":13355,"монд":13356,"язковими":13357,"дізнався":13358,"собаки":13359,"короткі":13360,"волом":13361,"себа":13362,"загони":13363,"манев":13364,"щороку":13365,"вправі":13366,"рюється":13367,"списання":13368,"криста":13369,"подроби":13370,"оцінити":13371,"лежали":13372,"фле":13373,"ное":13374,"ico":13375,"рає":13376,"засти":13377,"меться":13378,"складом":13379,"драми":13380,"ваного":13381,"джин":13382,"дею":13383,"дива":13384,"тарної":13385,"313":13386,"bon":13387,"посід":13388,"жало":13389,"сузір":13390,"фондів":13391,"решт":13392,"повним":13393,"шанов":13394,"правовою":13395,"припинив":13396,"бахмут":13397,"ґер":13398,"сторож":13399,"вдвс":13400,"пнув":13401,"буржу":13402,"живлення":13403,"посібник":13404,"злі":13405,"нявся":13406,"відступа":13407,"володів":13408,"246":13409,"вецького":13410,"робочий":13411,"субор":13412,"помсти":13413,"бець":13414,"легкої":13415,"холодні":13416,"from0":13417,"міри":13418,"королеви":13419,"шувати":13420,"вулка":13421,"ківці":13422,"httpsgoo":13423,"настрій":13424,"дума":13425,"обли":13426,"георгі":13427,"кевича":13428,"438":13429,"запас":13430,"завзя":13431,"яне":13432,"критики":13433,"армією":13434,"сух":13435,"прик":13436,"grand":13437,"ширина":13438,"виїхав":13439,"увійшло":13440,"колій":13441,"персонаж":13442,"побіг":13443,"година":13444,"входу":13445,"веселі":13446,"патро":13447,"денко":13448,"міській":13449,"вжити":13450,"мандри":13451,"людські":13452,"ция":13453,"переказ":13454,"здобуття":13455,"товариші":13456,"засад":13457,"строй":13458,"практика":13459,"хва":13460,"365":13461,"вбуд":13462,"фю":13463,"промов":13464,"знаряд":13465,"гріх":13466,"сірий":13467,"ble":13468,"222":13469,"пока":13470,"синій":13471,"скопі":13472,"готова":13473,"скажіть":13474,"293":13475,"tu":13476,"рто":13477,"унемож":13478,"розріз":13479,"запози":13480,"довжини":13481,"мече":13482,"пільська":13483,"бес":13484,"приклади":13485,"сет":13486,"пети":13487,"ницьку":13488,"хру":13489,"266":13490,"коста":13491,"мирової":13492,"415":13493,"єдрпоу":13494,"кю":13495,"держад":13496,"термінів":13497,"chart":13498,"опалення":13499,"удоскона":13500,"406":13501,"відшкод":13502,"кулемет":13503,"soccer":13504,"баскетбо":13505,"580":13506,"mart":13507,"млин":13508,"paris":13509,"собака":13510,"овити":13511,"шати":13512,"книжок":13513,"306":13514,"наданням":13515,"уперед":13516,"етапу":13517,"діс":13518,"викликав":13519,"нялися":13520,"виборців":13521,"делі":13522,"колодя":13523,"високим":13524,"збірні":13525,"єль":13526,"mann":13527,"коване":13528,"вироби":13529,"вського":13530,"їжа":13531,"циклі":13532,"двигуни":13533,"стовп":13534,"нечи":13535,"ляю":13536,"рухом":13537,"невелика":13538,"вивіль":13539,"вежа":13540,"сприяє":13541,"макро":13542,"кпу":13543,"уклали":13544,"223":13545,"заявили":13546,"жають":13547,"знизу":13548,"розумієш":13549,"грала":13550,"якова":13551,"бурмо":13552,"десятків":13553,"секція":13554,"брод":13555,"управи":13556,"несу":13557,"фільмах":13558,"стокголь":13559,"pus":13560,"tem":13561,"почалися":13562,"бразилія":13563,"касти":13564,"будеться":13565,"потоку":13566,"македон":13567,"дробо":13568,"танія":13569,"das":13570,"ковою":13571,"леона":13572,"каро":13573,"кладач":13574,"відбула":13575,"розстро":13576,"робок":13577,"зменшити":13578,"отто":13579,"новину":13580,"вступу":13581,"ліжко":13582,"дано":13583,"shift":13584,"принца":13585,"гостри":13586,"512":13587,"єдиному":13588,"відень":13589,"прести":13590,"помилок":13591,"кароліна":13592,"к990":13593,"розпис":13594,"їзді":13595,"мирних":13596,"hg":13597,"прилу":13598,"гідності":13599,"ньйо":13600,"cn":13601,"молоко":13602,"служіння":13603,"абу":13604,"спорід":13605,"додатком":13606,"регулює":13607,"двс":13608,"коридор":13609,"atel":13610,"склали":13611,"поляків":13612,"пересу":13613,"ятника":13614,"збли":13615,"зацією":13616,"нках":13617,"версію":13618,"мсти":13619,"зароб":13620,"мудрі":13621,"трю":13622,"родом":13623,"доцент":13624,"корисних":13625,"процедур":13626,"фракції":13627,"олексія":13628,"вказаною":13629,"шова":13630,"its":13631,"кріс":13632,"спряму":13633,"атак":13634,"пальцем":13635,"дайте":13636,"регуля":13637,"фактор":13638,"постаті":13639,"криво":13640,"сільради":13641,"zz":13642,"слю":13643,"375":13644,"кістки":13645,"чужі":13646,"ємною":13647,"каї":13648,"увались":13649,"рідше":13650,"способів":13651,"міха":13652,"тиці":13653,"петрівна":13654,"hl":13655,"зради":13656,"виданого":13657,"дженим":13658,"файл":13659,"овни":13660,"носом":13661,"активи":13662,"bas":13663,"олексі":13664,"мексикан":13665,"клану":13666,"приле":13667,"стале":13668,"віршів":13669,"low":13670,"зміною":13671,"індо":13672,"підсумку":13673,"cic":13674,"бурга":13675,"написана":13676,"істотні":13677,"насмі":13678,"живопису":13679,"ндр":13680,"карті":13681,"подумати":13682,"ith":13683,"польське":13684,"ультра":13685,"171":13686,"тіле":13687,"врод":13688,"алекс":13689,"вершини":13690,"419":13691,"подачі":13692,"перемага":13693,"пот":13694,"мульти":13695,"косто":13696,"слуги":13697,"вілла":13698,"катало":13699,"феодо":13700,"шці":13701,"сує":13702,"латвії":13703,"ska":13704,"ляни":13705,"жик":13706,"маре":13707,"турної":13708,"річної":13709,"називає":13710,"вермах":13711,"фта":13712,"верст":13713,"gin":13714,"дань":13715,"язав":13716,"керувати":13717,"ігоря":13718,"продемон":13719,"садок":13720,"людві":13721,"sf":13722,"водія":13723,"столиця":13724,"єси":13725,"каталог":13726,"335":13727,"уявити":13728,"ріна":13729,"стах":13730,"tain":13731,"цвк":13732,"лилися":13733,"сторонні":13734,"грама":13735,"самогуб":13736,"районна":13737,"367":13738,"приладів":13739,"учора":13740,"займав":13741,"зеленого":13742,"альянс":13743,"вапня":13744,"гм":13745,"ведме":13746,"виключає":13747,"язкового":13748,"експорту":13749,"стандарт":13750,"цит":13751,"жній":13752,"перехре":13753,"єдиної":13754,"явища":13755,"сига":13756,"ссав":13757,"нара":13758,"довіря":13759,"сться":13760,"фоку":13761,"шасі":13762,"bot":13763,"шпита":13764,"ятою":13765,"логічно":13766,"мел":13767,"268":13768,"лікарів":13769,"будете":13770,"востаннє":13771,"господа":13772,"lan":13773,"cho":13774,"europe":13775,"біліта":13776,"упав":13777,"уель":13778,"фізичною":13779,"hen":13780,"боре":13781,"дочкою":13782,"медаллю":13783,"середніх":13784,"ліса":13785,"бачимо":13786,"подався":13787,"пляє":13788,"дтп":13789,"шару":13790,"мюнх":13791,"чаків":13792,"твари":13793,"urus":13794,"білому":13795,"стря":13796,"волинь":13797,"набере":13798,"ісуса":13799,"420":13800,"належні":13801,"хлопчика":13802,"ety":13803,"єрар":13804,"яго":13805,"заввишки":13806,"румунія":13807,"престол":13808,"почати":13809,"гуа":13810,"альбоми":13811,"фактори":13812,"піонер":13813,"295":13814,"вакан":13815,"мив":13816,"виведе":13817,"картину":13818,"925":13819,"тривають":13820,"леся":13821,"розки":13822,"лісового":13823,"кіне":13824,"наклада":13825,"листки":13826,"філіпп":13827,"нкові":13828,"лекції":13829,"бурзі":13830,"нобе":13831,"доньки":13832,"фіоле":13833,"ern":13834,"nov":13835,"вухо":13836,"дзьоб":13837,"вільних":13838,"ures":13839,"ement":13840,"виграла":13841,"космонав":13842,"довше":13843,"хіх":13844,"проме":13845,"консер":13846,"lam":13847,"1882":13848,"овичем":13849,"радості":13850,"будьте":13851,"льників":13852,"боля":13853,"подібно":13854,"post":13855,"висловив":13856,"дюк":13857,"течією":13858,"двій":13859,"функцією":13860,"кале":13861,"відчай":13862,"колонія":13863,"мережу":13864,"машині":13865,"243":13866,"хору":13867,"поєдну":13868,"різдва":13869,"червоних":13870,"чек":13871,"хвали":13872,"молдови":13873,"нерід":13874,"торингу":13875,"сказано":13876,"виклик":13877,"тріум":13878,"діючого":13879,"cast":13880,"спб":13881,"щенні":13882,"брук":13883,"відгуки":13884,"буре":13885,"природу":13886,"тник":13887,"динг":13888,"дел":13889,"нігер":13890,"сагайда":13891,"19321933":13892,"сирії":13893,"гуцу":13894,"йди":13895,"герба":13896,"лістка":13897,"мада":13898,"вбили":13899,"висоту":13900,"піра":13901,"істотно":13902,"левич":13903,"285":13904,"зяви":13905,"названа":13906,"лауреа":13907,"изд":13908,"правого":13909,"реквізи":13910,"ворожі":13911,"морем":13912,"будинках":13913,"уси":13914,"1859":13915,"фортеця":13916,"менами":13917,"бельгій":13918,"бачать":13919,"ногах":13920,"запросив":13921,"гривні":13922,"плені":13923,"1875":13924,"інвесто":13925,"матиме":13926,"пт":13927,"виплат":13928,"гими":13929,"vers":13930,"вагова":13931,"раби":13932,"батьками":13933,"пожежа":13934,"існувати":13935,"чума":13936,"отримало":13937,"учні":13938,"коди":13939,"оптимі":13940,"функцію":13941,"269":13942,"врегуль":13943,"еллі":13944,"попід":13945,"весни":13946,"манітних":13947,"кардина":13948,"поділля":13949,"абе":13950,"мы":13951,"мозок":13952,"автобус":13953,"pod":13954,"інци":13955,"нутих":13956,"курор":13957,"куря":13958,"тривав":13959,"кукуруд":13960,"червоним":13961,"завдали":13962,"широкі":13963,"чия":13964,"судин":13965,"узбеки":13966,"кирги":13967,"вибухів":13968,"вікіпе":13969,"таланови":13970,"деякими":13971,"мадрид":13972,"лк":13973,"одержав":13974,"річкою":13975,"збірній":13976,"wik":13977,"мешкають":13978,"studi":13979,"мунд":13980,"поміщи":13981,"249":13982,"споруда":13983,"старому":13984,"нята":13985,"пресі":13986,"лекси":13987,"дб":13988,"соне":13989,"лиман":13990,"вірити":13991,"місія":13992,"фактом":13993,"public":13994,"потер":13995,"панове":13996,"страті":13997,"ректор":13998,"нижнього":13999,"стінах":14000,"назв":14001,"кве":14002,"mas":14003,"виби":14004,"засвідчу":14005,"mad":14006,"vent":14007,"дуба":14008,"лості":14009,"душев":14010,"страшні":14011,"переки":14012,"махнув":14013,"думаєш":14014,"слобід":14015,"перо":14016,"пошти":14017,"правий":14018,"водні":14019,"368":14020,"sou":14021,"донбас":14022,"клієнтів":14023,"давайте":14024,"тичними":14025,"ігно":14026,"1883":14027,"архіпела":14028,"неділю":14029,"різь":14030,"збирання":14031,"маєтку":14032,"словарь":14033,"зібрання":14034,"пустелі":14035,"colle":14036,"венесу":14037,"mr":14038,"ога":14039,"змушені":14040,"міські":14041,"підйом":14042,"яво":14043,"325":14044,"старшина":14045,"ути":14046,"times":14047,"985":14048,"балансі":14049,"ендо":14050,"ченнями":14051,"кіс":14052,"dz":14053,"тихий":14054,"плена":14055,"шне":14056,"винні":14057,"вкра":14058,"мли":14059,"ют":14060,"лялася":14061,"серцем":14062,"дував":14063,"зелених":14064,"sv":14065,"мідь":14066,"довіри":14067,"загрожує":14068,"сіро":14069,"високою":14070,"рв":14071,"литися":14072,"діячів":14073,"back":14074,"грузин":14075,"апол":14076,"акре":14077,"ціям":14078,"прибира":14079,"реклами":14080,"tar":14081,"ництву":14082,"много":14083,"погра":14084,"білоцер":14085,"укладені":14086,"спить":14087,"есмін":14088,"гого":14089,"вга":14090,"jan":14091,"каву":14092,"меду":14093,"халі":14094,"карт":14095,"малої":14096,"налу":14097,"доводам":14098,"eo":14099,"шали":14100,"адап":14101,"мин":14102,"ухвалені":14103,"вояків":14104,"повторив":14105,"башко":14106,"піть":14107,"кутку":14108,"придбав":14109,"розплю":14110,"протесту":14111,"вигляду":14112,"241":14113,"нарного":14114,"орієнтов":14115,"поступа":14116,"сації":14117,"замож":14118,"публіку":14119,"легендар":14120,"ієрар":14121,"чужого":14122,"проживав":14123,"дублі":14124,"паспорт":14125,"боротися":14126,"літерату":14127,"christ":14128,"квартал":14129,"коте":14130,"асам":14131,"nap":14132,"осінь":14133,"абду":14134,"релігія":14135,"зупинено":14136,"утворює":14137,"привабли":14138,"палаці":14139,"схожа":14140,"чс":14141,"словен":14142,"перекон":14143,"iy":14144,"пилип":14145,"близ":14146,"заболо":14147,"підроб":14148,"west":14149,"дзержи":14150,"потужні":14151,"ятний":14152,"укрзаліз":14153,"344":14154,"номер2":14155,"еш":14156,"пилися":14157,"1861":14158,"скоп":14159,"бау":14160,"госу":14161,"сирій":14162,"кризи":14163,"рівності":14164,"чинити":14165,"женому":14166,"овернь":14167,"тікати":14168,"піч":14169,"швар":14170,"явор":14171,"династія":14172,"глянула":14173,"страти":14174,"цех":14175,"кімната":14176,"прока":14177,"вирушив":14178,"неної":14179,"ницькі":14180,"замо":14181,"ator":14182,"ula":14183,"плів":14184,"уни":14185,"мек":14186,"відділом":14187,"414":14188,"сприн":14189,"фера":14190,"заставо":14191,"темати":14192,"шур":14193,"тью":14194,"ніла":14195,"обсяги":14196,"жною":14197,"крісто":14198,"маніпу":14199,"репер":14200,"спд":14201,"санацією":14202,"1867":14203,"завмер":14204,"програв":14205,"хімічних":14206,"профіла":14207,"спілок":14208,"передана":14209,"колос":14210,"mich":14211,"сторінці":14212,"опусти":14213,"221":14214,"ницях":14215,"захова":14216,"підвідом":14217,"важких":14218,"павлов":14219,"вибухи":14220,"дональ":14221,"219":14222,"ефе":14223,"бориса":14224,"рить":14225,"переляка":14226,"перери":14227,"дьте":14228,"дитячих":14229,"обєк":14230,"петри":14231,"pin":14232,"остап":14233,"загрозою":14234,"приділя":14235,"дженню":14236,"відір":14237,"депо":14238,"днями":14239,"завой":14240,"ціал":14241,"виклад":14242,"мазур":14243,"прини":14244,"панно":14245,"1876":14246,"бровар":14247,"технічна":14248,"духом":14249,"племені":14250,"внесені":14251,"масу":14252,"золотого":14253,"почути":14254,"околицях":14255,"278":14256,"герце":14257,"здобу":14258,"башкорто":14259,"сніж":14260,"сербії":14261,"молока":14262,"літнього":14263,"четверта":14264,"борід":14265,"журі":14266,"юче":14267,"оті":14268,"описує":14269,"сіна":14270,"потом":14271,"припусти":14272,"школах":14273,"братська":14274,"флі":14275,"пором":14276,"353":14277,"трактор":14278,"ядра":14279,"невір":14280,"майте":14281,"пек":14282,"гумо":14283,"apple":14284,"надію":14285,"фіні":14286,"сонцем":14287,"ear":14288,"тети":14289,"стст":14290,"щими":14291,"нероз":14292,"зьке":14293,"нікополь":14294,"ставок":14295,"фотограф":14296,"дихання":14297,"чева":14298,"воєнний":14299,"оркестр":14300,"провока":14301,"припини":14302,"яскраві":14303,"еля":14304,"надра":14305,"канц":14306,"саксо":14307,"водити":14308,"хвоста":14309,"білими":14310,"визначив":14311,"реакція":14312,"відкрити":14313,"1869":14314,"різниці":14315,"rh":14316,"конди":14317,"волость":14318,"давству":14319,"бідола":14320,"тридцяти":14321,"харрі":14322,"фарб":14323,"лячи":14324,"штан":14325,"наявного":14326,"стрічка":14327,"тб":14328,"лариса":14329,"явище":14330,"чорним":14331,"літопис":14332,"чорну":14333,"var":14334,"253":14335,"воював":14336,"емігра":14337,"зима":14338,"ріки":14339,"хк":14340,"замовк":14341,"вулицях":14342,"повсяк":14343,"турного":14344,"une":14345,"зникли":14346,"dre":14347,"394":14348,"овину":14349,"окремими":14350,"поляки":14351,"fam":14352,"тнув":14353,"поліс":14354,"штани":14355,"чувала":14356,"підлі":14357,"винесено":14358,"сіра":14359,"івка":14360,"філадель":14361,"питися":14362,"досягає":14363,"проста":14364,"ницями":14365,"почувши":14366,"покласти":14367,"старовин":14368,"бакала":14369,"тальні":14370,"жертву":14371,"вихов":14372,"протоко":14373,"1300":14374,"обстанов":14375,"всеволо":14376,"история":14377,"аш":14378,"софії":14379,"обкладин":14380,"гемп":14381,"твоїх":14382,"цур":14383,"ґар":14384,"чинних":14385,"дзво":14386,"славні":14387,"червоне":14388,"даремно":14389,"землероб":14390,"awa":14391,"pop":14392,"забрали":14393,"сках":14394,"опуска":14395,"стеж":14396,"ненка":14397,"стран":14398,"метало":14399,"злиття":14400,"подо":14401,"більшої":14402,"схопив":14403,"удмур":14404,"обома":14405,"гендер":14406,"лагід":14407,"забрати":14408,"сици":14409,"зарубі":14410,"510":14411,"незви":14412,"глибини":14413,"теніс":14414,"миколая":14415,"edition":14416,"микита":14417,"сені":14418,"277":14419,"перестав":14420,"номії":14421,"сумніву":14422,"гоголь":14423,"coun":14424,"масшта":14425,"указа":14426,"поява":14427,"діви":14428,"рву":14429,"реме":14430,"ey":14431,"мово":14432,"психоло":14433,"гірко":14434,"повноцін":14435,"болгарія":14436,"1877":14437,"сійно":14438,"химер":14439,"логією":14440,"бона":14441,"roy":14442,"справами":14443,"упц":14444,"оно":14445,"коню":14446,"сіно":14447,"ясованих":14448,"лярів":14449,"памяті":14450,"анек":14451,"тально":14452,"шник":14453,"чисел":14454,"харі":14455,"оволі":14456,"атест":14457,"чекали":14458,"зборами":14459,"даху":14460,"шляхти":14461,"планує":14462,"поселень":14463,"верс":14464,"нерідко":14465,"1758":14466,"бурі":14467,"полів":14468,"заз":14469,"358":14470,"галичини":14471,"ukrain":14472,"пригод":14473,"ворон":14474,"одночас":14475,"півфінал":14476,"парафії":14477,"іза":14478,"ниченко":14479,"сашко":14480,"абзац":14481,"куре":14482,"альбер":14483,"сутич":14484,"могут":14485,"платне":14486,"трін":14487,"проспект":14488,"402":14489,"простий":14490,"брига":14491,"принцеса":14492,"мережах":14493,"поїздів":14494,"реформу":14495,"сировини":14496,"булі":14497,"нуте":14498,"духів":14499,"пин":14500,"оркестру":14501,"publish":14502,"хун":14503,"академію":14504,"549":14505,"боїться":14506,"зимових":14507,"зрід":14508,"гераль":14509,"сандер":14510,"ляна":14511,"межи":14512,"передали":14513,"прости":14514,"поляр":14515,"готелю":14516,"зією":14517,"гб":14518,"кум":14519,"пса":14520,"деше":14521,"колони":14522,"змор":14523,"направив":14524,"кажеш":14525,"благород":14526,"сінько":14527,"бійці":14528,"ea":14529,"єму":14530,"продати":14531,"вантажо":14532,"торстві":14533,"піску":14534,"шукає":14535,"champ":14536,"проблему":14537,"лювався":14538,"зубами":14539,"сотень":14540,"дисло":14541,"work":14542,"здачі":14543,"проекти":14544,"майстри":14545,"рубе":14546,"334":14547,"запобі":14548,"жина":14549,"ское":14550,"андру":14551,"засобом":14552,"основну":14553,"мембрані":14554,"печін":14555,"любила":14556,"послався":14557,"мурав":14558,"ракета":14559,"каф":14560,"651":14561,"глухо":14562,"діаметр":14563,"потро":14564,"запита":14565,"рахунках":14566,"заставу":14567,"fran":14568,"інженера":14569,"дос":14570,"карпати":14571,"радий":14572,"митниці":14573,"степана":14574,"стям":14575,"кінцеві":14576,"2023":14577,"гійний":14578,"асамбле":14579,"місцями":14580,"загинула":14581,"щене":14582,"sum":14583,"480":14584,"дунай":14585,"костром":14586,"ліжку":14587,"собак":14588,"мотивами":14589,"отаман":14590,"фашист":14591,"робочої":14592,"сорти":14593,"зранку":14594,"now":14595,"робін":14596,"графічні":14597,"берди":14598,"деталей":14599,"поліцію":14600,"вулицею":14601,"входило":14602,"уш":14603,"phal":14604,"істоти":14605,"запасів":14606,"збирався":14607,"гне":14608,"мили":14609,"міка":14610,"філія":14611,"yt":14612,"лорд":14613,"erson":14614,"film":14615,"vin":14616,"сутність":14617,"нака":14618,"гама":14619,"наданні":14620,"ренню":14621,"боле":14622,"влад":14623,"354":14624,"везти":14625,"безопла":14626,"недовго":14627,"прикрі":14628,"нича":14629,"чорними":14630,"ефірі":14631,"ніший":14632,"прийти":14633,"діво":14634,"вистави":14635,"більший":14636,"урочище":14637,"303":14638,"білим":14639,"скори":14640,"методу":14641,"сприяти":14642,"шле":14643,"ution":14644,"випов":14645,"ліву":14646,"свіжі":14647,"мюнхен":14648,"вчинив":14649,"берліні":14650,"1879":14651,"підси":14652,"варшаві":14653,"доскона":14654,"ые":14655,"сісти":14656,"золотих":14657,"оме":14658,"вот":14659,"колін":14660,"917":14661,"духа":14662,"sta":14663,"корне":14664,"україно":14665,"здатний":14666,"правити":14667,"лежать":14668,"втом":14669,"званий":14670,"кращий":14671,"розпаду":14672,"сприят":14673,"ювати":14674,"сплай":14675,"воїнам":14676,"встигли":14677,"щоразу":14678,"грушев":14679,"мус":14680,"невідома":14681,"пелю":14682,"очолює":14683,"пірене":14684,"зменши":14685,"янської":14686,"енн":14687,"пенсію":14688,"ностями":14689,"утворено":14690,"кили":14691,"дму":14692,"рядження":14693,"юрисдик":14694,"руди":14695,"пяти":14696,"експорт":14697,"cha":14698,"вивер":14699,"1830":14700,"1863":14701,"biogra":14702,"підстава":14703,"діаман":14704,"едуард":14705,"лівого":14706,"лівій":14707,"дрібних":14708,"повній":14709,"442":14710,"валюти":14711,"мимоволі":14712,"техас":14713,"промінь":14714,"1212":14715,"хих":14716,"підлозі":14717,"принципа":14718,"вищій":14719,"заволоді":14720,"пий":14721,"луганськ":14722,"гола":14723,"бриз":14724,"суддею":14725,"нива":14726,"лісом":14727,"дійти":14728,"католики":14729,"вчинено":14730,"ild":14731,"заре":14732,"гаї":14733,"боран":14734,"франсуа":14735,"самовід":14736,"ядерної":14737,"суборен":14738,"обстріл":14739,"плавець":14740,"баран":14741,"воєнних":14742,"точніше":14743,"спорі":14744,"есе":14745,"зведення":14746,"посада":14747,"культуру":14748,"обраного":14749,"янська":14750,"тисячолі":14751,"погодили":14752,"мирного":14753,"йд":14754,"підві":14755,"екзем":14756,"загибель":14757,"желе":14758,"сбер":14759,"мудри":14760,"мармур":14761,"стани":14762,"звязок":14763,"ффа":14764,"біжить":14765,"гнувся":14766,"хокеїст":14767,"всміх":14768,"юка":14769,"човнів":14770,"попроща":14771,"iev":14772,"вки":14773,"брід":14774,"заповіт":14775,"паливо":14776,"гроз":14777,"прокоп":14778,"святі":14779,"василів":14780,"втрачає":14781,"ендрю":14782,"турки":14783,"діди":14784,"oly":14785,"зявився":14786,"гону":14787,"тян":14788,"pho":14789,"поданням":14790,"мартіна":14791,"384":14792,"гл":14793,"283":14794,"допоможе":14795,"тали":14796,"мену":14797,"баченні":14798,"можливим":14799,"гілля":14800,"відказав":14801,"мешкав":14802,"іспи":14803,"додано":14804,"турбі":14805,"розпу":14806,"алге":14807,"1400":14808,"рінг":14809,"мільйон":14810,"serv":14811,"позбу":14812,"подов":14813,"землетру":14814,"нагрі":14815,"зроста":14816,"культурі":14817,"cel":14818,"везення":14819,"налаш":14820,"бджо":14821,"рештки":14822,"старан":14823,"дило":14824,"круж":14825,"спірним":14826,"туванням":14827,"згадує":14828,"корів":14829,"руїни":14830,"янський":14831,"починав":14832,"шували":14833,"видні":14834,"cs":14835,"гря":14836,"mes":14837,"ньї":14838,"kon":14839,"дмит":14840,"їздив":14841,"графство":14842,"фредері":14843,"перенес":14844,"епідемі":14845,"колеса":14846,"лейк":14847,"ides":14848,"пономар":14849,"аваль":14850,"віле":14851,"bm":14852,"kw":14853,"раунді":14854,"пташ":14855,"вчення":14856,"тизації":14857,"яного":14858,"пістолет":14859,"закладе":14860,"жувана":14861,"планета":14862,"under":14863,"шлюбі":14864,"штук":14865,"усунути":14866,"бурх":14867,"господ":14868,"іконо":14869,"роза":14870,"вогні":14871,"токси":14872,"іст":14873,"почувся":14874,"космос":14875,"планів":14876,"єні":14877,"куру":14878,"прор":14879,"вторин":14880,"прохо":14881,"порозі":14882,"маму":14883,"розбі":14884,"dire":14885,"понеді":14886,"студенти":14887,"ida":14888,"протеї":14889,"антропо":14890,"данія":14891,"prim":14892,"вправ":14893,"ссе":14894,"невідомі":14895,"епізоди":14896,"франц":14897,"каба":14898,"915":14899,"судово":14900,"wta":14901,"1850":14902,"1873":14903,"бараба":14904,"тарний":14905,"ірак":14906,"майк":14907,"низка":14908,"вказував":14909,"сіяні":14910,"357":14911,"нарної":14912,"власними":14913,"комусь":14914,"bet":14915,"last":14916,"сарай":14917,"1881":14918,"ємом":14919,"закрити":14920,"bank":14921,"голосі":14922,"495":14923,"джерсі":14924,"раку":14925,"зацікави":14926,"продавця":14927,"ney":14928,"las":14929,"непоруш":14930,"здатна":14931,"роздра":14932,"вальник":14933,"276":14934,"бпла":14935,"austr":14936,"хали":14937,"нальними":14938,"гравіта":14939,"xxi":14940,"екран":14941,"киев":14942,"роберта":14943,"холм":14944,"hu":14945,"переді":14946,"доклад":14947,"зди":14948,"390":14949,"вбра":14950,"польські":14951,"мимо":14952,"тичній":14953,"приголом":14954,"bridge":14955,"zapor":14956,"ділянках":14957,"щеле":14958,"ватимуть":14959,"чарльз":14960,"просту":14961,"абстра":14962,"налаго":14963,"взво":14964,"снув":14965,"tour":14966,"донбасу":14967,"тарифів":14968,"жю":14969,"винесе":14970,"любий":14971,"тисячу":14972,"уванню":14973,"припадає":14974,"язанням":14975,"сестер":14976,"чутно":14977,"брами":14978,"відхиляє":14979,"рівнів":14980,"білої":14981,"hum":14982,"двори":14983,"лової":14984,"histor":14985,"квитан":14986,"визнали":14987,"овіччя":14988,"черне":14989,"наки":14990,"крат":14991,"тальних":14992,"товаришу":14993,"якович":14994,"джонсон":14995,"ззаду":14996,"сап":14997,"ily":14998,"верховна":14999,"сними":15000,"jam":15001,"ada":15002,"фабрики":15003,"252":15004,"ваку":15005,"безі":15006,"sen":15007,"viv":15008,"осін":15009,"винай":15010,"ніть":15011,"кінців":15012,"прилад":15013,"окремим":15014,"послугу":15015,"вкладами":15016,"оло":15017,"манга":15018,"550":15019,"щали":15020,"рідна":15021,"мечами":15022,"двигунів":15023,"повісті":15024,"накри":15025,"позі":15026,"варя":15027,"статутом":15028,"джонс":15029,"рейс":15030,"aeus":15031,"gold":15032,"гина":15033,"стари":15034,"osa":15035,"божої":15036,"арсенал":15037,"hip":15038,"прагне":15039,"плаче":15040,"розча":15041,"ало":15042,"кару":15043,"нкового":15044,"db":15045,"глини":15046,"основне":15047,"виборі":15048,"більшою":15049,"торпедо":15050,"чорної":15051,"монголь":15052,"осла":15053,"звик":15054,"полем":15055,"1866":15056,"культу":15057,"вертольо":15058,"запевня":15059,"спільних":15060,"ерн":15061,"приватні":15062,"едвард":15063,"анджелес":15064,"дау":15065,"гніздо":15066,"тас":15067,"336":15068,"mem":15069,"поновити":15070,"mill":15071,"вола":15072,"човни":15073,"мотуз":15074,"зробить":15075,"процесор":15076,"записки":15077,"західні":15078,"1871":15079,"спере":15080,"общини":15081,"гена":15082,"закричав":15083,"камера":15084,"караба":15085,"торе":15086,"надала":15087,"молдова":15088,"мано":15089,"хиб":15090,"пнев":15091,"352":15092,"святи":15093,"овослужб":15094,"вуль":15095,"асфаль":15096,"володаря":15097,"помітили":15098,"чергових":15099,"міо":15100,"задум":15101,"тяжкості":15102,"геноци":15103,"здобути":15104,
[...]
