#version: 0.2
л ь
е р
а н
с т
а р
о р
и ̆
е н
о н
р о
а л
о л
а т
р е
і н
р а
о в
р и
е т
к у
к а
к о
в а
е л
и н
р у
п л
в і
п о
е к
а м
у р
т и
а ль
а к
і ̈
п і
е ль
л і
м і
с к
д и
ц і
о д
о т
л а
м а
р і
ц ь
б у
л е
к он
о м
о б
о ч
п а
с и
п ро
а б
я н
д ж
в и
е м
т у
ен т
с у
л и
а г
о к
д і
п ер
ф і
н і
к ар
а в
е с
п у
м у
ан т
е й
п ар
ц и
л о
г і
л ю
н и
м ан
в ер
д у
б а
к ор
о с
б і
н а
л у
т ор
г у
т ер
з и
i н
л я
т а
у ва
р я
п ор
д е
в о
е д
п ол
с ь
т о
e p
г а
т р
и р
и ч
к і
б л
с і
е ч
и й
е в
м ар
е з
я ч
г н
а д
о з
к ол
я т
і т
ан д
г о
е б
и т
c т
o p
е ст
є н
і й
а з
к т
п ри
ці й
a p
е п
ш т
ко м
г ор
м о
п ре
ш к
з а
к и
е г
п i
у н
б ар
в ар
о п
ю ва
б ер
ч ер
a п
з ь
п и
т ра
ч а
ч у
p e
ст и
ал і
в ол
к ан
ст р
д о
м и
є в
ен н
м ат
с а
с п
с ер
у т
ро з
ку р
б р
к ре
с о
і в
ен ь
б ал
г ар
м ін
в ат
г p
д р
м ер
ек т
г ал
м ор
я к
i п
а с
к ра
к ри
у д
ф ор
к л
п ан
с л
т ар
ч и
ст о
i o
б о
в у
г ан
ю р
і л
ст ер
б ор
р ан
в ор
д ер
з у
к ат
т е
ф ер
p o
а ч
к ро
м ет
п ал
с н
г ер
г ол
г ра
п т
с ку
т ро
є ць
і м
а х
б ур
к ал
м ен
ш и
ек с
в ал
д ь
к o
к ов
о ж
у л
ф л
і р
од ж
a т
i т
а й
з д
м он
п ра
т ри
у ль
ю ч
і ль
ст ро
ст ру
в л
в ан
м е
м л
с ин
т ал
я р
ст ь
ст ра
ї н
з н
м ол
п a
ф у
і д
й д
а п
е ць
н е
т ен
ан с
c o
i c
г и
л ін
н о
о х
п ат
с ар
т ру
ві р
i p
i м
б ан
г л
г ен
г он
и к
п ет
с ен
с ол
т он
т ре
х и
ль н
ці я
в ін
к ле
л ат
н у
о ш
т ь
ку л
iн т
a г
м ент
є ч
пі д
а ж
б ат
г e
д ин
з о
и в
п ел
с ка
т ов
у с
ц ер
і к
і я
p a
б ри
д ов
к ц
к ер
н я
п ep
с он
т ан
ф ар
ф ін
ф ра
х ар
ш ар
ві д
пі р
в ен
д з
е ж
р он
у б
ч ч
ку ль
ві т
в ин
г ро
ж и
л л
н т
о г
п e
п ов
т і
т ин
т ур
у м
ш п
ти в
а ш
б ра
в i
г ам
д ол
е х
к ла
о ль
о ст
с ов
х ор
ко т
ни к
а ст
б ро
г ре
и ц
м ак
п o
п он
п ру
р ен
с ел
т ю
у з
х ол
ка м
ка ль
ле й
e к
г i
г ри
д ен
д ро
е о
п е
п ен
с е
с ур
ц i
є р
і с
пл ю
ти р
в a
г ру
д ор
и л
к ру
л ан
т o
я льн
ол і
ре з
по т
єн н
а ф
а ц
б ру
б аг
г ла
д д
к ін
к ва
к рі
л ет
л ам
м ел
с ель
т ол
у ч
х т
ь к
я в
і ч
ст ор
ка д
ві з
ї в
енн я
c i
́ н
г a
г од
г от
д ра
и г
м от
с ал
с ек
т т
т ел
т рі
у к
і з
ан г
ст рі
ен д
по зи
ла в
p i
б ін
г е
е ш
и ш
и ст
к лі
к алі
м ед
о й
п ін
п ря
у ж
у п
ш ер
ю н
і п
ст ат
ре й
ти л
ак т
бу л
су д
пор т
сь к
б ол
б ак
г o
г р
д а
ж ен
м o
н ор
п р
с я
ф а
ф ель
ш ен
і о
ст ри
ен ц
ка з
ти ч
ти ль
ї ст
ск ор
па с
во ль
a н
c пi
i д
i з
в ел
г ep
д он
е ф
ж ж
ж ер
к в
л ов
м i
м ал
н д
н ь
н ар
п ель
п еч
с в
с ам
с аль
с пі
ш ин
я д
я з
ат ив
ре т
ва ль
мі т
ск ри
ма й
рі й
ба й
ля р
гн о
c e
а по
б и
б он
в ес
г ом
д ан
д ел
е ск
з ел
и с
к с
к ет
к ло
м аль
с ор
т аб
х у
х ан
ц ел
ш ел
ш ур
ст а
й он
ві ль
по ч
ек ц
ти к
ї д
ли ч
пу ль
ци р
гі р
тр анс
i cт
б от
б ли
в ест
г м
г ур
г лі
д ом
е пі
з м
з ер
л ен
л он
п ед
с ко
с ак
т ет
т ам
у ш
у ні
ф т
ф ан
х а
х ал
ч ува
ш а
ш ту
я г
є т
і ж
і ст
ст ан
ар т
ін тер
ко ш
пл о
ді й
фі р
тр ан
сти ту
a c
i к
x i
y p
б ен
б ре
б ел
б ель
б лі
в н
в ет
в од
г ат
г аль
г ні
д ек
д ель
д ес
е p
ж д
з ав
к р
л ак
л от
м e
м ур
н ер
н аг
с ли
т ат
т ак
ф он
х о
ц у
ц я
ц ен
ц ент
ч н
ю ж
я ж
я с
і б
й к
ат ор
ре к
ов л
ко ль
по ст
ек з
мі р
ма ч
бу ль
об л
про т
ян т
ту н
фі лі
кар а
ав л
ни й
ду к
лу н
та й
ев р
a л
c н
e л
p aп
б ов
б ет
б рі
б аб
б ез
в к
в ов
в ель
г ел
г ли
д ар
д ру
д ем
з я
з ан
з ол
з ин
м н
с с
с ан
с ла
с во
т ом
т оч
у ст
у ра
ф е
ф ри
ф ур
ф лю
х р
х і
х ро
х ре
х аз
ц ес
ш е
ю ш
ст у
ро ч
ре м
ін г
ін н
ін ь
ка п
ка й
ко с
по ль
по ко
ї т
пі т
ла д
ле в
кон тра
па ч
си м
ян к
дж ен
ви т
фі ль
пу л
ни ц
ни ч
анд р
го ль
еб р
a м
a гp
c и
c к
e o
e н
e п
б е
в ч
в ей
г ов
г рі
г ем
г ент
г ря
г ран
д ет
д ам
д об
д аг
з он
з ет
з на
з бро
к лю
л o
л ор
л анд
н ов
н ом
о фі
п p
п н
п с
с ю
с оч
с му
т p
т ав
у ува
ф о
ф ен
ф ет
ф ран
х ри
ц ю
ц ин
ц еп
ч ан
ч ов
ш лі
ш ев
щ ен
ю т
я ́
я щ
є м
і є
ль к
ат о
ре п
ра ль
ри ж
ку м
ка с
ко п
ко пі
пл а
пл і
пл ат
ві й
пі в
мі с
мі ль
ск ар
ди к
ла г
ма х
бу д
дж ува
ту з
фі л
пу н
му ль
ци т
ло ж
гі д
гу л
кі в
сі й
пре с
сп он
ень к
фін і
c y
а цій
б лу
в е
в я
в ед
г й
г ін
г ет
г лу
г op
д рі
ж н
ж ов
ж дж
з к
з ар
з ур
з мі
з ува
и д
и ль
и ць
к ен
к ир
л ин
л об
м б
м од
м оз
н ан
н от
п ам
п ак
п ант
п op
р ат
с ок
с мер
т в
т ек
т аг
ф ел
ф аль
ф ун
х ль
х ам
х ви
ч еч
ш у
ш ш
ш ал
ш ат
ш кар
ю г
ю м
я ст
і ф
і он
і єв
ан н
ст ов
он ь
ро д
ро п
ол ов
ре с
ра д
ра ж
ри н
ку н
ку ш
ру н
ру ш
ві в
пі л
пі ль
лі т
ди л
ди т
ди ч
ці он
ма с
ле ч
аб і
аб ель
ви й
су б
аг он
кар т
пу т
пар т
гі ль
ос ь
зи т
пор ож
ед р
сі м
кол и
ят ь
єн т
со ль
iп o
кл ін
io н
зд ор
eк c
цi я
a x
e м
e пi
i x
x e
x o
б к
б ю
б аль
б ла
б ом
б лю
в он
в ент
г y
г ель
д i
д ок
д зи
д ря
е c
е щ
ж а
ж у
ж ор
ж ел
з ю
з ен
з ов
з ам
к p
к y
к ль
к ел
к ля
л ом
м ин
м ос
м ез
м ит
о p
о ц
о ї
п ин
п аль
п рі
п po
с ва
с лі
с об
с ви
с ні
т н
т ем
т op
ф ес
ф ант
х н
х аб
ц ей
ч ор
ч ен
ч ем
ш л
ш н
ш ам
ю к
ю вa
я ц
і ́
ан к
ст ель
ст ир
ар х
ор і
й ор
ен ий
он т
ро т
ре ч
ін к
ра з
ра м
ри т
ку т
ку й
ку ва
ко ст
ру с
пл ан
пл ін
пл ом
ві л
ві с
по з
ек он
пі к
лі к
мі лі
ди с
ці ал
бу н
аб ан
ту ва
ді б
ді ль
ні р
пар а
ци л
ман д
ба з
ба ч
бі д
бі р
бі т
бі ль
яч к
гн o
ки та
сти к
алі з
сп е
фор м
чи к
вор он
кал ам
iнт ep
cпi p
хаз я
e c
i в
а p
а у
а ць
б ин
б анд
в o
в одж
в iт
г аг
г ей
г ля
г ег
г iп
д л
д ал
д ре
д ак
д ви
е ї
ж ан
ж ин
ж ур
з е
з ал
з ак
з ель
з ем
з аг
и з
и м
к ю
к лу
к ap
л ок
м ов
м ам
м ель
м оч
м ок
м ант
м ир
м ег
н ат
н ет
н ам
н еб
о щ
п y
п ян
п ей
п ир
п ap
с ат
с ін
с ом
с аб
с вер
с на
с пор
с при
т я
т ель
т ей
ф ал
ф ре
ф ак
ф аг
ф ей
ф рон
х л
х ов
х ур
х ли
х лю
х ля
х ід
ц е
ч е
ч і
ч ел
ч ин
ш ан
ш аб
ш пар
ш та
ш ир
ш кі
ш ах
щ а
щ и
ь ер
я л
я ш
я ль
я ць
я сн
і ц
і ан
ан ч
ст е
ст ал
ст ол
ст ав
ор т
й л
й м
ен ці
ро в
ро с
ал іт
ре ль
ре зи
ін ду
ра к
ов и
ри с
ка в
ка пі
ко мі
ва ж
ва к
ру м
ру ва
пл е
пл ет
пл ес
ві к
ві ч
по м
ек стра
ти м
ї cт
ск ат
ск ре
ди в
от т
ла ст
ма д
ма гн
бу т
бу х
бу ч
бу дь
ле м
кон ститу
па пу
си л
си гн
ту с
ту ш
су ль
ли к
ні к
ав ан
му н
ло п
ло с
гі й
вер т
бі л
на ві
га йд
мар к
ез ь
іт т
еб ер
еб ель
cт o
шт ан
шт ур
пре д
ми г
мат ри
бр он
кре м
мін і
бор од
кат ол
ску ва
бур зь
пра в
фу з
здор ов
a кц
c ц
c ip
c пe
e в
e нт
o н
а ку
а сь
а єч
б оч
б ей
б ир
в ур
в ок
в ap
в ень
в як
в ець
в ip
г ек
г ир
г еп
г роз
г рен
д ц
д ат
д ент
е дж
е єць
к a
к c
к ни
к вар
к рон
л ер
л ел
л оч
л ян
м ф
м ес
н o
н н
н ал
н ав
н еп
о пер
о шк
о стро
п ч
п ек
п ур
п ент
п aп
р o
с ет
с по
с мі
с ма
с па
с ей
с лу
с пір
с вин
т e
т i
т от
т вер
т юр
у й
у ру
у ват
ф р
ф лі
ф от
ф ле
ф ас
х в
х он
х ат
х ін
х ле
х ря
х во
х одж
х лоп
ц ет
ц ем
ч к
ч ар
ч ет
ч ир
ч олов
ш ов
ш ав
ш лю
ш ля
ш ит
ш вар
щ еб
ю в
ю з
ю ват
я х
я вл
є кт
і аль
і єць
і сть
і ́н
ер о
ст в
ст ува
ар д
ар и
ор дин
й с
й от
ро ж
ре в
ра в
ра х
ра ди
ри к
ку п
ку с
ку ку
ку ляр
ка у
ка ш
ка мер
ко б
ин н
ин ь
ру ль
пл и
пл аз
ві ол
по p
ек тор
ти й
аль т
ак с
ї р
лі й
мі д
мі з
ск и
ск ал
ск ов
ди фер
ла б
ла с
ла х
ма ц
ма ш
ць к
бу з
бу ш
кон т
кон во
кон стру
ом л
об і
па ц
си в
си р
си ль
си ст
си лі
ем о
ту л
ді в
ді о
ді я
пер м
пер т
фі к
ні т
ні ч
кар ак
ес ь
му л
му с
му т
ло г
вер с
вер ет
ду ж
ду л
ду кт
ба х
ба зи
на й
гу т
гу ль
зи к
зи р
iн тер
ля ж
ря д
ед ер
пол о
пол ов
га p
га ц
тр ю
ич н
мар ш
анд ал
cт p
ест р
ap x
еп т
ком ор
ком пан
гор од
ки п
ки ш
бар д
ча с
чу ж
чу к
pe г
сти ль
вол ю
са ж
са п
сп ект
др ат
кл ер
сл ов
сто ль
те p
гол уб
фл ан
фл ор
одж ен
пa гp
co цi
лін г
ген ер
від ча
пря ж
фель д
скри п
зю йд
a в
a д
a ж
c у
c ep
c кo
c eк
e г
e гo
i г
i я
i й
i ep
p y
x p
а пл
а пт
б н
б ес
б ло
б ля
б ря
б ед
б ест
б юр
в з
в от
в ян
в еч
г ле
г аб
г ав
г ос
г вар
г мат
д н
д ю
д я
д ри
д аль
д оч
д ав
д ень
д ач
е ц
е ва
е мі
е фі
ж е
ж ол
ж ет
ж аб
ж ува
ж уж
з ент
з ей
з ій
з гра
и я
и за
к н
к ви
к ем
к ант
к ит
к ня
к рен
л к
м р
м ю
м й
м рі
м ем
м ич
м еч
м iт
н ей
н ед
н ег
о c
о x
о пл
п к
п х
п ит
р ент
с ві
с од
с ем
с ло
с юр
с лав
с маль
т a
т y
т к
т аль
т ант
т ря
у ре
у то
у бл
у роз
у ван
ф ат
ф ек
ф аб
ф ло
ф ект
х ер
х ет
х ру
х од
х ом
х то
х ім
ц в
ц ц
ц ар
ц ур
ч ак
ш ор
ш ет
ш ти
ш ель
ш то
ш енн
щ е
щ о
щ ер
я й
я зь
і г
і тр
і за
ль он
ль ни
ер г
ер н
ер ин
ан ж
ан ім
ст ар
ст ре
ст ря
ар м
ор а
ор д
ор оч
ен цій
ро б
ро г
ро ль
ро бл
ал о
ол е
ол ю
ат т
ре гі
ін ди
ра п
ра й
ов а
ри б
ри д
ри л
ет р
ку д
ко з
ко щ
ко пи
ва й
ел л
ин к
ру б
ру л
ру т
пл я
пл ич
пл екс
пл ац
по с
по тен
ам о
ам і
ї щ
ї й
пі ж
пі он
лі в
мі к
мі стер
ск ро
ди м
ди ск
ди ці
ди цій
од н
од і
от ь
ла бі
рі б
рі з
рі п
бу к
бу ц
ле з
ле с
кон ь
кон фі
кон вей
ом у
об и
об ер
об ід
оч ен
па д
па х
си к
си с
си т
про ми
про те
про ститу
про фес
ян ь
ян ич
дж ан
дж енн
ви д
ви м
ви р
ту к
ту х
ту ч
ту ал
ту аль
ли м
ок с
ді а
ді л
ді єць
пер и
пер еч
фі з
ні сть
кар бов
ав стр
пу д
пу блі
ант аж
ци п
ци я
лю д
лю стр
ман і
ду б
ду ш
ду ль
ба с
кор ов
бі с
бі й
лу б
лу с
гу н
зи в
зи л
iн i
та ч
ря дж
пор ту
де в
пол у
пол і
пол іт
то p
га й
тр ь
кі з
бл ін
сі к
сі ль
яч ч
оз ь
кол од
анд ер
ест и
еп ен
шт ам
шт аб
мо ш
пре м
шк ан
шк вар
пi p
вар і
оп т
чер ем
чер еп
aп т
тра х
сти л
вол оч
кан іф
до ль
ми з
ми с
са дж
кур с
бр ан
со ці
ів л
ів ч
кри в
кри н
фор т
бо г
дер ев
зу ува
кат а
гер ої
ску л
ску ль
екс про
вал ер
кo н
ков ер
фл екс
ме ді
пa c
co и
ic н
тре м
iнт e
iнт eл
бат ра
зо ль
ска ль
pa c
pa ц
пep e
фра к
бра х
вi ̇
гре й
пру ж
гла с
їв н
пози т
пози ц
гep o
жер еб
глі ф
уні вер
цент р
пун к
фіні кі
куй ов
ласт ів
гайд ам
лян д
a к
a ль
a ep
a кт
a нт
c г
c п
c op
e x
e кт
i a
i ш
i є
i де
i гep
o x
o г
o л
o п
x в
x т
x op
x ap
y ́
́ п
а ка
а ві
а ди
а дж
а єць
б в
б ч
б ле
б об
б дж
б ент
б ав
б ос
б ит
б ець
б рез
б енд
в e
в ц
в ут
в ну
г т
г об
г ант
г ло
г iн
г во
г ед
г алі
г одж
г ip
г він
д o
д в
д т
д ад
д оз
д op
д юр
д вор
д юч
д аш
д акт
е ви
е шт
е гор
ж м
ж ар
ж ир
ж ит
з л
з і
з й
з ін
з аль
з ад
з оз
з аз
з ву
з іл
и и
и х
и ді
к ель
к ли
к ес
к ря
к еп
к віт
к лун
к вит
л iт
м a
м y
м к
м ру
м ек
м iн
м ря
н он
н ин
н ек
н оч
н ез
н як
н ня
о ф
о ск
о при
п c
п ш
п ль
п си
п тер
п то
п анд
п еп
п pe
п алі
п aт
р ар
с з
с ль
с ент
с аг
с пар
с ман
с ос
с ля
с ад
с анд
с ег
с оп
с пи
с алі
с кур
с ень
с ект
с мол
с сель
с евр
с комор
т л
т ep
т ез
т io
т ім
у в
у г
у х
у щ
у дж
у шк
у юва
у зь
ф ю
ф ол
ф ам
ф ок
ф ос
ф ep
ф ут
ф ай
ф аш
ф рен
ф лей
ф олі
ф рей
ф лаг
х ен
х ва
х от
х уд
х вор
х вал
х тува
ц ін
ц ель
ц ед
ц ез
ц вір
ц яльн
ц еф
ч ал
ч ат
ч ав
ч ий
ч ад
ч ест
ч ох
ш ол
ш ко
ш па
ш ем
ш аг
ш му
ш тор
ш пор
ш ий
ш пи
ш пан
ш ай
ш уб
ш аш
ш лей
ш тир
ш аф
ш лун
ш вей
щ ел
щ ем
щ ува
щ ик
ь йон
ю л
ю ст
ю юч
ю ван
я тр
я хт
є л
є му
і ш
і щ
і ат
і де
і зь
ль оп
ер ц
ер ей
ан ти
ан гі
ст ен
ст ел
ст ин
ст аль
ст ом
ст ок
ст еб
ст оп
ст іль
ар к
ар ф
ар і
ар ак
ар мі
ар ій
ор ій
ор ган
ор иг
ор уж
ен г
он к
он ал
ро ш
ро ман
ро вк
ро мант
ал он
ал ко
ал ій
ат и
ат аль
ат ич
ре г
ре о
ре ш
ре мін
ре жи
ре волю
ін ф
ін стру
ін ьк
ра ф
ра вл
ра ціон
ов н
ов с
ов ар
ов оч
ри в
ри г
ри п
ри ч
ет аж
ку х
ку ч
ку ра
ку ла
ку дов
ка ж
ка за
ка ут
ка др
ка ган
ка пт
ко ман
ва б
ин г
ин оч
ин ок
ру г
ру ч
ру й
ру сь
ру ча
пл ен
пл ем
пл ут
пл ах
пл ід
пл ік
пл іч
ві ш
ві ст
ві лі
ві дь
по д
по ш
по мі
по діб
ек тр
ек тив
ам ен
ам ел
ам ент
ти ж
ти с
аль н
ак ци
ї ж
ї з
ї к
ї с
ї ль
ї ти
ї ждж
пі й
пі до
лі ж
лі р
лі с
лі я
лі пл
лі кт
лі бер
мі ж
мі ц
мі ч
мі ш
ск р
ск ет
ск анд
ди р
ди я
ди си
ди кт
ди вл
ди віз
ди риж
ці і
ці єв
ці єнт
од ь
ла ж
ла йд
ла уре
ма в
ма г
ма з
ма гі
ма га
рі д
рі к
рі ч
бу м
ле п
ле ш
ле бід
кон сер
кон фер
кон вал
кон сист
ом ан
об ор
об од
оч к
па c
па ш
па щ
па ву
па ску
си д
си й
си біл
про б
про ж
про ти
про пор
про мін
про мет
про ван
про лет
про віз
аб л
аб ет
аб аз
аб стра
ян с
ян оч
ян иц
дж ер
ем ер
ем он
ту ж
ту м
ту т
ту бер
су к
су л
су м
су н
су ч
су сп
ли п
ок е
ок ор
ок ей
пер с
пер гам
пер цеп
фі т
фі й
кар аб
ав тор
пу с
пу ш
пу ст
пу дж
пу ляр
ант ра
пар ал
пар ти
пар аг
пар уб
ци м
ци ль
ци кл
ло з
гі т
гі лл
лю б
лю з
лю к
ни з
ни р
ни ць
ман ент
ман ія
вер з
вер к
вер н
вер бі
ду г
ду н
ду х
ду ч
ду кц
ба д
кор и
кор ч
кор ел
ос с
бі ж
на ч
на ви
на сь
на до
лу д
лу ж
тор ф
гу ц
гу бл
тер и
тер і
зи м
зи ч
зи ст
ля г
та х
ря б
де ч
де ка
пол он
пол от
пол ум
пол іс
га з
га уз
ич ч
кі м
кі р
кі ль
кі ло
бл ок
сі д
сі о
ев ен
ев олю
мар ин
мар оч
мар кі
ез н
яч и
гн ос
ад ам
оз н
оз ин
кол ор
ят т
ят ин
іт ар
го p
го г
го ж
го п
ит ет
ит ель
op гa
ест ез
при з
при н
ap xi
шт ал
шт ем
гор іл
гор одж
мо ль
мо ги
пре т
пре фер
пре зент
шк ет
за ст
за хи
ег и
ег р
пi п
ун уч
бар аб
бар ах
чер ні
чер еш
aп o
пи рі
тра к
тра м
чу г
pe пe
вол ок
кан і
кан он
стр он
до сто
ми ць
сп ін
кре п
кре т
кре й
со ціал
ів ель
бал ам
бал аг
гар ні
мін ер
ас сі
кра їн
тар ан
тар іл
бо ж
бо й
ву л
ву ль
стер н
дер ж
зу ль
po к
po м
po п
ач к
ач ува
кро пи
мет ел
гра д
гра м
ож ен
фл ект
три н
юч ч
стру б
яр д
стра ль
мол одж
пa н
тен с
ги б
ги зь
лін і
гл об
ген ц
гон ор
сол ід
він ь
кле й
ну кле
iнт ел
aг op
aг aт
бат ар
бат аль
гe н
гe п
тов ар
ік с
pa дi
кер ам
хар а
вен ц
куль т
гро ма
жи ць
пов н
пов іт
ті п
тур к
шп ин
шп ак
вi з
ех т
кам б
кам пан
пе ш
кру т
ац ет
яв ля
кад мі
їв к
ci о
сек ре
анг ел
анг ель
пози цій
ге p
юн кт
жен ер
нор д
iд e
печ ен
св яч
дел і
сор оч
дом ін
лен ий
шту ва
гні т
наг ор
сли в
екз ем
дем он
зол от
том ат
хро м
цес ій
сту ді
ном ін
офі ці
вя х
гет ь
тем пер
хн ю
екон ом
спри н
інду стрі
міні стр
бород ав
cпe кт
iнi цi
coи i
paц ioн
ориг ін
a з
a ч
a ш
a ція
a вi
a цiя
a тоp
c a
c і
c ти
c од
c та
c aп
c гp
c io
c aт
c iм
c ія
c ьк
c иг
c гep
c ioн
e д
e є
e ї
e пт
e кo
i i
i s
i y
i ̂
i о
i от
i гн
i гp
i єць
i вa
i aн
i вн
i poк
o д
o к
o нт
o гo
p и
p iп
p иг
q io
x a
x е
x н
x лю
x aп
x iп
x вa
x оp
y к
y п
y мф
́ в
́ ч
́ ль
а c
а x
а я
а ер
а ко
а ї
а ви
а ді
а зи
а пол
а шк
а стр
а єв
а ут
а со
а чи
а стро
а фін
а кад
а ук
а скар
а еро
б т
б ш
б ль
б ек
б ам
б ем
б ок
б ич
б еч
б ий
б ap
б алі
б олі
б иш
б яз
в y
в ві
в ла
в ез
в анд
в еп
в за
в ег
в алі
в екс
в aт
в еж
в еp
в eнт
в антаж
г к
г ин
г ві
г ак
г ни
г ич
г ий
г еб
г ест
г ap
г мо
г pe
г ват
г мент
г вин
г лей
д ур
д ні
д ант
д ей
д ят
д роз
д зу
д вір
д iк
д юж
е x
е и
е ю
е є
е ку
е ко
е по
е ма
е гі
е бл
е їн
е їд
е гір
е фір
ж й
ж он
ж ал
ж ом
ж му
ж ез
ж ест
ж ас
ж ах
ж бур
ж ір
ж ець
ж ив
ж eн
ж окей
з a
з ор
з ра
з од
з оч
з ант
з др
з віт
з вит
з діб
з аліз
з шит
и і
и ти
и зи
и сь
и ий
и цій
и стер
и вл
и зм
и рува
к к
к ві
к ці
к то
к анд
к op
к ват
к iп
к юр
к ран
к сен
к тив
к еф
к yp
к шир
л ар
л й
л ек
л ант
л ект
л io
м ж
м с
м т
м ом
м об
м на
м op
м ic
м aг
м пен
н a
н с
н ю
н й
н ен
н ур
н об
н аб
н ем
н оз
н ут
н уд
н ож
н iт
н eгo
о s
о о
о по
о ти
о гн
о го
о стра
о єч
о тир
о їст
о їд
о гір
о коль
п в
п э
п й
п ем
п ес
п ий
п хи
п pi
р в
р т
р х
р ал
р туч
с м
с х
с от
с рі
с ес
с ант
с ци
с лю
с еч
с мар
с ез
с вар
с ми
с мор
с ван
с вір
с хи
с кот
с хол
с інн
с вій
с мок
т ч
т ент
т ок
т ес
т лу
т во
т ев
т ест
т ій
т еп
т вар
т ект
т вор
т po
т іль
т iм
т вин
т пру
т pi
т ax
т янь
т егр
у p
у ц
у ар
у пл
у ель
у ць
у ле
у де
у сь
у тр
у зд
у юч
у мл
у стри
у див
у країн
ф ф
ф рі
ф ем
ф ав
ф лу
ф аз
ф ах
ф уль
ф тал
ф оль
ф ео
ф акт
ф iз
ф iк
ф едер
х аль
х лі
х мі
х об
х іт
х ун
х ут
х ів
х ват
х ож
х ай
х ап
х вір
х ня
х валь
ц к
ц ан
ц ві
ц ят
ц ег
ц юр
ц ап
ц віт
ц вин
ц ех
ц енц
ц янт
ч ол
ч ек
ч ель
ч об
ч вер
ч ич
ч еп
ч ун
ч іл
ч вал
ч ір
ч іль
ч ван
ч ех
ч ення
ч лен
ч отир
ш о
ш ра
ш ку
ш ка
ш ом
ш ок
ш ей
ш ува
ш ез
ш при
ш еп
ш мат
ш ут
ш вор
ш пал
ш ул
ш анс
ш пат
ш уч
ш ук
ш тик
ш лич
ш уст
ш ебер
щ ат
щ ур
щ ок
щ ад
щ иц
ы й
ь й
ь ох
ю p
ю д
ю с
ю щ
ю ль
ю ск
ю ба
ю шк
ю вен
ю вел
я б
я ці
я кор
я тер
я бл
я гн
я за
я дер
я зн
я ція
є з
і а
і х
і ор
і ол
і ці
і од
і ма
і ць
і ді
і кан
і сп
і сл
і сн
і зо
і чч
і їв
і жж
ль в
ль ник
ль вів
ер т
ер ет
ер ич
ер ев
ер оз
ер ун
ан ц
ан ал
ан аль
ан ом
ан ах
ан ець
ан ня
ан иц
ан гул
ст к
ст он
ст ам
ст ак
ст од
ст оч
ст аб
ст ем
ст ос
ст ад
ст уд
ст іл
ст ай
ст ук
ст рем
ст абі
ар п
ар ін
ар ка
ар ам
ар ит
ар ах
ар ик
ар сен
ар яд
ар гент
ор б
ор и
ор ан
ор ен
ор ні
ор то
ор ит
й в
й р
й оз
ен и
ен с
ен ч
он д
он н
он с
он у
он аль
он то
он іт
ро к
ро л
ро ц
ро пі
ро та
ро пол
ро бін
ал г
ал е
ал уп
ол ен
ол он
ол ін
ол ет
ол ій
ол ів
ол екс
ол ив
ат к
ат ри
ат ур
ат ом
ат ул
ат ті
ре д
ре л
ре ак
ре пер
ре тор
ре кт
ре бр
ре кре
ре тро
ре мон
ре фра
ре стор
ре цен
ре дук
ре даг
ре цеп
ре флекс
ре конвал
ре зуль
ін д
ін о
ін ч
ін оч
ін ту
ін гал
ін три
ін ня
ін тел
ін фан
ін ститу
ін іці
ра с
ра ч
ра ш
ра ді
ра юва
ра мент
ов ч
ов ин
ов од
ов ич
ов еч
ов ий
ов ит
ри з
ри р
ри х
ри ц
ри ль
ри хл
ет ь
ет ич
ет ит
ет чер
ку б
ку ж
ку ди
ку му
ку на
ку та
ку пор
ку зь
ку ум
ку тт
ку нд
ка c
ка г
ка ф
ка х
ка ц
ка пл
ка си
ка му
ка сь
ка зу
ка їн
ка йд
ка пел
ка уз
ка бін
ка пель
ка бель
ка уст
ка фе
ка піт
ка чан
ка блу
ка штан
ка бард
ка валер
ко д
ко ч
ко ер
ко му
ко оп
ко чер
ко зу
ко шен
ко міт
ко клю
ко мун
ко опер
ко зир
ва p
ва в
ва д
ва з
ва ц
ва ш
ва си
ва кан
ва гон
ва кц
ва куум
ел ен
ел он
ел ет
ел ян
ел ед
ел ег
ин а
ин д
ин о
ин ер
ин дж
ру д
ру ж
ру к
ру р
ру шк
ру пал
ру чч
пл у
пл ек
пл ак
пл од
пл аг
пл ант
пл ез
пл еб
пл ект
пл ас
пл еск
пл iк
ві х
ві є
ві кон
ві кар
ві тер
ві сь
ві зу
ві лл
ві зит
по ді
по ду
по ми
по дви
ек лі
ек цій
ек сп
ек лам
ек суд
ек спон
ек зист
ам ер
ам ар
ам он
ам ін
ам пер
ам фі
ам уні
ам плі
ур ч
ур і
ур ян
ти з
ти ш
ти ро
ти ран
ти кул
ти ся
аль ман
ак ро
ак ре
ак вар
ак сон
ї л
ї м
ї п
ї х
ї ц
ї ч
ї сть
ї чн
пі о
пі с
пі ч
пі ан
пі ро
пі лі
пі дж
пі тер
пі стр
пі зн
пі стол
лі о
лі п
лі ч
лі ан
лі вер
лі тер
лі сь
лі тур
мі г
мі л
мі є
мі ра
мі кро
мі ся
ск іт
ск вар
ск іф
ди б
ди з
ди п
ди х
ди ль
ди тор
ди сп
ди ску
ди ван
ди мент
ди кц
ди стри
ди рек
ди плом
ди зель
ці г
ці ан
ці дж
од е
од о
од ин
од ій
од ча
од но
от о
от ц
от ам
от ець
ла п
ла ч
ла ш
ла й
ла штува
ма c
ма ст
ма ко
ма чу
ма сл
ма зд
ма шин
ма жор
рі в
рі о
рі я
рі зь
рі зн
бу в
бу ва
бу та
бу тон
бу лат
бу сур
бу лан
бу лав
бу нд
бу рун
ле о
ле ст
ле гі
ле ман
ле зь
ле ме
ле ген
кон о
кон ю
кон тр
кон еч
кон оп
кон тро
кон фу
кон вен
кон тин
кон гре
кон гру
кон фес
кон суль
кон диці
ом о
ом ер
ом ен
ом ир
об р
об он
об ов
об стру
об скур
оч ч
оч ка
па p
па x
па в
па г
па ж
па з
па ст
па й
па пі
па ск
па ць
па ци
па сь
па сер
па дь
па стор
си з
си п
си дж
си лу
си ть
си мент
си лл
си філі
си роч
си міль
си лос
про д
про з
про п
про то
про він
про дук
про філ
про стир
про дукт
аб ер
аб он
аб ат
аб ур
аб іс
аб хаз
ян н
ви ж
ви к
ви ш
ви щ
ви ли
ви до
ем н
ем ат
ем ент
ем уль
ту в
ту д
ту п
ту ль
ту ар
ту ацій
ент о
су ж
су т
су х
су ва
су дж
су пре
су вор
су шар
ли б
ли в
ли г
ли ж
ли с
ли т
ли х
ли ст
ли сто
ли мон
аг ар
аг ул
аг ог
ок к
ок т
ок ен
ок тро
ді д
ді т
ді он
ді єн
ді дь
ді агон
пер г
пер е
пер ч
пер ед
пер се
пер лам
фі ш
фі ст
фі ал
фі ло
фі кс
ні в
ні г
ні м
ні ц
ні й
ні ци
кар л
кар от
кар аг
кар лю
кар на
кар то
кар пат
кар дин
кар бон
кар цин
кар нав
ав р
ав ант
ес ці
ес цент
ес кадр
ес ценц
пу г
пу ж
пу з
пу к
пу х
пу щ
пу шк
пу анс
пу пян
му ж
му ш
му та
му нд
му жиць
му ніци
ант ен
ей н
ей тор
пар и
пар ат
пар од
пар аб
пар ик
пар аш
ци д
ци ло
ци кло
ци вілі
ло х
ло ш
ло зи
ло сь
гі л
гі по
гі пер
гі ля
гі дд
гі мна
лю р
лю ль
лю мін
лю дд
лю кс
лю мпен
ни в
ни д
ни п
ни ш
ман у
ман ь
ман др
ман іж
вер г
вер ф
вер ти
вер мі
вер ес
вер блю
вер ещ
ду м
ду т
ду ва
ду пель
ба ц
ба ст
ба шк
кор д
кор дон
кор пул
ос е
ос ка
ос ок
бі о
бі блі
на д
на сі
на жд
на пів
на дц
лу к
лу ч
тор к
тор аль
тор оч
тор гов
гу б
гу д
гу с
гу ч
гу ш
гу ст
гу ва
гу ман
гу сь
гу мен
гу нд
тер н
тер о
зи с
iн к
iн ди
iн ep
iн еp
iн cп
iн женер
iн жeн
ля м
та ш
та бу
та дж
та сь
та чан
ря ж
ря т
ря х
ря рх
пор у
пор од
пор ош
де з
де мі
де каль
де шин
де зав
де шев
де цим
во ж
во й
во ск
во ди
во яч
во гн
во як
во яж
пол оз
пол уд
то г
то з
то п
то ск
то пол
то поль
га c
га д
га ж
га с
га ш
га цій
га стро
тр ен
тр ал
ир к
ир т
кі б
кі л
кі ш
кі й
кі бер
кі мер
бл ан
бл ат
сі б
сі ч
сі я
сі он
еч к
ий н
ев л
ев н
мар ч
мар гар
мар ган
мар гін
яч мін
гн ат
ад рес
ад вербі
кол от
кол оч
кол ос
кол ег
кол ош
кол ум
кол егі
ят к
ят ур
ят ник
го го
го ут
еб ль
еб ен
еб он
ит ар
cт a
cт в
cт op
ест ан
ест он
ест ет
аз м
аз о
аз ов
кт он
при к
при м
при ві
при ча
при ват
при том
при єм
ap гi
ap xe
еп с
шт ов
шт анг
ком л
ком п
ком од
ком пар
ком пет
ком енд
гор н
гор об
мо ж
пре ди
пре ци
пре тен
пре зер
шк ал
за х
за пор
ки ць
ки лим
пi c
пi o
пi в
пi д
пi к
ун тер
бар и
бар він
бар ис
бар абан
вар к
вар шав
оп он
оп то
бер зь
бер кл
бер еж
бер нар
чер в
чер е
чер к
aп ap
пи с
пи щ
пи ль
пи рій
тра в
тра п
тра ль
ча пл
ча їн
чу д
чу х
pe т
pe є
pe aп
pe гi
pe гy
сти х
сти гм
сти гмат
алі мент
вол ош
вол ог
вол іч
кан ц
кан ар
кан цер
кан тил
стр ат
до ск
ми ш
са ч
са цій
са пон
сп ел
сп екц
сер в
сер ед
сер едж
роз ум
кур ант
кур ган
бр ат
кре кін
кре сли
со ш
ів к
ів ниц
бал он
бал ал
бал ет
бал оч
гар д
гар мон
мін ар
мін гре
ват ер
гp a
гp i
гp o
др он
мер ин
мер еж
мер иді
гал л
гал ер
гал ак
гал ант
гал уз
мор г
мор д
мор т
мор ган
мор тал
ас пір
кра м
кра п
кра єч
кри ж
кри м
кри т
кри пт
фор к
фор с
кл он
кл ам
пан ах
сл ин
тар и
тар ат
тар ад
чи м
чи х
чи ст
бо ї
ву ж
ган г
ган к
іл лі
стер в
бор д
бор оз
бор ід
бор ош
ран ц
вор ох
зу ун
зу ват
кат ор
кат ет
кат ур
кат егор
фер т
кро т
кро х
мет р
мет ан
мет ал
мет аст
пал ат
пал ян
пал убл
сн ов
сн аряд
гер ц
гол ін
гол ос
гра ф
ску п
ску тер
ску ува
тро х
тро ш
тро ян
ім л
ім пер
бур с
бур ят
кал миць
ши л
ши п
ши ш
ши фон
екс прес
екс перт
вал ен
дь ор
дь ог
кo c
кo п
кo р
кo пi
кo мe
ков бан
ул ан
фл ер
фл ам
фл от
aт op
зд ра
мон о
мон і
пра з
пра с
пра вл
три м
три бун
уль тра
стро м
стро ф
стро єн
ме ж
ме о
ме ди
ме ду
ме хан
син ь
син то
тал ан
яр к
яр м
сть ер
сть ож
стра д
стра с
зн ам
мол от
мол оч
мол іб
пa л
пa ci
пa xi
ап ен
ап ель
не о
не фел
не хлю
не будь
не андер
тен дер
co м
co п
co ц
ги д
ги з
лін е
но г
ох ай
пат ри
сар д
сар ай
тру д
тру с
тру ш
вір ь
ip иг
iм iт
iм пep
iм пpo
ген у
гон ь
сен су
сен ег
сол ом
сол одж
тре б
тре пан
хи д
хи ж
хи х
він т
кле є
кле йон
лат ер
лат ан
лат ин
ть м
під неб
під ший
аж ур
гe кт
дин ер
дин амо
ска ф
pa x
pa д
pa qio
бри д
бри к
бри л
бри ль
дов оль
ня в
тан к
фар б
фра гм
хар ак
хар ків
від к
від ки
пір ч
дз ер
дз він
вин о
гро т
жи раф
пe л
пов ни
ті є
тин г
тур бул
шп ур
бра з
бра м
вi д
вi cт
дол уж
кла п
кла с
кла й
бро в
бро ш
гре б
иц я
мак і
пру с
сел ер
сел ен
тю тю
уз бець
хол одж
кам чад
гi д
гi гi
гри м
гри вен
ден ц
ден цій
дро б
дро в
дро м
пе p
пе я
се кунд
сур д
сур м
плю ж
плю ві
гру з
дор ож
ил ен
кру п
лан г
рез ер
рез он
рез ин
аф ан
аф он
ац ин
баг ат
гла гол
ква с
лам ент
мел ан
тол ер
тол оч
яв оч
віз ерун
гa c
год ин
мот о
мот ор
мот уз
сал он
сал ат
сек ц
із м
пози ці
калі фор
калі пт
пря т
шер х
шер ет
рей к
гo н
гo п
мo г
пр ер
пас оч
воль т
iд io
iз o
еф емер
мi гp
нар од
св ек
сам ан
саль то
спі ль
рет ель
валь в
скри пт
апо ль
би ль
вес ел
гом ін
еск ім
сор ом
таб ель
таб лет
цел юл
пуль с
пуль т
цир кум
icт ep
вест и
епі л
лон г
ско п
ско ч
сак са
фан фар
шту к
шту ч
стан ці
стан цій
пло ск
фір м
тран зи
тран скри
ac cip
yp г
бен ефі
бре д
вод е
гні ч
дек ор
дес ят
зав од
кр ат
нер п
тат у
так и
фон тан
цу рупал
іб аль
пост ол
буль б
прот ег
філі п
філі сти
вов к
вов ч
гли б
дру г
дру ж
дру к
дем о
дем арка
фе єр
фри к
хре ст
інг тон
сим фон
філь де
філь тр
aм iп
aгp i
aгp o
cи x
cи гн
eн г
грі б
гря д
гран іт
даг ом
зон т
лo в
лор д
офі цер
пp еc
пн ев
пс ев
сму т
тp ic
тав р
тав ол
фен іл
фран к
цю к
цю п
шлі ф
я́ к
я́ ч
іє ро
пла щ
пун кт
вед мед
кир гизь
пант о
пop т
смер еч
тек ст
таг ан
фаль ш
фун д
хль ост
хам ел
хви ц
хви ль
шат ир
шкар пет
стов бур
руш еч
абі літ
ось м
iпo x
ix тi
вент ар
дря п
мез он
мит ропол
слі д
сви рі
хаб ар
орі ш
орі єнт
плін т
поз ант
екон о
пара фі
спе ци
калам ут
хазя й
ec гe
аp x
банд ер
вo ювa
гля д
гiп ep
еї чн
зе є
неб ор
сат ур
фал ер
фей єр
фрон т
шта дт
шкі ль
став ропі
аліт ар
рези ст
ови ий
плес ка
папу ж
катол ич
катол иць
кни ж
остро в
уру г
флі гель
фот о
рож ев
ради кал
віол он
сков ор
дифер енці
лаб с
конво й
пац юч
карак ал
карак ир
най тов
марш аль
клер и
пaгp i
генер ал
cкo п
iep o
даль тон
ева ку
жол уд
мю ль
нед ол
рент ген
цур пал
робл ен
риб яч
конвей ер
конвей єр
проми сл
публі к
душ еч
сіль ван
iнтe гp
iнтeл i
пepe ч
грей дер
xap к
гло бул
гво з
еви ч
фам іль
шлей ф
стом ат
реш іт
плут он
лібер аль
лауре аг
мага зин
консер ват
конфер енц
промін н
сусп ен
тери тор
opгa н
еги пет
крей сер
ассі рі
iнтел i
баталь йон
кампан ій
делі кат
нагор одж
екзем пл
вег ет
вeнт ap
гват ем
канд зю
слю сар
тpi yмф
хлі б
шра пн
шка мат
куму ля
екзист енц
пістол ет
супре мат
насі ́н
iнжeн ep
крекін г
( <
- •
0 4
0 з
0 ч
5 aгaт
6 ва
6 io
7 і
a e
a n
a ̀
a ц
a ю
a ві
a га
a cт
a те
a вл
a льн
a тив
a кy
a cпip
a кc
a юв
a їк
a лія
a гог
a нім
c s
c а
c я
c ен
c ал
c ін
c ка
c ел
c ин
c ек
c ак
c пі
c мі
c ем
c аг
c лу
c тер
c iн
c то
c ад
c iп
c ім
c iт
c ап
c не
c ic
c aг
c аж
c ік
c пep
c віт
c іп
c aн
c лов
c мi
c yp
c гат
c цен
c вк
c пp
c гop
c пop
c піль
c eкc
c ax
c дi
c оp
c вiт
c гаг
c вap
c гаp
c aж
c cep
c мiт
c оc
c оx
c тук
c паc
c гeп
c xiп
c юp
c ліп
c туп
c гаc
c гac
c гoп
e ж
e т
e ц
e ч
e ць
e cт
e єць
e дин
e вa
e ге
e ce
e xe
e xo
e дi
e тн
e їcт
e дц
e цв
e тio
e гоp
e мiгp
i j
i n
i ̇
i ж
i ц
i ч
i ст
i он
i ат
i ов
i ї
i ом
i ян
i лю
i тр
i за
i юва
i єв
i гал
i aт
i мл
i сть
i зо
i вi
i дол
i гo
i чн
i вк
i янк
i aгp
i коп
i гет
i ждж
i дил
i гy
i мун
i eнт
i люстр
i пip
i кoн
i кoп
j i
j aп
j iт
j eкт
j oг
l я
n an
o o
o б
o в
o з
o и
o м
o р
o т
o ч
o щ
o є
o ма
o му
o гн
o cт
o кт
o ча
o io
o пт
o мл
o ну
o пep
o вa
o тo
o мe
o кc
o лій
o пac
o мy
o паc
p в
p н
p п
p ек
p од
p ок
p ев
p ад
p оз
p аз
p ег
p aт
p ап
p ic
p iм
p ив
p уп
p ец
p оc
p оx
p ешт
p аї
p еx
q в
s io
s цiя
s aгaт
v ва
v iд
x y
x а
x л
x м
x ов
x од
x то
x pe
x ват
x ім
x aт
x iт
x ід
x ip
x iм
x aн
x iд
x yp
x paп
x aм
x лo
x ioн
x аp
x вo
x опл
x лип
x poм
x poп
x вац
y c
y x
y г
y з
y и
y н
y ал
y ва
y cт
y кт
y юч
y пep
y вa
y ci
y ге
y тил
y їт
y aль
y гоп
y aцiя
y вaт
z ̌
́ p
́ б
́ к
́ л
́ р
́ ик
̇ м
̈ т
κ ур
κ оп
κ іл
κ іп
κ рап
κ інч
а щ
а є
а і
а он
а ці
а су
а сі
а єн
а пi
а юва
а кур
а як
а фор
а фер
а уль
а стра
а їн
а ція
а кул
а ус
а кот
а віз
а бул
а скор
а їд
а cн
а уст
а буд
а прес
а вів
а дил
а дич
а ціон
а вий
а пут
а парт
а цiя
а кут
а план
а пік
а цил
а чик
а орт
а сигн
а юват
а буш
а сист
а перт
а компан
а скет
а ціі
а проб
а сіо
а прет
а страль
а фіш
а парат
а цид
а комод
а стигмат
б г
б з
б я
б й
б ва
б од
б ян
б ант
б ев
б еб
б ег
б роз
б сл
б io
б aт
б ик
б еж
б ех
б ил
б еш
б рій
б їд
б авл
б ют
б лаг
б вя
б вий
б едр
б екон
б одн
б окс
б ý
б сз
б aгaт
б опон
б ретель
б iтр
б paт
в b
в в
в с
в ш
в ро
в мі
в ант
в ос
в тор
в iн
в ува
в сь
в ep
в сі
в ят
в еб
в ун
в aп
в ча
в ект
в iп
в уд
в сл
в чи
в но
в aг
в дов
в се
в тол
в дан
в еск
в дар
в зя
в лад
в андр
в туз
в рат
в раж
в рун
в аліз
в ec
в віч
в ласт
в езь
в ебер
в прав
в ектор
в лас
в дів
в перт
в андал
в гав
в руб
в мис
в бог
в сід
в бож
в aгop
в ред
в екцій
в очка
в рят
в правл
в селен
в осьм
г в
г ц
г ч
г ю
г я
г ү
г по
г ес
г му
г лю
г анд
г aп
г ми
г ект
г io
г екс
г вал
г aт
г мон
г йд
г ic
г тон
г aг
г рон
г ех
г ео
г мo
г рій
г зм
г yp
г чн
г овл
г авл
г інн
г лев
г леч
г iпo
г заг
г аван
г лос
г ебель
г peг
г aпт
г люк
г абіліт
д x
д б
д с
д х
д от
д му
д вер
д ба
д ос
д лу
д ep
д яч
д оп
д чер
д зь
д енн
д як
д ах
д ай
д но
д aг
д аж
д ення
д юн
д рей
д скор
д iз
д лов
д яд
д віль
д яг
д авл
д рем
д риж
д iпo
д eм
д aкц
д вip
д луб
д ваб
д оде
д резин
д я́ч
е o
е s
е а
е я
е ор
е он
е ин
е бу
е ді
е пол
е ад
е оз
е го
е єн
е цій
е шк
е фер
е кул
е під
е олі
е яв
е pi
е енц
е скор
е міт
е дій
е мір
е янк
е міс
е джува
е гід
е вий
е кут
е вак
е фуз
е дія
е дицій
е дикт
е олій
е проп
е хид
ж в
ж р
ж ат
ж ін
ж аль
ж ак
ж ем
ж аг
ж ав
ж ант
ж лу
ж ев
ж ад
ж анд
ж ap
ж ут
ж мен
ж ул
ж ай
ж бан
ж ик
ж еж
ж мак
ж уч
ж ук
ж нь
ж дан
ж арт
ж мур
ж евр
ж ура
ж ебр
ж вак
ж бух
ж вяк
ж мут
ж ати
ж вях
ж ебон
з 2
з i
з y
з в
з р
з ат
з ва
з ру
з ві
з рі
з об
з аб
з ян
з ли
з бі
з ят
з еб
з за
з алі
з ут
з бр
з ів
з ень
з мін
з уд
з вор
з ір
з вір
з бан
з лат
з ош
з ія
з яв
з pi
з іп
з лак
з лот
з інь
з ебр
з гй
з іф
з рад
з рин
з літ
з агон
з ять
з йм
з вip
з лоч
з ніт
з ніч
з дим
з оді
з душ
з івч
з рив
з руй
з дух
з явля
з вy
з редаг
з вищ
з розум
з відк
и c
и p
и x
и а
и о
и п
и щ
и ь
и ю
и қ
и ан
и ка
и ці
и ом
и ян
и ля
и тр
и гн
и гор
и мо
и шк
и як
и зн
и льн
и кул
и мент
и дин
и ой
и пін
и ськ
и зува
и стик
и гац
и ще
и cг
и ровк
и лія
и гіт
и ́в
и катур
и зонт
и фунд
к п
к ш
к ү
к й
к ск
к си
к ей
к вер
к iн
к ep
к ий
к ев
к еб
к ег
к aп
к вол
к сер
к мет
к aт
к iт
к ван
к ic
к ip
к ція
к ну
к pa
к пe
к се
к aн
к міт
к лич
к paп
к сим
к eп
к едр
к мин
к сил
к тус
к лик
к андал
к естр
к iй
к мй
к меч
к pac
к яхт
к міч
к дуг
к пiп
к гич
к ефір
к индж
к вінт
к iвi
л ж
л н
л ель
л од
л ень
л екс
л aт
л ic
л енд
л акт
л екц
л iк
л ектор
л же
л iє
л aз
л жець
л ый
л iмiт
л aю
м ч
м ш
м щ
м ст
м лі
м ли
м ей
м ло
м ep
м ий
м ест
м алі
м ень
м iп
м io
м ip
м iм
м ня
м aн
м рій
м бон
м ac
м йк
м овл
м брі
м лад
м яст
м ax
м йл
м рак
м ебель
м aв
м ебль
м ног
м aгpi
м зрин
н e
н i
н v
н y
н г
н к
н м
н ч
н аль
н ель
н дж
н ес
н ант
н ос
н еч
н яч
н ест
н aп
н ень
н др
н ект
н ул
н aт
н уль
н iм
н атив
н йк
н овл
н евр
н aл
н юш
н eo
н еньк
н юк
н рав
н инь
н обі
н aв
н янь
н ність
н ý
н ii
н окт
н ́ик
о 6
о i
о κ
о у
о ю
о є
о ку
о пі
о ди
о ма
о ць
о кон
о гі
о пор
о яч
о оз
о єн
о аз
о юва
о сти
о стр
о як
о сто
о ши
о сть
о їн
о йд
о ги
о кул
о ус
о пот
о єнн
о каз
о пас
о фт
о кош
о фір
о фен
о плат
о мах
о буд
о гул
о кун
о ювa
о куп
о куляр
о поp
о тий
о буш
о гуль
о город
о форт
о пій
о паш
о полон
о глоб
о культ
о позицій
о ́в
о продукт
о суж
о пук
о цило
о гуд
о позиці
о целюл
п x
п ο
п ф
п ю
п су
п ич
п ят
п ест
п ег
п ень
п ект
п юр
п ши
п рон
п ех
п сов
п рен
п сал
п шен
п сам
п рій
п ху
п чан
п cy
п xe
п йл
п есь
п епт
п cу
п iнi
п ести
п pac
п ціг
п евн
п чих
п ранц
п cиx
р e
р ж
р н
р ө
р ін
р ант
р ень
р ну
р iз
р icт
р дес
р юш
р вій
р юм
р aд
р сз
р тут
р eє
с й
с ро
с пл
с ди
с ць
с про
с ян
с фі
с ед
с пол
с бл
с оз
с еб
с вол
с са
с ват
с як
с фер
с екс
с їн
с зн
с під
с фра
с від
с віт
с гро
с мак
с мот
с анг
с порт
с пас
с мал
с міт
с цен
с юж
с мач
с обл
с вит
с андр
с дам
с цин
с міль
с лож
с хам
с парт
с рам
с план
с фаг
с хід
с віч
с аван
с марк
с перм
с андал
с естр
с епт
с мич
с ход
с ріб
с пуд
с люд
с волоч
с фep
с плен
с цієнт
с бад
с моль
с ребр
с нид
с епс
с комл
с берзь
с метан
с фалер
с плеска
с yге
с гв
т v
т x
т ф
т х
т ц
т щ
т ст
т й
т ін
т ї
т об
т ос
т бі
т iн
т то
т еч
т іт
т анд
т еб
т алі
т со
т ень
т як
т iп
т іл
т ір
т aт
т iт
т юч
т ван
т co
т вір
т ip
т ть
т aг
т ік
т pa
т хор
т акт
т icт
т зм
т яг
т iк
т яж
т eл
т paп
т бет
т інн
т інь
т ебр
т eo
т ждж
т нот
т ix
т мин
т есь
т оді
т окс
т ести
т icн
т pac
т peпe
т вicт
у c
у i
у x
у ф
у ю
у і
у ро
у ал
у ри
у ет
у ка
у ел
у ві
у ти
у аль
у мі
у кон
у су
у ли
у пер
у лю
у ман
у ба
у бі
у тор
у гу
у га
у сі
у ий
у аз
у гор
у за
у вар
у пи
у тра
у ча
у до
у ми
у са
у бр
у чи
у зу
у гол
у пт
у мен
у ець
у мент
у гам
у вa
у тил
у гр
у тиль
у рет
у вес
у гур
у роч
у лад
у лож
у ацій
у род
у леч
у реч
у рос
у вік
у віч
у сил
у пли
у віол
у цьк
у дів
у час
у гав
у роб
у сис
у вим
у лус
у зив
у мис
у бог
у скуль
у рив
у альн
у ліпл
у гілл
у ляг
у озн
у гоp
у бож
у вул
у дих
у лаштува
у сип
у бої
у строєн
у резон
у роблен
ф и
ф м
ф ль
ф ро
ф ру
ф ла
ф об
ф ні
ф тор
ф тер
ф ир
ф ит
ф op
ф ул
ф тон
ф aг
ф ог
ф ех
ф аст
ф иц
ф рез
ф анг
ф еш
ф екц
ф ac
ф ебр
ф рун
ф абі
ф ебель
ф ляж
ф ести
ф ляг
ф ехт
ф oгo
ф тиз
ф тог
ф естон
ф oтo
х е
х с
х ра
х оч
х ав
х ант
х ни
х ува
х ир
х мар
х оз
х ит
х оп
х алі
х кан
х ми
х ас
х тар
х ран
х те
х ул
х уль
х но
х ох
х тон
х рон
х віт
х вин
х тив
х аш
х аст
х лам
х мел
х ук
х іп
х іо
х мур
х андр
х лор
х ато
х міль
х лин
х руш
х рам
х рус
х віс
х мель
х йл
х рум
х ітт
х тий
х емо
х едер
х емі
х рап
х лів
х миз
х віст
х оке
х окей
х луд
х гауз
х exe
ц e
ц г
ц м
ц о
ц т
ц ол
ц об
ц аб
ц ян
ц ви
ц ок
ц ман
ц кор
ц оп
ц юва
ц ень
ц ах
ц мол
ц ох
ц мак
ц пo
ц ео
ц яв
ц ук
ц анг
ц енд
ц еш
ц уп
ц еp
ц юж
ц інь
ц ебр
ц вя
ц нот
ц едр
ц віс
ц абан
ц мок
ц пy
ц віч
ц ебер
ц вень
ц апл
ц зін
ц оф
ц вях
ц околь
ц ебен
ц cкoп
ч т
ч х
ч ст
ч й
ч он
ч ко
ч ам
ч ур
ч аль
ч от
ч аб
ч ок
ч ес
ч ман
ч ос
ч ед
ч мар
ч ез
ч іт
ч ит
ч вар
ч оп
ч ми
ч кур
ч юр
ч ім
ч сть
ч ic
ч ік
ч мак
ч іс
ч мел
ч еш
ч іп
ч арт
ч авл
ч евр
ч ебр
ч ещ
ч абан
ч жур
ч мок
ч вак
ч верт
ч ебер
ч вяк
ч мф
ч рев
ч есь
ч мй
ч вир
ч вях
ч iaн
ч агар
ш в
ш і
ш ль
ш он
ш ре
ш ри
ш ва
ш ві
ш аль
ш ак
ш от
ш пу
ш ант
ш ман
ш кор
ш пол
ш мар
ш ад
ш кол
ш ест
ш ун
ш ми
ш кур
ш iп
ш ас
ш іл
ш уль
ш іль
ш ап
ш пет
ш кул
ш aг
ш аж
ш ус
ш вен
ш куль
ш ум
ш тив
ш ост
ш кот
ш ник
ш аст
ш каль
ш пот
ш лам
ш іч
ш уп
ш іп
ш тил
ш порт
ш тиль
ш вел
ш еф
ш пуль
ш епі
ш уш
ш іст
ш еp
ш лак
ш мач
ш прот
ш евр
ш кап
ш пач
ш пул
ш лаг
ш муль
ш ків
ш вед
ш абель
ш едр
ш рот
ш рам
ш кува
ш орт
ш марк
ш миг
ш вяк
ш ість
ш епт
ш льон
ш руб
ш піон
ш вид
ш вир
ш антаж
ш льоп
ш ваб
ш маг
ш мага
ш нир
ш ванд
ш лап
ш нип
ш осе
ш морг
ш ланг
ш плінт
щ ін
щ ет
щ ин
щ аб
щ ент
щ ав
щ ед
щ ир
щ ич
щ ез
щ іт
щ ит
щ еп
щ ас
щ іл
щ ім
щ ул
щ іль
щ аст
щ уч
щ іч
щ ук
щ уп
щ іп
щ іб
щ авл
щ иць
щ едр
щ ух
щ упл
ь и
ь ем
ь оп
ь яр
э н
ю x
ю б
ю х
ю ц
ю і
ю ка
ю ди
ю ць
ю дж
ю ні
ю тер
ю сь
ю за
ю са
ю бр
ю мін
ю уч
ю хт
ю поч
ю вн
ю їт
ю цин
ю льк
ю род
ю зит
ю бк
ю віл
ю сін
ю рис
ю боч
ю пч
ю ард
ю рид
ю диці
ю доль
ю скуль
ю ссель
ю пітер
ю ліан
ю гацій
ю страд
я p
я м
я п
я ю
я ва
я ї
я ск
я рі
я дж
я тор
я гу
я еч
я cт
я цій
я ки
я юва
я вол
я ми
я др
я сл
я ган
я вор
я сен
я єч
я вин
я ог
я пон
я сел
я сель
я ́н
я год
я бін
я еш
я лов
я май
я рій
я рем
я фет
я риж
я лож
я гід
я мб
я вий
я цiя
я кут
я рус
я рос
я коб
я зик
я бед
я лів
я скр
я лоз
я зич
я кір
я ітар
я струб
я астро
я фф
я риз
я експон
я гідд
я сач
є p
є с
є ф
є і
є ль
є ре
є пі
є ди
є ли
є ні
є пи
є стр
є ран
є зу
є гер
є дин
є зо
є кц
є лей
є стат
є рей
є валь
є тик
є мн
є дам
є пap
є дн
є фрей
є ктив
є хид
є дваб
і 4
і c
і i
і j
і p
і x
і у
і і
і ј
і ал
і ре
і ри
і ко
і по
і ти
і ак
і ї
і ск
і от
і кон
і си
і ян
і ви
і ент
і ант
і кор
і ля
і гн
і ад
і оз
і аз
і при
і цій
і мо
і бер
і сти
і мер
і як
і уд
і кл
і чи
і стер
і ран
і зу
і дь
і зд
і стру
і ція
і єч
і єр
і стор
і ськ
і гр
і скор
і міт
і єт
і атор
і янт
і андр
і гент
і род
і дил
і рит
і цил
і стик
і рис
і мун
і матри
і мід
і діо
і зир
і рид
і їщ
і оть
і люстр
і біс
і доль
і золь
і ровк
і скр
і люз
і манент
і паж
і люмін
і гумен
і тополь
і 7і
і юса
қ аб
ө в
น ั
ห นั
ль г
ль и
ль п
ль ц
ль ч
ль я
ль ол
ль од
ль от
ль пан
ль мен
ль ох
ль ош
ль еж
ль йон
ль ний
ль ниц
ль ність
ль щик
ль щиц
ер б
ер д
ер ж
ер з
ер к
ер с
ер ан
ер ро
ер ов
ер од
ер от
ер ом
ер тер
ер ед
ер га
ер го
ер ит
ер мін
ер уд
ер ус
ер ія
ер аст
ер гот
ер уп
ер бай
ер жа
ер бах
ер епен
ер итр
ер упт
ан а
ан о
ан у
ан ф
ан ь
ан ан
ан ов
ан ел
ан ин
ан ек
ан ам
ан ди
ан от
ан оч
ан фі
ан ци
ан ич
ан ий
ан гор
ан сер
ан гар
ан ган
ан іл
ан екс
ан ул
ан уль
ан ап
ан гл
ан ція
ан кер
ан гi
ан іс
ан аф
ан тил
ан тич
ан тик
ан дій
ан хі
ан іон
ан ої
ан аліз
ан орт
ан аліт
ан гій
ан емо
ан дул
ан дієць
ан абаз
ан естез
ан ізо
ан онс
ан акре
ан дез
ан гаж
ан естет
ст ін
ст ет
ст ек
ст об
ст аг
ст ант
ст анд
ст ій
ст аз
ст еп
ст ег
ст вол
ст ень
ст ас
ст ач
ст ах
ст вл
ст аж
ст еж
ст ник
ст енд
ст уп
ст воль
ст іж
ст арт
ст іб
ст рек
ст овл
ст авл
ст інн
ст інь
ст реп
ст рес
ст рель
ст ебель
ст епен
ст pи
ст ябл
ст іжж
ст апель
ст юард
ар в
ар г
ар л
ар н
ар р
ар ш
ар ан
ар он
ар ат
ар аль
ар ма
ар ом
ар оч
ар аб
ар ав
ар бі
ар гу
ар тр
ар ад
ар го
ар кт
ар алі
ар кан
ар до
ар бо
ар бор
ар мон
ар ап
ар гон
ар дин
ар хар
ар ео
ар ил
ар яльн
ар кад
ар тил
ар шин
ар ха
ар хо
ар хі
ар інг
ар куш
ар агон
ар зам
ар нет
ар іан
ар бут
ар нік
ар ієць
ар анж
ар ешт
ар тері
ар лек
ар инд
ар тикул
ар балет
ор г
ор л
ор н
ор о
ор р
ор ет
ор ам
ор аль
ор ле
ор ент
ор ок
ор ей
ор ба
ор де
ор га
ор бл
ор оз
ор анд
ор уд
ор ден
ор енд
ор лен
ор атор
ор фо
ор іон
ор біт
ор чик
ор нам
ор хід
ор ніт
ор анж
ор ция
ор тиз
ор ебль
ор кестр
й и
й н
й о
й т
й х
й ц
й ш
й ст
й й
й од
й ць
й ом
й ем
й пер
й бл
й бал
й ош
й ня
й ой
й ськ
й чн
й им
й oг
й кіло
ен к
ен у
ен ш
ен ю
ен і
ен ин
ен ей
ен кор
ен ич
ен ят
ен до
ен др
ен кл
ен ець
ен ик
ен ція
ен иц
ен ео
ен сал
ен із
ен туз
ен ебель
ен хім
ен ерг
ен тук
ен зим
ен уц
ен кауст
ен цикло
ен орей
он p
он ж
он о
он ан
он ет
он ко
он ом
он ок
он тер
он ap
он ів
он ім
он дин
он аст
он уч
он ьк
он ук
он коль
он дат
он дул
он ікс
ро м
ро х
ро щ
ро ст
ро й
ро по
ро ї
ро ди
ро ма
ро ць
ро дж
ро гі
ро бі
ро тор
ро зи
ро де
ро сь
ро то
ро го
ро юва
ро зь
ро стр
ро до
ро со
ро ват
ро гал
ро пт
ро єць
ро сть
ро ть
ро єч
ро дов
ро тан
ро вен
ро дз
ро кот
ро кад
ро бак
ро шен
ро дон
ро вес
ро дан
ро їд
ро бот
ро гат
ро жд
ро сту
ро джен
ро щен
ро жн
ро мб
ро стов
ро бач
ро ял
ро яль
ро лер
ро кит
ро дженн
ро ївн
ро гож
ро фео
ро зах
ро слин
ал а
ал н
ал ер
ал ан
ал ел
ал ек
ал ма
ал ом
ал ей
ал та
ал ич
ал еб
ал гор
ал ун
ал ект
ал тар
ал кал
ал бан
ал ик
ал калі
ал ой
ал уж
ал фа
ал атор
ал тай
ал евр
ал юм
ал им
ал юв
ал ерг
ал арм
ал даш
ал егор
ал ущ
ал маз
ал жір
ал леман
ал авр
ал кіл
ал ярм
ал юмін
ол ад
ол ень
ол ім
ол ік
ол ео
ол інг
ол ют
ол івч
ол ярі
ат в
ат н
ат р
ат у
ат х
ат ол
ат ов
ат ин
ат ти
ат ак
ат ель
ат ок
ат ав
ат ир
ат op
ат ест
ат мо
ат юр
ат ик
ат рон
ат аш
ат ник
ат лет
ат роп
ат рак
ат еро
ат акс
ат лас
ат нин
ат арій
ат лант
ат уар
ат рамент
ат ером
ат еню
ре б
ре я
ре ал
ре ку
ре ко
ре ин
ре ві
ре аль
ре лі
ре ць
ре ле
ре аг
ре пар
ре ци
ре ля
ре шт
ре бер
ре кур
ре фор
ре фер
ре мен
ре дь
ре ван
ре йд
ре лін
ре гл
ре пет
ре кц
ре вен
ре тин
ре сур
ре тир
ре бру
ре віз
ре гот
ре акт
ре порт
ре воль
ре міт
ре сор
ре вн
ре гат
ре лак
ре вель
ре фри
ре цес
ре гент
ре міс
ре гул
ре прес
ре вя
ре дис
ре форм
ре дак
ре став
ре туш
ре миг
ре міз
ре верс
ре дукт
ре гуль
ре естр
ре спект
ре шет
ре піж
ре цип
ре золь
ре фрак
ре дакт
ре лікт
ре між
ре манент
ре дукц
ре деч
ре презент
ре флект
ре крут
ре тикул
ре корд
ре коменд
ре клам
ре абіліт
ре фул
ре єстр
ін а
ін и
ін ар
ін ін
ін ва
ін ел
ін ні
ін ав
ін оз
ін вар
ін тра
ін до
ін тро
ін ул
ін син
ін тен
ін тру
ін тон
ін фар
ін фра
ін ник
ін сур
ін кру
ін вест
ін клю
ін кас
ін дик
ін фіні
ін дич
ін клін
ін форм
ін тим
ін фуз
ін спір
ін фік
ін волю
ін спект
ін фек
ін жир
ін ерц
ін стин
ін тенс
ін женер
ін валі
ін тегр
ін куб
ін гусь
ін спекц
ін вентар
ра б
ра г
ра ц
ра я
ра мі
ра дж
ра цій
ра стр
ра пт
ра мен
ра мл
ра мол
ра гон
ра бат
ра фін
ра пір
ра чч
ра порт
ра кет
ра йон
ра дом
ра дар
ра зин
ра мб
ра куш
ра чен
ра цил
ра бин
ра цем
ра мід
ра діо
ра дуж
ра зив
ра курс
ра їль
ра кузь
ов a
ов к
ов п
ов я
ов і
ов ан
ов ст
ов ен
ов ал
ов ат
ов аль
ов ель
ов ес
ов ля
ов ува
ов ир
ов енн
ов ул
ов ець
ов ик
ов ник
ов иц
ов ил
ов ниц
ов нич
ов еньк
ов иль
ов инн
ов щик
ри м
ри ф
ри ш
ри й
ри ск
ри тор
ри бл
ри шт
ри гор
ри зь
ри ча
ри фл
ри мл
ри сен
ри зо
ри нт
ри хт
ри кош
ри галь
ри сс
ри кос
ри соч
ри дик
ри гід
ри гель
ри скува
ри хон
ри зик
ри ще
ри туаль
ри ция
ет к
ет н
ет ан
ет он
ет ро
ет ат
ет ел
ет ик
ет ил
ет ист
ет иль
ет ерн
ет алон
ет русь
ет юд
ет имо
ку c
ку з
ку к
ку у
ку ф
ку ц
ку щ
ку ст
ку пл
ку ві
ку рі
ку ць
ку ле
ку ман
ку лу
ку ува
ку ря
ку пол
ку бл
ку ий
ку шт
ку шк
ку чер
ку стр
ку бр
ку ват
ку др
ку йд
ку ги
ку лін
ку бан
ку ть
ку мент
ку під
ку пел
ку шп
ку пон
ку пе
ку хт
ку мед
ку пр
ку дел
ку лич
ку стан
ку бел
ку бель
ку дель
ку мач
ку зин
ку поль
ку роп
ку раж
ку бк
ку жел
ку зов
ку паль
ку хн
ку дл
ку дак
ку клу
ку пян
ку хл
ку хов
ку хли
ку плет
ку лик
ку боч
ку коб
ку руль
ку тул
ку ріп
ку лес
ку мис
ку ліс
ку леш
ку кіль
ку миць
ку кіб
ку прик
ка о
ка ч
ка я
ка ст
ка ко
ка пер
ка пар
ка ба
ка зи
ка пор
ка бл
ка мар
ка цій
ка шт
ка шк
ка бар
ка юва
ка зь
ка ча
ка стр
ка бал
ка мін
ка стер
ка єць
ка вал
ка пра
ка юч
ка стру
ка мл
ка зн
ка бан
ка гл
ка хи
ка ска
ка ус
ка пот
ка стор
ка бак
ка пр
ка каз
ка спі
ка валь
ка бот
ка чува
ка гат
ка галь
ка пост
ка буль
ка брі
ка ше
ка ют
ка хль
ка шал
ка зит
ка баль
ка шл
ка діб
ка бач
ка жан
ка хл
ка шир
ка юват
ка їр
ка бло
ка бест
ка хет
ка плич
ка пос
ка стел
ка стіль
ка пус
ка пуст
ка верз
ка верн
ка приз
ка шкет
ка бич
ка олін
ка брош
ка ктус
ка као
ко c
ко ж
ко к
ко х
ко ц
ко я
ко ј
ко й
ко ал
ко пл
ко по
ко ти
ко ї
ко кон
ко тор
ко де
ко сь
ко тр
ко мар
ко єн
ко шт
ко за
ко стр
ко ут
ко стер
ко пал
ко сн
ко гер
ко пт
ко сть
ко сен
ко тон
ко ть
ко шар
ко дол
ко кот
ко пен
ко тир
ко печ
ко зел
ко кс
ко кет
ко шел
ко ста
ко тик
ко пуль
ко фт
ко кош
ко бен
ко мір
ко фе
ко кос
ко пул
ко зет
ко цю
ко міс
ко мах
ко жн
ко дил
ко баль
ко зен
ко фант
ко діль
ко манд
ко зель
ко хін
ко маш
ко мут
ко гут
ко стиль
ко ефі
ко кощ
ко опт
ко пош
ко кіль
ко струб
ко цюр
ко каїн
ко агул
ко стром
ко биль
ва г
ва п
ва ч
ва є
ва пл
ва ві
ва аль
ва ць
ва дж
ва пор
ва сь
ва бл
ва сто
ва ган
ва єць
ва зо
ва дор
ва хт
ва гот
ва сал
ва жен
ва фель
ва саль
ва зел
ва кс
ва гран
ва пн
ва гін
ва хл
ва йл
ва скул
ва гант
ва гіт
ва гий
ва хмі
ва кацій
ел к
ел о
ел ль
ел ам
ел ич
ел ев
ел іт
ел ень
ел ект
ел ас
ел аж
ел ив
ел аст
ел ієв
ел еро
ел ектр
ел езн
ел ивл
ел емент
ел іск
ин и
ин я
ин ка
ин го
ин др
ин ець
ин форм
ин акс
ин фік
ин фект
ин сект
ин тегр
ин секц
ин фекц
ру з
ру п
ру х
ру і
ру ст
ру ба
ру пор
ру бл
ру бер
ру сл
ру дер
ру кат
ру їн
ру тен
ру дз
ру нт
ру тин
ру лет
ру сель
ру сал
ру бін
ру ськ
ру шен
ру нд
ру саль
ру пуль
ру лон
ру ша
ру бел
ру мб
ру бк
ру мин
ру бід
ру мун
ру чк
ру біж
ру димент
ру брик
пл ов
пл ин
пл от
пл ент
пл ав
пл ей
пл ос
пл ед
пл еч
пл ев
пл оз
пл іт
пл анд
пл ит
пл ун
пл ів
пл юр
пл ач
пл ім
пл одж
пл aт
пл ох
пл ош
пл aг
пл ог
пл аш
пл ех
пл аст
пл іс
пл иг
пл ой
пл уж
пл іо
пл яж
пл яс
пл авл
пл евр
пл яш
пл оджен
пл уто
пл ести
пл уг
пл ачува
пл aш
пл афон
пл aїк
пл yг
ві г
ві ж
ві ц
ві щ
ві ві
ві аль
ві ск
ві ді
ві ант
ві зи
ві де
ві тр
ві тра
ві до
ві сп
ві бр
ві др
ві сл
ві дер
ві єць
ві ван
ві тал
ві сть
ві сар
ві гон
ві льн
ві сон
ві чч
ві хол
ві лен
ві ско
ві брі
ві вч
ві єм
ві яст
ві раж
ві гіль
ві сім
ві рус
ві це
ві лем
ві юв
ві конт
ві рил
ві рул
ві їй
ві глас
ві скр
ві тут
ві трин
ві смут
по г
по п
по ет
по по
по ти
по ї
по ма
по кон
по ем
по пер
по бі
по мар
по ез
по єн
по шт
по мо
по за
по ки
по юва
по мер
по чи
по ган
по зу
по зн
по гон
по під
по пел
по дол
по пон
по пен
по єнн
по год
по стат
по суд
по пель
по гм
по яс
по мн
по пул
по доб
по даг
по єм
по міс
по гід
по куш
по піл
по піль
по мин
по хаб
по шл
по кут
по плін
по бід
по йм
по мад
по саж
по переч
по пруж
по годж
по сибіл
по пуляр
по гож
по штува
по оти
по таш
по кій
по сіб
по сош
по трош
по труш
по греб
по спіль
по гріб
по слід
по душеч
по жеж
по йкіло
ек ер
ек ен
ек ві
ек ти
ек ці
ек то
ек стр
ек ват
ек ран
ек стру
ек зо
ек стат
ек стир
ек скре
ек лог
ек вілі
ек стерн
ек лект
ек стрем
ек олон
ек іпаж
ек вадор
ам и
ам п
ам т
ам ур
ам аль
ам ель
ам аг
ам ні
ам ант
ам бі
ам бл
ам еб
ам аз
ам бар
ам бр
ам уд
ам іл
ам стер
ам ід
ам пел
ам пір
ам бра
ам бул
ам атор
ам буль
ам пул
ам андр
ам ид
ам пут
ам біт
ам фот
ам ари
ам етр
ам арк
ам булат
ам броз
ам ортиз
ам етист
ур б
ур в
ур г
ур к
ур п
ур ан
ур ал
ур ін
ур бан
ур із
ур яд
ур арт
ур вит
ур юк
ур льоп
ур енс
ур ядж
ти p
ти п
ти т
ти ф
ти х
ти ц
ти ре
ти по
ти ти
ти мі
ти ск
ти ць
ти ман
ти во
ти тр
ти мо
ти за
ти бар
ти до
ти мат
ти роз
ти ков
ти фл
ти мент
ти тан
ти від
ти лл
ти пo
ти гр
ти жен
ти спі
ти зан
ти жн
ти шш
ти раж
ти гель
ти лік
ти скува
ти пч
ти тул
ти сап
ти фло
ти роль
ти тл
ти шпор
ти рео
ти гмо
ти туль
ти скуува
ти охай
аль б
аль д
аль м
аль п
аль ф
аль ц
аль ти
аль де
аль то
аль го
аль ков
аль тру
аль тан
аль бін
аль пін
аль тич
аль ний
аль ве
аль пак
аль бом
аль манд
аль бед
аль фрей
аль бум
аль паг
аль терн
ак к
ак ш
ак ль
ак ар
ак он
ак ри
ак ва
ак ці
ак ант
ак тор
ак то
ак тр
ак ир
ак сі
ак ит
ак цій
ак со
ак ів
ак ме
ак тин
ак тив
ак тю
ак се
ак цент
ак цес
ак цеп
ак орд
ак рил
ак туал
ак туаль
ак варі
ак цесій
ак іїв
ак оніт
ак селер
ак анф
ак орде
ї c
ї p
ї x
ї б
ї ан
ї сь
ї ад
ї дь
ї зд
ї зм
ї жд
ї ровк
ї cьк
ї еть
ї блан
пі x
пі м
пі п
пі ф
пі х
пі ш
пі щ
пі я
пі ст
пі ск
пі рі
пі ді
пі пер
пі ля
пі кл
пі сн
пі дь
пі тал
пі пет
пі тон
пі чч
пі лл
пі кін
пі тт
пі кет
пі гм
пі ско
пі єт
пі вн
пі кр
пі лот
пі їт
пі лор
пі соч
пі гул
пі сок
пі рот
пі фаг
пі хв
пі столь
пі сля
пі єл
пі гмент
пі стон
пі люль
пі рамід
ель н
ель мен
ель ник
ель енд
ель ниц
ель вей
лі г
лі д
лі з
лі л
лі ф
лі ш
лі щ
лі є
лі он
лі ко
лі по
лі лі
лі мі
лі му
лі пар
лі та
лі во
лі тр
лі гн
лі єв
лі тар
лі ган
лі мон
лі ван
лі зн
лі єч
лі бри
лі кер
лі гро
лі лей
лі ́н
лі тт
лі міт
лі фт
лі дій
лі бре
лі гат
лі цен
лі йк
лі мн
лі сс
лі вій
лі цит
лі вон
лі цей
лі це
лі мф
лі лій
лі сир
лі дієць
лі хен
лі тораль
лі зис
лі гацій
лі мінар
лі хтар
мі м
мі о
мі ф
мі х
мі щ
мі ст
мі ро
мі ка
мі ко
мі ць
мі сь
мі тр
мі сі
мі оз
мі мо
мі стр
мі мет
мі зд
мі сть
мі лл
мі тив
мі дор
мі лан
мі ́н
мі тт
мі тел
мі гр
мі шен
мі жж
мі кс
мі цел
мі шур
мі зер
мі дій
мі зан
мі зин
мі хро
мі зет
мі раль
мі сій
мі зк
мі моз
мі раж
мі хур
мі грен
мі крон
мі цет
мі гмат
мі лк
мі цц
мі коз
мі дієць
мі єл
мі рош
мі циль
мі лось
мі тоз
мі азм
мі мео
мі тинг
мі яітар
ск в
ск л
ск н
ск ер
ск ен
ск он
ск ел
ск ель
ск ле
ск ем
ск ей
ск вер
ск ит
ск ір
ск ік
ск рон
ск віт
ск іп
ск нар
ск рек
ск лад
ск им
ск іц
ск лик
ск лер
ск лоч
ск андал
ск епт
ск елл
ск рут
ск ріб
ск різ
ск леп
ск верн
ск іа
ск елет
ск різь
ск ирт
ск епс
ск імл
ск рупуль
ди д
ди ц
ди ш
ди пл
ди фі
ди вер
ди ба
ди тер
ди бл
ди сер
ди мл
ди лат
ди фра
ди від
ди вин
ди лл
ди тив
ди лет
ди бул
ди зел
ди хан
ди гм
ди пло
ди хо
ди я́
ди льк
ди спон
ди шл
ди скре
ди лем
ди куляр
ди верс
ди стиль
ди зент
ди шель
ди дим
ди ция
ди стил
ди дакт
ди жит
ди риг
ди ліж
ди рект
ди станцій
ди фтер
ди рекц
ці в
ці д
ці к
ці л
ці о
ці п
ці ль
ці пл
ці ві
ці аль
ці оз
ці сар
ці оль
ці пен
ці ́н
ці лій
ці лест
ці ́л
од р
од у
од ер
од ан
од ор
од ал
од ес
од мін
од уд
од ул
од уль
од ія
од еж
од ук
од яг
од онт
од есь
од ягн
од рук
од еколон
от к
от н
от ч
от і
от ар
от ен
от ин
от ур
от ель
от оч
от ав
от ес
от вин
от том
от роч
от инн
от оман
от рок
от роц
от рях
ла з
ла щ
ла я
ла ко
ла ск
ла бу
ла дж
ла cт
ла шт
ла ком
ла юва
ла зь
ла бор
ла гер
ла вл
ла зн
ла вір
ла під
ла бра
ла дд
ла год
ла ся
ла гом
ла дан
ла бел
ла дель
ла йк
ла сс
ла фет
ла гід
ла зар
ла зур
ла стов
ла кун
ла баз
ла біль
ла стик
ла жан
ла буз
ла гун
ла фіт
ла кузь
ла зуун
ла гiд
ла планд
ма x
ма ж
ма о
ма щ
ма я
ма ј
ма ет
ма ї
ма ск
ма ць
ма ви
ма су
ма сь
ма яч
ма ят
ма єн
ма гор
ма за
ма юва
ма зь
ма єв
ма гар
ма як
ма ску
ма фу
ма йд
ма гл
ма кул
ма цер
ма сон
ма чч
ма сов
ма хор
ма єнн
ма сель
ма да
ма ся
ма каз
ма гом
ма гм
ма єт
ма зин
ма сла
ма хр
ма їт
ма даг
ма дрі
ма зк
ма зур
ма зува
ма стик
ма шта
ма куп
ма сив
ма зей
ма зил
ма кух
ма їс
ма їль
ма гог
ма ївк
ма гніт
ма истер
ма стих
ма гніч
ма цюп
ма фро
ма юскуль
ма єстат
рі г
рі ж
рі с
рі т
рі у
рі х
рі ш
рі ль
рі ст
рі ор
рі ць
рі дж
рі ви
рі єв
рі бр
рі сн
рі дь
рі зд
рі сть
рі чч
рі лл
рі дд
рі шен
рі вн
рі зя
рі джен
рі джува
рі жн
рі пак
рі вень
рі атич
ць ом
ць во
бу б
бу ж
бу п
бу с
бу я
бу ер
бу й
бу ти
бу ян
бу дж
бу ду
бу бл
бу кол
бу цій
бу гор
бу зь
бу сл
бу зу
бу фер
бу ков
бу тен
бу хи
бу кер
бу хар
бу нт
бу ден
бу єр
бу дор
бу дд
бу кін
бу хт
бу тт
бу тил
бу гр
бу жен
бу пр
бу кв
бу бон
бу кс
бу кет
бу хан
бу там
бу фон
бу фет
бу джува
бу соль
бу реч
бу рав
бу руль
бу тий
бу бн
бу джан
бу равл
бу фф
бу тиро
бу лиж
бу стьер
бу мазей
ле г
ле д
ле ж
ле ц
ле щ
ле я
ле ер
ле он
ле ві
ле ск
ле ць
ле де
ле єв
ле гал
ле вор
ле дер
ле пт
ле йд
ле вір
ле пет
ле мент
ле сов
ле каль
ле пот
ле да
ле бон
ле галь
ле мур
ле пс
ле цит
ле гін
ле жа
ле цьк
ле бед
ле жува
ле дв
ле підо
ле міш
ле вуль
ле пеш
ле гк
ле щат
ле вад
кон д
кон ц
кон ч
кон і
кон ар
кон ов
кон ет
кон ур
кон си
кон ду
кон кор
кон тор
кон сь
кон го
кон кур
кон три
кон ець
кон цер
кон дов
кон тур
кон дол
кон ден
кон тир
кон ьк
кон сек
кон стат
кон там
кон дук
кон цес
кон юш
кон фет
кон цин
кон цеп
кон туз
кон таг
кон соль
кон форм
кон тей
кон ьер
кон сигн
кон верт
кон фуз
кон спір
кон флі
кон дукт
кон спект
кон опл
кон фек
кон дицій
кон курс
кон центр
кон туж
кон сул
кон крет
кон вуль
кон солід
кон цесій
кон валі
кон федер
кон форк
кон фірм
кон текст
кон векцій
кон хіо
кон стант
кон вісар
кон дитер
ом б
ом ш
ом ов
ом ел
ом ні
ом ос
ом ий
ом ул
ом бро
об г
об о
об щ
об ель
об оч
об си
об аб
об ич
об ез
об оз
об іт
об ій
об ож
об лав
об рій
об роч
об ид
об раж
об раз
об рус
об іц
об тюр
об лас
об ряд
об ороч
об сз
об руч
об луд
об итель
об лений
об апол
об олон
об ручч
об лач
об ряж
об серв
об аполь
об шлаг
об арв
об роть
об еліск
об лігацій
оч е
оч н
оч аль
оч ок
оч кур
оч іп
оч ому
оч ерет
оч аків
па п
па ю
па я
па є
па пл
па ди
па па
па пер
па пор
па шт
па ун
па юва
па єв
па пан
па стер
па зу
па йд
па пір
па уз
па хол
па се
па дд
па віль
па поч
па уш
па кос
па зон
па зур
па піл
па піль
па стель
па стир
па кост
па стал
па хв
па сив
па стиль
па саж
па пк
па кощ
па пля
па дуб
па стил
па вут
па пc
па фос
па цієнт
па юс
па січ
па дрон
па coм
па плюж
па цюк
па упер
си г
си х
си ч
си щ
си пл
си бар
си гар
си др
си іл
си дер
си дь
си тал
си рен
си лан
си гм
си лон
си пед
си тет
си бель
си фон
си філ
си муль
си роп
си тн
си рот
си лік
си бір
си лаб
си мул
си лог
си чуж
си ще
си глас
си сун
си чуг
си гніт
си міл
си туацій
си зуват
си роват
си риция
си кофант
си вась
си ріт
про в
про м
про с
про ф
про х
про ч
про ш
про щ
про ст
про ду
про тор
про сь
про кт
про шк
про сти
про кур
про ект
про пан
про стер
про вор
про мен
про пел
про від
про тив
про пон
про пе
про яв
про стор
про стат
про да
про каз
про зел
про екц
про зер
про тет
про фан
про цент
про баб
про цес
про філь
про чан
про щен
про міс
про піл
про бк
про зен
про поз
про ща
про боч
про вок
про скрип
про сод
про куд
про діл
про скур
про цед
про стин
про каж
про вербі
про дукц
про поліс
про грам
про позицій
про паг
про теро
про гнат
про чух
про клам
про доволь
про дром
про позиці
про лонг
про ксим
про віант
аб и
аб н
аб ль
аб ар
аб ез
аб ад
аб іт
аб сол
аб олі
аб дук
аб раз
аб орт
аб рис
аб шит
аб рев
аб ора
аб орд
аб сент
аб домін
аб рт
аб ори
аб ажур
аб сурд
аб ревя
аб разив
аб рикос
ян ц
ян ов
ян ти
ян дж
ян тар
ян гол
ян ик
ян сен
ян ост
ян сов
ян дра
ян ськ
ян голь
ян естез
дж он
дж ет
дж ент
дж аз
дж ут
дж ай
дж мел
дж иг
дж им
дж гут
дж уць
дж индж
дж игіт
дж оу
дж инго
дж амбуль
ви б
ви з
ви и
ви л
ви о
ви п
ви с
ви х
ви ч
ви ль
ви ск
ви дж
ви де
ви сь
ви са
ви др
ви бор
ви дь
ви дол
ви хор
ви дд
ви год
ви да
ви шен
ви дел
ви лич
ви дель
ви хр
ви вч
ви зна
ви соч
ви хри
ви льк
ви гід
ви жов
ви сок
ви шш
ви коли
ви шн
ви раз
ви діль
ви дал
ви хл
ви рис
ви лоч
ви лк
ви шенн
ви руб
ви пад
ви діл
ви хвал
ви риг
ви дивл
ви треб
ви клас
ви друк
ви диция
ем оч
ем фі
ем пір
ем брі
ем бурзь
ем фат
ем пірі
ту б
ту г
ту ф
ту ц
ту пл
ту ск
ту ди
ту ні
ту ман
ту ба
ту оз
ту аз
ту шк
ту єв
ту жи
ту єр
ту фель
ту ляр
ту мб
ту реч
ту біль
ту жур
ту біл
ту луб
ту рець
ент ер
ент омо
су в
су е
су п
су с
су ф
су ш
су щ
су є
су ар
су пл
су кон
су пер
су вер
су ят
су бер
су дь
су фл
су пра
су мл
су тен
су дин
су фра
су хар
су вен
су чч
су пон
су ден
су дд
су тт
су порт
су шен
су нь
су саль
су бот
су сак
су єт
су блі
су кр
су рем
су мах
су джува
су кен
су тн
су біт
су ров
су плет
су лем
су рик
су кн
су мр
су тк
су конь
су пруж
су плік
су губл
су сід
су глоб
су гак
су гест
су губ
су дорож
су рогат
су постат
ли з
ли ц
ли ш
ли щ
ли я
ли й
ли ск
ли ць
ли ман
ли зь
ли зу
ли вл
ли зн
ли сен
ли тов
ли сон
ли чч
ли хор
ли тт
ли ша
ли точ
ли пн
ли зува
ли тв
ли вий
ли вець
ли хв
ли тк
ли хом
ли зуува
ли шай
ли штов
ли тавр
аг а
аг д
аг и
аг р
аг у
аг ро
аг ат
аг ін
аг ри
аг ель
аг ент
аг ав
аг ло
аг лю
аг іт
аг op
аг ун
аг мат
аг уль
аг рес
аг лом
аг рус
аг амо
аг рар
аг регат
ок л
ок р
ок ль
ок ер
ок ол
ок си
ок та
ок сер
ок сел
ок сам
ок сан
ок лад
ок тав
ок тя
ок сил
ок ріп
ок люд
ок руг
ок люз
ок арп
ок овит
ок руж
ок салат
ок овир
ок лецьк
ді ж
ді з
ді м
ді р
ді є
ді і
ді ор
ді вер
ді ля
ді яч
ді оз
ді оп
ді юва
ді єв
ді як
ді юч
ді єч
ді лл
ді яльн
ді єт
ді атор
ді юг
ді дич
ді єнт
ді аліз
ді яш
ді гт
ді абет
ді абаз
ді кюр
ді атом
ді азо
ді бров
ді афан
ді урет
ді алект
ді амант
пер а
пер в
пер л
пер у
пер х
пер ц
пер ш
пер і
пер ст
пер он
пер си
пер ні
пер ес
пер ант
пер ей
пер сь
пер ев
пер ез
пер еб
пер ит
пер еп
пер ун
пер сп
пер фор
пер сн
пер кал
пер сон
пер тур
пер пен
пер ил
пер ук
пер із
пер ист
пер шер
пер шен
пер фо
пер иль
пер літ
пер гіль
пер кут
пер тус
пер едж
пер кус
пер мут
пер фект
пер сик
пер цип
пер люстр
пер іщ
пер стен
пер манент
пер іод
пер стк
пер епіл
фі г
фі ч
фі ол
фі ко
фі ле
фі лу
фі ля
фі де
фі то
фі кт
фі бр
фі сто
фі ран
фі дер
фі гл
фі лат
фі ть
фі зо
фі кц
фі лет
фі лов
фі гур
фі лак
фі цит
фі кус
фі скал
фі орд
фі скаль
фі орит
фі олет
фі брил
фі тинг
фі хте
фі ладель
ні ж
ні з
ні с
ні я
ні є
ні ль
ні об
ні ман
ні тр
ні дер
ні тро
ні сен
ні кул
ні кот
ні ́н
ні стат
ні пр
ні вел
ні жж
ні лов
ні пель
ні би
ні кет
ні вель
ні сс
ні кел
ні жин
ні вець
ні гроз
ні мф
ні веч
ні гт
ні хром
ні здр
ні гіл
кар б
кар д
кар к
кар н
кар п
кар ч
кар і
кар ст
кар ет
кар ел
кар ель
кар ант
кар ман
кар тер
кар яч
кар ад
кар мат
кар мін
кар як
кар ас
кар бо
кар ач
кар тон
кар ус
кар цер
кар тин
кар аф
кар мел
кар тел
кар ук
кар бол
кар іо
кар дан
кар дам
кар кас
кар туз
кар нот
кар юк
кар бун
кар бід
кар фаг
кар туш
кар аван
кар нал
кар сет
кар бюр
кар рар
кар амел
кар низ
кар ячи
кар ачк
кар икатур
кар олінг
кар амель
кар мазин
ав к
ав т
ав ар
ав ин
ав то
ав ул
ав тен
ав анс
ав раль
ав елл
ав антаж
ав арій
ав страль
ав томат
ав дитор
ав ерро
ес с
ес ор
ес ель
ес пар
ес ят
ес пан
ес анс
ес пон
ес ьк
ес еньк
ес ечк
ес еенц
ес хато
ес ентук
ес падрон
ес перант
пу м
пу п
пу ф
пу ч
пу ва
пу пл
пу ск
пу ць
пу гу
пу га
пу бер
пу др
пу ги
пу ть
пу ска
пу дов
пу тт
пу пін
пу щен
пу чеч
пу шш
пу шкар
пу леч
пу рит
пу стува
пу ніч
пу зир
пу скул
пу цол
пу антил
му д
му з
му к
му х
му ц
му ч
му ар
му мі
му шк
му чу
му др
му сл
му ску
му ги
му сол
му лат
му сон
му хор
му фель
му жж
му ляр
му фт
му хо
му скар
му гй
му рин
му літ
му дря
му скат
му суль
му гир
му рав
му рах
му сир
му ляж
му зей
му туал
му скул
му скуль
му равл
му зич
му шкет
му раш
му стьер
му зеє
ант о
ант й
ант ур
ант ант
ант ас
ант реп
ант роп
ант ероз
ант онів
ант ропо
ей к
ей с
ей до
ей гер
ей дет
ей зен
пар д
пар к
пар с
пар ф
пар х
пар ц
пар ч
пар ш
пар ель
пар от
пар ом
пар ей
пар на
пар тер
пар ир
пар ич
пар ад
пар алі
пар кан
пар ас
пар фу
пар ап
пар тен
пар ус
пар оль
пар аф
пар кін
пар тол
пар дон
пар ис
пар кет
пар цел
пар там
пар аліз
пар аліт
пар аван
пар емі
пар окс
пар тач
пар фю
пар цель
пар нась
пар итет
пар форс
пар тіє
пар ламент
пар ієт
пар аної
пар аметр
ци б
ци з
ци к
ци с
ци ц
ци ст
ци ти
ци ск
ци ць
ци пер
ци кор
ци тр
ци гар
ци пан
ци ган
ци фер
ци лін
ци ть
ци кад
ци бул
ци віль
ци бет
ци гй
ци кль
ци плін
ци віл
ци гей
ци фр
ци руль
ци буш
ци дул
ци рул
ци стерн
ци люр
ци тоз
ци трус
ло ц
ло щ
ло й
ло ко
ло пар
ло гі
ло пат
ло ція
ло зо
ло каль
ло пот
ло їв
ло жж
ло мач
ло зин
ло піт
ло пач
ло яль
ло каут
ло пуш
ло кац
ло скіт
ло пух
ло скоч
ло ́б
ло уренс
ло мачч
ло пушш
гі p
гі в
гі к
гі ро
гі ет
гі гі
гі бер
гі бр
гі др
гі тар
гі сто
гі стер
гі єць
гі мен
гі дь
гі гро
гі дро
гі пот
гі ́н
гі пост
гі пн
гі пс
гі ало
гі гант
гі ́ль
гі брид
гі ацин
гі пюр
гі лея
гі лозо
лю ж
лю л
лю т
лю ф
лю ч
лю бі
лю тер
лю бл
лю стер
лю те
лю мен
лю дь
лю цер
лю фт
лю чува
лю льк
лю леч
лю цiя
лю бк
лю пин
лю тн
лю шн
лю тува
лю блін
лю мiн
лю їз
лю пий
ни ж
ни и
ни т
ни щ
ни ль
ни ка
ни ий
ни шк
ни за
ни зь
ни ча
ни ми
ни юч
ни ик
ни ція
ни ськ
ни ця
ни зува
ни цьк
ни шпор
ни иця
ман г
ман н
ман о
ман ш
ман ер
ман ат
ман сі
ман яч
ман іт
ман ій
ман як
ман ган
ман іл
ман ір
ман іль
ман гл
ман ік
ман еж
ман дол
ман дра
ман гр
ман тиль
ман евр
ман дар
ман іф
ман ьер
ман ітт
ман жет
ман атт
ман чест
ман ьйон
ман кір
ман сард
ман ишк
ман екен
вер б
вер ж
вер х
вер ч
вер ш
вер ст
вер он
вер си
вер ед
вер іт
вер шк
вер бал
вер ть
вер тин
вер стат
вер саль
вер еск
вер іж
вер бен
вер хо
вер гент
вер сій
вер баль
вер едж
вер ств
вер стува
вер генц
ду в
ду д
ду о
ду с
ду ро
ду ал
ду ет
ду ел
ду пл
ду ти
ду ель
ду ць
ду ува
ду бл
ду їн
ду пел
ду ум
ду жж
ду хан
ду шш
ду дл
ду най
ду стря
ду бас
ду блін
ду плік
ба ж
ба я
ба ск
ба ян
ба сь
ба цій
ба шт
ба стр
ба єв
ба юр
ба пт
ба син
ба їн
ба йд
ба єч
ба зо
ба сон
ба зар
ба кун
ба дил
ба цил
ба хур
ба штан
ба сей
ба скет
ба циль
ба хром
ба шлич
ба ядер
ба був
ба дьор
ба саман
ба шмач
ба каюват
ба дилл
ба обаб
кор б
кор ж
кор к
кор м
кор п
кор т
кор ц
кор ен
кор он
кор ал
кор ол
кор ін
кор од
кор от
кор об
кор оч
кор ей
кор пор
кор де
кор ич
кор яч
кор оз
кор ит
кор ег
кор оп
кор ів
кор ень
кор ект
кор як
кор те
кор ков
кор мл
кор сар
кор ія
кор ог
кор оль
кор ост
кор иц
кор иг
кор иш
кор ист
кор ис
кор екц
кор тик
кор чува
кор вет
кор обл
кор зин
кор інн
кор інь
кор абель
кор чем
кор нет
кор яць
кор еєць
кор сет
кор і́н
кор ичн
кор саж
кор дя
кор очен
кор дуб
кор сік
кор інф
кор пій
кор абл
кор пус
кор еянк
кор іандр
кор нілов
кор еспон
кор пускул
ос л
ос м
ос н
ос ен
ос ін
ос ет
ос ин
ос от
ос об
ос оч
ос ман
ос ком
ос мо
ос лін
ос мот
ос лав
ос лов
ос іб
ос обл
ос мос
ос цил
ос етр
ос ятр
ос оруж
ос окор
ос елед
ос цило
ос авул
бі б
бі г
бі з
бі к
бі ч
бі я
бі є
бі от
бі тор
бі яч
бі оз
бі сер
бі як
бі ву
бі єць
бі зн
бі рон
бі чч
бі лет
бі бул
бі дон
бі лон
бі зан
бі сс
бі зон
бі онт
бі тум
бі мс
бі робі
бі вач
бі сквіт
бі лизн
на ж
на п
на ц
на ш
на ст
на ці
на ць
на дж
на ді
на ци
на пол
на др
на пал
на уль
на йд
на їв
на каз
на яд
на фт
на дій
на джен
на доб
на хаб
на стир
на віс
на зал
на сін
на хід
на важ
на ходж
на дія
на уто
на хім
на вид
на садж
на дт
на заль
на сінн
на дієн
на прас
на шатир
лу г
лу з
лу п
лу т
лу ш
лу щ
лу й
лу пл
лу ск
лу ць
лу дж
лу сь
лу за
лу зь
лу ча
лу ват
лу ган
лу кул
лу ска
лу чч
лу шп
лу точ
лу пул
лу соч
лу щен
лу шпар
лу цц
лу лус
лу жиць
лу їблан
лу ципер
тор б
тор г
тор ж
тор н
тор с
тор т
тор ц
тор ч
тор ка
тор од
тор ць
тор фі
тор ос
тор ій
тор оп
тор ох
тор бан
тор гон
тор під
тор сон
тор сов
тор гот
тор иг
тор ис
тор пед
тор сій
тор моз
тор мос
тор ощ
тор іан
тор акс
тор опл
тор мош
тор крет
тор ако
тор жест
тор гува
тор гаш
тор еад
тор шон
гу г
гу ж
гу з
гу к
гу м
гу о
гу п
гу х
гу щ
гу мі
гу ск
гу дж
гу тор
гу гу
гу та
гу гн
гу бер
гу ват
гу мор
гу сл
гу тал
гу сар
гу ген
гу сен
гу дз
гу лл
гу сель
гу їв
гу тт
гу нь
гу льк
гу раль
гу моз
гу бк
гу нн
гу мід
гу бч
гу верн
гу дрон
гу рацій
тер б
тер з
тер м
тер п
тер ц
тер ор
тер ен
тер ат
тер пл
тер ем
тер ли
тер ез
тер еб
тер мо
тер мін
тер ас
тер ап
тер пен
тер пін
тер іо
тер міт
тер ато
тер мос
тер пент
тер евен
тер ебл
тер пуг
тер пуж
тер илен
тер акот
тер мідор
зи д
зи з
зи я
зи ск
зи го
зи мо
зи кул
зи гот
зи вн
зи гзаг
iн д
iн н
iн кре
iн io
iн тро
iн гa
iн ce
iн вест
iн дик
iн cy
iн дич
iн кp
iн cпip
iн вo
iн кю
iн тим
iн cц
iн теp
iн вe
iн дo
iн сект
iн cпeкт
iн каc
iн гуш
iн вентар
iн вeнтap
iн oз
iн фop
iн дустря
ля в
ля д
ля к
ля л
ля п
ля с
ля х
ля ч
ля ш
ля щ
ля ль
ля ск
ля сь
ля цій
ля ска
ля зк
ля сок
ля піс
ля леман
та p
та ж
та з
та о
та с
та ф
та ц
та я
та ї
та ск
та пер
та ци
та єн
та цій
та шк
та юва
та ска
та єнн
та бул
та поч
та фт
та ша
та хо
та хі
та їт
та фо
та єм
та чеч
та бун
та скува
та хін
та чк
та уто
та сман
та бум
та пчан
та ємн
ува ж
ува ч
ува льн
ува чення
ря в
ря г
ря м
ря с
ря ч
ря ш
ря щ
ря ст
ря ск
ря сн
ря ска
ря тин
ря дд
ря хт
ря зан
ря соч
ря джува
ря сков
пор г
пор о
пор п
пор с
пор х
пор он
пор ол
пор пл
пор ск
пор ці
пор ом
пор оч
пор ос
пор тер
пор сь
пор цій
пор ід
пор но
пор ох
пор тре
пор ть
пор іс
пор іч
пор яд
пор цел
пор іж
пор фір
пор чен
пор шн
пор ощ
пор шник
де п
де я
де ци
де бо
де сть
де бат
де фін
де пон
де кад
де віз
де порт
де зер
де бел
де коль
де бет
де фо
де фет
де філ
де прес
де фіні
де пут
де вон
де поз
де цил
де біль
де бурзь
де цем
де скрип
де фек
де фект
де бенд
де їчн
де густ
де борд
де вальв
де скрипт
де бют
де хкан
де магог
де фіцит
де партам
де бітор
во з
во ш
во щ
во є
во і
во ј
во зи
во єн
во юва
во їн
во йд
во каль
во єнн
во їст
во жж
во хр
во гул
во зк
во яц
во яць
во скре
во сков
во гуль
во же
во гк
во гонь
во гч
ед б
ед н
ед он
ед ин
ед ем
ед янт
ед ельвей
пол к
пол ч
пол ін
пол ко
пол ин
пол ам
пол ом
пол оч
пол ем
пол ос
пол ун
пол ков
пол ож
пол ір
пол ох
пол ош
пол ія
пол ог
пол тин
пол уч
пол іп
пол іо
пол іж
пол тав
пол ощ
пол іц
пол их
пол іння
пол омен
пол оска
пол бян
сь ол
сь ом
сь орб
сь орба
сь куий
то c
то щ
то й
то ко
то пл
то по
то пор
то пт
то хар
то пір
то кай
то мас
то пир
то пч
то паз
то масу
ep г
ep ей
ep го
ep eг
ep iо
ep оs
ep цк
га х
га ч
га я
га пл
га ці
га аг
га сь
га юва
га стр
га стер
га пт
га єць
га дь
га зд
га стру
га єч
га уб
га дол
га дд
га фель
га зел
га пло
га йк
га зон
га зет
га пур
га йс
га шет
га плич
га спи
га строн
га шиш
га фні
тр он
тр ат
тр анд
тр юм
тр юк
ир с
ич а
ич и
ич к
ич ін
ич ка
ич енн
ич ений
кі c
кі к
кі п
кі с
кі т
кі є
кі ст
кі пер
кі мо
кі стр
кі дер
кі пт
кі лл
кі пр
кі кс
кі зер
кі мн
кі сс
кі льк
кі тв
кі леч
кі ров
кі бч
кі гт
кі оск
кі тл
кі хот
кі ́ль
кі рас
бл ет
бл ек
бл оч
бл анк
бл енорей
бл ондин
бл акит
сі л
сі п
сі р
сі с
сі т
сі ш
сі є
сі ам
сі дж
сі вер
сі єн
сі мо
сі дь
сі мон
сі ть
сі лл
сі рій
сі чн
сі лез
сі ртуч
сі лезь
сі зіф
сі ракузь
сі цілій
еч н
еч ь
ий ́
ий ц
ий ви
ий на
ий від
ий без
ий канар
ий дроб
ий глиб
ий шлейф
ев т
ев ро
ев ент
ев фу
ев ген
ев кла
ев рей
ев тек
ев роп
ев діо
ев ангел
ев демон
ев фем
ев каліпт
мар е
мар и
мар л
мар н
мар с
мар т
мар ц
мар і
мар ан
мар ен
мар ал
мар аль
мар ант
мар ун
мар уд
мар тен
мар ик
мар кер
мар тин
мар сел
мар мел
мар сель
мар кс
мар мур
мар шал
мар іон
мар жин
мар силі
мар тенс
мар тиро
мар окк
мар окен
мар афон
мар атх
мар казит
мар одер
мар ципан
ез о
ез і
ез ян
ез оп
ез інк
ез іан
яч ка
гн й
гн от
гн ом
гн об
гн оз
гн ост
гн ой
гн обл
гн iв
гн отт
гн узд
гн ото
гн ейс
ад к
ад ь
ад ер
ад ен
ад рен
ад мір
ад дук
ад вент
ад вок
ад апт
ад опт
ад міністр
ад юль
ад екват
ад міраль
ад ріатич
оз а
оз ер
оз он
оз от
оз іїщ
оз окер
кол б
кол о
кол і
кол ер
кол й
кол он
кол ін
кол ес
кол ій
кол ект
кол ім
кол ір
кол ив
кол іс
кол уп
кол яд
кол ис
кол екц
кол яс
кол юш
кол інн
кол іє
кол ієв
кол езь
кол ошк
кол чак
кол очен
кол іш
кол іщ
кол онк
кол ектив
кол осс
кол упл
кол чед
кол яск
кол енкор
кол омий
кол обоч
кол абора
ят л
ят н
ят ко
ят оч
ят ір
ят сен
ят ниц
іт к
іт ан
іт ал
іт ет
іт ур
іт ос
іт ект
іт енці
іт ельмен
анд ар
анд ро
анд ел
анд рій
анд рад
анд рія
анд орр
го i
го ф
го ц
го щ
го я
го ст
го й
го ї
го гі
го єн
го юва
го стр
го гол
го сть
го йд
го єнн
го суд
го тич
го їст
го тик
го стель
го фр
го їти
го цянт
го мілк
еб н
еб ень
еб ник
ит м
ит аль
ит ян
ит ос
ит атив
cт ат
cт ем
cт ав
cт iн
cт ій
cт ap
cт aт
cт pi
cт aн
cт еp
cт eгo
cт yк
cт yп
cт еx
cт pax
cт анція
op o
op x
op aтоp
op ieнт
ест в
ест ро
ест ин
ест ик
ест аф
ест рад
ест лянд
ест акад
ест рагон
ест амп
єн от
єн тал
єн акіїв
ій ш
ій не
аз б
аз д
аз н
аз і
аз ин
аз ур
аз от
аз ят
аз ій
аз ія
аз ой
аз еф
аз арт
аз буч
аз ієць
аз бест
аз іат
аз ербай
кт op
кт атор
при с
при х
при ш
при щ
при я
при ск
при ем
при тор
при мар
при мат
при са
при стрі
при суд
при вел
при нд
при зм
при там
при кр
при доб
при ют
при род
при чин
при скува
при чет
при мус
при час
при каж
при тч
при чіл
при чіль
при скуува
при тьм
при мітив
ap o
ap н
ap ан
ap aп
ap гp
ap co
ap ce
ap eo
ap iй
ap тep
ap iy
ap аx
ap бiтр
еп ь
еп ат
еп юр
еп сель
еп ис
еп сом
еп онж
шт ат
шт ин
шт аль
шт ак
шт ок
шт атив
шт рек
шт абель
шт рик
шт альт
шт раф
шт рип
шт рих
шт ейн
шт рейк
шт риш
шт ейгер
шт андар
шт епсель
ком б
ком с
ком он
ком ін
ком ет
ком ин
ком ент
ком бі
ком пре
ком пра
ком пон
ком пен
ком пот
ком бін
ком иш
ком пас
ком бай
ком би
ком пост
ком прес
ком піл
ком піль
ком из
ком плекс
ком форт
ком позит
ком позиц
ком ерц
ком плем
ком промет
ком изи
ком плект
ком ерс
ком енсал
ком плім
ком паун
ком проміс
гор б
гор г
гор д
гор л
гор о
гор т
гор ш
гор щ
гор ь
гор і
гор ян
гор дж
гор ич
гор бл
гор ож
гор мон
гор ід
гор но
гор ох
гор ош
гор тан
гор ьк
гор лич
гор нич
гор ошк
гор оджен
гор жет
гор івч
гор іш
гор іх
гор сточ
гор івк
гор изонт
мо p
мо г
мо п
мо х
мо ц
мо щ
мо ст
мо ди
мо їн
мо ція
мо тив
мо тил
мо пр
мо шен
мо тич
мо пс
мо щен
мо скат
мо скал
мо сков
мо гут
мо єму
мо тиж
мо скіт
мо скв
мо гік
мо гутт
мо горич
пре мі
пре пар
пре тор
пре сі
пре гн
пре сти
пре вал
пре кос
пре вент
пре док
пре стол
пре йс
пре столь
пре фект
пре люд
пре цед
пре венц
пре цесій
пре сува
пре юдиці
пре лімінар
пре зид
шк ель
шк aп
шк вал
шк ил
шк валь
шк роб
шк ріб
шк ряб
шк атул
шк реб
за ж
за й
за бу
за сь
за яч
за єць
за їн
за вір
за віз
за порож
за хід
за став
за бут
за будь
за ход
за сік
за пащ
за ятин
за йв
за пасоч
ки c
ки в
ки г
ки д
ки ж
ки с
ки х
ки ц
ки пл
ки ян
ки шк
ки єв
ки са
ки як
ки юр
ки дь
ки сть
ки ги
ки сел
ки їв
ки да
ки шин
ки кс
ки тай
ки сет
ки рил
ки зил
ки бит
ки зй
ки сень
ки балоч
ки парис
ег ер
ег ов
ег алітар
пi x
пi м
пi т
пi ш
пi op
пi po
пi тт
пi pi
пi єт
пi eл
пi cк
пi єм
пi тe
пi cтp
пi теp
пi тy
ун г
ун ж
ун к
ун н
ун ч
ун ь
ун ці
ун оч
ун ок
ун ук
ун анім
ун швей
ун децим
ун анган
ун децил
бар в
бар ж
бар к
бар о
бар с
бар і
бар ан
бар он
бар ет
бар ко
бар оч
бар ач
бар вл
бар аж
бар еж
бар сел
бар ил
бар тол
бар иш
бар хан
бар бот
бар кас
бар лож
бар иль
бар іон
бар біт
бар анч
бар хат
бар окк
бар барис
бар науль
вар и
вар т
вар вар
вар ик
вар іо
вар янт
вар сан
вар яц
вар язь
вар няк
оп ал
оп ел
оп ти
оп ак
оп ир
оп ець
оп ьк
оп анч
оп тим
оп річ
бер д
бер л
бер т
бер ч
бер ет
бер ек
бер од
бер ез
бер ест
бер ег
бер бер
бер лін
бер гам
бер ил
бер тол
бер із
бер дан
бер еск
бер лин
бер дич
бер дя
бер іг
бер езн
бер кшир
бер ейтор
бер киць
бер транд
чер г
чер н
чер п
чер с
чер т
чер ч
чер ен
чер ві
чер ес
чер ед
чер ев
чер ез
чер вл
чер ід
чер він
чер еж
чер сак
чер вн
чер вч
чер кас
чер вон
чер вяк
чер ств
чер вц
чер кес
чер вінь
чер каси
чер кась
чер евич
чер ствл
aп op
aп po
aп peг
aп теp
aп eгоp
aп epг
пи c
пи x
пи в
пи ж
пи к
пи л
пи х
пи ш
пи я
пи ск
пи сь
пи яч
пи са
пи як
пи льн
пи ска
пи ія
пи дар
пи сан
пи соч
пи рува
пи скат
пи рож
пи рог
пи жм
пи лип
пи рятин
тра г
тра с
тра ф
тра ч
тра пл
тра ур
тра кт
тра ул
тра фл
тра вл
тра фар
тра пе
тра вест
тра вн
тра мб
тра вень
тра ектор
тра верс
тра вян
тра диці
тра дицій
тра верз
тра йбал
тра вертин
ча п
ча х
ча ч
ча ш
ча щ
ча я
ча є
ча ст
ча й
ча ї
ча дж
ча єн
ча юва
ча єч
ча сов
ча їв
ча сс
ча сту
ча стик
ча паєв
чу б
чу в
чу м
чу п
чу т
чу ць
чу пар
чу ман
чу ува
чу шк
чу ки
чу мл
чу кот
чу мак
чу жен
чу пр
чу мач
чу хр
чу жа
чу чел
чу буч
чу хон
чу мац
чу бук
чу гун
чу миз
чу мароч
чу чель
чу чвер
чу марч
чу фи
чу маць
чу гуїв
pe o
pe x
pe aг
pe нт
pe віз
pe гo
pe aл
pe кy
pe cпip
pe дак
pe пap
pe aкц
pe гац
pe aкт
pe дop
pe дакт
pe пpe
pe фep
pe веp
pe мт
pe плiк
pe cтop
pe пpеc
pe пopт
pe cyp
pe дaкц
pe піx
pe таp
pe ктop
сти в
сти г
сти д
сти пл
сти ян
сти дж
сти ло
сти пен
сти муль
сти мул
сти бн
сти пль
алі о
алі я
алі є
алі ї
алі зар
алі дад
алі луй
вол г
вол ж
вол л
вол ен
вол ин
вол од
вол от
вол ей
вол ос
вол зь
вол ож
вол ох
вол ік
вол юн
вол ют
вол юм
вол ось
вол оц
вол хов
вол отт
вол ошк
вол ия
вол осс
вол ожен
вол овод
вол окон
вол онтер
кан в
кан о
кан у
кан ь
кан ал
кан ат
кан аль
кан ав
кан ос
кан ад
кан кан
кан ів
кан юч
кан ап
кан тиль
кан цел
кан кр
кан чук
кан альн
кан итель
кан алуп
кан ібаль
кан аус
кан дид
стр ан
стр ато
стр ати
стр ангул
стр енч
до ж
до у
до х
до ш
до щ
до ст
до ї
до єн
до юва
до ган
до яр
до єнн
до гм
до цент
до куч
до їти
до стем
до сить
до кумент
до міциль
ми к
ми л
ми щ
ми ль
ми ст
ми ї
ми ск
ми мо
ми сл
ми сел
ми зк
ми шл
ми кит
ми мр
ми слив
єв пат
єв ген
єв рей
єв роп
єв ангел
єв ангель
енн a
мат к
мат л
мат н
мат ч
мат ер
мат ор
мат од
мат оч
мат ні
мат ір
мат рос
мат ема
мат нiт
мат емат
мат рярх
мат рось
мат рац
са ф
са х
са й
са ам
са про
са пер
са хар
са пін
са жен
са чува
са єт
са жд
са фран
са джува
са жн
са флор
са їл
сп ин
сп аль
сп ес
сп ич
сп рав
сп равл
сп ектр
сп ирт
сп раг
сп ряг
сер б
сер д
сер и
сер н
сер п
сер ц
сер ер
сер дж
сер оз
сер ій
сер пан
сер вір
сер еж
сер дол
сер иц
сер віз
сер віль
сер вет
сер ебр
сер пн
сер пант
сер віл
сер віс
сер пент
сер дач
сер йоз
сер еджува
сер жант
сер вітут
ут o
ут н
ут ол
ут рі
ут ір
ут юж
ут яж
ут роб
ут рир
роз е
роз о
роз і
роз ор
роз ов
роз ет
роз бр
роз кош
роз пач
роз доб
роз рад
роз діль
роз рис
роз рум
роз ряд
роз рядж
роз рип
роз руй
роз дивл
роз марин
роз биш
роз умл
роз рихл
роз різн
роз кіш
роз квас
роз дряп
роз гляд
роз учи
кур д
кур к
кур т
кур ен
кур ін
кур ві
кур ли
кур лю
кур ни
кур кул
кур куль
кур тин
кур дел
кур сор
кур атор
кур кум
кур гй
кур орт
кур сив
кур лянд
кур дюч
кур лй
кур нй
кур йоз
кур дупель
кур тизан
кур туаз
кур таж
бр й
бр ян
бр анд
бр ень
бр юн
бр онь
бр юз
бр атт
бр андер
бр ьох
бр юссель
кре в
кре к
кре с
кре ш
кре ол
кре ат
кре кт
кре мат
кре сл
кре мен
кре мл
кре йд
кре тон
кре тин
кре оль
кре маль
кре вет
кре мн
кре піт
кре дит
кре мез
кре чет
кре йс
кре мац
кре аціон
кре дитив
кре озот
со ф
со х
со ц
со пл
со ць
со єв
со ус
со кот
со коль
со піл
со піль
со яш
со йм
со юз
со йот
со сис
со цін
со фій
со цят
ів н
ів я
ів оч
ів ник
ів нич
ів ниць
ів уець
ень ян
бал к
бал т
бал ер
бал ат
бал ак
бал от
бал кон
бал ок
бал кар
бал ич
бал ад
бал кан
бал ач
бал анс
бал ик
бал аст
бал уш
бал яс
бал ерин
бал ух
бал абон
бал абуш
бал хаш
бал юстрад
бал яндра
гар б
гар в
гар и
гар к
гар н
гар т
гар ц
гар я
гар ць
гар ем
гар ли
гар ант
гар ман
гар яч
гар мат
гар дер
гар аж
гар дин
гар ус
гар ден
гар пун
гар нір
гар буз
гар мош
гар ячи
гар ібаль
гар діяш
гар азд
мін г
мін т
мін ь
мін ор
мін ут
мін ім
мін тон
мін ус
мін ог
мін атив
мін ускуль
ват к
ват р
ват аг
ват ман
ват аж
ват ікан
ват рушк
ват рушеч
гp y
гp о
гp ам
гp ад
гp iп
гp iм
гp аф
гp ac
гp aм
гp ix
гp еc
гp aд
гp oп
гp аcн
др ан
др ен
др ал
др ант
др ень
др юч
др ючч
мер в
мер з
мер к
мер о
мер х
мер сер
мер ист
мер гел
мер смер
мер вон
мер гель
мер ещ
мер ехт
мер кантил
мер катор
мер курі
мер кантиль
гал а
гал о
гал т
гал ль
гал ен
гал он
гал ет
гал ди
гал тер
гал ич
гал еч
гал іт
гал ун
гал оп
гал ас
гал яв
гал уж
гал акт
гал уш
гал иць
гал ерей
гал стук
гал абур
гал уаз
гал юцин
гал амаг
мор ж
мор з
мор с
мор ф
мор х
мор ш
мор щ
мор ен
мор ал
мор ел
мор по
мор аль
мор ск
мор оч
мор ок
мор ав
мор оз
мор ков
мор ож
мор мон
мор дов
мор сов
мор тир
мор кв
мор іж
мор ків
мор ошк
мор озь
мор дв
мор ожен
мор шува
iп j
iп p
iп к
iп н
iп вк
iп тp
iп cпip
iп тe
iп aж
iп cгp
iп вeнтap
iп тeл
ас ко
ас ак
ас під
ас сам
ас фаль
ас параг
ас аран
ас еніз
ас магор
ас пергіль
ас есор
кра б
кра д
кра ж
кра с
кра ч
кра ш
кра щ
кра я
кра є
кра і
кра й
кра пл
кра ян
кра юва
кра сн
кра єць
кра дь
кра мол
кра шен
кра фт
кра вч
кра ків
кра ве
кра соль
кра вець
кра пк
кра шенн
кра їй
кра вц
кра моль
кра їсть
кра піо
кра матор
кра ватк
кри г
кри з
кри к
кри л
кри п
кри с
кри ф
кри х
кри ц
кри ч
кри ш
кри ль
кри гн
кри ча
кри мін
кри вл
кри лл
кри тич
кри кет
кри зов
кри стал
кри мiн
кри пто
кри сталь
кри штал
кри ївк
кри шталь
уд а
уд в
уд н
уд ар
уд ен
уд ал
уд ол
уд ов
уд аль
уд ав
уд му
уд яг
уд мур
уд авл
уд ацій
уд руг
уд яган
уд ержа
уд есят
фор д
фор ел
фор ель
фор мі
фор мат
фор мер
фор стер
фор те
фор мл
фор мал
фор тун
фор муль
фор тей
фор мул
фор саж
фор шпан
фор ейтор
фор штадт
фор муляр
кл ан
кл ор
кл ен
кл ин
кл ек
кл ак
кл от
кл анд
кл мат
кл ac
кл йк
кл инн
кл очк
кл eї
кл аксон
кл очч
кл арнет
пан ь
пан і
пан ел
пан ам
пан ель
пан ір
пан цер
пан ік
пан іч
пан цир
пан чі
пан егір
пан сіон
пан філов
пан креат
сл ан
сл он
сл ін
сл ет
сл овл
сл инь
сл обід
сл обод
сл аниц
сл обон
сл алом
сл обож
тар к
тар т
тар ган
тар ах
тар тин
тар хан
тар так
тар атор
тар анк
тар абан
тар тач
тар арах
тар латан
тар абар
тар агун
тар антас
чи в
чи г
чи ж
чи п
чи с
чи ц
чи ш
чи щ
чи ю
чи ць
чи сл
чи сто
чи сть
чи сель
чи зел
чи зель
чи щува
чи криж
чи сарай
сто j
сто г
сто ж
сто я
сто й
сто ї
сто ць
сто пор
сто яч
сто гн
сто єн
сто юва
сто єв
сто їн
сто єч
сто єнн
сто поч
сто ящ
сто їщ
сто хаст
io д
io пaл
бо ц
бо я
бо є
бо ль
бо єн
бо гар
бо єць
бо яр
бо їн
бо єч
бо каль
бо їст
бо жж
бо гат
бо йк
бо гем
бо ящ
бо же
бо їщ
бо скет
бо газ
бо стон
ву з
ву с
ву х
ву ш
ву ст
ву ар
ву й
ву ал
ву аль
ву дж
ву аз
ву зь
ву зд
ву гл
ву єч
ву гр
ву жен
ву гли
ву зол
ву джен
ву гіль
ву зл
ву гілл
ву диль
ву сище
ган о
ган ь
ган оч
ган дж
ган ок
ган ус
ган глі
ган грен
ган чір
юр б
юр к
юр л
юр м
юр т
юр бл
юр мл
юр морт
іл к
іл л
іл лір
стер е
стер еб
стер ег
стер еж
стер ео
стер ил
стер нь
стер жн
стер иль
стер ляж
стер лінг
стер іг
стер іор
стер жнь
бор г
бор ж
бор з
бор к
бор м
бор н
бор о
бор с
бор т
бор щ
бор он
бор ін
бор до
бор ть
бор дюр
бор ушк
бор сук
бор суч
бор озн
бор жом
бор ідь
ран г
ран н
ран ет
ран тух
ран жир
ран гоут
вор к
вор с
вор от
вор оч
вор іт
вор ож
вор ог
вор кот
вор онь
вор кува
вор отт
вор ітт
вор оши
дер г
дер з
дер м
дер н
дер ен
дер ма
дер ез
дер ень
дер ив
дер еш
дер жа
дер жува
зу б
зу м
зу ти
зу дж
зу бл
зу бр
зу гар
зу бат
зу пин
зу лус
зу хвал
зу хваль
зу лусь
кат и
кат ер
кат ар
кат ран
кат ех
кат олі
кат аф
кат аліз
кат аліт
кат едер
кат ерн
кат ерин
кат алон
кат алек
те c
те o
те x
те о
те х
те ш
те ор
те пл
те ск
те пер
те фі
те op
те фл
те пло
те paп
те aгp
те оp
те хн
те плич
те xн
те одо
те пірч
те атр
те омос
те баїн
фер а
фер з
фер м
фер о
фер бер
фер мер
фер ган
фер уль
фер мент
фер енц
фер тиль
фер шал
фер онь
фер нам
po c
po x
po г
po з
po т
po ї
po cт
po пo
po їcт
po вiз
ач ений
ач етит
кро в
кро к
кро л
кро м
кро п
кро с
кро у
кро ч
кро й
кро ат
кро пл
кро ї
кро кі
кро єн
кро юва
кро вл
кро сен
кро тон
кро вин
кро єнн
кро кв
кро кет
кро піт
кро ків
кро вян
кро міш
кро мс
кро кодил
кро маньйон
мет p
мет а
мет л
мет ро
мет ол
мет ель
мет од
мет ем
мет ик
мет ео
мет ил
мет уп
мет ис
мет уш
мет ебр
мет оц
мет из
мет еор
пал е
пал ін
пал ет
пал ам
пал ом
пал ад
пал ас
пал ах
пал уб
пал ех
пал ео
пал ац
пал еш
пал анк
пал тус
пал янич
пал аталь
пал яниц
пал іно
пал ятур
пал игор
пал ітур
пал естин
сн н
сн о
сн у
сн об
сн аг
сн оз
сн оп
сн ох
сн ьк
сн яд
гер б
гер г
гер к
гер ан
гер ман
гер бі
гер мо
гер бар
гер мет
гер пет
гер ой
гер дан
гер геп
гер онто
гер тог
гер кулес
гер альд
гер мафро
гер мінатив
гол к
гол о
гол ч
гол ан
гол ов
гол од
гол оч
гол еч
гол ів
гол одж
гол ош
гол енд
гол овл
гол ланд
гол інк
гол убл
гол овн
гол одь
гол осс
гол омш
гол обель
гра б
гра в
гра к
гра с
гра ч
гра й
гра ві
гра ці
гра ба
гра бл
гра цій
гра мо
гра до
гра мат
гра фл
гра віт
гра дд
гра мот
гра бель
гра вій
гра віє
гра ждан
гра дієнт
гра дус
пт ом
ску б
ску г
ску д
ску ч
ску бл
ску ват
ску ги
ску дель
ску фій
ску нс
ску мбрі
тро г
тро п
тро с
тро ф
тро щ
тро і
тро ст
тро й
тро по
тро ї
тро єн
тро лей
тро хо
тро мб
тро пік
тро фей
тро цьк
тро гло
тро стин
тро піч
тро туар
тро мбон
ім б
ім ж
ім пон
ім бе
ім бир
ім провіз
ім пульс
ім позант
ім пров
бур ж
бур к
бур л
бур м
бур т
бур х
бур ян
бур яч
бур як
бур жу
бур мос
бур дюч
бур нон
бур жець
бур гунд
бур леск
бур штин
кал i
кал ор
кал ат
кал ит
кал ій
кал ган
кал ач
кал ош
кал енд
кал юж
кал андр
кал анч
кал мич
кал узь
кал орій
кал ори
кал ачик
кал інін
кал ейдо
мен ж
мен дж
мен стру
мен аж
мен дел
мен інг
мен іє
мен зур
мен едж
мен зуль
мен оніт
мен ует
мен дея
ши б
ши и
ши к
ши х
ши ц
ши я
ши ль
ши ва
ши вер
ши бл
ши бер
ши як
ши фер
ши уль
ши ме
ши лін
ши гл
ши зо
ши хт
ши фо
ши шир
ши фр
ши їй
ши хтува
ши їcьк
екс пози
екс цит
екс кав
екс пери
екс курс
екс позит
екс позиц
екс плу
вал л
вал о
вал ор
вал ент
вал анд
вал аш
вал лон
вал юш
вал ют
вал ений
вал лій
вал енг
вал ліє
вал торн
кo w
кo x
кo в
кo з
кo к
кo т
кo ш
кo пт
кo нт
кo пp
кo літ
кo шл
кo мід
кo мiт
кo мic
кo oпт
ков а
ков з
ков т
ков ш
ков ель
ков ир
ков ий
ков др
ков ил
ков тун
ков зан
ков пач
ков иль
ков нір
ков боч
ков бас
ков бой
ож и
ож елед
ож еред
ул ак
ул овл
фл ат
фл ет
фл анг
фл анк
фл окен
фл акон
ір ж
ір он
ір ланд
ір кут
ір біс
aт к
aт т
aт ecт
iт p
iт т
iт ал
iт ет
iт аль
iт ap
iт ект
ай в
ай к
ай х
ай стр
ай мак
ай кін
ай сор
ай мач
ай дач
зд а
зд ен
зд об
зд ви
зд обл
зд рав
мон е
мон т
мон ет
мон ак
мон ад
мон стр
мон гол
мон ах
мон тан
мон аш
мон аст
мон ац
мон голь
мон іаль
мон умент
пра г
пра ж
пра ц
пра щ
пра ць
пра пор
пра кт
пра зь
пра сол
пра шур
пра вн
пра вед
пра соль
пра жан
пра це
пра гмат
пра щур
пра крит
пра ксе
три б
три в
три к
три п
три т
три пл
три пер
три бал
три пан
три бо
три гер
три кот
три нь
три хо
три пс
три плет
три хін
три плекс
три дим
три вож
три льйон
три віаль
три воже
уль к
уль ч
уль ш
уль тимат
уль янов
юч к
юч ок
юч ий
іль м
іль н
іль мен
іль ник
іль ниц
стро г
стро к
стро п
стро т
стро ч
стро й
стро ї
стро юва
стро єв
стро чи
стро бо
стро мл
стро єнн
стро чува
стро фант
стро біл
стро чення
стро пиль
стру г
стру ж
стру к
стру м
стру н
стру п
стру с
стру ч
стру ш
стру пл
стру кт
стру мен
стру кц
стру чч
стру же
ван н
ван ад
ван іл
ван іль
ван ьк
ме ко
ме га
ме бл
ме шк
ме жж
ме ха
ме дій
ме цен
ме андр
ме щер
ме дун
ме истер
ме фісто
мл ин
син н
син о
син ел
син ель
син од
син ем
син ич
син оп
син ус
син ой
син тет
син коп
син дик
син гул
син таг
син апт
син ерг
син опт
син тез
син крет
син ема
син агог
син опто
син ові
тал он
тал ди
тал ій
тал ас
тал яр
тал ап
тал лін
тал иш
тал янк
тал анн
тал абан
тал ась
тал яноч
тал асо
тал ала
тал муд
яр н
яр де
яр мл
яр ник
яр лич
яр лик
яр марк
яр марч
сть он
сть об
стра б
стра в
стра ж
стра м
стра х
стра ч
стра ш
стра щ
стра ст
стра сть
стра ус
стра жд
стра йк
стра шш
їн н
зн a
зн е
зн с
зн ь
зн ат
зн ак
зн об
зн уш
зн обл
зн ущ
зн амен
мол н
мол о
мол од
мол ок
мол ос
мол оз
мол ож
мол ост
мол еск
мол дав
мол оть
мол одь
мол юск
мол екул
мол дув
пa x
пa г
пa к
пa м
пa я
пa ль
пa гep
пa xв
пa гiн
пa паx
пa cтop
пa yпep
пa cтеp
фу г
фу к
фу тер
фу хт
фу фа
фу жер
фу ляр
фу кс
фу зар
фу раж
фу рун
фу кус
фу дул
фу дуль
фу фай
фу міг
фу гас
фу ганк
фу рацил
фу нікул
ід ол
ід ент
ід ей
йд л
ап ь
ап ат
ап ел
ап екс
ап позит
ап позиц
ап ешт
ап етит
ап ріор
ець к
не е
не он
не від
не пот
не хт
не бул
не діль
не фр
не діл
не xт
не віст
не дуг
не біж
не апол
не аполь
не віглас
не гоцянт
тен з
тен ор
тен ет
тен ант
тен зо
тен іс
тен ард
тен сіо
тен діт
тен денцій
анс амбл
co c
co x
co в
co т
co ч
co віт
co пop
co ціал
co пaп
co пiп
co льв
co лoв
ic тер
ic гep
ic ланд
ic гop
ic кp
ic пaп
ic пит
ic тоp
ic пaн
ic геp
ic iпвк
ги г
ги к
ги л
ги ль
ги дж
ги ба
ги ги
ги гй
лін з
лін о
лін ч
лін ь
лін га
лін ій
лін ія
лін iя
но c
но о
но ш
но щ
но гот
но мад
но шенн
но гай
но сталь
но каут
но умен
но стник
но гаєць
ох р
ох ро
ох от
ох ло
ох віт
ох ров
ох ваць
пат е
пат л
пат р
пат ер
пат ет
пат ин
пат рі
пат ент
пат ок
пат ич
пат як
пат рон
пат рій
пат агон
пат руль
пат рул
пат рич
пат ичч
пат етич
пат рярх
сар ж
сар к
сар н
сар п
сар ан
сар ко
сар аб
сар мат
сар ган
сар дин
сар дон
сар дель
сар епт
сар дач
сар код
сар афан
сар ацин
сар атов
тру б
тру н
тру п
тру т
тру х
тру ч
тру й
тру ва
тру ї
тру дж
тру сь
тру бл
тру єн
тру юва
тру ча
тру хи
тру ска
тру єнн
тру шен
тру жд
тру джен
вір л
вір ч
вір ш
вір мен
вір чува
вір туаль
вір туоз
ip x
ip ж
ip aп
ip из
ip игац
iм ж
iм пo
iм бир
iм eд
iм eпт
iм yп
iм пеp
iм позант
iм yн
iм poвiз
бан г
бан к
бан н
бан ь
бан ан
бан аль
бан оч
бан яч
бан іт
бан ьк
бан кет
бан ний
бан дун
бан крут
бан крот
бан каброш
гл ин
гл ек
гл од
гл от
гл янс
гл етчер
гл омер
гл андул
гл йбл
гл янц
ген о
ген с
ген ез
ген ео
ген яльн
ген тиль
ген еp
ген дл
ген еа
гон о
гон т
гон ч
гон і
гон об
гон гор
гон ія
гон іо
гон доль
ик с
пет и
пет л
пет р
пет ль
пет ер
пет ро
пет ел
пет ель
пет ит
пет ров
пет ард
пет ицій
пет рушк
пет люр
пет рушеч
сен ат
сен сор
сен сит
сен сибіл
сен бернар
сен сацій
сен тимент
сен сибель
сол е
сол о
сол ан
сол ен
сол он
сол ов
сол од
сол оп
сол ім
сол яр
сол іп
сол да
сол дат
сол оджен
сол ец
сол опл
тон н
тон о
тон т
тон ко
тон зил
тре д
тре к
тре л
тре п
тре ф
тре ль
тре ст
тре ба
тре бл
тре дер
тре гер
тре мол
тре пет
тре ть
тре пе
тре тир
тре пель
тре стува
тре ляж
тре матод
хи б
хи з
хи л
хи ль
хи ст
хи тр
хи бл
хи мер
хи хи
хи зуува
хи лит
льн н
він д
він ш
він і
він ич
він іл
він нич
він ієв
він ниць
він ичч
кле м
кле п
кле ч
кле і
кле пл
кле ї
кле вер
кле єн
кле юва
кле єнн
кле поч
кле їт
кле йм
кле юват
кле пк
кле пто
кле пува
лат ент
лат ува
лат ун
лат гал
лат екс
лат ук
лат иш
лат галь
лат вій
лат атт
лат ись
лат енс
лат віє
лат рія
лат ифунд
ну p
ну ж
ну ти
ну дж
ну тр
ну ий
ну ват
ну мер
ну зд
ну жд
ну єм
ну міз
ну бій
ну муліт
ну бієць
ну тацій
ош ат
ош еч
ош ая
ть ок
ть оп
ть ох
ть ху
кул он
кул ак
iнт po
iнт eн
iнт eп
iнт oн
iнт aкт
iнт егр
iнт pиг
iнт yїт
iнт цм
aг п
aг ент
aг io
aг iт
aг гeп
aг peгац
мент ор
мент ол
під л
під бор
під мет
під вал
під валь
під вод
під піль
під лог
під комор
під падь
під приєм
під шип
під підь
під прием
аж юст
бат и
бат о
бат ь
бат ор
бат он
бат ро
бат ал
бат ум
бат ист
бат рак
бат іаль
гe o
гe г
гe м
гe о
гe op
гe гe
гe пep
гe нт
гe ге
гe кc
гe гepo
гe кто
гe лio
гe пio
дин о
дин ь
дин ам
дин ас
дин аст
дин ьер
зо 6
зо p
зо о
зо й
зо ї
зо їль
ив н
ив ян
пел ен
пел аг
пел ех
пел юш
пел ерин
пел юст
пел енг
пел юшк
пел ікан
пел eнг
пел іко
ска б
ска в
ска ж
ска к
ска у
ска ч
ска пол
ска ут
ска ву
ска брез
тов i
тов и
тов к
тов м
тов п
тов ч
тов ш
тов щ
тов ст
тов ка
тов пл
тов ил
тов ща
тов щи
тов ари
ус ел
ус об
ус ад
ус від
ус сур
ус лав
ус іньк
ус луж
ус юди
ус лавл
цер к
цер м
цер ат
цер ко
цер кл
цер ков
цер ус
цер кв
цер ебр
цер ків
цер вік
цер емон
ік р
ік ін
ія ць
pa з
pa н
pa я
pa ї
pa дя
бри в
бри г
бри ж
бри з
бри н
бри с
бри дж
бри шк
бри тан
бри нь
бри кет
бри зк
бри чк
бри зант
бри гад
дов б
дов г
дов ж
дов з
дов ол
дов ба
дов го
дов іль
дов жи
дов жува
дов жез
дов бува
дов гуват
дов банний
кер а
кер м
кер н
кер ч
кер ен
кер ат
кер ів
кер тон
кер сет
кер осин
ня я
ня шк
ня ́н
пep i
пep е
пep iз
пep цеп
пep дop
пep yк
пep еи
пep іод
пep coп
пep ioд
сон м
сон н
сон ь
сон ор
сон ат
сон ет
сон ант
сон яч
сон вал
сон анс
тан цій
тан кер
тан гір
тан гент
тан ато
тан дит
тан гут
тан генц
тан агр
тан генс
фар м
фар с
фар т
фар ш
фар бл
фар ад
фар фор
фар ис
фар туш
фар мац
фар тух
фар инг
фар ино
фар мако
фар ватер
фар аон
фар абн
фін н
фін т
фін ал
фін аль
фін анс
фін ік
фін іч
фін лянд
фра з
фра м
фра с
фра ч
фра кт
фра хт
фра зов
фра хтува
фра зист
фра гмент
фра муж
фра кій
фра кіє
хар д
хар к
хар л
хар п
хар ч
хар аст
хар бін
хар тій
хар амар
хар алуж
хар амарк
хар циз
шар ж
шар к
шар м
шар п
шар ф
шар х
шар ш
шар і
шар ман
шар уд
шар ах
шар лот
шар абан
шар нір
шар ошк
шар лах
шар жува
шар овар
шар варк
шар латан
шар ошеч
від д
від ен
від мін
від верт
від лиг
пір ат
пір рон
пір приєм
пір еней
вен ер
вен ес
вен гер
вен ець
вен тил
вен тиль
вен зел
вен ец
вен ецій
дз ор
дз ен
дз ин
дз ень
дз юр
дз бан
дз вен
дз вин
дз яв
дз вон
дз вень
дз вяк
дз юба
дз елен
дз юб
дз явол
дз елень
еж ект
еж екц
рон галіт
уб и
уб оз
уб зн
уб ина
куль г
куль ш
куль мін
куль тив
куль тет
куль баб
куль бач
куль мич
віт т
віт ц
віт ч
віт ел
віт аль
віт еб
віт ій
віт амін
вин а
вин н
вин ят
гро б
гро ж
гро м
гро с
гро х
гро ш
гро бл
гро зь
гро мл
гро шев
гро бач
гро мад
гро дн
гро мізд
гро теск
жи г
жи д
жи л
жи м
жи ль
жи ро
жи ра
жи ти
жи лл
жи лет
жи гул
жи молост
ог ряд
ог лаш
пe o
пe г
пe д
пe ч
пe ре
пe cт
пe пт
пe лен
пe дo
пe гpo
пe рe
пe пeг
пов а
пов з
пов и
пов ст
пов ин
пов ез
пов ит
пов ій
пов но
пов нот
пов ітр
пов зуун
пов няв
пов ороз
ті ж
ті о
ті с
ті х
ті ч
ті ш
ті ст
ті лі
ті сн
ті бет
ті леч
ті роль
ті рол
ті сува
тин н
тин то
тин кт
тин ія
тин ьк
тур б
тур г
тур с
тур ч
тур мал
тур нір
тур чин
тур нік
тур неп
тур нікет
ум к
ум ф
ум бр
ум формер
шп ен
шп он
шп аль
шп ир
шп ич
шп yp
шп инь
шп альт
шп інгал
шп інел
шп андел
шп италь
тив кар
аш хаб
бра в
бра ж
бра к
бра ди
бра мін
бра уль
бра хі
бра йл
бра зіл
бра коньер
бра уншвей
бра слет
вi s
вi к
вi р
вi ч
вi гp
вi гep
вi їcт
гам м
гам ан
гам ар
гам ет
гам ма
гам ач
гам ір
гам сел
гам уз
гам лет
гам біт
гам бурзь
гам амел
гам алик
дол а
дол л
дол ар
дол он
дол от
дол ом
дол об
дол іт
дол ош
дол уб
дол онь
ех он
кла д
кла ж
кла ц
кла щ
кла ст
кла ві
кла сти
кла пан
кла пт
кла вір
кла да
кла вес
кла день
кла віш
кла вят
оль факт
ост е
ост яч
ост еб
ост ео
ост яць
ост зей
ост рів
ост зеє
ост овп
сов г
сов ен
сов ий
сов іт
сов ков
сов іс
сов іст
сов іщ
хор д
хор к
хор о
хор т
хор і
хор он
хор аль
хор ом
хор ей
хор ват
хор ош
хор ія
хор ео
хор обр
хор еїчн
хор унж
кот л
кот ел
кот ель
кот лет
аст м
аст ен
аст ек
аст аз
бро д
бро м
бро ст
бро ї
бро дж
бро шур
бро кк
гре к
гре с
гре ц
гре ч
гре ць
гре бін
гре бен
гре бел
гре бель
гре зет
гре чан
иц т
мак т
мак ро
мак ет
мак сим
мак карт
мак рель
мак лер
мак ітр
мак рел
мак арон
мак едон
пo г
пo п
пo т
пo ї
пo ез
пo пo
пo кc
пo лiт
пo сес
пo пepeч
пo кiй
пон т
пон я
пон ом
пон ад
пон тон
пон иц
пон сир
пру г
пру д
пру т
пру ч
пру ст
пру дж
пру ден
пру тт
пру жен
пру дон
пру сс
пру жа
пру жин
рен ет
рен ег
рен ик
рен есанс
сел ект
сел ітр
сел екцій
сел екці
сел езінк
тю б
тю ж
тю к
тю л
тю п
тю ел
тю вар
тю мен
тю хт
тю лен
тю фт
тю бет
тю льк
тю хтий
тю льпан
уз л
уз я
уз ор
уз беч
уз урп
хол е
хол м
хол о
хол ер
хол од
хол оп
хол ош
хол ост
хол ощ
хол уй
хол оджен
хол одь
хол ерич
кам к
кам с
кам ян
кам ед
кам бал
кам фор
кам воль
кам буз
кам бій
кам золь
кам чат
кам пеш
каль к
каль ц
каль він
каль кул
каль куль
каль кутт
лей б
лей к
лей т
лей ц
лей бор
лей пціг
лей шман
лей тенант
eк тр
eк зо
eк paп
eк cк
eк iпip
eк вaгop
eк iпaж
гi в
гi г
гi л
гi тар
гi po
гi бель
гi cтo
гi гpo
гi гpо
гри б
гри в
гри д
гри ж
гри з
гри п
гри ф
гри за
гри зь
гри мл
гри фель
гри зет
гри мас
гри ндж
гри горян
гри вуаз
ден си
ден др
ден цяльн
ден онс
ден удацій
ден ікін
дро г
дро п
дро т
дро ч
дро бл
дро чи
дро сел
дро сель
дро би
дро чен
дро хв
дро гоб
дро мео
пе щ
пе он
пе ви
пе бл
пе сим
пе щен
пе дікюр
пен з
пен сі
пен сій
пен зель
пен зл
пен сільван
пен іцил
пен етро
пен ітенці
се мі
се ма
се пар
се уль
се анс
се міт
се віль
се куляр
се инер
се димент
се парат
се васто
сур до
сур ган
сур мл
сур іп
сур яд
сур хан
сур мач
сур дут
сур гуч
сур жик
цi aп
цi лiє
іс лав
іс еньк
іс сик
іс іньк
іс сімо
плю в
плю г
плю с
плю х
плю ш
плю щ
плю й
плю ск
плю сн
плю ска
плю нд
плю раль
плю щува
плю скот
плю ндр
тир л
тир с
тир ч
тир ли
тир атрон
вa в
вa л
вa xт
гру б
гру д
гру ж
гру н
гру п
гру ш
гру ва
гру дж
гру зь
гру зд
гру нт
гру дд
гру нд
гру шш
гру дн
дор ф
дор ич
дор ій
дор ог
дор саль
дор іж
дор анж
дор іжж
ил к
ил н
кру г
кру ж
кру к
кру м
кру ч
кру ш
кру ть
кру чч
кру жен
кру жел
кру пян
кру мк
лан к
лан ол
лан ланд
лан цю
лан туш
лан цет
лан тух
лан цюж
лан кастер
тo y
тo к
тo н
тo п
тo ч
тo по
тo вар
тo пo
тo вк
тo вч
тo вap
тo кc
тo доч
тo ваp
тo дx
олі г
олі ф
олі є
олі ї
олі во
олі го
олі єн
олі юва
олі єв
олі їст
рез ед
рез ект
рез екц
рез юм
рез олю
рез орб
рез орция
рез олют
пот ом
пот ент
пот вор
пот амо
пот івл
пот сдам
пот ебень
аф р
аф от
аф ект
аф ган
аф аталь
ац тек
бру д
бру к
бру н
бру с
бру ш
бру щ
бру дж
бру сл
бру дер
бру сн
бру хт
бру кв
бру нь
бру сс
бру таль
бру цель
бру тто
баг н
баг р
баг ер
баг ор
баг ет
баг ач
баг аж
баг ато
баг аць
баг нет
баг ров
баг ніт
баг атт
баг дад
баг ачува
гла в
гла д
гла ш
гла дж
гла вл
гла джен
гла голь
гла зет
гла зур
гла дженн
гла укон
гла діатор
кін о
кін ц
кін ч
кін ь
кін ць
кін еч
кін аз
кін ець
кін овар
кін оо
ква п
ква ц
ква ч
ква ш
ква пл
ква ць
ква сь
ква сол
ква кер
ква шен
ква ця
ква соль
ква драт
ква зі
ква дрант
крі в
крі з
крі л
крі м
крі о
крі п
крі с
крі т
крі ль
крі й
крі пл
крі сл
крі вл
крі сел
крі сель
крі вель
крі пос
крі їл
лет он
лет аль
лет арг
лам а
лам л
лам п
лам ін
лам ут
лам пач
лам арк
мел а
мел о
мел ін
мел од
мел іо
мел яс
мел анж
мел іор
мел ізм
мел ітополь
сель фак
сель куп
сель джуць
тол к
тол у
тол ст
тол ок
тол ев
тол кува
тол убл
тол куува
уч к
уч ин
уч ува
уч ень
уч ора
яв к
яв нич
яв лия
іч к
іч н
стор н
стор он
стор ін
стор оч
стор ож
стор ош
стор ог
стор онь
стор і́н
кад ет
кад ель
кад рува
кад астр
кад арін
кад риль
віз ант
віз йр
ci д
ci к
ci ч
ci ш
ci я
ci ам
ci єн
ci лл
ci aм
ci цiлiє
́н к
гa i
гa s
гa x
гa д
гa м
гa га
гa зет
гa ювa
гa гаp
год о
год у
год ен
год ов
год ів
год іб
год івл
год ув
год івель
гот у
гот ов
гот ель
гот ів
гот овл
гот івл
гот ув
гот івель
гот тент
дра б
дра г
дра ж
дра з
дра м
дра п
дра ї
дра кон
дра пер
дра єн
дра юва
дра гом
дра гун
дра кой
мот л
мот ет
мот ель
мот рош
мот лох
мот лош
сал оп
сал фет
сал ют
сал амандр
сек ст
сек ці
сек тор
сек цій
сек са
сек анс
сек ція
сек рет
сек вест
сек реч
сек вой
тел e
тел е
тел о
тел ур
тел еп
тел ень
тел ео
тел яльн
тел іп
тел іж
тел ющ
тел імб
трі б
трі п
трі с
трі ш
трі щ
трі ер
трі й
трі ск
трі ест
трі ас
трі єр
трі соч
трі ща
трі ангул
трі чмф
трі умф
із ол
із бл
із атор
із юм
із омер
із юбр
із раїль
із маїль
анг я
анг ін
анг лез
стрі к
стрі л
стрі м
стрі п
стрі х
стрі ш
стрі я
стрі ль
стрі й
стрі чеч
стрі шш
стрі чк
енд ем
пози ція
пози тив
лав к
лав р
лав оч
лав анд
лав сан
pi s
pi г
pi д
pi з
pi к
pi с
бін ар
бін ом
бін окуляр
бін окль
ге x
ге и
ге ц
ге є
ге мі
ге пар
ге aг
ге штальт
еш елон
еш афот
иш е
иш н
иш ль
ист к
ист ан
ист ич
ист ий
ист ськ
ист ичн
ист парод
клі п
клі т
клі ш
клі щ
клі пл
клі ент
клі мат
клі ть
клі тич
клі тик
клі ше
клі рин
клі єнт
клі шн
клі стир
клі макт
калі к
калі ф
калі ц
калі ч
калі ць
калі бер
калі єв
калі бр
калі чч
калі пс
мед ал
мед аль
мед ян
мед ят
мед янт
мед вед
мед яц
мед яль
мед iя
мед веж
мед елян
ой ой
ой кос
ой рот
пін г
пін к
пін ет
пін цир
пін езь
пін гвін
пін ьйон
пін ако
пін кертон
пря г
пря д
пря м
пря с
пря сл
пря мл
пря сель
пря да
уж город
шер б
шер л
шер ш
шер ст
шер ег
шер ех
шер шн
шер енг
шер ехт
юн ь
юн ел
юн оч
юн ок
юн дер
юн кц
юн кер
юн ктив
стат о
стат у
стат ар
стат ор
стат ей
стат ут
стат ист
рей с
рей тар
рей сму
рей хс
тил ант
бул оч
суд н
суд ан
суд ак
суд ом
суд ач
суд но
суд нов
суд омл
порт аль
порт фель
порт атив
порт янк
порт ланд
порт фел
порт моне
ськ ий
бол о
бол т
бол ч
бол он
бол от
бол оч
бол іт
бол гар
бол ван
бол би
бол онь
бак ан
бак ен
бак ел
бак тер
бак лаг
бак алій
бак лаж
бак алавр
бак лажан
гo вip
гo тy
гр ат
гр юк
гр атул
гр юндер
да s
да о
да зи
да фрагм
жен ев
мo н
мo т
мo ц
мo ч
мo ш
мo щ
мo нт
мo вк
мo вч
мo лоч
мo вy
мo зоч
нор к
нор м
нор ов
нор ман
нор мо
нор иц
нор маль
нор овл
нор манд
нор веж
нор везь
пр ο
пр ян
пр оріш
пр юнел
ся г
ся д
ся ж
ся я
ся й
ся ́к
фа ко
фа ун
фа ут
фа бул
фа буль
фа уст
фа ял
фа янс
фа культ
фа зис
фа етон
фа янсов
фа культет
фель з
стри б
стри в
стри г
стри ж
стри м
стри пер
стри кт
стри кц
стри жн
стри хн
стри кіз
енц еф
каз е
каз ан
каз ен
каз ува
каз арм
каз бець
каз нач
каз емат
тиль г
їст ськ
їст ичн
скор б
скор с
скор ин
скор од
скор ом
скор бл
скор одж
скор уб
скор омл
скор піон
пас м
пас х
пас ат
пас ом
пас ем
пас ман
пас порт
пас льон
воль тер
воль та
воль тин
воль тиж
воль фарт
воль фрам
aн o
aн тен
aн iм
aн гаж
aн гio
cпi в
cпi л
cпi п
cпi po
cпi paп
cпi пв
iд ей
iд eo
iд eнт
iд iот
iд iом
iз м
iз ол
iз oл
iз aція
вел о
вел ен
вел еб
вел юр
вел яр
вел інгтон
гep aп
гep ої
дон т
дон ь
дон жу
дон ощ
дон кіхот
еф ес
еф ект
еф едр
жер д
жер ст
жер ей
жер тов
жер тв
кв оч
кв ок
кв ант
кв ест
кв алі
кв iт
лов к
лов л
лов ч
лов ча
лов елас
мi x
мi ж
мi о
мi ц
мi ч
мi ш
мi cт
мi гр
мi eп
мi геп
мi ̇м
мал ич
мал ах
мал ай
мал яр
мал аєць
мал еїн
мал явоч
мал сїн
мал акк
нд aнт
нь о
нь йи
нар д
нар ко
нар оч
нар ок
нар кот
нар зан
нар коз
нар цис
пель мен
печ ер
печ ор
печ ал
печ ат
печ аль
печ інк
печ ерич
печ іноч
св ят
св рей
св ящ
св роп
св етр
св обід
св обод
св ятт
сам б
сам ар
сам ура
сам шит
сам оїд
сам арит
сам одій
саль д
саль варсан
саль вінієв
саль пінг
спі ́
спі в
спі л
спі ч
спі ш
спі ро
спі до
спі раль
спі рит
шин к
шин ель
шин оч
шин кар
шин ьйон
шин шил
яз в
яз ан
рет яз
рет язь
валь с
міт кал
скри в
скри н
скри т
скри пл
скри нь
май н
май ор
май стр
май бр
май стер
май тал
май зер
май коп
май бут
май оран
май олік
май бутт
бай стр
бай рон
бай каль
бай бак
бай дик
бай рам
бай бач
бай дуж
бай рач
бай барис
бай рачч
гно є
гно ї
гно ян
гно яч
гно єн
гно юва
гно як
гно їн
гно єнн
гно їв
гно їщ
гно ївн
гно ярк
ce o
ce м
ce п
ce пт
ce пep
ce пap
ce мiт
ce мa
ce гpe
ce гpeг
апо фе
апо дик
апо столь
апо плекс
апо крин
апо плект
апо каліпт
апо криф
апо стеріор
апо каліпс
би ра
би стр
би лл
би роч
би дл
бон д
бон н
бон іт
бон бон
бон апарт
бон віван
вес л
вес н
вес ін
вес ель
вес іль
вес лов
вес інь
гом о
гом ер
гом он
гом ель
гом оз
гом ео
гом інн
гом інь
дан ціг
дан аїд
дан елль
дел ег
дел юв
еск із
еск арп
еск алатор
зел ен
зел ін
зел анд
зел енн
зел ень
зел яж
ис мент
кет он
кло п
кло ң
кло ак
кло ун
кло ач
кло пот
кло піт
кло зет
кло буч
кло пітт
маль в
маль т
маль ць
маль туз
маль гась
сор б
сор т
сор ок
сор омл
таб л
таб ан
таб ор
таб ат
таб ет
таб ак
таб ач
таб ір
таб асаран
ху г
ху х
ху ст
ху дж
ху тор
ху тр
ху зь
ху діб
ху ліган
ху дож
хан ж
хан юч
хан ой
цел е
цел о
цел э
цел он
цел ест
цел ул
шел ел
шел ак
шел ес
шел ест
шел еп
шел ех
шел еш
шел яг
шел юж
шел юг
шел лінг
шур к
шур п
шур ф
шур х
шур ч
шур ш
шур ст
шур ча
ста ді
ста єн
ста чу
ста єв
ста дій
ста філ
ста ціон
ста діон
ста філо
віль г
віль ж
віль х
віль ш
поч т
поч й
поч инк
поч иноч
поч инок
поч атк
поч аток
тик со
лич к
лич ко
лич инк
пуль к
пуль п
пуль ман
пуль вер
пуль мон
цир к
цир кон
цир кул
цир куль
цир кад
цир куляр
гір д
гір к
гір ш
гір ст
гір лянд
гір сут
транс ль
транс фер
транс пір
транс суд
транс порт
транс форм
транс фуз
транс ферт
транс ценд
транс вааль
транс місій
транс порг
icт в
icт к
icт ь
icт от
icт op
icт еp
icт oр
бот в
бот ан
бот ул
бот инк
бот инок
бот ріо
бли ж
бли з
бли к
бли м
бли с
бли ш
бли щ
бли ст
бли ск
бли зь
бли ща
бли скува
вест ал
гур к
гур т
гур і
гур ман
гур ій
глі к
глі с
глі ц
глі ко
глі пт
глі цер
дом н
дом р
дом ен
дом онт
дом овин
дом крат
дом естик
епі ч
епі кур
епі гон
епі стол
епі зод
епі демі
епі дидим
епі теляльн
зер н
зер ен
зер ени
лен ін
лон гі
лон дон
лон гет
пед ал
пед аль
пед ант
пед агог
пед aгог
пед ераст
ско б
ско к
ско пл
ско бл
ско бот
сак с
сак ов
сак ман
сак сон
сак раль
сак рамент
сак вояж
тет p
тет р
тет ер
тет ан
тет ен
тет ра
тет ерев
там бур
там іль
там пон
там бов
там ари
там арик
там аринд
уш еч
уш ник
уш куй
уні к
уні он
уні ат
уні тар
уні верс
фан з
фан ер
фан ал
фан ат
фан арі
фан абер
ха щ
ха я
ха от
ха юва
ха єць
ха юч
ха сид
ха кась
ха вав
хал в
хал д
хал т
хал ат
хал ун
хал яв
хал уп
хал яс
хал цед
хал дей
хал абуд
хал амид
чува ш
чува сь
ша пар
ша шк
ша єч
ша плат
ша плич
ша піро
шту ф
шту ль
шту цер
шту нд
шту катур
яг ель
єт нам
іж дж
іж ев
іст к
іст і
іст ин
іст от
іст оч
іст ок
іст ич
іст ськ
іст ичн
стан н
стан ь
стан ція
стан тив
стан ціі
стан іол
арт ем
арт іл
арт іль
арт езіан
інтер в
інтер н
інтер ес
інтер пол
інтер пел
інтер мед
інтер міт
інтер поль
інтер вент
інтер прет
інтер венц
кош л
кош м
кош он
кош ла
кош мар
кош ул
кош торис
пло щ
пло є
пло ї
пло єн
пло щува
пло щад
пло їнн
дій сн
фір н
фір ман
фір мац
тран сл
тран ше
тран спон
тран зит
тран скрип
тран шей
тран сільван
ac po
ac еc
ac игн
iк p
xi po
xi xi
xi poм
бен з
бен ет
бен гал
бен кет
бен галь
бен едикт
бре с
бре х
бре ст
бре мен
бре йд
бре тон
бре лк
бре хер
бел ен
бел етр
бел емн
бель к
бель гій
бель етаж
бель гієць
блі д
блі ц
блі ш
вн утрі
вет х
вет ерин
вет еран
вет лузь
вод д
вод ь
вод да
вод руж
вод руз
вод нииця
гат ел
галь к
галь м
галь ор
галь ван
галь міро
гні в
гні д
гні й
гні зд
гні вл
гні ждж
дек ан
дек ант
дек стр
дек лін
дек лам
дек рет
дек лар
дек атир
дель т
дель фін
дель берзь
дес м
дес н
дес ант
дес мо
дес пот
дес ять
дес ерт
дес елеро
зав р
зав ш
зав ет
зав тр
зав жд
зав трь
кр ю
кр ал
кр юч
кр юк
кр ючч
лак он
лак ей
лак то
лак мус
лот к
лот р
лот оч
лот ос
лот ерей
лот арінг
мe гp
мe гa
мe тp
мe xaп
мe xaн
мe пiop
мe теop
мe гeop
мур з
мур м
мур ли
мур мот
мур мос
нер в
нер ол
нер ит
нер ест
наг л
наг ан
наг аль
наг ель
наг ай
наг аєч
наг аєв
наг асак
сли з
сли зь
сли мак
сли мач
сли зуват
сли вина
тат а
тат ар
тат ах
тат уй
тат уюва
так с
так ир
так сов
так тиль
так елаж
фон д
фон о
хо ан
хо пл
цу г
цу ц
цу пл
цу кор
цу кат
цу кер
цу цу
цу прик
ця м
ця п
ця ц
ця ць
ця бр
ця ція
ця мр
ця ́п
цен з
цен ти
цен зур
цен зов
цент урі
яс ний
рек ти
рек тор
рек то
рек віз
рек вієм
коль з
коль ор
коль чуж
коль чуг
пост іл
пост ул
пост уль
пост іль
пост епен
екз от
екз ег
екз арх
екз альт
екз амен
екз еку
екз екут
мір к
мір р
мір ков
мір меко
мач ен
буль к
буль вар
буль йон
буль доз
обл омов
прот ей
прот ез
прот ест
прот ект
прот екц
прот агон
прот окол
тун г
тун ц
тун ел
тун ель
тун др
тун гус
тун гусь
філі р
філі т
філі аль
філі стер
філі гран
кара ск
кара ул
кара уль
кара кул
кара куль
кара кум
кара їм
кара пуз
кара їб
кара чаїв
ний й
дук тил
лун к
лун н
лун оч
тай г
тай ж
тай п
тай по
тай мо
тай стр
тай ван
тай мир
cн ep
cн iп
cн iд
cн iз
cн iг
cн ox
cн oп
cн oд
cн iж
eл iт
eл eв
eл ектр
eл eктр
paп т
paп cод
бов т
бов ий
бов ван
бов дур
бет а
бет он
бет би
бет онь
брі в
брі д
брі о
брі х
брі дж
брі столь
баб л
баб р
баб ак
баб яч
баб ач
баб ах
баб езі
без в
без о
без мат
без печ
без лад
без пек
без одн
без печен
вов н
вов ц
вов нов
вов туз
вов туж
вель ц
вель ми
вель вет
вель віч
вель буч
вель мож
гел г
гел к
гел ант
гел ік
гел іо
гел іб
гел ертер
гли з
гли п
гли с
гли т
гли ст
гли бл
дар г
дар він
дар сонвал
дар данелль
дру з
дру жж
дру їд
дру жин
дем от
дем пф
зя п
зя я
зя пл
зя бл
зя бр
зя юч
зя вл
зя бль
зан я
зан оз
зол ет
зол оч
зол оть
зол очен
зол отий
мн ож
мн емо
мн емон
мн ожен
сан ти
сан атор
сан ато
сан кці
сан скрит
сла б
сла с
сла щ
сла ст
сла бл
сла вл
сла бий
сла стьон
сво є
сво ї
сво яч
сво єн
сво юва
сво як
сво єнн
сво яц
сво єму
том л
том о
том пак
точ к
точ н
точ ен
точ ува
точ еч
точ ий
уст ар
уст ав
уст уп
ура г
ура д
ура ж
ура з
ура ль
ура ган
фе ер
фе од
фе каль
фри з
фри ш
фри зь
фри кат
фри воль
фри тредер
фри кадель
фур м
фур т
фур ман
фур гон
фур дел
фур фур
фур ніт
флю с
флю ор
флю кт
флю гар
флю гер
флю сов
флю кс
флю їд
флю орит
флю тбет
хр ю
хр ін
хр ьоп
хр эн
хі ор
хі ро
хі сн
хі дь
хі романт
хі рур
хро п
хро мл
хро бак
хро бач
хро бац
хре б
хре с
хре ш
хре щ
хре щен
хре стик
хре щат
хре стомат
хаз мо
цес ар
цес ят
цес яй
ше пл
ше вер
ше пот
ше єл
ше мізет
юш н
юш ч
сту пл
сту дж
сту гон
сту дій
сту дія
роч ен
рем ес
рем ез
рем ств
інь ер
кап ч
кап кан
кап рон
кап суль
кап сул
кап цан
кап шуч
кап шук
кай л
кай м
кай т
кай ом
кай стр
кай енн
кай но
кай зер
кос м
кос мет
поль щ
поль ов
поль двіль
поко ј
поко й
поко ї
поко єн
поко юва
поко єнн
поко ююч
поко їк
поко ївк
піт ек
піт аль
лад озь
лев ко
лев ант
лев яч
лев рет
лев кас
лев коні
контра ст
контра кт
контра банд
контра сигн
контра марк
контра дикт
контра мароч
контра дикц
контра пункт
пач к
пач еч
сим пл
сим вол
сим бір
сим птом
джен дж
вит ій
філь м
філь он
філь варк
філь трува
пул ков
ниц тв
нич к
голь д
голь м
голь дер
голь тіп
aм пут
aм дi
aм aтop
aм epцк
aгp еc
aгp аp
cи c
cи p
cи м
cи п
cи cтем
cк н
cк op
cк iп
cк пep
cк iк
cк peг
cк ia
eн н
eн ьк
eп п
eп ег
eп цcкoп
бе щ
бе шт
бе кас
бе шкет
бе цман
бе дуїн
бе ших
вч ора
вей сман
гов а
гов к
гов т
гов ор
гов ір
гов ip
грі з
грі м
грі х
грі ш
грі зь
грі шш
гем з
гем о
гем я
гем он
гем бл
гем ело
гем янестез
гря з
гря к
гря с
гря зь
гря діль
гря доч
гран ат
гран ул
гран уль
гран діоз
дет он
дет ал
дет аль
дет ект
дет ектор
дет андер
дет ектив
дет ермін
дам ент
дам ні
дам ась
дам окл
доб р
доб лес
доб рящ
даг ер
даг естан
зон д
зна х
зна ч
зна ком
збро є
збро й
збро ї
збро єн
збро юва
збро яр
збро єнн
збро ївн
клю к
клю ч
клю кв
клю чеч
клю чар
лo г
лo к
лo м
лo т
лo пaт
лo пoт
лор ет
лор ієв
лор нет
ланд шаф
нов а
нов ел
нов енн
ном о
ном у
ном ер
ном ус
ном енкл
офі цій
офі ціал
офі зик
офі цяльн
пp о
пp і
пp ic
пp icн
сю д
сю ди
сю дж
сю їт
сю сю
сю джува
сю дженн
сю зерен
соч ува
сму г
сму ж
сму х
сму ч
сму ш
сму жж
тp y
тp iп
тp оx
тав от
тав то
тав рід
фо а
фо сил
фо кус
фен о
фен ол
фен ак
фен оль
фен омен
фет р
фет иш
фран ц
фран ч
фран ко
фран кен
фран клін
фран циск
хри п
хри ст
хри зо
хри ста
хри стува
хри зант
хри стос
хри стиян
цю ц
цю ць
цю ріх
цин г
цин к
цин др
чов а
чов г
чов н
чов п
чов ен
чов но
чов ник
чов нов
шлі р
шлі х
шлі ц
шлі ць
шлі хт
шлі ссель
шлі хтува
шев к
шев рон
шев рет
шев чен
шев йот
ют ант
я́ в
я́ нт
ящ ер
ящ ур
ящ ич
ящ ір
ящ ик
іє рей
іє рем
іє рихон
ато p
реп сов
реп тиль
реп туш
риж ев
риж ій
риж ієв
кум ек
кум ир
кум ич
кум йс
кас ет
кас озь
коп ч
коп ит
коп ирс
копі я
копі і
копі й
копі ич
копі юва
копі єч
копі йк
копі їcт
пла і
пла ск
пла ун
пла сто
пла стил
пла вик
пла чуува
плі ш
плі ск
плі кат
плі сн
плі сен
плі чч
плі тува
плат и
плат т
плат ь
плат ан
плат он
плат форм
вій т
пів тор
пів ден
пів ніч
пів день
міс ц
міс яч
міс ячч
міль йон
міль ярд
міль єран
міль ярде
скар б
скар г
скар ж
скар и
скар ед
скар латин
дик ція
лаг одж
лаг оджен
мах л
мах н
мах ер
мах ин
буд н
буд яч
буд як
буд нь
буд ячч
буд апешт
туз лук
туз луч
філ ер
філ армон
філ оксер
пун ш
пун сон
муль д
муль т
муль ч
цит вар
лож к
лож кар
лож еч
лож ення
гід ато
ків ш
прес вітер
спон г
спон тан
спон дил
спон диль
спон деїчн
еньк ий
фіні ш
фіні фт
cy x
cy м
cy п
cy є
cy пep
блу д
блу з
блу к
блу дж
блу дь
блу дд
ве a
ве си
ве шт
ве ець
ве зикул
вя зуува
вед а
вед меж
гй б
гй н
гін о
гін ско
гін еко
гет еро
гет инакс
глу з
глу м
глу п
глу х
глу ш
глу зд
глу мл
глу ша
гop 6
гop c
гop т
гop ix
гop oo
дрі б
дрі в
дрі м
дрі о
дрі ждж
дрі бяз
дрі зоч
жов н
жов ч
жов тен
жов тн
жов нір
жов енуц
зар аз
зар аж
зар яд
зур н
змі є
змі ст
змі й
змі ї
змі єн
змі їст
змі яст
ид л
иць к
кен о
кен ій
кен гур
кен ієць
кен іг
кен дицій
кир з
кир к
кир п
кир ат
кир гиз
лин в
лин ь
лин твар
лоб ур
лоб од
лоб ас
лоб из
лоб зик
лоб елієв
мод р
мод ел
мод аль
мод ель
мод ул
мод уль
мод ерн
моз а
моз к
моз ол
моз оль
нан к
нан о
нан ду
нан ай
нан кін
нан аєць
нан сук
нот арі
нот аряльн
пам ір
пам пас
пам пуш
пам пась
пам флет
пак ет
пак іс
пак гауз
пак истан
пант р
пант ер
пант алон
пант елич
пop x
пop оc
рат и
рат ин
рат ува
рат уш
сок ор
сок ол
сок ир
сок рат
смер д
смер ч
смер ек
смер іч
смер ічч
тв op
тек ін
тек то
тек стиль
таг аль
таг іл
таг іль
фел о
фел юж
фел ась
фаль с
фаль ц
фаль ць
фаль цет
фаль конет
фун г
фун т
фун гі
фун кці
фун кція
фун дамент
хль ор
хль об
хль ос
хль оск
хль оска
хам е
хам с
хам ар
хам іт
хви л
хви с
хви сь
хви лин
чеч ен
чеч ев
чеч іт
чеч уж
шу г
шу пл
шу тр
шу мер
шу ліч
шу цкор
шу руп
шал он
шал анд
шал апут
шал юзит
шат к
шат р
шат ен
шат ирува
шат рище
шкар б
шкар бан
шкар уб
шкар алуп
шкар алущ
юг ослав
яст ич
іон ом
іон ій
анн ал
анн ам
стов б
стов и
стов п
стов бовий
род к
род ось
олов як
рес пір
рес публік
рин в
рин к
рин оч
кун н
кун шт
кун жут
кун ктатор
куш ет
куш тр
куш пел
куш нір
рун дук
рун дуч
руш енн
руш ник
руш ення
руш нич
вів с
вів ц
вів тар
вів торк
піл суд
піл окарп
піль г
мас леч
мас штаб
абі ц
абі со
абі джан
суб тиль
суб рет
суб сид
суб станці
суб стантив
карт ель
карт еч
карт вел
карт вель
карт езян
пут ч
парт ес
парт ій
парт ія
парт нер
гіль де
гіль дій
гіль йот
гіль йош
порож н
порож ня
порож няк
порож нуєм
порож нова
сім я
сім ян
сім ей
сім ячк
коли м
коли х
соль в
iпo xo
клін о
клін ік
клін кер
клін іч
клін іц
здор ів
здор овл
eкc пpo
eкc пy
eкc гц
eкc цпy
eкc папc
ax po
eм iт
eм ic
eм ip
eм пip
eм пipi
eпi п
eпi дем
eпi cтo
eпi тa
eпi кyp
eпi дeм
ix тio
xe ї
xe xе
xo в
xo г
xo п
xo т
бю с
бю ль
бю ст
бю ро
бю вар
бю рет
бю джет
баль зам
баль зак
баль нео
бла ж
бла ст
бла ват
бла сто
бла зн
бла зен
бла гуо
бом б
бом бл
бом бак
бом бей
бом бард
блю в
блю д
блю зн
блю мінг
вон іт
вент раль
гy c
гy м
гy т
гy ́p
гель в
гель мінт
дi a
док с
док тор
док со
док трин
док тораль
дзи г
дзи ж
дзи з
дзи к
дзи гор
дзи гар
дзи гл
дря б
дря г
дря х
дря ́п
ещ ь
ещ елон
жу х
жу й
жу пан
жу їр
жор н
жор ст
жор жет
жор сток
жор стк
жел е
жел он
жел ат
жел ез
жел іп
зен к
зен іт
зов ні
зам к
зам ч
зам ш
зам ок
кp ат
кp iп
кp io
кp aт
кp аc
кy x
кy п
кy poп
кль он
кль ов
кль оч
кль ош
кль бв
кль бш
кел ар
кел ій
кел ех
кел еш
кел иш
кел их
кля к
кля с
кля ч
кля уз
кля моч
кля мк
лом л
лом ін
лом бер
лом бард
лом лений
мин ь
мос каль
мос яж
мез о
мез ен
мез ин
мит т
мит ь
мит ар
мит ть
оp н
оц т
оц ет
оц тов
оц уп
пин д
пин дю
пин дюч
паль м
паль п
паль т
паль мір
прі к
прі с
прі юва
прі сн
прі ап
прі звищ
пpo x
пpo екц
пpo гpам
сва вол
сва дь
сва воль
сва віль
сва віл
сва вілл
слі в
слі з
слі п
слі пл
слі дж
соб ор
соб ол
соб ак
соб ач
соб ац
соб аць
сви с
сви щ
сви ст
сви ріп
сви сий
сні в
сні г
сні д
сні ж
сні т
сні ч
сні жж
тем п
тем бр
тop г
тop д
тop к
тop ox
тop ciо
тop iов
фант ом
фант аз
фант аст
фант асмагор
хн й
хаб аз
хаб отт
цей с
цей лон
цей нер
цей тнот
цей хгауз
чор н
чор т
чор но
чор нов
чор ноб
чор ниль
чор нуват
чен ч
чем н
чем ер
чем піон
чем одан
шн ур
шн ав
шам р
шам т
шам ан
шам от
шам пан
шам піньйон
і́ в
і́ к
і́ т
і́ я
і́ зм
і́ чн
і́ льник
анк ег
стель мах
стель мас
стель маш
стель мась
арх ей
арх ів
арх ео
арх ангель
арх ітект
орі х
орі аль
орі єнтал
йор ж
йор з
йор дан
йор кшир
йор кш
рот фронт
рот містр
реч енн
реч итатив
інк візит
інк візи
раз ін
раз оч
раз ок
рам енн
рам бурс
рит м
куй биш
кост ур
кост ий
кост юм
кост янич
кост яниц
рус со
план ер
план ет
план шет
план ктон
плін др
плін тус
плом б
плом ен
плом ін
плом бір
плом бува
віс ц
віс цер
поз ор
екон омл
пік ант
пік то
пік но
пік ніч
лік тор
лік від
мілі ар
мілі он
мілі ці
мілі цій
мілі тар
мілі цей
дис пут
дис парт
дис перс
дис перг
дис циплін
бун кер
бун чуж
бун чук
пара фін
пара зит
пара соль
пара дигм
манд ат
манд юр
манд рит
баз аль
баз алі
баз ік
баз гр
баз альт
бір ж
бір м
бір юз
біль д
біль йон
біль ярд
гнo j
гнo є
гнo ї
гнo єнн
гнo їв
гнo їcт
гнo ceo
кита є
кита єв
кита єць
кита єч
кита їст
кита янк
кита яноч
спе ц
спе кул
спе куль
спе ціал
спе ціаль
ворон к
ворон н
ворон еж
ворон езь
ворон ізь
калам ар
калам бур
калам уч
калам айк
iнтep еc
iнтep ec
iнтep пpe
iнтep венц
iнтep пeл
iнтep нaт
cпip о
cпip аль
хазя ї
хазя юва
хазя їн
хазя єч
ec xaт
iв нич
ау ти
ау ди
ау діо
ау рео
ау дитор
бин д
бин т
бин дюж
банд ур
банд юр
вo лік
водж а
водж ен
водж енн
водж уува
водж ання
вiт p
вiт т
вiт ч
вiт aмiп
гаг р
гаг ар
гаг ен
гаг ат
гей тон
гей зер
гей дельберзь
гля ціал
гля дви
гля ціо
гег е
гег ел
гег ель
гег еп
гег емон
гiп c
гiп н
гiп eкo
дал ен
дал мат
дал егід
дре в
дре вл
дре ме
дре сир
дре дно
дре зден
дак тил
дак тиль
дак ріо
дви г
дви ж
еї з
еї зм
жан р
жан тиль
жур ч
жур нал
жур наль
зе бу
зе фір
зал п
зал оз
зал ог
зак он
зак ал
зак лад
зак онн
зак ович
зем л
зем ел
зем ель
зем елл
заг с
заг ал
заг ін
заг аль
заг арт
из мо
кю рі
кю pi
кю вел
кю вет
кю рин
клу б
клу бл
клу нь
клу мач
клу мб
кap п
кap io
кap ач
кap пo
кap тe
лок р
лок ш
лок ал
лок іт
лок со
мов к
мов ч
мов ля
мов ча
мов чува
мам р
мам ут
мам ул
мам онт
мам аліо
мель д
мель к
мель до
мель хіор
моч и
моч к
моч ен
моч ал
мок ш
мант ач
мант ачи
мир р
мир т
мир ш
мег p
мег ал
мег рель
мег ало
мег рел
нат р
нат ур
нат аль
нат юрморт
нет р
нам ет
нам ист
нам бул
неб ож
пy x
пy г
пей с
пей зан
пей заж
пир с
пир х
пир ск
пир ска
пap a
пap г
сат ан
сат ин
сат ир
сат еліт
сін гапур
сом ат
сом алі
сом алій
сом намбул
саб ур
саб от
саб ей
саб еї
саб еєць
саб адил
свер б
свер бл
свер гот
свер дель
свер дл
свер длов
сна ж
сна ш
сна щ
сна ст
сна щен
сна йпер
спор ов
спор уд
спор иш
спор удж
спор адич
спри т
спри я
спри нт
тя м
тя п
тя мл
тя гува
тель н
тель ськ
тель бух
тель буш
тей л
тей лор
тей ярд
фал д
фал анг
фал реп
фре он
фре ск
фре йд
фре бел
фре гат
фре ато
фак ель
фак ір
фак тур
фак симіль
фаг о
фаг от
фей ербах
фей летон
фрон д
фрон тон
фрон дува
фрон тиспі
хов ан
хов рах
хов раш
хур т
хур ман
хур дел
хли п
хли с
хли ст
хли сь
хлю п
хлю щ
хлю ст
хлю ск
хля б
хля п
хля с
хля ст
хля ск
хід д
це вий
це инер
че пл
че єв
че пір
че суч
че буреч
чі пл
чі лі
чі хр
чі каг
чел ір
чел яд
чел юск
чел ябін
чин ш
чин ь
чин ар
шан ц
шан ь
шан кер
шан хай
шаб л
шаб р
шаб ат
шаб аз
шаб аш
шаб лон
шпар аг
шпар ува
шпар гал
шпар галл
шта пел
шта пель
шта хет
шир м
шкі д
шкі л
шкі р
шкі пер
шах р
шах т
шах ов
шах рай
шах раюва
ща дж
щи п
щи пи
щи гл
щи пч
щи колот
ял т
яш м
яль но
ясн о
ясн от
ясн уват
анч оус
сте ар
сте ат
сте бл
сте гн
сте го
стал ін
стал акт
стал аги
стол ипін
став н
рос ний
рель с
рель еф
рель єф
рези д
рези дент
рези денц
рези стив
інду с
інду сь
рак ель
ови щ
ови ськ
ови тий
кав ун
кав каз
кав казь
капі тал
капі тон
капі тан
капі ляр
капі тул
капі пc
комі сі
комі сар
комі сій
комі сія
важ ува
важ енн
важ ення
вак х
вак ант
рум бо
рум пель
пле си
пле біс
пле онаст
пле охро
плет ор
плет измо
плес н
плес кот
плес куват
вік н
вік тимо
пом п
пом пон
пом пей
пом пад
екстра г
екстра кт
екстра кц
екстра ваз
екстра вагант
тим пан
скат ер
скат ерт
скре б
скре г
скре пер
див ува
мад яр
мад ригаль
магн е
магн ат
магн ет
магн ез
магн олієв
бух й
бух галтер
буч ав
будь он
лем к
конститу т
конститу й
конститу ці
конститу цій
конститу юва
папу г
папу ш
папу ас
папу ась
сил ур
сигн ал
сигн аль
сигн атур
суль ф
суль фіт
нік ель
нік то
нік чем
аван гард
мун дир
лос ос
лос кот
верт л
верт еп
наві ж
наві сн
наві гат
наві гац
наві що
гайд ар
гайд абур
марк шей
ебер т
cтo г
cтo я
cтo яч
cтo гн
штан ь
штан ген
штур к
штур л
штур м
штур х
штур валь
пред к
пред мет
миг ич
миг дал
миг даль
матри ц
матри ч
матри ць
матри куль
матри моніаль
брон з
брон х
брон то
брон зов
брон зуува
крем с
крем ян
крем ях
міні стер
міні атюр
бород ь
бород ін
катол и
катол иц
прав д
прав ж
прав дж
прав ля
фуз ей
здоров ля
здоров як
aкц i
aкц eнт
aкц eпт
cц x
cц н
cц eн
cц eп
cip ій
cip iє
cпe пeo
cпe цiaп
eв poп
eв aпop
eв aггeп
oн y
oн aл
oн вк
аку ст
аку шер
аку муль
аку мул
бей к
бей н
бей с
бир к
бир юч
вур д
вур к
вур ч
вур дж
вур каган
вок ал
вок зал
вок заль
вap i
вap яц
вip м
гек ель
гек то
гек за
гек са
гек лінг
гир л
гир ь
геп ат
геп та
гроз з
гроз н
гроз ов
грен ланд
грен адер
дц ят
дц ять
кa s
кa я
кa янн
кa пiтy
кни г
кни ш
кни го
квар т
квар ц
квар тал
квар тир
квар таль
крон глас
крон верк
крон штадт
лел ек
лел еч
лел ій
лел ія
мес л
мес і
мес сін
мес опот
нo c
нo в
нo к
нo гap
нн a
нал ож
нал еж
нав т
нав арр
неп ал
неп аль
неп тун
опер ат
опер ет
остро ж
остро гон
остро жен
пч іл
пек ан
пек ель
пек тус
пур х
пур пур
пент а
пент агон
пaп ax
рo c
рo д
рo з
рo п
спо за
спо пел
спо дів
спо сіб
смі л
смі х
смі ч
смі тт
сма г
сма ж
сма гл
сма жен
сма кува
спа ж
спа ст
спа цер
спа зм
спа плюж
сей м
сей см
слу г
слу ж
слу п
слу х
слу ш
спір ал
спір ант
свин ц
свин ць
свин ець
свин чат
тe тp
тi ч
тi ш
тот ал
тот аль
тот ем
тот ож
тот алітар
твер д
твер дж
твер ез
твер еж
тюр к
тюр ч
тюр лю
уй гур
уру б
уру ч
уру ем
уват и
уват ий
уват ість
фр ант
флі рт
флі бустьер
фот ель
фле б
фле ц
фле бо
фле гм
фле гмон
фас он
фас ет
фас ад
фас ціоль
хв ось
хон др
хон інг
хон дріо
хат и
хат т
хат ь
хле б
хле с
хле ст
хле бт
хле стак
хря п
хря с
хря щ
хря ск
хво щ
хво ст
хво й
хво їн
хво стат
ходж а
ходж енн
ходж ення
хлоп яч
цем ент
цем янк
чар к
чар ч
чар джоу
чет в
чет верг
чир в
чир к
чир ги
чир чик
чолов ік
чолов іч
чолов яг
чолов іц
чолов іць
шов к
шов ін
шов ков
шав к
шав лієв
шлю б
шлю з
шлю п
шлю бл
шлю зува
шля п
шля х
шля хт
шля роч
шля хет
швар г
швар к
швар т
швар тува
щеб ен
щеб ін
щеб ет
щеб еч
юз і
ях тов
ях онт
явл ен
явл ений
єкт ур
іаль н
і́н н
ств ува
ари сто
ари фм
ордин ар
ордин ат
ордин аль
ордин ацій
рев м
рев нив
рах ман
рах уб
ради кул
ради каль
ради цир
рик ш
куп фер
куку рі
куку рік
куку річ
куку рудз
кау пер
кау тер
кау стик
кау чук
кау нась
каш уб
каш мір
каш каєць
каш кадарін
камер ун
камер гер
камер динер
коб з
коб ил
коб зин
пли ск
пли сов
пли скуват
плаз м
плаз ува
плаз ун
плаз ія
віол ет
поp т
поp ці
акс яльн
міз др
міз йн
ски б
ски мл
ски гл
ски пидар
скал яр
скал убина
дифер ент
дифер енцій
дифер енто
лаб сь
лас сал
лах м
лах міт
лах мітт
маш ува
буз ів
конт ент
конт акт
конт окор
конво юва
конво їр
констру й
констру кт
констру юва
констру кц
обі щ
обі др
пац ан
силь в
силь ф
силь ц
силь вет
сист ем
силі ц
силі цій
силі цієв
емо ці
емо цій
перм яч
перм як
перм яць
фік сол
мус яндж
верет т
верет ен
верет ін
верет і́н
дуж уува
бах м
бах чисарай
бази с
бази пет
бази лік
бази діо
най тув
гут ір
гуль тіп
iнтер ес
iнтер пол
iнтер нат
iнтер прет
едер ж
поло ти
поло ск
поло ць
поло ши
полов ч
полов ян
полов ець
полов чан
гаp т
трю х
трю хи
трю фель
трю фел
марш рут
андал уз
apx a
apx eo
apx iтект
компан ій
компан іє
компан ьй
город д
город дд
кип яч
кип ят
киш еч
киш ень
киш лак
киш лач
час ник
час нич
чук ч
peг ioн
peг iмeпт
сап ф
сап фір
спект акль
драт в
драт ов
драт ува
слов ен
слов ян
слов аць
голуб я
голуб яч
голуб ят
голуб ятин
флан ц
флан ел
флан ель
флан елет
флор о
флор ент
флор ид
пaгp ія
пaгp янт
пaгp яцiя
coцi о
coцi аль
coцi юва
coцi aл
лінг в
генер аль
генер атив
відча я
відча й
відча юва
відча як
відча юг
пряж к
пряж еч
пряж ки
пряж енн
фельд шер
фельд шпат
фельд маршаль
фельд фебель
скрип тум
зюйд вест
aв тo
aд aпт
cу x
cу х
cep п
cep пeпт
cкo д
cкo к
ceк peт
ceк pец
ceк peтаp
eг aп
eг io
iг aп
iй н
iep apx
iep аpx
py x
py г
py к
py cал
xp он
xp оп
xp ап
апл од
апл ік
апт ек
апт еч
бес ур
бес ід
бес емер
бес сараб
бло х
бло ш
бло щич
бля в
бля к
бля х
бля ш
бря ж
бря з
бря к
бря зк
бед реник
бест ія
бюр э
бюр гер
вз ят
вз ір
вз вод
вот ч
вот яч
вот яць
веч ер
веч ор
веч ір
гле д
гле є
гле дж
гле юват
габ арит
габ ардин
габ елк
гав яч
гос п
гос под
гос пітал
гос піталь
гвар ді
гвар дій
гвар дія
гвар дієць
дю ро
дю йм
дю ссель
дя дь
дри г
дри з
дри п
дри ль
доч ер
дав н
дав нь
ева пор
ева куй
емі сар
емі гр
ефі оп
жол об
жол обл
жет он
жаб л
жаб ур
жаб яч
жуж м
жуж ел
жуж іль
жуж мл
зей гер
згра б
згра й
згра єв
згра бн
иза ц
иза ці
иза цій
иза ція
кн ур
кн оп
кви л
кви с
кви ч
кви танцій
кем ал
кем брій
кем еров
кем брідж
кант он
кант ат
кант ел
кит ятк
кня г
кня ж
кня з
кня зь
крен ер
крен дел
крен дель
мю рид
мю тюел
мй сл
мрі я
мрі ї
мрі юва
мем ель
мем бран
мем уар
мем оріаль
меч ет
ней р
ней тр
ней трал
ней траль
нед а
нед о
нег р
нег од
нег атив
нег ліж
пх е
пх инь
пх еньян
пит л
пит ль
рент абель
сві ж
сві щ
сві і
сод ал
сод ом
сем ен
сем естр
сем інар
сло й
сло ї
сло їст
сло їч
сюр тук
сюр туч
сюр приз
слав к
слав ян
смаль т
смаль ц
смаль ць
тa ї
тa xi
тa утo
тy ж
тy п
таль к
тант ал
тант ьем
тря м
тря с
тря х
тря сь
уре тр
уто п
уроз ум
уроз ряд
уроз утяж
уван и
уван н
уван ня
фат ал
фат аль
фек ал
фаб р
фаб рик
фаб рич
фло кул
фло гоп
хер ес
хер сон
хер увим
хет т
хру п
хру щ
хру ст
хру ск
ход ь
хом ут
цв ьох
цар ь
цур пел
чак л
чак ан
шор х
шор ст
шор ош
шти б
шти х
шти фт
шти блет
шель м
шель ф
што п
што ф
што пор
што льн
ще пл
що гл
щер б
щер бл
щер бин
яй в
яй ц
іза ці
іза ція
іза цiя
іза ціі
льни и
льни п
льни ць
льни ия
ерг атив
анім ал
анім аль
стар тер
стар ост
стре л
стре мл
стре пет
стре кул
стря г
стря п
ора куль
ороч он
рог оз
рог озин
роль ганг
робл енн
ало єв
оле фін
оле ум
оле андр
регі т
регі он
регі стр
регі мент
інди г
інди го
інди від
інди хен
рап совий
рай дуж
куд ах
куд кудак
кощ ун
копи л
копи ль
копи лл
копи сточ
вай шнав
пля м
пля шк
пля мл
плац ент
плац карт
пос ес
пос пол
потен ц
потен ці
потен цій
потен цяльн
амі ак
амі ант
амі ач
амі кошон
піж он
піж ам
піон ер
лів рей
мік ст
мік со
мік сис
містер і
містер ій
скро м
скро мл
скро мад
скро фуль
диск ант
диск рет
диск онт
одн ак
оді оз
лабі о
лабі ал
лабі аль
лабі ринт
різ б
буц ег
лез г
лес б
конь яч
конь як
конфі ск
конфі денцій
конфі гурацій
конфі денцяльн
оби ж
оби ва
оби дж
обер т
обер емоч
обід д
пах ів
пах ітос
сик тивкар
сит ц
сит ч
проми сел
проми шл
проте ї
проте їн
проте їд
проститу т
проститу ц
проститу й
профес і
профес ор
профес ій
янич ар
вид пин
вим пел
вим яст
вим ячк
вир л
туал ет
лим пач
діа пір
діа фрагм
діа пазон
пери фер
пери патет
переч а
переч енн
фіз іо
фіз іб
фіз іоном
ність ви
карбов анч
карбов анц
карбов анець
австр ал
австр алій
австр аліє
пуд лінг
публі ц
публі ч
мані ок
мані яч
мані як
мані пул
дуб ль
дуль ц
дуль ци
бас м
коров яч
коров ай
луб ян
тач ков
рядж а
рядж анн
порту гал
порту галь
порту лак
порту пей
дев тич
полу ц
полу тор
полу чч
полі ск
полі гон
полі скува
політ ен
політ ур
гай мор
гай дуць
трь оп
трь ох
кіз яч
кіз як
блін т
блін даж
сіль ц
колод д
колод ій
колод яз
штам б
штам и
штам п
штам й
штаб ел
мош онк
шкан ц
шкан дил
шкан диб
шкан либ
шквар к
шквар ч
шквар ча
пip о
варі і
варі ол
варі юва
черем х
черем ш
черем ис
черем ись
череп ян
череп ич
череп иц
aпт еч
трах е
трах ей
трах еї
волоч и
волоч ий
каніф ол
каніф ас
каніф оль
каніф олен
миз г
садж ення
садж уува
бран ер
бран золет
соці о
соці аль
соці юва
крив д
крив дж
крив ля
крин то
крин олін
форт еч
бог дихан
дерев ян
ката строф
ката пульт
ката комб
герої з
герої зм
герої чн
скуль пт
експро мт
експро прят
експро прій
експро пріюва
валер іан
кoн вoювa
кoн цеp
ковер з
ковер с
ковер кот
меді аль
меді єв
меді єваль
пac x
пac aж
coи io
трем т
трем біт
трем бух
iнтe jeкт
iнтe ндaнт
iнтeл ект
iнтeл eкт
батра ц
батра ч
батра ць
батра хо
скаль п
скаль пель
paц ioпaл
пepe y
фрак ці
фрак цій
фрак ція
брах ман
брах іо
брах янти
вi̇ д
вi̇ з
вi̇ тт
вi̇ xт
грей фер
грей зен
пруж енн
гepo їз
гepo їп
жереб я
жереб яч
жереб ят
гліф тал
універ сал
універ саль
універ ситет
центр ал
центр гіпо
пунк ція
пунк тир
пунк туаль
пунк туацій
фінікі й
фінікі ян
фінікі єць
куйов д
куйов дж
куйов джен
куйов джува
ластів ян
ластів яч
гайдам ак
гайдам ач
гайдам ац
гайдам аць
aк ciо
aк ceпep
aep o
aep о
aнт poпo
cг ap
cг aт
cop т
cop op
cop oча
ex зо
ex iпo
eкт цпo
ia тр
ia льн
iш ач
iш iат
iде о
iде ал
iде аль
iгep aт
iгep aг
iгep ац
oл iг
oл iгo
xв aп
xв aт
xop оп
xop eo
ý юч
ака цій
ака цієв
аві а
аві єт
ади тив
ади гей
ади геє
адж ар
бле я
бле фар
бле кот
боб р
боб ил
бдж ол
бдж іл
бдж іль
бент он
бент ос
бент еж
бав ар
бав овн
бос н
бос фор
бит юг
брез к
брез ент
бенд юж
бенд юг
вe ciлл
вe ceп
вц н
вут л
вну к
вну ч
вну чч
гоб оїст
гоб елен
гант о
гiн гiв
гво зд
гед з
гед он
галі сі
галі сій
годж ува
гip p
гвін ей
гвін еє
