{"[PAD]":0,"[UNK]":1,"[CLS]":2,"[SEP]":3,"[MASK]":4,"!":5,"\"":6,"'":7,"(":8,")":9,",":10,"-":11,".":12,"0":13,"1":14,"2":15,"3":16,"4":17,"5":18,"6":19,"7":20,"8":21,"9":22,":":23,";":24,"<":25,"?":26,"]":27,"`":28,"a":29,"b":30,"c":31,"e":32,"i":33,"j":34,"l":35,"n":36,"o":37,"p":38,"q":39,"s":40,"v":41,"w":42,"x":43,"y":44,"z":45,"|":46,"»":47,"̀":48,"́":49,"̂":50,"̃":51,"̆":52,"̇":53,"̈":54,"̌":55,"κ":56,"ο":57,"а":58,"б":59,"в":60,"г":61,"д":62,"е":63,"ж":64,"з":65,"и":66,"к":67,"л":68,"м":69,"н":70,"о":71,"п":72,"р":73,"с":74,"т":75,"у":76,"ф":77,"х":78,"ц":79,"ч":80,"ш":81,"щ":82,"ы":83,"ь":84,"э":85,"ю":86,"я":87,"є":88,"і":89,"ј":90,"ґ":91,"қ":92,"ң":93,"ү":94,"ө":95,"ਬ":96,"ਸ":97,"น":98,"ห":99,"ั":100,"•":101,"ль":102,"ер":103,"ан":104,"ст":105,"ар":106,"ор":107,"й":108,"ен":109,"он":110,"ро":111,"ал":112,"ол":113,"ат":114,"ре":115,"ін":116,"ра":117,"ов":118,"ри":119,"ет":120,"ку":121,"ка":122,"ко":123,"ва":124,"ел":125,"ин":126,"ру":127,"пл":128,"ві":129,"по":130,"ек":131,"ам":132,"ур":133,"ти":134,"аль":135,"ак":136,"ї":137,"пі":138,"ель":139,"лі":140,"мі":141,"ск":142,"ди":143,"ці":144,"од":145,"от":146,"ла":147,"ма":148,"рі":149,"ць":150,"бу":151,"ле":152,"кон":153,"ом":154,"об":155,"оч":156,"па":157,"си":158,"про":159,"аб":160,"ян":161,"дж":162,"ви":163,"ем":164,"ту":165,"ент":166,"су":167,"ли":168,"аг":169,"ок":170,"ді":171,"пер":172,"фі":173,"ні":174,"кар":175,"ав":176,"ес":177,"пу":178,"му":179,"ант":180,"ей":181,"пар":182,"ци":183,"ло":184,"гі":185,"лю":186,"ни":187,"ман":188,"вер":189,"ду":190,"ба":191,"кор":192,"ос":193,"бі":194,"на":195,"лу":196,"тор":197,"гу":198,"тер":199,"зи":200,"iн":201,"ля":202,"та":203,"ува":204,"ря":205,"пор":206,"де":207,"во":208,"ед":209,"пол":210,"сь":211,"то":212,"ep":213,"га":214,"тр":215,"ир":216,"ич":217,"кі":218,"бл":219,"сі":220,"еч":221,"ий":222,"ев":223,"мар":224,"ез":225,"яч":226,"гн":227,"ад":228,"оз":229,"кол":230,"ят":231,"іт":232,"анд":233,"го":234,"еб":235,"ит":236,"cт":237,"op":238,"ест":239,"єн":240,"ій":241,"аз":242,"кт":243,"при":244,"цій":245,"ap":246,"еп":247,"шт":248,"ком":249,"гор":250,"мо":251,"пре":252,"шк":253,"за":254,"ки":255,"ег":256,"пi":257,"ун":258,"бар":259,"вар":260,"оп":261,"юва":262,"бер":263,"чер":264,"aп":265,"зь":266,"пи":267,"тра":268,"ча":269,"чу":270,"pe":271,"сти":272,"алі":273,"вол":274,"кан":275,"стр":276,"до":277,"ми":278,"єв":279,"енн":280,"мат":281,"са":282,"сп":283,"сер":284,"ут":285,"роз":286,"кур":287,"бр":288,"кре":289,"со":290,"ів":291,"ень":292,"бал":293,"гар":294,"мін":295,"ват":296,"гp":297,"др":298,"мер":299,"ект":300,"гал":301,"мор":302,"як":303,"iп":304,"ас":305,"кра":306,"кри":307,"уд":308,"фор":309,"кл":310,"пан":311,"сл":312,"тар":313,"чи":314,"сто":315,"io":316,"бо":317,"ву":318,"ган":319,"юр":320,"іл":321,"стер":322,"бор":323,"ран":324,"вор":325,"дер":326,"зу":327,"кат":328,"те":329,"фер":330,"po":331,"ач":332,"кро":333,"мет":334,"пал":335,"сн":336,"гер":337,"гол":338,"гра":339,"пт":340,"ску":341,"тро":342,"єць":343,"ім":344,"ах":345,"бур":346,"кал":347,"мен":348,"ши":349,"екс":350,"вал":351,"дь":352,"кo":353,"ков":354,"ож":355,"ул":356,"фл":357,"ір":358,"одж":359,"aт":360,"iт":361,"ай":362,"зд":363,"мон":364,"пра":365,"три":366,"уль":367,"юч":368,"іль":369,"стро":370,"стру":371,"вл":372,"ван":373,"ме":374,"мл":375,"син":376,"тал":377,"яр":378,"сть":379,"стра":380,"їн":381,"зн":382,"мол":383,"пa":384,"фу":385,"ід":386,"йд":387,"ап":388,"ець":389,"не":390,"тен":391,"анс":392,"co":393,"ic":394,"ги":395,"лін":396,"но":397,"ох":398,"пат":399,"сар":400,"тру":401,"вір":402,"ip":403,"iм":404,"бан":405,"гл":406,"ген":407,"гон":408,"ик":409,"пет":410,"сен":411,"сол":412,"тон":413,"тре":414,"хи":415,"льн":416,"ція":417,"він":418,"кле":419,"лат":420,"ну":421,"ош":422,"ть":423,"кул":424,"iнт":425,"aг":426,"мент":427,"єч":428,"під":429,"аж":430,"бат":431,"гe":432,"дин":433,"зо":434,"ив":435,"пел":436,"ска":437,"тов":438,"ус":439,"цер":440,"ік":441,"ія":442,"pa":443,"бри":444,"дов":445,"кц":446,"кер":447,"ня":448,"пep":449,"сон":450,"тан":451,"фар":452,"фін":453,"фра":454,"хар":455,"шар":456,"від":457,"пір":458,"вен":459,"дз":460,"еж":461,"рон":462,"уб":463,"чч":464,"куль":465,"віт":466,"вин":467,"гро":468,"жи":469,"лл":470,"нт":471,"ог":472,"пe":473,"пов":474,"ті":475,"тин":476,"тур":477,"ум":478,"шп":479,"тив":480,"аш":481,"бра":482,"вi":483,"гам":484,"дол":485,"ех":486,"кла":487,"оль":488,"ост":489,"сов":490,"хор":491,"кот":492,"ник":493,"аст":494,"бро":495,"гре":496,"иц":497,"мак":498,"пo":499,"пон":500,"пру":501,"рен":502,"сел":503,"тю":504,"уз":505,"хол":506,"кам":507,"каль":508,"лей":509,"eк":510,"гi":511,"гри":512,"ден":513,"дро":514,"ео":515,"пе":516,"пен":517,"се":518,"сур":519,"цi":520,"єр":521,"іс":522,"плю":523,"тир":524,"вa":525,"гру":526,"дор":527,"ил":528,"кру":529,"лан":530,"тo":531,"яльн":532,"олі":533,"рез":534,"пот":535,"єнн":536,"аф":537,"ац":538,"бру":539,"баг":540,"гла":541,"дд":542,"кін":543,"ква":544,"крі":545,"лет":546,"лам":547,"мел":548,"сель":549,"тол":550,"уч":551,"хт":552,"ьк":553,"яв":554,"іч":555,"стор":556,"кад":557,"віз":558,"їв":559,"ення":560,"ci":561,"́н":562,"гa":563,"год":564,"гот":565,"дра":566,"иг":567,"мот":568,"сал":569,"сек":570,"тт":571,"тел":572,"трі":573,"ук":574,"із":575,"анг":576,"стрі":577,"енд":578,"пози":579,"лав":580,"pi":581,"бін":582,"ге":583,"еш":584,"иш":585,"ист":586,"клі":587,"калі":588,"мед":589,"ой":590,"пін":591,"пря":592,"уж":593,"уп":594,"шер":595,"юн":596,"іп":597,"стат":598,"рей":599,"тил":600,"акт":601,"бул":602,"суд":603,"порт":604,"ськ":605,"бол":606,"бак":607,"гo":608,"гр":609,"да":610,"жен":611,"мo":612,"нор":613,"пр":614,"ся":615,"фа":616,"фель":617,"шен":618,"іо":619,"стри":620,"енц":621,"каз":622,"тич":623,"тиль":624,"їст":625,"скор":626,"пас":627,"воль":628,"aн":629,"cпi":630,"iд":631,"iз":632,"вел":633,"гep":634,"дон":635,"еф":636,"жж":637,"жер":638,"кв":639,"лов":640,"мi":641,"мал":642,"нд":643,"нь":644,"нар":645,"пель":646,"печ":647,"св":648,"сам":649,"саль":650,"спі":651,"шин":652,"яд":653,"яз":654,"атив":655,"рет":656,"валь":657,"міт":658,"скри":659,"май":660,"рій":661,"бай":662,"ляр":663,"гно":664,"ce":665,"апо":666,"би":667,"бон":668,"вес":669,"гом":670,"дан":671,"дел":672,"еск":673,"зел":674,"ис":675,"кс":676,"кет":677,"кло":678,"маль":679,"сор":680,"таб":681,"ху":682,"хан":683,"цел":684,"шел":685,"шур":686,"ста":687,"йон":688,"віль":689,"поч":690,"екц":691,"тик":692,"їд":693,"лич":694,"пуль":695,"цир":696,"гір":697,"транс":698,"icт":699,"бот":700,"бли":701,"вест":702,"гм":703,"гур":704,"глі":705,"дом":706,"епі":707,"зм":708,"зер":709,"лен":710,"лон":711,"пед":712,"ско":713,"сак":714,"тет":715,"там":716,"уш":717,"уні":718,"фт":719,"фан":720,"ха":721,"хал":722,"чува":723,"ша":724,"шту":725,"яг":726,"єт":727,"іж":728,"іст":729,"стан":730,"арт":731,"інтер":732,"кош":733,"пло":734,"дій":735,"фір":736,"тран":737,"ститу":738,"ac":739,"iк":740,"xi":741,"yp":742,"бен":743,"бре":744,"бел":745,"бель":746,"блі":747,"вн":748,"вет":749,"вод":750,"гат":751,"галь":752,"гні":753,"дек":754,"дель":755,"дес":756,"еp":757,"жд":758,"зав":759,"кр":760,"лак":761,"лот":762,"мe":763,"мур":764,"нер":765,"наг":766,"сли":767,"тат":768,"так":769,"фон":770,"хо":771,"цу":772,"ця":773,"цен":774,"цент":775,"чн":776,"юж":777,"яж":778,"яс":779,"іб":780,"йк":781,"атор":782,"рек":783,"овл":784,"коль":785,"пост":786,"екз":787,"мір":788,"мач":789,"буль":790,"обл":791,"прот":792,"янт":793,"тун":794,"філі":795,"кара":796,"авл":797,"ний":798,"дук":799,"лун":800,"тай":801,"евр":802,"aл":803,"cн":804,"eл":805,"paп":806,"бов":807,"бет":808,"брі":809,"баб":810,"без":811,"вк":812,"вов":813,"вель":814,"гел":815,"гли":816,"дар":817,"дру":818,"дем":819,"зя":820,"зан":821,"зол":822,"зин":823,"мн":824,"сс":825,"сан":826,"сла":827,"сво":828,"том":829,"точ":830,"уст":831,"ура":832,"фе":833,"фри":834,"фур":835,"флю":836,"хр":837,"хі":838,"хро":839,"хре":840,"хаз":841,"цес":842,"ше":843,"юш":844,"сту":845,"роч":846,"рем":847,"інг":848,"інн":849,"інь":850,"кап":851,"кай":852,"кос":853,"поль":854,"поко":855,"їт":856,"піт":857,"лад":858,"лев":859,"контра":860,"пач":861,"сим":862,"янк":863,"джен":864,"вит":865,"філь":866,"пул":867,"ниц":868,"нич":869,"андр":870,"голь":871,"ебр":872,"aм":873,"aгp":874,"cи":875,"cк":876,"eo":877,"eн":878,"eп":879,"бе":880,"вч":881,"вей":882,"гов":883,"грі":884,"гем":885,"гент":886,"гря":887,"гран":888,"дет":889,"дам":890,"доб":891,"даг":892,"зон":893,"зет":894,"зна":895,"збро":896,"клю":897,"лo":898,"лор":899,"ланд":900,"нов":901,"ном":902,"офі":903,"пp":904,"пн":905,"пс":906,"сю":907,"соч":908,"сму":909,"тp":910,"тав":911,"уува":912,"фо":913,"фен":914,"фет":915,"фран":916,"хри":917,"цю":918,"цин":919,"цеп":920,"чан":921,"чов":922,"шлі":923,"шев":924,"щен":925,"ют":926,"я́":927,"ящ":928,"єм":929,"іє":930,"льк":931,"ато":932,"реп":933,"раль":934,"риж":935,"кум":936,"кас":937,"коп":938,"копі":939,"пла":940,"плі":941,"плат":942,"вій":943,"пів":944,"міс":945,"міль":946,"скар":947,"дик":948,"лаг":949,"мах":950,"буд":951,"джува":952,"туз":953,"філ":954,"пун":955,"муль":956,"цит":957,"лож":958,"гід":959,"гул":960,"ків":961,"сій":962,"прес":963,"спон":964,"еньк":965,"фіні":966,"cy":967,"ацій":968,"блу":969,"ве":970,"вя":971,"вед":972,"гй":973,"гін":974,"гет":975,"глу":976,"гop":977,"дрі":978,"жн":979,"жов":980,"ждж":981,"зк":982,"зар":983,"зур":984,"змі":985,"зува":986,"ид":987,"иль":988,"иць":989,"кен":990,"кир":991,"лин":992,"лоб":993,"мб":994,"мод":995,"моз":996,"нан":997,"нот":998,"пам":999,"пак":1000,"пант":1001,"пop":1002,"рат":1003,"сок":1004,"смер":1005,"тв":1006,"тек":1007,"таг":1008,"фел":1009,"фаль":1010,"фун":1011,"хль":1012,"хам":1013,"хви":1014,"чеч":1015,"шу":1016,"шш":1017,"шал":1018,"шат":1019,"шкар":1020,"юг":1021,"юм":1022,"яст":1023,"іф":1024,"іон":1025,"ієв":1026,"анн":1027,"стов":1028,"онь":1029,"род":1030,"роп":1031,"олов":1032,"рес":1033,"рад":1034,"раж":1035,"рин":1036,"кун":1037,"куш":1038,"рун":1039,"руш":1040,"вів":1041,"піл":1042,"піль":1043,"літ":1044,"дил":1045,"дит":1046,"дич":1047,"ціон":1048,"мас":1049,"леч":1050,"абі":1051,"абель":1052,"вий":1053,"суб":1054,"агон":1055,"карт":1056,"пут":1057,"парт":1058,"гіль":1059,"ось":1060,"зит":1061,"порож":1062,"едр":1063,"сім":1064,"коли":1065,"ять":1066,"єнт":1067,"соль":1068,"iпo":1069,"клін":1070,"ioн":1071,"здор":1072,"eкc":1073,"цiя":1074,"ax":1075,"eм":1076,"eпi":1077,"ix":1078,"xe":1079,"xo":1080,"бк":1081,"бю":1082,"баль":1083,"бла":1084,"бом":1085,"блю":1086,"вон":1087,"вент":1088,"гy":1089,"гель":1090,"дi":1091,"док":1092,"дзи":1093,"дря":1094,"еc":1095,"ещ":1096,"жа":1097,"жу":1098,"жор":1099,"жел":1100,"зю":1101,"зен":1102,"зов":1103,"зам":1104,"кp":1105,"кy":1106,"кль":1107,"кел":1108,"кля":1109,"лом":1110,"мин":1111,"мос":1112,"мез":1113,"мит":1114,"оp":1115,"оц":1116,"ої":1117,"пин":1118,"паль":1119,"прі":1120,"пpo":1121,"сва":1122,"слі":1123,"соб":1124,"сви":1125,"сні":1126,"тн":1127,"тем":1128,"тop":1129,"фес":1130,"фант":1131,"хн":1132,"хаб":1133,"цей":1134,"чор":1135,"чен":1136,"чем":1137,"шл":1138,"шн":1139,"шам":1140,"юк":1141,"ювa":1142,"яц":1143,"і́":1144,"анк":1145,"стель":1146,"стир":1147,"арх":1148,"орі":1149,"йор":1150,"ений":1151,"онт":1152,"рот":1153,"реч":1154,"інк":1155,"раз":1156,"рам":1157,"рит":1158,"кут":1159,"куй":1160,"кува":1161,"кост":1162,"рус":1163,"план":1164,"плін":1165,"плом":1166,"віл":1167,"віс":1168,"поз":1169,"екон":1170,"пік":1171,"лік":1172,"мілі":1173,"дис":1174,"ціал":1175,"бун":1176,"абан":1177,"тува":1178,"діб":1179,"діль":1180,"нір":1181,"пара":1182,"цил":1183,"манд":1184,"баз":1185,"бач":1186,"бід":1187,"бір":1188,"біт":1189,"біль":1190,"ячк":1191,"гнo":1192,"кита":1193,"стик":1194,"аліз":1195,"спе":1196,"форм":1197,"чик":1198,"ворон":1199,"калам":1200,"iнтep":1201,"cпip":1202,"хазя":1203,"ec":1204,"iв":1205,"аp":1206,"ау":1207,"аць":1208,"бин":1209,"банд":1210,"вo":1211,"водж":1212,"вiт":1213,"гаг":1214,"гей":1215,"гля":1216,"гег":1217,"гiп":1218,"дл":1219,"дал":1220,"дре":1221,"дак":1222,"дви":1223,"еї":1224,"жан":1225,"жин":1226,"жур":1227,"зе":1228,"зал":1229,"зак":1230,"зель":1231,"зем":1232,"заг":1233,"из":1234,"им":1235,"кю":1236,"клу":1237,"кap":1238,"лок":1239,"мов":1240,"мам":1241,"мель":1242,"моч":1243,"мок":1244,"мант":1245,"мир":1246,"мег":1247,"нат":1248,"нет":1249,"нам":1250,"неб":1251,"ощ":1252,"пy":1253,"пян":1254,"пей":1255,"пир":1256,"пap":1257,"сат":1258,"сін":1259,"сом":1260,"саб":1261,"свер":1262,"сна":1263,"спор":1264,"спри":1265,"тя":1266,"тель":1267,"тей":1268,"фал":1269,"фре":1270,"фак":1271,"фаг":1272,"фей":1273,"фрон":1274,"хл":1275,"хов":1276,"хур":1277,"хли":1278,"хлю":1279,"хля":1280,"хід":1281,"це":1282,"че":1283,"чі":1284,"чел":1285,"чин":1286,"шан":1287,"шаб":1288,"шпар":1289,"шта":1290,"шир":1291,"шкі":1292,"шах":1293,"ща":1294,"щи":1295,"ьер":1296,"ял":1297,"яш":1298,"яль":1299,"яць":1300,"ясн":1301,"іц":1302,"іан":1303,"анч":1304,"сте":1305,"стал":1306,"стол":1307,"став":1308,"орт":1309,"йл":1310,"йм":1311,"енці":1312,"ров":1313,"рос":1314,"аліт":1315,"рель":1316,"рези":1317,"інду":1318,"рак":1319,"ови":1320,"рис":1321,"кав":1322,"капі":1323,"комі":1324,"важ":1325,"вак":1326,"рум":1327,"рува":1328,"пле":1329,"плет":1330,"плес":1331,"вік":1332,"віч":1333,"пом":1334,"екстра":1335,"тим":1336,"їcт":1337,"скат":1338,"скре":1339,"див":1340,"отт":1341,"ласт":1342,"мад":1343,"магн":1344,"бут":1345,"бух":1346,"буч":1347,"будь":1348,"лем":1349,"конститу":1350,"папу":1351,"сил":1352,"сигн":1353,"тус":1354,"туш":1355,"суль":1356,"лик":1357,"нік":1358,"аван":1359,"мун":1360,"лоп":1361,"лос":1362,"гій":1363,"верт":1364,"біл":1365,"наві":1366,"гайд":1367,"марк":1368,"езь":1369,"ітт":1370,"ебер":1371,"ебель":1372,"cтo":1373,"штан":1374,"штур":1375,"пред":1376,"миг":1377,"матри":1378,"брон":1379,"крем":1380,"міні":1381,"бород":1382,"катол":1383,"скува":1384,"бурзь":1385,"прав":1386,"фуз":1387,"здоров":1388,"aкц":1389,"cц":1390,"cip":1391,"cпe":1392,"eв":1393,"eнт":1394,"oн":1395,"аку":1396,"ась":1397,"аєч":1398,"боч":1399,"бей":1400,"бир":1401,"вур":1402,"вок":1403,"вap":1404,"вень":1405,"вяк":1406,"вець":1407,"вip":1408,"гек":1409,"гир":1410,"геп":1411,"гроз":1412,"грен":1413,"дц":1414,"дат":1415,"дент":1416,"едж":1417,"еєць":1418,"кa":1419,"кc":1420,"кни":1421,"квар":1422,"крон":1423,"лер":1424,"лел":1425,"лоч":1426,"лян":1427,"мф":1428,"мес":1429,"нo":1430,"нн":1431,"нал":1432,"нав":1433,"неп":1434,"опер":1435,"ошк":1436,"остро":1437,"пч":1438,"пек":1439,"пур":1440,"пент":1441,"пaп":1442,"рo":1443,"сет":1444,"спо":1445,"смі":1446,"сма":1447,"спа":1448,"сей":1449,"слу":1450,"спір":1451,"свин":1452,"тe":1453,"тi":1454,"тот":1455,"твер":1456,"тюр":1457,"уй":1458,"уру":1459,"уват":1460,"фр":1461,"флі":1462,"фот":1463,"фле":1464,"фас":1465,"хв":1466,"хон":1467,"хат":1468,"хін":1469,"хле":1470,"хря":1471,"хво":1472,"ходж":1473,"хлоп":1474,"цет":1475,"цем":1476,"чк":1477,"чар":1478,"чет":1479,"чир":1480,"чолов":1481,"шов":1482,"шав":1483,"шлю":1484,"шля":1485,"шит":1486,"швар":1487,"щеб":1488,"юв":1489,"юз":1490,"юват":1491,"ях":1492,"явл":1493,"єкт":1494,"іаль":1495,"ієць":1496,"ість":1497,"і́н":1498,"еро":1499,"ств":1500,"стува":1501,"ард":1502,"ари":1503,"ордин":1504,"йс":1505,"йот":1506,"рож":1507,"рев":1508,"рав":1509,"рах":1510,"ради":1511,"рик":1512,"куп":1513,"кус":1514,"куку":1515,"куляр":1516,"кау":1517,"каш":1518,"камер":1519,"коб":1520,"инн":1521,"инь":1522,"руль":1523,"пли":1524,"плаз":1525,"віол":1526,"поp":1527,"ектор":1528,"тий":1529,"альт":1530,"акс":1531,"їр":1532,"лій":1533,"мід":1534,"міз":1535,"ски":1536,"скал":1537,"сков":1538,"дифер":1539,"лаб":1540,"лас":1541,"лах":1542,"мац":1543,"маш":1544,"цьк":1545,"буз":1546,"буш":1547,"конт":1548,"конво":1549,"констру":1550,"омл":1551,"обі":1552,"пац":1553,"сив":1554,"сир":1555,"силь":1556,"сист":1557,"силі":1558,"емо":1559,"тул":1560,"дів":1561,"діо":1562,"дія":1563,"перм":1564,"перт":1565,"фік":1566,"ніт":1567,"ніч":1568,"карак":1569,"есь":1570,"мул":1571,"мус":1572,"мут":1573,"лог":1574,"верс":1575,"верет":1576,"дуж":1577,"дул":1578,"дукт":1579,"бах":1580,"бази":1581,"най":1582,"гут":1583,"гуль":1584,"зик":1585,"зир":1586,"iнтер":1587,"ляж":1588,"ряд":1589,"едер":1590,"поло":1591,"полов":1592,"гаp":1593,"гац":1594,"трю":1595,"ичн":1596,"марш":1597,"андал":1598,"cтp":1599,"естр":1600,"apx":1601,"епт":1602,"комор":1603,"компан":1604,"город":1605,"кип":1606,"киш":1607,"бард":1608,"час":1609,"чуж":1610,"чук":1611,"peг":1612,"стиль":1613,"волю":1614,"саж":1615,"сап":1616,"спект":1617,"драт":1618,"клер":1619,"слов":1620,"столь":1621,"теp":1622,"голуб":1623,"флан":1624,"флор":1625,"оджен":1626,"пaгp":1627,"coцi":1628,"лінг":1629,"генер":1630,"відча":1631,"пряж":1632,"фельд":1633,"скрип":1634,"зюйд":1635,"aв":1636,"aд":1637,"aж":1638,"cу":1639,"cep":1640,"cкo":1641,"ceк":1642,"eг":1643,"eгo":1644,"iг":1645,"iя":1646,"iй":1647,"iep":1648,"py":1649,"xp":1650,"апл":1651,"апт":1652,"бн":1653,"бес":1654,"бло":1655,"бля":1656,"бря":1657,"бед":1658,"бест":1659,"бюр":1660,"вз":1661,"вот":1662,"вян":1663,"веч":1664,"гле":1665,"габ":1666,"гав":1667,"гос":1668,"гвар":1669,"гмат":1670,"дн":1671,"дю":1672,"дя":1673,"дри":1674,"даль":1675,"доч":1676,"дав":1677,"день":1678,"дач":1679,"ец":1680,"ева":1681,"емі":1682,"ефі":1683,"же":1684,"жол":1685,"жет":1686,"жаб":1687,"жува":1688,"жуж":1689,"зент":1690,"зей":1691,"зій":1692,"згра":1693,"ия":1694,"иза":1695,"кн":1696,"кви":1697,"кем":1698,"кант":1699,"кит":1700,"кня":1701,"крен":1702,"лк":1703,"мр":1704,"мю":1705,"мй":1706,"мрі":1707,"мем":1708,"мич":1709,"меч":1710,"мiт":1711,"ней":1712,"нед":1713,"нег":1714,"оc":1715,"оx":1716,"опл":1717,"пк":1718,"пх":1719,"пит":1720,"рент":1721,"сві":1722,"сод":1723,"сем":1724,"сло":1725,"сюр":1726,"слав":1727,"смаль":1728,"тa":1729,"тy":1730,"тк":1731,"таль":1732,"тант":1733,"тря":1734,"уре":1735,"уто":1736,"убл":1737,"уроз":1738,"уван":1739,"фат":1740,"фек":1741,"фаб":1742,"фло":1743,"фект":1744,"хер":1745,"хет":1746,"хру":1747,"ход":1748,"хом":1749,"хто":1750,"хім":1751,"цв":1752,"цц":1753,"цар":1754,"цур":1755,"чак":1756,"шор":1757,"шет":1758,"шти":1759,"шель":1760,"што":1761,"шенн":1762,"ще":1763,"що":1764,"щер":1765,"яй":1766,"язь":1767,"іг":1768,"ітр":1769,"іза":1770,"льон":1771,"льни":1772,"ерг":1773,"ерн":1774,"ерин":1775,"анж":1776,"анім":1777,"стар":1778,"стре":1779,"стря":1780,"арм":1781,"ора":1782,"орд":1783,"ороч":1784,"енцій":1785,"роб":1786,"рог":1787,"роль":1788,"робл":1789,"ало":1790,"оле":1791,"олю":1792,"атт":1793,"регі":1794,"інди":1795,"рап":1796,"рай":1797,"ова":1798,"риб":1799,"рид":1800,"рил":1801,"етр":1802,"куд":1803,"коз":1804,"кощ":1805,"копи":1806,"вай":1807,"елл":1808,"инк":1809,"руб":1810,"рул":1811,"рут":1812,"пля":1813,"плич":1814,"плекс":1815,"плац":1816,"пос":1817,"потен":1818,"амо":1819,"амі":1820,"їщ":1821,"їй":1822,"піж":1823,"піон":1824,"лів":1825,"мік":1826,"містер":1827,"скро":1828,"дим":1829,"диск":1830,"диці":1831,"дицій":1832,"одн":1833,"оді":1834,"оть":1835,"лабі":1836,"ріб":1837,"різ":1838,"ріп":1839,"бук":1840,"буц":1841,"лез":1842,"лес":1843,"конь":1844,"конфі":1845,"конвей":1846,"ому":1847,"оби":1848,"обер":1849,"обід":1850,"очен":1851,"пад":1852,"пах":1853,"сик":1854,"сис":1855,"сит":1856,"проми":1857,"проте":1858,"проститу":1859,"профес":1860,"янь":1861,"янич":1862,"джан":1863,"дженн":1864,"вид":1865,"вим":1866,"вир":1867,"тук":1868,"тух":1869,"туч":1870,"туал":1871,"туаль":1872,"лим":1873,"окс":1874,"діа":1875,"діл":1876,"дієць":1877,"пери":1878,"переч":1879,"фіз":1880,"ність":1881,"карбов":1882,"австр":1883,"пуд":1884,"публі":1885,"антаж":1886,"цип":1887,"ция":1888,"люд":1889,"люстр":1890,"мані":1891,"дуб":1892,"душ":1893,"дуль":1894,"бас":1895,"коров":1896,"біс":1897,"бій":1898,"луб":1899,"лус":1900,"гун":1901,"зив":1902,"зил":1903,"iнi":1904,"тач":1905,"рядж":1906,"порту":1907,"дев":1908,"полу":1909,"полі":1910,"політ":1911,"тоp":1912,"гай":1913,"трь":1914,"кіз":1915,"блін":1916,"сік":1917,"сіль":1918,"ячч":1919,"озь":1920,"колод":1921,"андер":1922,"ести":1923,"епен":1924,"штам":1925,"штаб":1926,"мош":1927,"прем":1928,"шкан":1929,"шквар":1930,"пip":1931,"варі":1932,"опт":1933,"черем":1934,"череп":1935,"aпт":1936,"трах":1937,"стил":1938,"волоч":1939,"каніф":1940,"доль":1941,"миз":1942,"мис":1943,"садж":1944,"курс":1945,"бран":1946,"соці":1947,"івл":1948,"івч":1949,"крив":1950,"крин":1951,"форт":1952,"бог":1953,"дерев":1954,"зуува":1955,"ката":1956,"герої":1957,"скул":1958,"скуль":1959,"експро":1960,"валер":1961,"кoн":1962,"ковер":1963,"флекс":1964,"меді":1965,"пac":1966,"coи":1967,"icн":1968,"трем":1969,"iнтe":1970,"iнтeл":1971,"батра":1972,"золь":1973,"скаль":1974,"pac":1975,"paц":1976,"пepe":1977,"фрак":1978,"брах":1979,"вi̇":1980,"грей":1981,"пруж":1982,"глас":1983,"ївн":1984,"позит":1985,"позиц":1986,"гepo":1987,"жереб":1988,"гліф":1989,"універ":1990,"центр":1991,"пунк":1992,"фінікі":1993,"куйов":1994,"ластів":1995,"гайдам":1996,"лянд":1997,"aк":1998,"aль":1999,"aep":2000,"aкт":2001,"aнт":2002,"cг":2003,"cп":2004,"cop":2005,"ex":2006,"eкт":2007,"ia":2008,"iш":2009,"iє":2010,"iде":2011,"iгep":2012,"ox":2013,"oг":2014,"oл":2015,"oп":2016,"xв":2017,"xт":2018,"xop":2019,"xap":2020,"ý":2021,"́п":2022,"ака":2023,"аві":2024,"ади":2025,"адж":2026,"аєць":2027,"бв":2028,"бч":2029,"бле":2030,"боб":2031,"бдж":2032,"бент":2033,"бав":2034,"бос":2035,"бит":2036,"бець":2037,"брез":2038,"бенд":2039,"вe":2040,"вц":2041,"вут":2042,"вну":2043,"гт":2044,"гоб":2045,"гант":2046,"гло":2047,"гiн":2048,"гво":2049,"гед":2050,"галі":2051,"годж":2052,"гip":2053,"гвін":2054,"дo":2055,"дв":2056,"дт":2057,"дад":2058,"доз":2059,"дop":2060,"дюр":2061,"двор":2062,"дюч":2063,"даш":2064,"дакт":2065,"еви":2066,"ешт":2067,"егор":2068,"жм":2069,"жар":2070,"жир":2071,"жит":2072,"зл":2073,"зі":2074,"зй":2075,"зін":2076,"заль":2077,"зад":2078,"зоз":2079,"заз":2080,"зву":2081,"зіл":2082,"ии":2083,"их":2084,"иді":2085,"кель":2086,"кли":2087,"кес":2088,"кря":2089,"кеп":2090,"квіт":2091,"клун":2092,"квит":2093,"лiт":2094,"мa":2095,"мy":2096,"мк":2097,"мру":2098,"мек":2099,"мiн":2100,"мря":2101,"нон":2102,"нин":2103,"нек":2104,"ноч":2105,"нез":2106,"няк":2107,"ння":2108,"оф":2109,"оск":2110,"опри":2111,"пc":2112,"пш":2113,"пль":2114,"пси":2115,"птер":2116,"пто":2117,"панд":2118,"пеп":2119,"пpe":2120,"палі":2121,"пaт":2122,"рар":2123,"сз":2124,"сль":2125,"сент":2126,"саг":2127,"спар":2128,"сман":2129,"сос":2130,"сля":2131,"сад":2132,"санд":2133,"сег":2134,"соп":2135,"спи":2136,"салі":2137,"скур":2138,"сень":2139,"сект":2140,"смол":2141,"ссель":2142,"севр":2143,"скомор":2144,"тл":2145,"тep":2146,"тез":2147,"тio":2148,"тім":2149,"ув":2150,"уг":2151,"ух":2152,"ущ":2153,"удж":2154,"ушк":2155,"уюва":2156,"узь":2157,"фю":2158,"фол":2159,"фам":2160,"фок":2161,"фос":2162,"фep":2163,"фут":2164,"фай":2165,"фаш":2166,"френ":2167,"флей":2168,"фолі":2169,"фрей":2170,"флаг":2171,"хен":2172,"хва":2173,"хот":2174,"худ":2175,"хвор":2176,"хвал":2177,"хтува":2178,"цін":2179,"цель":2180,"цед":2181,"цез":2182,"цвір":2183,"цяльн":2184,"цеф":2185,"чал":2186,"чат":2187,"чав":2188,"чий":2189,"чад":2190,"чест":2191,"чох":2192,"шол":2193,"шко":2194,"шпа":2195,"шем":2196,"шаг":2197,"шму":2198,"штор":2199,"шпор":2200,"ший":2201,"шпи":2202,"шпан":2203,"шай":2204,"шуб":2205,"шаш":2206,"шлей":2207,"штир":2208,"шаф":2209,"шлун":2210,"швей":2211,"щел":2212,"щем":2213,"щува":2214,"щик":2215,"ьйон":2216,"юл":2217,"юст":2218,"ююч":2219,"юван":2220,"ятр":2221,"яхт":2222,"єл":2223,"єму":2224,"іш":2225,"іщ":2226,"іат":2227,"іде":2228,"ізь":2229,"льоп":2230,"ерц":2231,"ерей":2232,"анти":2233,"ангі":2234,"стен":2235,"стел":2236,"стин":2237,"сталь":2238,"стом":2239,"сток":2240,"стеб":2241,"стоп":2242,"стіль":2243,"арк":2244,"арф":2245,"арі":2246,"арак":2247,"армі":2248,"арій":2249,"орій":2250,"орган":2251,"ориг":2252,"оруж":2253,"енг":2254,"онк":2255,"онал":2256,"рош":2257,"роман":2258,"ровк":2259,"романт":2260,"алон":2261,"алко":2262,"алій":2263,"ати":2264,"аталь":2265,"атич":2266,"рег":2267,"рео":2268,"реш":2269,"ремін":2270,"режи":2271,"револю":2272,"інф":2273,"інстру":2274,"іньк":2275,"раф":2276,"равл":2277,"раціон":2278,"овн":2279,"овс":2280,"овар":2281,"овоч":2282,"рив":2283,"риг":2284,"рип":2285,"рич":2286,"етаж":2287,"кух":2288,"куч":2289,"кура":2290,"кула":2291,"кудов":2292,"каж":2293,"каза":2294,"каут":2295,"кадр":2296,"каган":2297,"капт":2298,"коман":2299,"ваб":2300,"инг":2301,"иноч":2302,"инок":2303,"руг":2304,"руч":2305,"руй":2306,"русь":2307,"руча":2308,"плен":2309,"плем":2310,"плут":2311,"плах":2312,"плід":2313,"плік":2314,"пліч":2315,"віш":2316,"віст":2317,"вілі":2318,"відь":2319,"под":2320,"пош":2321,"помі":2322,"подіб":2323,"ектр":2324,"ектив":2325,"амен":2326,"амел":2327,"амент":2328,"тиж":2329,"тис":2330,"альн":2331,"акци":2332,"їж":2333,"їз":2334,"їк":2335,"їс":2336,"їль":2337,"їти":2338,"їждж":2339,"пій":2340,"підо":2341,"ліж":2342,"лір":2343,"ліс":2344,"лія":2345,"ліпл":2346,"лікт":2347,"лібер":2348,"між":2349,"міц":2350,"міч":2351,"міш":2352,"скр":2353,"скет":2354,"сканд":2355,"дир":2356,"дия":2357,"диси":2358,"дикт":2359,"дивл":2360,"дивіз":2361,"дириж":2362,"ціі":2363,"цієв":2364,"цієнт":2365,"одь":2366,"лаж":2367,"лайд":2368,"лауре":2369,"мав":2370,"маг":2371,"маз":2372,"магі":2373,"мага":2374,"рід":2375,"рік":2376,"річ":2377,"бум":2378,"леп":2379,"леш":2380,"лебід":2381,"консер":2382,"конфер":2383,"конвал":2384,"консист":2385,"оман":2386,"обор":2387,"обод":2388,"очк":2389,"паc":2390,"паш":2391,"пащ":2392,"паву":2393,"паску":2394,"сид":2395,"сий":2396,"сибіл":2397,"проб":2398,"прож":2399,"проти":2400,"пропор":2401,"промін":2402,"промет":2403,"прован":2404,"пролет":2405,"провіз":2406,"абл":2407,"абет":2408,"абаз":2409,"абстра":2410,"янс":2411,"яноч":2412,"яниц":2413,"джер":2414,"емер":2415,"емон":2416,"туж":2417,"тум":2418,"тут":2419,"тубер":2420,"сук":2421,"сул":2422,"сум":2423,"сун":2424,"суч":2425,"сусп":2426,"лип":2427,"оке":2428,"окор":2429,"окей":2430,"перс":2431,"пергам":2432,"перцеп":2433,"фіт":2434,"фій":2435,"караб":2436,"автор":2437,"пус":2438,"пуш":2439,"пуст":2440,"пудж":2441,"пуляр":2442,"антра":2443,"парал":2444,"парти":2445,"параг":2446,"паруб":2447,"цим":2448,"циль":2449,"цикл":2450,"лоз":2451,"гіт":2452,"гілл":2453,"люб":2454,"люз":2455,"люк":2456,"низ":2457,"нир":2458,"ниць":2459,"манент":2460,"манія":2461,"верз":2462,"верк":2463,"верн":2464,"вербі":2465,"дуг":2466,"дун":2467,"дух":2468,"дуч":2469,"дукц":2470,"бад":2471,"кори":2472,"корч":2473,"корел":2474,"осс":2475,"біж":2476,"нач":2477,"нави":2478,"нась":2479,"надо":2480,"луд":2481,"луж":2482,"торф":2483,"гуц":2484,"губл":2485,"тери":2486,"тері":2487,"зим":2488,"зич":2489,"зист":2490,"ляг":2491,"тах":2492,"ряб":2493,"деч":2494,"дека":2495,"полон":2496,"полот":2497,"полум":2498,"поліс":2499,"газ":2500,"гауз":2501,"ичч":2502,"кім":2503,"кір":2504,"кіль":2505,"кіло":2506,"блок":2507,"сід":2508,"сіо":2509,"евен":2510,"еволю":2511,"марин":2512,"мароч":2513,"маркі":2514,"езн":2515,"ячи":2516,"гнос":2517,"адам":2518,"озн":2519,"озин":2520,"колор":2521,"ятт":2522,"ятин":2523,"ітар":2524,"гоp":2525,"гог":2526,"гож":2527,"гоп":2528,"итет":2529,"итель":2530,"opгa":2531,"естез":2532,"приз":2533,"прин":2534,"apxi":2535,"штал":2536,"штем":2537,"горіл":2538,"городж":2539,"моль":2540,"моги":2541,"прет":2542,"префер":2543,"презент":2544,"шкет":2545,"заст":2546,"захи":2547,"еги":2548,"егр":2549,"пiп":2550,"унуч":2551,"бараб":2552,"барах":2553,"черні":2554,"череш":2555,"aпo":2556,"пирі":2557,"трак":2558,"трам":2559,"чуг":2560,"peпe":2561,"волок":2562,"кані":2563,"канон":2564,"строн":2565,"досто":2566,"миць":2567,"спін":2568,"креп":2569,"крет":2570,"крей":2571,"соціал":2572,"івель":2573,"балам":2574,"балаг":2575,"гарні":2576,"мінер":2577,"ассі":2578,"країн":2579,"таран":2580,"таріл":2581,"бож":2582,"бой":2583,"вул":2584,"вуль":2585,"стерн":2586,"держ":2587,"зуль":2588,"poк":2589,"poм":2590,"poп":2591,"ачк":2592,"ачува":2593,"кропи":2594,"метел":2595,"град":2596,"грам":2597,"ожен":2598,"флект":2599,"трин":2600,"ючч":2601,"струб":2602,"ярд":2603,"страль":2604,"молодж":2605,"пaн":2606,"тенс":2607,"гиб":2608,"гизь":2609,"ліні":2610,"глоб":2611,"генц":2612,"гонор":2613,"солід":2614,"вінь":2615,"клей":2616,"нукле":2617,"iнтел":2618,"aгop":2619,"aгaт":2620,"батар":2621,"баталь":2622,"гeн":2623,"гeп":2624,"товар":2625,"ікс":2626,"paдi":2627,"керам":2628,"хара":2629,"венц":2630,"культ":2631,"грома":2632,"жиць":2633,"повн":2634,"повіт":2635,"тіп":2636,"турк":2637,"шпин":2638,"шпак":2639,"вiз":2640,"ехт":2641,"камб":2642,"кампан":2643,"пеш":2644,"крут":2645,"ацет":2646,"явля":2647,"кадмі":2648,"ївк":2649,"ciо":2650,"секре":2651,"ангел":2652,"ангель":2653,"позицій":2654,"геp":2655,"юнкт":2656,"женер":2657,"норд":2658,"iдe":2659,"печен":2660,"свяч":2661,"делі":2662,"сороч":2663,"домін":2664,"лений":2665,"штува":2666,"гніт":2667,"нагор":2668,"слив":2669,"екзем":2670,"демон":2671,"золот":2672,"томат":2673,"хром":2674,"цесій":2675,"студі":2676,"номін":2677,"офіці":2678,"вях":2679,"геть":2680,"темпер":2681,"хню":2682,"економ":2683,"сприн":2684,"індустрі":2685,"міністр":2686,"бородав":2687,"cпeкт":2688,"iнiцi":2689,"coиi":2690,"paцioн":2691,"оригін":2692,"aз":2693,"aч":2694,"aш":2695,"aція":2696,"aвi":2697,"aцiя":2698,"aтоp":2699,"ca":2700,"cі":2701,"cти":2702,"cод":2703,"cта":2704,"caп":2705,"cгp":2706,"cio":2707,"caт":2708,"ciм":2709,"cія":2710,"cьк":2711,"cиг":2712,"cгep":2713,"cioн":2714,"eд":2715,"eє":2716,"eї":2717,"eпт":2718,"eкo":2719,"ii":2720,"is":2721,"iy":2722,"î":2723,"iо":2724,"iот":2725,"iгн":2726,"iгp":2727,"iєць":2728,"iвa":2729,"iaн":2730,"iвн":2731,"ipoк":2732,"oд":2733,"oк":2734,"oнт":2735,"oгo":2736,"pи":2737,"piп":2738,"pиг":2739,"qio":2740,"xa":2741,"xе":2742,"xн":2743,"xлю":2744,"xaп":2745,"xiп":2746,"xвa":2747,"xоp":2748,"yк":2749,"yп":2750,"yмф":2751,"́в":2752,"́ч":2753,"́ль":2754,"аc":2755,"аx":2756,"ая":2757,"аер":2758,"ако":2759,"аї":2760,"ави":2761,"аді":2762,"ази":2763,"апол":2764,"ашк":2765,"астр":2766,"аєв":2767,"аут":2768,"асо":2769,"ачи":2770,"астро":2771,"афін":2772,"акад":2773,"аук":2774,"аскар":2775,"аеро":2776,"бт":2777,"бш":2778,"бль":2779,"бек":2780,"бам":2781,"бем":2782,"бок":2783,"бич":2784,"беч":2785,"бий":2786,"бap":2787,"балі":2788,"болі":2789,"биш":2790,"бяз":2791,"вy":2792,"вві":2793,"вла":2794,"вез":2795,"ванд":2796,"веп":2797,"вза":2798,"вег":2799,"валі":2800,"векс":2801,"вaт":2802,"веж":2803,"веp":2804,"вeнт":2805,"вантаж":2806,"гк":2807,"гин":2808,"гві":2809,"гак":2810,"гни":2811,"гич":2812,"гий":2813,"геб":2814,"гест":2815,"гap":2816,"гмо":2817,"гpe":2818,"гват":2819,"гмент":2820,"гвин":2821,"глей":2822,"дур":2823,"дні":2824,"дант":2825,"дей":2826,"дят":2827,"дроз":2828,"дзу":2829,"двір":2830,"дiк":2831,"дюж":2832,"еx":2833,"еи":2834,"ею":2835,"еє":2836,"еку":2837,"еко":2838,"епо":2839,"ема":2840,"егі":2841,"ебл":2842,"еїн":2843,"еїд":2844,"егір":2845,"ефір":2846,"жй":2847,"жон":2848,"жал":2849,"жом":2850,"жму":2851,"жез":2852,"жест":2853,"жас":2854,"жах":2855,"жбур":2856,"жір":2857,"жець":2858,"жив":2859,"жeн":2860,"жокей":2861,"зa":2862,"зор":2863,"зра":2864,"зод":2865,"зоч":2866,"зант":2867,"здр":2868,"звіт":2869,"звит":2870,"здіб":2871,"заліз":2872,"зшит":2873,"иі":2874,"ити":2875,"изи":2876,"ись":2877,"иий":2878,"ицій":2879,"истер":2880,"ивл":2881,"изм":2882,"ирува":2883,"кк":2884,"кві":2885,"кці":2886,"кто":2887,"канд":2888,"кop":2889,"кват":2890,"кiп":2891,"кюр":2892,"кран":2893,"ксен":2894,"ктив":2895,"кеф":2896,"кyp":2897,"кшир":2898,"лар":2899,"лй":2900,"лек":2901,"лант":2902,"лект":2903,"лio":2904,"мж":2905,"мс":2906,"мт":2907,"мом":2908,"моб":2909,"мна":2910,"мop":2911,"мic":2912,"мaг":2913,"мпен":2914,"нa":2915,"нс":2916,"ню":2917,"нй":2918,"нен":2919,"нур":2920,"ноб":2921,"наб":2922,"нем":2923,"ноз":2924,"нут":2925,"нуд":2926,"нож":2927,"нiт":2928,"нeгo":2929,"оs":2930,"оо":2931,"опо":2932,"оти":2933,"огн":2934,"ого":2935,"остра":2936,"оєч":2937,"отир":2938,"оїст":2939,"оїд":2940,"огір":2941,"околь":2942,"пв":2943,"пэ":2944,"пй":2945,"пем":2946,"пес":2947,"пий":2948,"пхи":2949,"пpi":2950,"рв":2951,"рт":2952,"рх":2953,"рал":2954,"ртуч":2955,"см":2956,"сх":2957,"сот":2958,"срі":2959,"сес":2960,"сант":2961,"сци":2962,"слю":2963,"сеч":2964,"смар":2965,"сез":2966,"свар":2967,"сми":2968,"смор":2969,"сван":2970,"свір":2971,"схи":2972,"скот":2973,"схол":2974,"сінн":2975,"свій":2976,"смок":2977,"тч":2978,"тент":2979,"ток":2980,"тес":2981,"тлу":2982,"тво":2983,"тев":2984,"тест":2985,"тій":2986,"теп":2987,"твар":2988,"тект":2989,"твор":2990,"тpo":2991,"тіль":2992,"тiм":2993,"твин":2994,"тпру":2995,"тpi":2996,"тax":2997,"тянь":2998,"тегр":2999,"уp":3000,"уц":3001,"уар":3002,"упл":3003,"уель":3004,"уць":3005,"уле":3006,"уде":3007,"усь":3008,"утр":3009,"узд":3010,"уюч":3011,"умл":3012,"устри":3013,"удив":3014,"україн":3015,"фф":3016,"фрі":3017,"фем":3018,"фав":3019,"флу":3020,"фаз":3021,"фах":3022,"фуль":3023,"фтал":3024,"фоль":3025,"фео":3026,"факт":3027,"фiз":3028,"фiк":3029,"федер":3030,"халь":3031,"хлі":3032,"хмі":3033,"хоб":3034,"хіт":3035,"хун":3036,"хут":3037,"хів":3038,"хват":3039,"хож":3040,"хай":3041,"хап":3042,"хвір":3043,"хня":3044,"хваль":3045,"цк":3046,"цан":3047,"цві":3048,"цят":3049,"цег":3050,"цюр":3051,"цап":3052,"цвіт":3053,"цвин":3054,"цех":3055,"ценц":3056,"цянт":3057,"чол":3058,"чек":3059,"чель":3060,"чоб":3061,"чвер":3062,"чич":3063,"чеп":3064,"чун":3065,"чіл":3066,"чвал":3067,"чір":3068,"чіль":3069,"чван":3070,"чех":3071,"чення":3072,"член":3073,"чотир":3074,"шо":3075,"шра":3076,"шку":3077,"шка":3078,"шом":3079,"шок":3080,"шей":3081,"шува":3082,"шез":3083,"шпри":3084,"шеп":3085,"шмат":3086,"шут":3087,"швор":3088,"шпал":3089,"шул":3090,"шанс":3091,"шпат":3092,"шуч":3093,"шук":3094,"штик":3095,"шлич":3096,"шуст":3097,"шебер":3098,"щат":3099,"щур":3100,"щок":3101,"щад":3102,"щиц":3103,"ый":3104,"ьй":3105,"ьох":3106,"юp":3107,"юд":3108,"юс":3109,"ющ":3110,"юль":3111,"юск":3112,"юба":3113,"юшк":3114,"ювен":3115,"ювел":3116,"яб":3117,"яці":3118,"якор":3119,"ятер":3120,"ябл":3121,"ягн":3122,"яза":3123,"ядер":3124,"язн":3125,"яція":3126,"єз":3127,"іа":3128,"іх":3129,"іор":3130,"іол":3131,"іці":3132,"іод":3133,"іма":3134,"іць":3135,"іді":3136,"ікан":3137,"ісп":3138,"ісл":3139,"існ":3140,"ізо":3141,"ічч":3142,"іїв":3143,"іжж":3144,"льв":3145,"льник":3146,"львів":3147,"ерт":3148,"ерет":3149,"ерич":3150,"ерев":3151,"ероз":3152,"ерун":3153,"анц":3154,"анал":3155,"аналь":3156,"аном":3157,"анах":3158,"анець":3159,"ання":3160,"аниц":3161,"ангул":3162,"стк":3163,"стон":3164,"стам":3165,"стак":3166,"стод":3167,"сточ":3168,"стаб":3169,"стем":3170,"стос":3171,"стад":3172,"студ":3173,"стіл":3174,"стай":3175,"стук":3176,"стрем":3177,"стабі":3178,"арп":3179,"арін":3180,"арка":3181,"арам":3182,"арит":3183,"арах":3184,"арик":3185,"арсен":3186,"аряд":3187,"аргент":3188,"орб":3189,"ори":3190,"оран":3191,"орен":3192,"орні":3193,"орто":3194,"орит":3195,"йв":3196,"йр":3197,"йоз":3198,"ени":3199,"енс":3200,"енч":3201,"онд":3202,"онн":3203,"онс":3204,"ону":3205,"ональ":3206,"онто":3207,"оніт":3208,"рок":3209,"рол":3210,"роц":3211,"ропі":3212,"рота":3213,"ропол":3214,"робін":3215,"алг":3216,"але":3217,"алуп":3218,"олен":3219,"олон":3220,"олін":3221,"олет":3222,"олій":3223,"олів":3224,"олекс":3225,"олив":3226,"атк":3227,"атри":3228,"атур":3229,"атом":3230,"атул":3231,"атті":3232,"ред":3233,"рел":3234,"реак":3235,"репер":3236,"ретор":3237,"рект":3238,"ребр":3239,"рекре":3240,"ретро":3241,"ремон":3242,"рефра":3243,"рестор":3244,"рецен":3245,"редук":3246,"редаг":3247,"рецеп":3248,"рефлекс":3249,"реконвал":3250,"резуль":3251,"інд":3252,"іно":3253,"інч":3254,"іноч":3255,"інту":3256,"інгал":3257,"інтри":3258,"іння":3259,"інтел":3260,"інфан":3261,"інститу":3262,"ініці":3263,"рас":3264,"рач":3265,"раш":3266,"раді":3267,"раюва":3268,"рамент":3269,"овч":3270,"овин":3271,"овод":3272,"ович":3273,"овеч":3274,"овий":3275,"овит":3276,"риз":3277,"рир":3278,"рих":3279,"риц":3280,"риль":3281,"рихл":3282,"еть":3283,"етич":3284,"етит":3285,"етчер":3286,"куб":3287,"куж":3288,"куди":3289,"куму":3290,"куна":3291,"кута":3292,"купор":3293,"кузь":3294,"куум":3295,"кутт":3296,"кунд":3297,"каc":3298,"каг":3299,"каф":3300,"ках":3301,"кац":3302,"капл":3303,"каси":3304,"каму":3305,"кась":3306,"казу":3307,"каїн":3308,"кайд":3309,"капел":3310,"кауз":3311,"кабін":3312,"капель":3313,"кабель":3314,"кауст":3315,"кафе":3316,"капіт":3317,"качан":3318,"каблу":3319,"каштан":3320,"кабард":3321,"кавалер":3322,"код":3323,"коч":3324,"коер":3325,"кому":3326,"кооп":3327,"кочер":3328,"козу":3329,"кошен":3330,"коміт":3331,"коклю":3332,"комун":3333,"коопер":3334,"козир":3335,"ваp":3336,"вав":3337,"вад":3338,"ваз":3339,"вац":3340,"ваш":3341,"васи":3342,"вакан":3343,"вагон":3344,"вакц":3345,"вакуум":3346,"елен":3347,"елон":3348,"елет":3349,"елян":3350,"елед":3351,"елег":3352,"ина":3353,"инд":3354,"ино":3355,"инер":3356,"индж":3357,"руд":3358,"руж":3359,"рук":3360,"рур":3361,"рушк":3362,"рупал":3363,"ручч":3364,"плу":3365,"плек":3366,"плак":3367,"плод":3368,"плаг":3369,"плант":3370,"плез":3371,"плеб":3372,"плект":3373,"плас":3374,"плеск":3375,"плiк":3376,"віх":3377,"віє":3378,"вікон":3379,"вікар":3380,"вітер":3381,"вісь":3382,"візу":3383,"вілл":3384,"візит":3385,"поді":3386,"поду":3387,"поми":3388,"подви":3389,"еклі":3390,"екцій":3391,"експ":3392,"еклам":3393,"ексуд":3394,"експон":3395,"екзист":3396,"амер":3397,"амар":3398,"амон":3399,"амін":3400,"ампер":3401,"амфі":3402,"амуні":3403,"амплі":3404,"урч":3405,"урі":3406,"урян":3407,"тиз":3408,"тиш":3409,"тиро":3410,"тиран":3411,"тикул":3412,"тися":3413,"альман":3414,"акро":3415,"акре":3416,"аквар":3417,"аксон":3418,"їл":3419,"їм":3420,"їп":3421,"їх":3422,"їц":3423,"їч":3424,"їсть":3425,"їчн":3426,"піо":3427,"піс":3428,"піч":3429,"піан":3430,"піро":3431,"пілі":3432,"підж":3433,"пітер":3434,"пістр":3435,"пізн":3436,"пістол":3437,"ліо":3438,"ліп":3439,"ліч":3440,"ліан":3441,"лівер":3442,"літер":3443,"лісь":3444,"літур":3445,"міг":3446,"міл":3447,"міє":3448,"міра":3449,"мікро":3450,"міся":3451,"скіт":3452,"сквар":3453,"скіф":3454,"диб":3455,"диз":3456,"дип":3457,"дих":3458,"диль":3459,"дитор":3460,"дисп":3461,"диску":3462,"диван":3463,"димент":3464,"дикц":3465,"дистри":3466,"дирек":3467,"диплом":3468,"дизель":3469,"ціг":3470,"ціан":3471,"цідж":3472,"оде":3473,"одо":3474,"один":3475,"одій":3476,"одча":3477,"одно":3478,"ото":3479,"отц":3480,"отам":3481,"отець":3482,"лап":3483,"лач":3484,"лаш":3485,"лай":3486,"лаштува":3487,"маc":3488,"маст":3489,"мако":3490,"мачу":3491,"масл":3492,"мазд":3493,"машин":3494,"мажор":3495,"рів":3496,"ріо":3497,"рія":3498,"різь":3499,"різн":3500,"був":3501,"бува":3502,"бута":3503,"бутон":3504,"булат":3505,"бусур":3506,"булан":3507,"булав":3508,"бунд":3509,"бурун":3510,"лео":3511,"лест":3512,"легі":3513,"леман":3514,"лезь":3515,"леме":3516,"леген":3517,"коно":3518,"коню":3519,"контр":3520,"конеч":3521,"коноп":3522,"контро":3523,"конфу":3524,"конвен":3525,"контин":3526,"конгре":3527,"конгру":3528,"конфес":3529,"консуль":3530,"кондиці":3531,"омо":3532,"омер":3533,"омен":3534,"омир":3535,"обр":3536,"обон":3537,"обов":3538,"обстру":3539,"обскур":3540,"очч":3541,"очка":3542,"паp":3543,"паx":3544,"пав":3545,"паг":3546,"паж":3547,"паз":3548,"паст":3549,"пай":3550,"папі":3551,"паск":3552,"паць":3553,"паци":3554,"пась":3555,"пасер":3556,"падь":3557,"пастор":3558,"сиз":3559,"сип":3560,"сидж":3561,"силу":3562,"сить":3563,"симент":3564,"силл":3565,"сифілі":3566,"сироч":3567,"симіль":3568,"силос":3569,"прод":3570,"проз":3571,"проп":3572,"прото":3573,"провін":3574,"продук":3575,"профіл":3576,"простир":3577,"продукт":3578,"абер":3579,"абон":3580,"абат":3581,"абур":3582,"абіс":3583,"абхаз":3584,"янн":3585,"виж":3586,"вик":3587,"виш":3588,"вищ":3589,"вили":3590,"видо":3591,"емн":3592,"емат":3593,"емент":3594,"емуль":3595,"тув":3596,"туд":3597,"туп":3598,"туль":3599,"туар":3600,"туацій":3601,"енто":3602,"суж":3603,"сут":3604,"сух":3605,"сува":3606,"судж":3607,"супре":3608,"сувор":3609,"сушар":3610,"либ":3611,"лив":3612,"лиг":3613,"лиж":3614,"лис":3615,"лит":3616,"лих":3617,"лист":3618,"листо":3619,"лимон":3620,"агар":3621,"агул":3622,"агог":3623,"окк":3624,"окт":3625,"окен":3626,"октро":3627,"дід":3628,"діт":3629,"діон":3630,"дієн":3631,"дідь":3632,"діагон":3633,"перг":3634,"пере":3635,"перч":3636,"перед":3637,"персе":3638,"перлам":3639,"фіш":3640,"фіст":3641,"фіал":3642,"філо":3643,"фікс":3644,"нів":3645,"ніг":3646,"нім":3647,"ніц":3648,"ній":3649,"ніци":3650,"карл":3651,"карот":3652,"караг":3653,"карлю":3654,"карна":3655,"карто":3656,"карпат":3657,"кардин":3658,"карбон":3659,"карцин":3660,"карнав":3661,"авр":3662,"авант":3663,"есці":3664,"есцент":3665,"ескадр":3666,"есценц":3667,"пуг":3668,"пуж":3669,"пуз":3670,"пук":3671,"пух":3672,"пущ":3673,"пушк":3674,"пуанс":3675,"пупян":3676,"муж":3677,"муш":3678,"мута":3679,"мунд":3680,"мужиць":3681,"муніци":3682,"антен":3683,"ейн":3684,"ейтор":3685,"пари":3686,"парат":3687,"парод":3688,"параб":3689,"парик":3690,"параш":3691,"цид":3692,"цило":3693,"цикло":3694,"цивілі":3695,"лох":3696,"лош":3697,"лози":3698,"лось":3699,"гіл":3700,"гіпо":3701,"гіпер":3702,"гіля":3703,"гідд":3704,"гімна":3705,"люр":3706,"люль":3707,"люмін":3708,"людд":3709,"люкс":3710,"люмпен":3711,"нив":3712,"нид":3713,"нип":3714,"ниш":3715,"ману":3716,"мань":3717,"мандр":3718,"маніж":3719,"верг":3720,"верф":3721,"верти":3722,"вермі":3723,"верес":3724,"верблю":3725,"верещ":3726,"дум":3727,"дут":3728,"дува":3729,"дупель":3730,"бац":3731,"баст":3732,"башк":3733,"корд":3734,"кордон":3735,"корпул":3736,"осе":3737,"оска":3738,"осок":3739,"біо":3740,"біблі":3741,"над":3742,"насі":3743,"нажд":3744,"напів":3745,"надц":3746,"лук":3747,"луч":3748,"торк":3749,"тораль":3750,"тороч":3751,"торгов":3752,"губ":3753,"гуд":3754,"гус":3755,"гуч":3756,"гуш":3757,"густ":3758,"гува":3759,"гуман":3760,"гусь":3761,"гумен":3762,"гунд":3763,"терн":3764,"теро":3765,"зис":3766,"iнк":3767,"iнди":3768,"iнep":3769,"iнеp":3770,"iнcп":3771,"iнженер":3772,"iнжeн":3773,"лям":3774,"таш":3775,"табу":3776,"тадж":3777,"тась":3778,"тачан":3779,"ряж":3780,"рят":3781,"рях":3782,"рярх":3783,"пору":3784,"пород":3785,"порош":3786,"дез":3787,"демі":3788,"декаль":3789,"дешин":3790,"дезав":3791,"дешев":3792,"децим":3793,"вож":3794,"вой":3795,"воск":3796,"води":3797,"вояч":3798,"вогн":3799,"вояк":3800,"вояж":3801,"полоз":3802,"полуд":3803,"тог":3804,"тоз":3805,"топ":3806,"тоск":3807,"топол":3808,"тополь":3809,"гаc":3810,"гад":3811,"гаж":3812,"гас":3813,"гаш":3814,"гацій":3815,"гастро":3816,"трен":3817,"трал":3818,"ирк":3819,"ирт":3820,"кіб":3821,"кіл":3822,"кіш":3823,"кій":3824,"кібер":3825,"кімер":3826,"блан":3827,"блат":3828,"сіб":3829,"січ":3830,"сія":3831,"сіон":3832,"ечк":3833,"ийн":3834,"евл":3835,"евн":3836,"марч":3837,"маргар":3838,"марган":3839,"маргін":3840,"ячмін":3841,"гнат":3842,"адрес":3843,"адвербі":3844,"колот":3845,"колоч":3846,"колос":3847,"колег":3848,"колош":3849,"колум":3850,"колегі":3851,"ятк":3852,"ятур":3853,"ятник":3854,"гого":3855,"гоут":3856,"ебль":3857,"ебен":3858,"ебон":3859,"итар":3860,"cтa":3861,"cтв":3862,"cтop":3863,"естан":3864,"естон":3865,"естет":3866,"азм":3867,"азо":3868,"азов":3869,"ктон":3870,"прик":3871,"прим":3872,"приві":3873,"прича":3874,"приват":3875,"притом":3876,"приєм":3877,"apгi":3878,"apxe":3879,"епс":3880,"штов":3881,"штанг":3882,"комл":3883,"комп":3884,"комод":3885,"компар":3886,"компет":3887,"коменд":3888,"горн":3889,"гороб":3890,"мож":3891,"преди":3892,"преци":3893,"претен":3894,"презер":3895,"шкал":3896,"зах":3897,"запор":3898,"киць":3899,"килим":3900,"пic":3901,"пio":3902,"пiв":3903,"пiд":3904,"пiк":3905,"унтер":3906,"бари":3907,"барвін":3908,"барис":3909,"барабан":3910,"варк":3911,"варшав":3912,"опон":3913,"опто":3914,"берзь":3915,"беркл":3916,"береж":3917,"бернар":3918,"черв":3919,"чере":3920,"черк":3921,"aпap":3922,"пис":3923,"пищ":3924,"пиль":3925,"пирій":3926,"трав":3927,"трап":3928,"траль":3929,"чапл":3930,"чаїн":3931,"чуд":3932,"чух":3933,"peт":3934,"peє":3935,"peaп":3936,"peгi":3937,"peгy":3938,"стих":3939,"стигм":3940,"стигмат":3941,"алімент":3942,"волош":3943,"волог":3944,"воліч":3945,"канц":3946,"канар":3947,"канцер":3948,"кантил":3949,"страт":3950,"доск":3951,"миш":3952,"сач":3953,"сацій":3954,"сапон":3955,"спел":3956,"спекц":3957,"серв":3958,"серед":3959,"середж":3960,"розум":3961,"курант":3962,"курган":3963,"брат":3964,"крекін":3965,"кресли":3966,"сош":3967,"івк":3968,"івниц":3969,"балон":3970,"балал":3971,"балет":3972,"балоч":3973,"гард":3974,"гармон":3975,"мінар":3976,"мінгре":3977,"ватер":3978,"гpa":3979,"гpi":3980,"гpo":3981,"дрон":3982,"мерин":3983,"мереж":3984,"мериді":3985,"галл":3986,"галер":3987,"галак":3988,"галант":3989,"галуз":3990,"морг":3991,"морд":3992,"морт":3993,"морган":3994,"мортал":3995,"аспір":3996,"крам":3997,"крап":3998,"краєч":3999,"криж":4000,"крим":4001,"крит":4002,"крипт":4003,"форк":4004,"форс":4005,"клон":4006,"клам":4007,"панах":4008,"слин":4009,"тари":4010,"тарат":4011,"тарад":4012,"чим":4013,"чих":4014,"чист":4015,"бої":4016,"вуж":4017,"ганг":4018,"ганк":4019,"іллі":4020,"стерв":4021,"борд":4022,"бороз":4023,"борід":4024,"борош":4025,"ранц":4026,"ворох":4027,"зуун":4028,"зуват":4029,"катор":4030,"катет":4031,"катур":4032,"категор":4033,"ферт":4034,"крот":4035,"крох":4036,"метр":4037,"метан":4038,"метал":4039,"метаст":4040,"палат":4041,"палян":4042,"палубл":4043,"снов":4044,"снаряд":4045,"герц":4046,"голін":4047,"голос":4048,"граф":4049,"скуп":4050,"скутер":4051,"скуува":4052,"трох":4053,"трош":4054,"троян":4055,"імл":4056,"імпер":4057,"бурс":4058,"бурят":4059,"калмиць":4060,"шил":4061,"шип":4062,"шиш":4063,"шифон":4064,"експрес":4065,"експерт":4066,"вален":4067,"дьор":4068,"дьог":4069,"кoc":4070,"кoп":4071,"кoр":4072,"кoпi":4073,"кoмe":4074,"ковбан":4075,"улан":4076,"флер":4077,"флам":4078,"флот":4079,"aтop":4080,"здра":4081,"моно":4082,"моні":4083,"праз":4084,"прас":4085,"правл":4086,"трим":4087,"трибун":4088,"ультра":4089,"стром":4090,"строф":4091,"строєн":4092,"меж":4093,"мео":4094,"меди":4095,"меду":4096,"механ":4097,"синь":4098,"синто":4099,"талан":4100,"ярк":4101,"ярм":4102,"стьер":4103,"стьож":4104,"страд":4105,"страс":4106,"знам":4107,"молот":4108,"молоч":4109,"моліб":4110,"пaл":4111,"пaci":4112,"пaxi":4113,"апен":4114,"апель":4115,"нео":4116,"нефел":4117,"нехлю":4118,"небудь":4119,"неандер":4120,"тендер":4121,"coм":4122,"coп":4123,"coц":4124,"гид":4125,"гиз":4126,"ліне":4127,"ног":4128,"охай":4129,"патри":4130,"сард":4131,"сарай":4132,"труд":4133,"трус":4134,"труш":4135,"вірь":4136,"ipиг":4137,"iмiт":4138,"iмпep":4139,"iмпpo":4140,"гену":4141,"гонь":4142,"сенсу":4143,"сенег":4144,"солом":4145,"солодж":4146,"треб":4147,"трепан":4148,"хид":4149,"хиж":4150,"хих":4151,"вінт":4152,"клеє":4153,"клейон":4154,"латер":4155,"латан":4156,"латин":4157,"тьм":4158,"піднеб":4159,"підший":4160,"ажур":4161,"гeкт":4162,"динер":4163,"динамо":4164,"скаф":4165,"pax":4166,"paд":4167,"paqio":4168,"брид":4169,"брик":4170,"брил":4171,"бриль":4172,"доволь":4173,"няв":4174,"танк":4175,"фарб":4176,"фрагм":4177,"харак":4178,"харків":4179,"відк":4180,"відки":4181,"пірч":4182,"дзер":4183,"дзвін":4184,"вино":4185,"грот":4186,"жираф":4187,"пeл":4188,"повни":4189,"тіє":4190,"тинг":4191,"турбул":4192,"шпур":4193,"браз":4194,"брам":4195,"вiд":4196,"вicт":4197,"долуж":4198,"клап":4199,"клас":4200,"клай":4201,"бров":4202,"брош":4203,"греб":4204,"иця":4205,"макі":4206,"прус":4207,"селер":4208,"селен":4209,"тютю":4210,"узбець":4211,"холодж":4212,"камчад":4213,"гiд":4214,"гiгi":4215,"грим":4216,"гривен":4217,"денц":4218,"денцій":4219,"дроб":4220,"дров":4221,"дром":4222,"пеp":4223,"пея":4224,"секунд":4225,"сурд":4226,"сурм":4227,"плюж":4228,"плюві":4229,"груз":4230,"дорож":4231,"илен":4232,"круп":4233,"ланг":4234,"резер":4235,"резон":4236,"резин":4237,"афан":4238,"афон":4239,"ацин":4240,"багат":4241,"глагол":4242,"квас":4243,"ламент":4244,"мелан":4245,"толер":4246,"толоч":4247,"явоч":4248,"візерун":4249,"гac":4250,"годин":4251,"мото":4252,"мотор":4253,"мотуз":4254,"салон":4255,"салат":4256,"секц":4257,"ізм":4258,"позиці":4259,"каліфор":4260,"каліпт":4261,"прят":4262,"шерх":4263,"шерет":4264,"рейк":4265,"гoн":4266,"гoп":4267,"мoг":4268,"прер":4269,"пасоч":4270,"вольт":4271,"iдio":4272,"iзo":4273,"ефемер":4274,"мiгp":4275,"народ":4276,"свек":4277,"саман":4278,"сальто":4279,"спіль":4280,"ретель":4281,"вальв":4282,"скрипт":4283,"аполь":4284,"биль":4285,"весел":4286,"гомін":4287,"ескім":4288,"сором":4289,"табель":4290,"таблет":4291,"целюл":4292,"пульс":4293,"пульт":4294,"циркум":4295,"icтep":4296,"вести":4297,"епіл":4298,"лонг":4299,"скоп":4300,"скоч":4301,"сакса":4302,"фанфар":4303,"штук":4304,"штуч":4305,"станці":4306,"станцій":4307,"плоск":4308,"фірм":4309,"транзи":4310,"транскри":4311,"accip":4312,"ypг":4313,"бенефі":4314,"бред":4315,"воде":4316,"гніч":4317,"декор":4318,"десят":4319,"завод":4320,"крат":4321,"нерп":4322,"тату":4323,"таки":4324,"фонтан":4325,"цурупал":4326,"ібаль":4327,"постол":4328,"бульб":4329,"протег":4330,"філіп":4331,"філісти":4332,"вовк":4333,"вовч":4334,"глиб":4335,"друг":4336,"друж":4337,"друк":4338,"демо":4339,"демарка":4340,"феєр":4341,"фрик":4342,"хрест":4343,"інгтон":4344,"симфон":4345,"фільде":4346,"фільтр":4347,"aмiп":4348,"aгpi":4349,"aгpo":4350,"cиx":4351,"cигн":4352,"eнг":4353,"гріб":4354,"гряд":4355,"граніт":4356,"дагом":4357,"зонт":4358,"лoв":4359,"лорд":4360,"офіцер":4361,"пpеc":4362,"пнев":4363,"псев":4364,"смут":4365,"тpic":4366,"тавр":4367,"тавол":4368,"феніл":4369,"франк":4370,"цюк":4371,"цюп":4372,"шліф":4373,"я́к":4374,"я́ч":4375,"ієро":4376,"плащ":4377,"пункт":4378,"ведмед":4379,"киргизь":4380,"панто":4381,"пopт":4382,"смереч":4383,"текст":4384,"таган":4385,"фальш":4386,"фунд":4387,"хльост":4388,"хамел":4389,"хвиц":4390,"хвиль":4391,"шатир":4392,"шкарпет":4393,"стовбур":4394,"рушеч":4395,"абіліт":4396,"осьм":4397,"iпox":4398,"ixтi":4399,"вентар":4400,"дряп":4401,"мезон":4402,"митропол":4403,"слід":4404,"свирі":4405,"хабар":4406,"оріш":4407,"орієнт":4408,"плінт":4409,"позант":4410,"еконо":4411,"парафі":4412,"специ":4413,"каламут":4414,"хазяй":4415,"ecгe":4416,"аpx":4417,"бандер":4418,"вoювa":4419,"гляд":4420,"гiпep":4421,"еїчн":4422,"зеє":4423,"небор":4424,"сатур":4425,"фалер":4426,"фейєр":4427,"фронт":4428,"штадт":4429,"шкіль":4430,"ставропі":4431,"алітар":4432,"резист":4433,"овиий":4434,"плеска":4435,"папуж":4436,"католич":4437,"католиць":4438,"книж":4439,"остров":4440,"уруг":4441,"флігель":4442,"фото":4443,"рожев":4444,"радикал":4445,"віолон":4446,"сковор":4447,"диференці":4448,"лабс":4449,"конвой":4450,"пацюч":4451,"каракал":4452,"каракир":4453,"найтов":4454,"маршаль":4455,"клери":4456,"пaгpi":4457,"генерал":4458,"cкoп":4459,"iepo":4460,"дальтон":4461,"еваку":4462,"жолуд":4463,"мюль":4464,"недол":4465,"рентген":4466,"цурпал":4467,"роблен":4468,"рибяч":4469,"конвейер":4470,"конвейєр":4471,"промисл":4472,"публік":4473,"душеч":4474,"сільван":4475,"iнтeгp":4476,"iнтeлi":4477,"пepeч":4478,"грейдер":4479,"xapк":4480,"глобул":4481,"гвоз":4482,"евич":4483,"фаміль":4484,"шлейф":4485,"стомат":4486,"решіт":4487,"плутон":4488,"лібераль":4489,"лауреаг":4490,"магазин":4491,"консерват":4492,"конференц":4493,"промінн":4494,"суспен":4495,"територ":4496,"opгaн":4497,"египет":4498,"крейсер":4499,"ассірі":4500,"iнтелi":4501,"батальйон":4502,"кампаній":4503,"делікат":4504,"нагородж":4505,"екземпл":4506,"вегет":4507,"вeнтap":4508,"гватем":4509,"кандзю":4510,"слюсар":4511,"тpiyмф":4512,"хліб":4513,"шрапн":4514,"шкамат":4515,"кумуля":4516,"екзистенц":4517,"пістолет":4518,"супремат":4519,"насі́н":4520,"iнжeнep":4521,"крекінг":4522,"(<":4523,"-•":4524,"04":4525,"0з":4526,"0ч":4527,"5aгaт":4528,"6ва":4529,"6io":4530,"7і":4531,"ae":4532,"an":4533,"à":4534,"aц":4535,"aю":4536,"aві":4537,"aга":4538,"acт":4539,"aте":4540,"aвл":4541,"aльн":4542,"aтив":4543,"aкy":4544,"acпip":4545,"aкc":4546,"aюв":4547,"aїк":4548,"aлія":4549,"aгог":4550,"aнім":4551,"cs":4552,"cа":4553,"cя":4554,"cен":4555,"cал":4556,"cін":4557,"cка":4558,"cел":4559,"cин":4560,"cек":4561,"cак":4562,"cпі":4563,"cмі":4564,"cем":4565,"cаг":4566,"cлу":4567,"cтер":4568,"ciн":4569,"cто":4570,"cад":4571,"ciп":4572,"cім":4573,"ciт":4574,"cап":4575,"cне":4576,"cic":4577,"caг":4578,"cаж":4579,"cік":4580,"cпep":4581,"cвіт":4582,"cіп":4583,"caн":4584,"cлов":4585,"cмi":4586,"cyp":4587,"cгат":4588,"cцен":4589,"cвк":4590,"cпp":4591,"cгop":4592,"cпop":4593,"cпіль":4594,"ceкc":4595,"cax":4596,"cдi":4597,"cоp":4598,"cвiт":4599,"cгаг":4600,"cвap":4601,"cгаp":4602,"caж":4603,"ccep":4604,"cмiт":4605,"cоc":4606,"cоx":4607,"cтук":4608,"cпаc":4609,"cгeп":4610,"cxiп":4611,"cюp":4612,"cліп":4613,"cтуп":4614,"cгаc":4615,"cгac":4616,"cгoп":4617,"eж":4618,"eт":4619,"eц":4620,"eч":4621,"eць":4622,"ecт":4623,"eєць":4624,"eдин":4625,"eвa":4626,"eге":4627,"ece":4628,"exe":4629,"exo":4630,"eдi":4631,"eтн":4632,"eїcт":4633,"eдц":4634,"eцв":4635,"eтio":4636,"eгоp":4637,"eмiгp":4638,"ij":4639,"in":4640,"i̇":4641,"iж":4642,"iц":4643,"iч":4644,"iст":4645,"iон":4646,"iат":4647,"iов":4648,"iї":4649,"iом":4650,"iян":4651,"iлю":4652,"iтр":4653,"iза":4654,"iюва":4655,"iєв":4656,"iгал":4657,"iaт":4658,"iмл":4659,"iсть":4660,"iзо":4661,"iвi":4662,"iдол":4663,"iгo":4664,"iчн":4665,"iвк":4666,"iянк":4667,"iaгp":4668,"iкоп":4669,"iгет":4670,"iждж":4671,"iдил":4672,"iгy":4673,"iмун":4674,"ieнт":4675,"iлюстр":4676,"iпip":4677,"iкoн":4678,"iкoп":4679,"ji":4680,"jaп":4681,"jiт":4682,"jeкт":4683,"joг":4684,"lя":4685,"nan":4686,"oo":4687,"oб":4688,"oв":4689,"oз":4690,"oи":4691,"oм":4692,"oр":4693,"oт":4694,"oч":4695,"oщ":4696,"oє":4697,"oма":4698,"oму":4699,"oгн":4700,"ocт":4701,"oкт":4702,"oча":4703,"oio":4704,"oпт":4705,"oмл":4706,"oну":4707,"oпep":4708,"oвa":4709,"oтo":4710,"oмe":4711,"oкc":4712,"oлій":4713,"oпac":4714,"oмy":4715,"oпаc":4716,"pв":4717,"pн":4718,"pп":4719,"pек":4720,"pод":4721,"pок":4722,"pев":4723,"pад":4724,"pоз":4725,"pаз":4726,"pег":4727,"paт":4728,"pап":4729,"pic":4730,"piм":4731,"pив":4732,"pуп":4733,"pец":4734,"pоc":4735,"pоx":4736,"pешт":4737,"pаї":4738,"pеx":4739,"qв":4740,"sio":4741,"sцiя":4742,"saгaт":4743,"vва":4744,"viд":4745,"xy":4746,"xа":4747,"xл":4748,"xм":4749,"xов":4750,"xод":4751,"xто":4752,"xpe":4753,"xват":4754,"xім":4755,"xaт":4756,"xiт":4757,"xід":4758,"xip":4759,"xiм":4760,"xaн":4761,"xiд":4762,"xyp":4763,"xpaп":4764,"xaм":4765,"xлo":4766,"xioн":4767,"xаp":4768,"xвo":4769,"xопл":4770,"xлип":4771,"xpoм":4772,"xpoп":4773,"xвац":4774,"yc":4775,"yx":4776,"yг":4777,"yз":4778,"yи":4779,"yн":4780,"yал":4781,"yва":4782,"ycт":4783,"yкт":4784,"yюч":4785,"yпep":4786,"yвa":4787,"yci":4788,"yге":4789,"yтил":4790,"yїт":4791,"yaль":4792,"yгоп":4793,"yaцiя":4794,"yвaт":4795,"ž":4796,"́p":4797,"́б":4798,"́к":4799,"́л":4800,"́р":4801,"́ик":4802,"̇м":4803,"̈т":4804,"κур":4805,"κоп":4806,"κіл":4807,"κіп":4808,"κрап":4809,"κінч":4810,"ащ":4811,"ає":4812,"аі":4813,"аон":4814,"аці":4815,"асу":4816,"асі":4817,"аєн":4818,"апi":4819,"аюва":4820,"акур":4821,"аяк":4822,"афор":4823,"афер":4824,"ауль":4825,"астра":4826,"аїн":4827,"ація":4828,"акул":4829,"аус":4830,"акот":4831,"авіз":4832,"абул":4833,"аскор":4834,"аїд":4835,"аcн":4836,"ауст":4837,"абуд":4838,"апрес":4839,"авів":4840,"адил":4841,"адич":4842,"аціон":4843,"авий":4844,"апут":4845,"апарт":4846,"ацiя":4847,"акут":4848,"аплан":4849,"апік":4850,"ацил":4851,"ачик":4852,"аорт":4853,"асигн":4854,"аюват":4855,"абуш":4856,"асист":4857,"аперт":4858,"акомпан":4859,"аскет":4860,"аціі":4861,"апроб":4862,"асіо":4863,"апрет":4864,"астраль":4865,"афіш":4866,"апарат":4867,"ацид":4868,"акомод":4869,"астигмат":4870,"бг":4871,"бз":4872,"бя":4873,"бй":4874,"бва":4875,"бод":4876,"бян":4877,"бант":4878,"бев":4879,"беб":4880,"бег":4881,"броз":4882,"бсл":4883,"бio":4884,"бaт":4885,"бик":4886,"беж":4887,"бех":4888,"бил":4889,"беш":4890,"брій":4891,"бїд":4892,"бавл":4893,"бют":4894,"благ":4895,"бвя":4896,"бвий":4897,"бедр":4898,"бекон":4899,"бодн":4900,"бокс":4901,"бý":4902,"бсз":4903,"бaгaт":4904,"бопон":4905,"бретель":4906,"бiтр":4907,"бpaт":4908,"вb":4909,"вв":4910,"вс":4911,"вш":4912,"вро":4913,"вмі":4914,"вант":4915,"вос":4916,"втор":4917,"вiн":4918,"вува":4919,"всь":4920,"вep":4921,"всі":4922,"вят":4923,"веб":4924,"вун":4925,"вaп":4926,"вча":4927,"вект":4928,"вiп":4929,"вуд":4930,"всл":4931,"вчи":4932,"вно":4933,"вaг":4934,"вдов":4935,"все":4936,"втол":4937,"вдан":4938,"веск":4939,"вдар":4940,"взя":4941,"влад":4942,"вандр":4943,"втуз":4944,"врат":4945,"враж":4946,"врун":4947,"валіз":4948,"вec":4949,"ввіч":4950,"власт":4951,"везь":4952,"вебер":4953,"вправ":4954,"вектор":4955,"влас":4956,"вдів":4957,"вперт":4958,"вандал":4959,"вгав":4960,"вруб":4961,"вмис":4962,"вбог":4963,"всід":4964,"вбож":4965,"вaгop":4966,"вред":4967,"векцій":4968,"вочка":4969,"врят":4970,"вправл":4971,"вселен":4972,"восьм":4973,"гв":4974,"гц":4975,"гч":4976,"гю":4977,"гя":4978,"гү":4979,"гпо":4980,"гес":4981,"гму":4982,"глю":4983,"ганд":4984,"гaп":4985,"гми":4986,"гект":4987,"гio":4988,"гекс":4989,"гвал":4990,"гaт":4991,"гмон":4992,"гйд":4993,"гic":4994,"гтон":4995,"гaг":4996,"грон":4997,"гех":4998,"гео":4999,"гмo":5000,"грій":5001,"гзм":5002,"гyp":5003,"гчн":5004,"говл":5005,"гавл":5006,"гінн":5007,"глев":5008,"глеч":5009,"гiпo":5010,"гзаг":5011,"гаван":5012,"глос":5013,"гебель":5014,"гpeг":5015,"гaпт":5016,"глюк":5017,"габіліт":5018,"дx":5019,"дб":5020,"дс":5021,"дх":5022,"дот":5023,"дму":5024,"двер":5025,"дба":5026,"дос":5027,"длу":5028,"дep":5029,"дяч":5030,"доп":5031,"дчер":5032,"дзь":5033,"денн":5034,"дяк":5035,"дах":5036,"дай":5037,"дно":5038,"дaг":5039,"даж":5040,"дення":5041,"дюн":5042,"дрей":5043,"дскор":5044,"дiз":5045,"длов":5046,"дяд":5047,"двіль":5048,"дяг":5049,"давл":5050,"дрем":5051,"дриж":5052,"дiпo":5053,"дeм":5054,"дaкц":5055,"двip":5056,"длуб":5057,"дваб":5058,"доде":5059,"дрезин":5060,"дя́ч":5061,"еo":5062,"еs":5063,"еа":5064,"ея":5065,"еор":5066,"еон":5067,"еин":5068,"ебу":5069,"еді":5070,"епол":5071,"еад":5072,"еоз":5073,"его":5074,"еєн":5075,"ецій":5076,"ешк":5077,"ефер":5078,"екул":5079,"епід":5080,"еолі":5081,"еяв":5082,"еpi":5083,"еенц":5084,"ескор":5085,"еміт":5086,"едій":5087,"емір":5088,"еянк":5089,"еміс":5090,"еджува":5091,"егід":5092,"евий":5093,"екут":5094,"евак":5095,"ефуз":5096,"едія":5097,"едицій":5098,"едикт":5099,"еолій":5100,"епроп":5101,"ехид":5102,"жв":5103,"жр":5104,"жат":5105,"жін":5106,"жаль":5107,"жак":5108,"жем":5109,"жаг":5110,"жав":5111,"жант":5112,"жлу":5113,"жев":5114,"жад":5115,"жанд":5116,"жap":5117,"жут":5118,"жмен":5119,"жул":5120,"жай":5121,"жбан":5122,"жик":5123,"жеж":5124,"жмак":5125,"жуч":5126,"жук":5127,"жнь":5128,"ждан":5129,"жарт":5130,"жмур":5131,"жевр":5132,"жура":5133,"жебр":5134,"жвак":5135,"жбух":5136,"жвяк":5137,"жмут":5138,"жати":5139,"жвях":5140,"жебон":5141,"з2":5142,"зi":5143,"зy":5144,"зв":5145,"зр":5146,"зат":5147,"зва":5148,"зру":5149,"зві":5150,"зрі":5151,"зоб":5152,"заб":5153,"зян":5154,"зли":5155,"збі":5156,"зят":5157,"зеб":5158,"зза":5159,"залі":5160,"зут":5161,"збр":5162,"зів":5163,"зень":5164,"змін":5165,"зуд":5166,"звор":5167,"зір":5168,"звір":5169,"збан":5170,"злат":5171,"зош":5172,"зія":5173,"зяв":5174,"зpi":5175,"зіп":5176,"злак":5177,"злот":5178,"зінь":5179,"зебр":5180,"згй":5181,"зіф":5182,"зрад":5183,"зрин":5184,"зліт":5185,"загон":5186,"зять":5187,"зйм":5188,"звip":5189,"злоч":5190,"зніт":5191,"зніч":5192,"здим":5193,"зоді":5194,"здуш":5195,"зівч":5196,"зрив":5197,"зруй":5198,"здух":5199,"зявля":5200,"звy":5201,"зредаг":5202,"звищ":5203,"зрозум":5204,"звідк":5205,"иc":5206,"иp":5207,"иx":5208,"иа":5209,"ио":5210,"ип":5211,"ищ":5212,"иь":5213,"ию":5214,"иқ":5215,"иан":5216,"ика":5217,"иці":5218,"иом":5219,"иян":5220,"иля":5221,"итр":5222,"игн":5223,"игор":5224,"имо":5225,"ишк":5226,"ияк":5227,"изн":5228,"ильн":5229,"икул":5230,"имент":5231,"идин":5232,"иой":5233,"ипін":5234,"иськ":5235,"изува":5236,"истик":5237,"игац":5238,"ище":5239,"иcг":5240,"ировк":5241,"илія":5242,"игіт":5243,"и́в":5244,"икатур":5245,"изонт":5246,"ифунд":5247,"кп":5248,"кш":5249,"кү":5250,"кй":5251,"кск":5252,"кси":5253,"кей":5254,"квер":5255,"кiн":5256,"кep":5257,"кий":5258,"кев":5259,"кеб":5260,"кег":5261,"кaп":5262,"квол":5263,"ксер":5264,"кмет":5265,"кaт":5266,"кiт":5267,"кван":5268,"кic":5269,"кip":5270,"кція":5271,"кну":5272,"кpa":5273,"кпe":5274,"ксе":5275,"кaн":5276,"кміт":5277,"клич":5278,"кpaп":5279,"ксим":5280,"кeп":5281,"кедр":5282,"кмин":5283,"ксил":5284,"ктус":5285,"клик":5286,"кандал":5287,"кестр":5288,"кiй":5289,"кмй":5290,"кмеч":5291,"кpac":5292,"кяхт":5293,"кміч":5294,"кдуг":5295,"кпiп":5296,"кгич":5297,"кефір":5298,"киндж":5299,"квінт":5300,"кiвi":5301,"лж":5302,"лн":5303,"лель":5304,"лод":5305,"лень":5306,"лекс":5307,"лaт":5308,"лic":5309,"ленд":5310,"лакт":5311,"лекц":5312,"лiк":5313,"лектор":5314,"лже":5315,"лiє":5316,"лaз":5317,"лжець":5318,"лый":5319,"лiмiт":5320,"лaю":5321,"мч":5322,"мш":5323,"мщ":5324,"мст":5325,"млі":5326,"мли":5327,"мей":5328,"мло":5329,"мep":5330,"мий":5331,"мест":5332,"малі":5333,"мень":5334,"мiп":5335,"мio":5336,"мip":5337,"мiм":5338,"мня":5339,"мaн":5340,"мрій":5341,"мбон":5342,"мac":5343,"мйк":5344,"мовл":5345,"мбрі":5346,"млад":5347,"мяст":5348,"мax":5349,"мйл":5350,"мрак":5351,"мебель":5352,"мaв":5353,"мебль":5354,"мног":5355,"мaгpi":5356,"мзрин":5357,"нe":5358,"нi":5359,"нv":5360,"нy":5361,"нг":5362,"нк":5363,"нм":5364,"нч":5365,"наль":5366,"нель":5367,"ндж":5368,"нес":5369,"нант":5370,"нос":5371,"неч":5372,"няч":5373,"нест":5374,"нaп":5375,"нень":5376,"ндр":5377,"нект":5378,"нул":5379,"нaт":5380,"нуль":5381,"нiм":5382,"натив":5383,"нйк":5384,"новл":5385,"невр":5386,"нaл":5387,"нюш":5388,"нeo":5389,"неньк":5390,"нюк":5391,"нрав":5392,"нинь":5393,"нобі":5394,"нaв":5395,"нянь":5396,"нність":5397,"нý":5398,"нii":5399,"нокт":5400,"н́ик":5401,"о6":5402,"оi":5403,"оκ":5404,"оу":5405,"ою":5406,"оє":5407,"оку":5408,"опі":5409,"оди":5410,"ома":5411,"оць":5412,"окон":5413,"огі":5414,"опор":5415,"ояч":5416,"ооз":5417,"оєн":5418,"оаз":5419,"оюва":5420,"ости":5421,"остр":5422,"ояк":5423,"осто":5424,"оши":5425,"ость":5426,"оїн":5427,"ойд":5428,"оги":5429,"окул":5430,"оус":5431,"опот":5432,"оєнн":5433,"оказ":5434,"опас":5435,"офт":5436,"окош":5437,"офір":5438,"офен":5439,"оплат":5440,"омах":5441,"обуд":5442,"огул":5443,"окун":5444,"оювa":5445,"окуп":5446,"окуляр":5447,"опоp":5448,"отий":5449,"обуш":5450,"огуль":5451,"огород":5452,"офорт":5453,"опій":5454,"опаш":5455,"ополон":5456,"оглоб":5457,"окульт":5458,"опозицій":5459,"о́в":5460,"опродукт":5461,"осуж":5462,"опук":5463,"оцило":5464,"огуд":5465,"опозиці":5466,"оцелюл":5467,"пx":5468,"пο":5469,"пф":5470,"пю":5471,"псу":5472,"пич":5473,"пят":5474,"пест":5475,"пег":5476,"пень":5477,"пект":5478,"пюр":5479,"пши":5480,"прон":5481,"пех":5482,"псов":5483,"прен":5484,"псал":5485,"пшен":5486,"псам":5487,"прій":5488,"пху":5489,"пчан":5490,"пcy":5491,"пxe":5492,"пйл":5493,"песь":5494,"пепт":5495,"пcу":5496,"пiнi":5497,"пести":5498,"пpac":5499,"пціг":5500,"певн":5501,"пчих":5502,"пранц":5503,"пcиx":5504,"рe":5505,"рж":5506,"рн":5507,"рө":5508,"рін":5509,"рант":5510,"рень":5511,"рну":5512,"рiз":5513,"рicт":5514,"рдес":5515,"рюш":5516,"рвій":5517,"рюм":5518,"рaд":5519,"рсз":5520,"ртут":5521,"рeє":5522,"сй":5523,"сро":5524,"спл":5525,"сди":5526,"сць":5527,"спро":5528,"сян":5529,"сфі":5530,"сед":5531,"спол":5532,"сбл":5533,"соз":5534,"себ":5535,"свол":5536,"сса":5537,"сват":5538,"сяк":5539,"сфер":5540,"секс":5541,"сїн":5542,"сзн":5543,"спід":5544,"сфра":5545,"свід":5546,"світ":5547,"сгро":5548,"смак":5549,"смот":5550,"санг":5551,"спорт":5552,"спас":5553,"смал":5554,"сміт":5555,"сцен":5556,"сюж":5557,"смач":5558,"собл":5559,"свит":5560,"сандр":5561,"сдам":5562,"сцин":5563,"сміль":5564,"слож":5565,"схам":5566,"спарт":5567,"срам":5568,"сплан":5569,"сфаг":5570,"схід":5571,"свіч":5572,"саван":5573,"смарк":5574,"сперм":5575,"сандал":5576,"сестр":5577,"септ":5578,"смич":5579,"сход":5580,"сріб":5581,"спуд":5582,"слюд":5583,"сволоч":5584,"сфep":5585,"сплен":5586,"сцієнт":5587,"сбад":5588,"смоль":5589,"сребр":5590,"снид":5591,"сепс":5592,"скомл":5593,"сберзь":5594,"сметан":5595,"сфалер":5596,"сплеска":5597,"сyге":5598,"сгв":5599,"тv":5600,"тx":5601,"тф":5602,"тх":5603,"тц":5604,"тщ":5605,"тст":5606,"тй":5607,"тін":5608,"тї":5609,"тоб":5610,"тос":5611,"тбі":5612,"тiн":5613,"тто":5614,"теч":5615,"тіт":5616,"танд":5617,"теб":5618,"талі":5619,"тсо":5620,"тень":5621,"тяк":5622,"тiп":5623,"тіл":5624,"тір":5625,"тaт":5626,"тiт":5627,"тюч":5628,"тван":5629,"тco":5630,"твір":5631,"тip":5632,"тть":5633,"тaг":5634,"тік":5635,"тpa":5636,"тхор":5637,"такт":5638,"тicт":5639,"тзм":5640,"тяг":5641,"тiк":5642,"тяж":5643,"тeл":5644,"тpaп":5645,"тбет":5646,"тінн":5647,"тінь":5648,"тебр":5649,"тeo":5650,"тждж":5651,"тнот":5652,"тix":5653,"тмин":5654,"тесь":5655,"тоді":5656,"токс":5657,"тести":5658,"тicн":5659,"тpac":5660,"тpeпe":5661,"твicт":5662,"уc":5663,"уi":5664,"уx":5665,"уф":5666,"ую":5667,"уі":5668,"уро":5669,"уал":5670,"ури":5671,"ует":5672,"ука":5673,"уел":5674,"уві":5675,"ути":5676,"уаль":5677,"умі":5678,"укон":5679,"усу":5680,"ули":5681,"упер":5682,"улю":5683,"уман":5684,"уба":5685,"убі":5686,"утор":5687,"угу":5688,"уга":5689,"усі":5690,"уий":5691,"уаз":5692,"угор":5693,"уза":5694,"увар":5695,"упи":5696,"утра":5697,"уча":5698,"удо":5699,"уми":5700,"уса":5701,"убр":5702,"учи":5703,"узу":5704,"угол":5705,"упт":5706,"умен":5707,"уець":5708,"умент":5709,"угам":5710,"увa":5711,"утил":5712,"угр":5713,"утиль":5714,"урет":5715,"увес":5716,"угур":5717,"уроч":5718,"улад":5719,"улож":5720,"уацій":5721,"урод":5722,"улеч":5723,"уреч":5724,"урос":5725,"увік":5726,"увіч":5727,"усил":5728,"упли":5729,"увіол":5730,"уцьк":5731,"удів":5732,"учас":5733,"угав":5734,"уроб":5735,"усис":5736,"увим":5737,"улус":5738,"узив":5739,"умис":5740,"убог":5741,"ускуль":5742,"урив":5743,"уальн":5744,"уліпл":5745,"угілл":5746,"уляг":5747,"уозн":5748,"угоp":5749,"убож":5750,"увул":5751,"удих":5752,"улаштува":5753,"усип":5754,"убої":5755,"устроєн":5756,"урезон":5757,"уроблен":5758,"фи":5759,"фм":5760,"фль":5761,"фро":5762,"фру":5763,"фла":5764,"фоб":5765,"фні":5766,"фтор":5767,"фтер":5768,"фир":5769,"фит":5770,"фop":5771,"фул":5772,"фтон":5773,"фaг":5774,"фог":5775,"фех":5776,"фаст":5777,"фиц":5778,"фрез":5779,"фанг":5780,"феш":5781,"фекц":5782,"фac":5783,"фебр":5784,"фрун":5785,"фабі":5786,"фебель":5787,"фляж":5788,"фести":5789,"фляг":5790,"фехт":5791,"фoгo":5792,"фтиз":5793,"фтог":5794,"фестон":5795,"фoтo":5796,"хе":5797,"хс":5798,"хра":5799,"хоч":5800,"хав":5801,"хант":5802,"хни":5803,"хува":5804,"хир":5805,"хмар":5806,"хоз":5807,"хит":5808,"хоп":5809,"халі":5810,"хкан":5811,"хми":5812,"хас":5813,"хтар":5814,"хран":5815,"хте":5816,"хул":5817,"хуль":5818,"хно":5819,"хох":5820,"хтон":5821,"хрон":5822,"хвіт":5823,"хвин":5824,"хтив":5825,"хаш":5826,"хаст":5827,"хлам":5828,"хмел":5829,"хук":5830,"хіп":5831,"хіо":5832,"хмур":5833,"хандр":5834,"хлор":5835,"хато":5836,"хміль":5837,"хлин":5838,"хруш":5839,"храм":5840,"хрус":5841,"хвіс":5842,"хмель":5843,"хйл":5844,"хрум":5845,"хітт":5846,"хтий":5847,"хемо":5848,"хедер":5849,"хемі":5850,"храп":5851,"хлів":5852,"хмиз":5853,"хвіст":5854,"хоке":5855,"хокей":5856,"хлуд":5857,"хгауз":5858,"хexe":5859,"цe":5860,"цг":5861,"цм":5862,"цо":5863,"цт":5864,"цол":5865,"цоб":5866,"цаб":5867,"цян":5868,"цви":5869,"цок":5870,"цман":5871,"цкор":5872,"цоп":5873,"цюва":5874,"цень":5875,"цах":5876,"цмол":5877,"цох":5878,"цмак":5879,"цпo":5880,"цео":5881,"цяв":5882,"цук":5883,"цанг":5884,"ценд":5885,"цеш":5886,"цуп":5887,"цеp":5888,"цюж":5889,"цінь":5890,"цебр":5891,"цвя":5892,"цнот":5893,"цедр":5894,"цвіс":5895,"цабан":5896,"цмок":5897,"цпy":5898,"цвіч":5899,"цебер":5900,"цвень":5901,"цапл":5902,"цзін":5903,"цоф":5904,"цвях":5905,"цоколь":5906,"цебен":5907,"цcкoп":5908,"чт":5909,"чх":5910,"чст":5911,"чй":5912,"чон":5913,"чко":5914,"чам":5915,"чур":5916,"чаль":5917,"чот":5918,"чаб":5919,"чок":5920,"чес":5921,"чман":5922,"чос":5923,"чед":5924,"чмар":5925,"чез":5926,"чіт":5927,"чит":5928,"чвар":5929,"чоп":5930,"чми":5931,"чкур":5932,"чюр":5933,"чім":5934,"чсть":5935,"чic":5936,"чік":5937,"чмак":5938,"чіс":5939,"чмел":5940,"чеш":5941,"чіп":5942,"чарт":5943,"чавл":5944,"чевр":5945,"чебр":5946,"чещ":5947,"чабан":5948,"чжур":5949,"чмок":5950,"чвак":5951,"чверт":5952,"чебер":5953,"чвяк":5954,"чмф":5955,"чрев":5956,"чесь":5957,"чмй":5958,"чвир":5959,"чвях":5960,"чiaн":5961,"чагар":5962,"шв":5963,"ші":5964,"шль":5965,"шон":5966,"шре":5967,"шри":5968,"шва":5969,"шві":5970,"шаль":5971,"шак":5972,"шот":5973,"шпу":5974,"шант":5975,"шман":5976,"шкор":5977,"шпол":5978,"шмар":5979,"шад":5980,"школ":5981,"шест":5982,"шун":5983,"шми":5984,"шкур":5985,"шiп":5986,"шас":5987,"шіл":5988,"шуль":5989,"шіль":5990,"шап":5991,"шпет":5992,"шкул":5993,"шaг":5994,"шаж":5995,"шус":5996,"швен":5997,"шкуль":5998,"шум":5999,"штив":6000,"шост":6001,"шкот":6002,"шник":6003,"шаст":6004,"шкаль":6005,"шпот":6006,"шлам":6007,"шіч":6008,"шуп":6009,"шіп":6010,"штил":6011,"шпорт":6012,"штиль":6013,"швел":6014,"шеф":6015,"шпуль":6016,"шепі":6017,"шуш":6018,"шіст":6019,"шеp":6020,"шлак":6021,"шмач":6022,"шпрот":6023,"шевр":6024,"шкап":6025,"шпач":6026,"шпул":6027,"шлаг":6028,"шмуль":6029,"шків":6030,"швед":6031,"шабель":6032,"шедр":6033,"шрот":6034,"шрам":6035,"шкува":6036,"шорт":6037,"шмарк":6038,"шмиг":6039,"швяк":6040,"шість":6041,"шепт":6042,"шльон":6043,"шруб":6044,"шпіон":6045,"швид":6046,"швир":6047,"шантаж":6048,"шльоп":6049,"шваб":6050,"шмаг":6051,"шмага":6052,"шнир":6053,"шванд":6054,"шлап":6055,"шнип":6056,"шосе":6057,"шморг":6058,"шланг":6059,"шплінт":6060,"щін":6061,"щет":6062,"щин":6063,"щаб":6064,"щент":6065,"щав":6066,"щед":6067,"щир":6068,"щич":6069,"щез":6070,"щіт":6071,"щит":6072,"щеп":6073,"щас":6074,"щіл":6075,"щім":6076,"щул":6077,"щіль":6078,"щаст":6079,"щуч":6080,"щіч":6081,"щук":6082,"щуп":6083,"щіп":6084,"щіб":6085,"щавл":6086,"щиць":6087,"щедр":6088,"щух":6089,"щупл":6090,"ьи":6091,"ьем":6092,"ьоп":6093,"ьяр":6094,"эн":6095,"юx":6096,"юб":6097,"юх":6098,"юц":6099,"юі":6100,"юка":6101,"юди":6102,"юць":6103,"юдж":6104,"юні":6105,"ютер":6106,"юсь":6107,"юза":6108,"юса":6109,"юбр":6110,"юмін":6111,"юуч":6112,"юхт":6113,"юпоч":6114,"ювн":6115,"юїт":6116,"юцин":6117,"юльк":6118,"юрод":6119,"юзит":6120,"юбк":6121,"ювіл":6122,"юсін":6123,"юрис":6124,"юбоч":6125,"юпч":6126,"юард":6127,"юрид":6128,"юдиці":6129,"юдоль":6130,"юскуль":6131,"юссель":6132,"юпітер":6133,"юліан":6134,"югацій":6135,"юстрад":6136,"яp":6137,"ям":6138,"яп":6139,"яю":6140,"ява":6141,"яї":6142,"яск":6143,"ярі":6144,"ядж":6145,"ятор":6146,"ягу":6147,"яеч":6148,"яcт":6149,"яцій":6150,"яки":6151,"яюва":6152,"явол":6153,"ями":6154,"ядр":6155,"ясл":6156,"яган":6157,"явор":6158,"ясен":6159,"яєч":6160,"явин":6161,"яог":6162,"япон":6163,"ясел":6164,"ясель":6165,"я́н":6166,"ягод":6167,"ябін":6168,"яеш":6169,"ялов":6170,"ямай":6171,"ярій":6172,"ярем":6173,"яфет":6174,"яриж":6175,"ялож":6176,"ягід":6177,"ямб":6178,"явий":6179,"яцiя":6180,"якут":6181,"ярус":6182,"ярос":6183,"якоб":6184,"язик":6185,"ябед":6186,"ялів":6187,"яскр":6188,"ялоз":6189,"язич":6190,"якір":6191,"яітар":6192,"яструб":6193,"яастро":6194,"яфф":6195,"яриз":6196,"яекспон":6197,"ягідд":6198,"ясач":6199,"єp":6200,"єс":6201,"єф":6202,"єі":6203,"єль":6204,"єре":6205,"єпі":6206,"єди":6207,"єли":6208,"єні":6209,"єпи":6210,"єстр":6211,"єран":6212,"єзу":6213,"єгер":6214,"єдин":6215,"єзо":6216,"єкц":6217,"єлей":6218,"єстат":6219,"єрей":6220,"єваль":6221,"єтик":6222,"ємн":6223,"єдам":6224,"єпap":6225,"єдн":6226,"єфрей":6227,"єктив":6228,"єхид":6229,"єдваб":6230,"і4":6231,"іc":6232,"іi":6233,"іj":6234,"іp":6235,"іx":6236,"іу":6237,"іі":6238,"іј":6239,"іал":6240,"іре":6241,"іри":6242,"іко":6243,"іпо":6244,"іти":6245,"іак":6246,"ії":6247,"іск":6248,"іот":6249,"ікон":6250,"іси":6251,"іян":6252,"іви":6253,"іент":6254,"іант":6255,"ікор":6256,"іля":6257,"ігн":6258,"іад":6259,"іоз":6260,"іаз":6261,"іпри":6262,"іцій":6263,"імо":6264,"ібер":6265,"істи":6266,"імер":6267,"іяк":6268,"іуд":6269,"ікл":6270,"ічи":6271,"істер":6272,"іран":6273,"ізу":6274,"ідь":6275,"ізд":6276,"істру":6277,"іція":6278,"ієч":6279,"ієр":6280,"істор":6281,"іськ":6282,"ігр":6283,"іскор":6284,"іміт":6285,"ієт":6286,"іатор":6287,"іянт":6288,"іандр":6289,"ігент":6290,"ірод":6291,"ідил":6292,"ірит":6293,"іцил":6294,"істик":6295,"ірис":6296,"імун":6297,"іматри":6298,"імід":6299,"ідіо":6300,"ізир":6301,"ірид":6302,"іїщ":6303,"іоть":6304,"ілюстр":6305,"ібіс":6306,"ідоль":6307,"ізоль":6308,"іровк":6309,"іскр":6310,"ілюз":6311,"іманент":6312,"іпаж":6313,"ілюмін":6314,"ігумен":6315,"ітополь":6316,"і7і":6317,"іюса":6318,"қаб":6319,"өв":6320,"นั":6321,"หนั":6322,"льг":6323,"льи":6324,"льп":6325,"льц":6326,"льч":6327,"лья":6328,"льол":6329,"льод":6330,"льот":6331,"льпан":6332,"льмен":6333,"льох":6334,"льош":6335,"льеж":6336,"льйон":6337,"льний":6338,"льниц":6339,"льність":6340,"льщик":6341,"льщиц":6342,"ерб":6343,"ерд":6344,"ерж":6345,"ерз":6346,"ерк":6347,"ерс":6348,"еран":6349,"ерро":6350,"еров":6351,"ерод":6352,"ерот":6353,"ером":6354,"ертер":6355,"еред":6356,"ерга":6357,"ерго":6358,"ерит":6359,"ермін":6360,"еруд":6361,"ерус":6362,"ерія":6363,"ераст":6364,"ергот":6365,"еруп":6366,"ербай":6367,"ержа":6368,"ербах":6369,"ерепен":6370,"еритр":6371,"ерупт":6372,"ана":6373,"ано":6374,"ану":6375,"анф":6376,"ань":6377,"анан":6378,"анов":6379,"анел":6380,"анин":6381,"анек":6382,"анам":6383,"анди":6384,"анот":6385,"аноч":6386,"анфі":6387,"анци":6388,"анич":6389,"аний":6390,"ангор":6391,"ансер":6392,"ангар":6393,"анган":6394,"аніл":6395,"анекс":6396,"анул":6397,"ануль":6398,"анап":6399,"англ":6400,"анція":6401,"анкер":6402,"ангi":6403,"аніс":6404,"анаф":6405,"антил":6406,"антич":6407,"антик":6408,"андій":6409,"анхі":6410,"аніон":6411,"аної":6412,"аналіз":6413,"анорт":6414,"аналіт":6415,"ангій":6416,"анемо":6417,"андул":6418,"андієць":6419,"анабаз":6420,"анестез":6421,"анізо":6422,"анонс":6423,"анакре":6424,"андез":6425,"ангаж":6426,"анестет":6427,"стін":6428,"стет":6429,"стек":6430,"стоб":6431,"стаг":6432,"стант":6433,"станд":6434,"стій":6435,"стаз":6436,"степ":6437,"стег":6438,"ствол":6439,"стень":6440,"стас":6441,"стач":6442,"стах":6443,"ствл":6444,"стаж":6445,"стеж":6446,"стник":6447,"стенд":6448,"ступ":6449,"стволь":6450,"стіж":6451,"старт":6452,"стіб":6453,"стрек":6454,"стовл":6455,"ставл":6456,"стінн":6457,"стінь":6458,"стреп":6459,"стрес":6460,"стрель":6461,"стебель":6462,"степен":6463,"стpи":6464,"стябл":6465,"стіжж":6466,"стапель":6467,"стюард":6468,"арв":6469,"арг":6470,"арл":6471,"арн":6472,"арр":6473,"арш":6474,"аран":6475,"арон":6476,"арат":6477,"араль":6478,"арма":6479,"аром":6480,"ароч":6481,"араб":6482,"арав":6483,"арбі":6484,"аргу":6485,"артр":6486,"арад":6487,"арго":6488,"аркт":6489,"аралі":6490,"аркан":6491,"ардо":6492,"арбо":6493,"арбор":6494,"армон":6495,"арап":6496,"аргон":6497,"ардин":6498,"архар":6499,"арео":6500,"арил":6501,"аряльн":6502,"аркад":6503,"артил":6504,"аршин":6505,"арха":6506,"архо":6507,"архі":6508,"арінг":6509,"аркуш":6510,"арагон":6511,"арзам":6512,"арнет":6513,"аріан":6514,"арбут":6515,"арнік":6516,"арієць":6517,"аранж":6518,"арешт":6519,"артері":6520,"арлек":6521,"аринд":6522,"артикул":6523,"арбалет":6524,"орг":6525,"орл":6526,"орн":6527,"оро":6528,"орр":6529,"орет":6530,"орам":6531,"ораль":6532,"орле":6533,"орент":6534,"орок":6535,"орей":6536,"орба":6537,"орде":6538,"орга":6539,"орбл":6540,"ороз":6541,"оранд":6542,"оруд":6543,"орден":6544,"оренд":6545,"орлен":6546,"оратор":6547,"орфо":6548,"оріон":6549,"орбіт":6550,"орчик":6551,"орнам":6552,"орхід":6553,"орніт":6554,"оранж":6555,"орция":6556,"ортиз":6557,"оребль":6558,"оркестр":6559,"йи":6560,"йн":6561,"йо":6562,"йт":6563,"йх":6564,"йц":6565,"йш":6566,"йст":6567,"йй":6568,"йод":6569,"йць":6570,"йом":6571,"йем":6572,"йпер":6573,"йбл":6574,"йбал":6575,"йош":6576,"йня":6577,"йой":6578,"йськ":6579,"йчн":6580,"йим":6581,"йoг":6582,"йкіло":6583,"енк":6584,"ену":6585,"енш":6586,"еню":6587,"ені":6588,"енин":6589,"еней":6590,"енкор":6591,"енич":6592,"енят":6593,"ендо":6594,"ендр":6595,"енкл":6596,"енець":6597,"еник":6598,"енція":6599,"ениц":6600,"енео":6601,"енсал":6602,"еніз":6603,"ентуз":6604,"енебель":6605,"енхім":6606,"енерг":6607,"ентук":6608,"ензим":6609,"енуц":6610,"енкауст":6611,"енцикло":6612,"енорей":6613,"онp":6614,"онж":6615,"оно":6616,"онан":6617,"онет":6618,"онко":6619,"оном":6620,"онок":6621,"онтер":6622,"онap":6623,"онів":6624,"онім":6625,"ондин":6626,"онаст":6627,"онуч":6628,"оньк":6629,"онук":6630,"онколь":6631,"ондат":6632,"ондул":6633,"онікс":6634,"ром":6635,"рох":6636,"рощ":6637,"рост":6638,"рой":6639,"ропо":6640,"рої":6641,"роди":6642,"рома":6643,"роць":6644,"родж":6645,"рогі":6646,"робі":6647,"ротор":6648,"рози":6649,"роде":6650,"рось":6651,"рото":6652,"рого":6653,"роюва":6654,"розь":6655,"ростр":6656,"родо":6657,"росо":6658,"роват":6659,"рогал":6660,"ропт":6661,"роєць":6662,"рость":6663,"роть":6664,"роєч":6665,"родов":6666,"ротан":6667,"ровен":6668,"родз":6669,"рокот":6670,"рокад":6671,"робак":6672,"рошен":6673,"родон":6674,"ровес":6675,"родан":6676,"роїд":6677,"робот":6678,"рогат":6679,"рожд":6680,"росту":6681,"роджен":6682,"рощен":6683,"рожн":6684,"ромб":6685,"ростов":6686,"робач":6687,"роял":6688,"рояль":6689,"ролер":6690,"рокит":6691,"родженн":6692,"роївн":6693,"рогож":6694,"рофео":6695,"розах":6696,"рослин":6697,"ала":6698,"алн":6699,"алер":6700,"алан":6701,"алел":6702,"алек":6703,"алма":6704,"алом":6705,"алей":6706,"алта":6707,"алич":6708,"алеб":6709,"алгор":6710,"алун":6711,"алект":6712,"алтар":6713,"алкал":6714,"албан":6715,"алик":6716,"алкалі":6717,"алой":6718,"алуж":6719,"алфа":6720,"алатор":6721,"алтай":6722,"алевр":6723,"алюм":6724,"алим":6725,"алюв":6726,"алерг":6727,"аларм":6728,"алдаш":6729,"алегор":6730,"алущ":6731,"алмаз":6732,"алжір":6733,"аллеман":6734,"алавр":6735,"алкіл":6736,"алярм":6737,"алюмін":6738,"олад":6739,"олень":6740,"олім":6741,"олік":6742,"олео":6743,"олінг":6744,"олют":6745,"олівч":6746,"олярі":6747,"атв":6748,"атн":6749,"атр":6750,"ату":6751,"атх":6752,"атол":6753,"атов":6754,"атин":6755,"атти":6756,"атак":6757,"атель":6758,"аток":6759,"атав":6760,"атир":6761,"атop":6762,"атест":6763,"атмо":6764,"атюр":6765,"атик":6766,"атрон":6767,"аташ":6768,"атник":6769,"атлет":6770,"атроп":6771,"атрак":6772,"атеро":6773,"атакс":6774,"атлас":6775,"атнин":6776,"атарій":6777,"атлант":6778,"атуар":6779,"атрамент":6780,"атером":6781,"атеню":6782,"реб":6783,"рея":6784,"реал":6785,"реку":6786,"реко":6787,"реин":6788,"реві":6789,"реаль":6790,"релі":6791,"рець":6792,"реле":6793,"реаг":6794,"репар":6795,"реци":6796,"реля":6797,"решт":6798,"ребер":6799,"рекур":6800,"рефор":6801,"рефер":6802,"ремен":6803,"редь":6804,"реван":6805,"рейд":6806,"релін":6807,"регл":6808,"репет":6809,"рекц":6810,"ревен":6811,"ретин":6812,"ресур":6813,"ретир":6814,"ребру":6815,"ревіз":6816,"регот":6817,"реакт":6818,"репорт":6819,"револь":6820,"реміт":6821,"ресор":6822,"ревн":6823,"регат":6824,"релак":6825,"ревель":6826,"рефри":6827,"рецес":6828,"регент":6829,"реміс":6830,"регул":6831,"репрес":6832,"ревя":6833,"редис":6834,"реформ":6835,"редак":6836,"рестав":6837,"ретуш":6838,"ремиг":6839,"реміз":6840,"реверс":6841,"редукт":6842,"регуль":6843,"реестр":6844,"респект":6845,"решет":6846,"репіж":6847,"рецип":6848,"резоль":6849,"рефрак":6850,"редакт":6851,"релікт":6852,"реміж":6853,"реманент":6854,"редукц":6855,"редеч":6856,"репрезент":6857,"рефлект":6858,"рекрут":6859,"ретикул":6860,"рекорд":6861,"рекоменд":6862,"реклам":6863,"реабіліт":6864,"рефул":6865,"реєстр":6866,"іна":6867,"іни":6868,"інар":6869,"інін":6870,"інва":6871,"інел":6872,"інні":6873,"інав":6874,"іноз":6875,"інвар":6876,"інтра":6877,"індо":6878,"інтро":6879,"інул":6880,"інсин":6881,"інтен":6882,"інтру":6883,"інтон":6884,"інфар":6885,"інфра":6886,"інник":6887,"інсур":6888,"інкру":6889,"інвест":6890,"інклю":6891,"інкас":6892,"індик":6893,"інфіні":6894,"індич":6895,"інклін":6896,"інформ":6897,"інтим":6898,"інфуз":6899,"інспір":6900,"інфік":6901,"інволю":6902,"інспект":6903,"інфек":6904,"інжир":6905,"інерц":6906,"інстин":6907,"інтенс":6908,"інженер":6909,"інвалі":6910,"інтегр":6911,"інкуб":6912,"інгусь":6913,"інспекц":6914,"інвентар":6915,"раб":6916,"раг":6917,"рац":6918,"рая":6919,"рамі":6920,"радж":6921,"рацій":6922,"растр":6923,"рапт":6924,"рамен":6925,"рамл":6926,"рамол":6927,"рагон":6928,"рабат":6929,"рафін":6930,"рапір":6931,"рачч":6932,"рапорт":6933,"ракет":6934,"район":6935,"радом":6936,"радар":6937,"разин":6938,"рамб":6939,"ракуш":6940,"рачен":6941,"рацил":6942,"рабин":6943,"рацем":6944,"рамід":6945,"радіо":6946,"радуж":6947,"разив":6948,"ракурс":6949,"раїль":6950,"ракузь":6951,"овa":6952,"овк":6953,"овп":6954,"овя":6955,"ові":6956,"ован":6957,"овст":6958,"овен":6959,"овал":6960,"оват":6961,"оваль":6962,"овель":6963,"овес":6964,"овля":6965,"овува":6966,"овир":6967,"овенн":6968,"овул":6969,"овець":6970,"овик":6971,"овник":6972,"овиц":6973,"овил":6974,"овниц":6975,"овнич":6976,"овеньк":6977,"овиль":6978,"овинн":6979,"овщик":6980,"рим":6981,"риф":6982,"риш":6983,"рий":6984,"риск":6985,"ритор":6986,"рибл":6987,"ришт":6988,"ригор":6989,"ризь":6990,"рича":6991,"рифл":6992,"римл":6993,"рисен":6994,"ризо":6995,"ринт":6996,"рихт":6997,"рикош":6998,"ригаль":6999,"рисс":7000,"рикос":7001,"рисоч":7002,"ридик":7003,"ригід":7004,"ригель":7005,"рискува":7006,"рихон":7007,"ризик":7008,"рище":7009,"ритуаль":7010,"риция":7011,"етк":7012,"етн":7013,"етан":7014,"етон":7015,"етро":7016,"етат":7017,"етел":7018,"етик":7019,"етил":7020,"етист":7021,"етиль":7022,"етерн":7023,"еталон":7024,"етрусь":7025,"етюд":7026,"етимо":7027,"куc":7028,"куз":7029,"кук":7030,"куу":7031,"куф":7032,"куц":7033,"кущ":7034,"куст":7035,"купл":7036,"куві":7037,"курі":7038,"куць":7039,"куле":7040,"куман":7041,"кулу":7042,"куува":7043,"куря":7044,"купол":7045,"кубл":7046,"куий":7047,"кушт":7048,"кушк":7049,"кучер":7050,"кустр":7051,"кубр":7052,"куват":7053,"кудр":7054,"куйд":7055,"куги":7056,"кулін":7057,"кубан":7058,"куть":7059,"кумент":7060,"купід":7061,"купел":7062,"кушп":7063,"купон":7064,"купе":7065,"кухт":7066,"кумед":7067,"купр":7068,"кудел":7069,"кулич":7070,"кустан":7071,"кубел":7072,"кубель":7073,"кудель":7074,"кумач":7075,"кузин":7076,"куполь":7077,"куроп":7078,"кураж":7079,"кубк":7080,"кужел":7081,"кузов":7082,"купаль":7083,"кухн":7084,"кудл":7085,"кудак":7086,"куклу":7087,"купян":7088,"кухл":7089,"кухов":7090,"кухли":7091,"куплет":7092,"кулик":7093,"кубоч":7094,"кукоб":7095,"куруль":7096,"кутул":7097,"куріп":7098,"кулес":7099,"кумис":7100,"куліс":7101,"кулеш":7102,"кукіль":7103,"кумиць":7104,"кукіб":7105,"куприк":7106,"као":7107,"кач":7108,"кая":7109,"каст":7110,"како":7111,"капер":7112,"капар":7113,"каба":7114,"кази":7115,"капор":7116,"кабл":7117,"камар":7118,"кацій":7119,"кашт":7120,"кашк":7121,"кабар":7122,"каюва":7123,"казь":7124,"кача":7125,"кастр":7126,"кабал":7127,"камін":7128,"кастер":7129,"каєць":7130,"кавал":7131,"капра":7132,"каюч":7133,"кастру":7134,"камл":7135,"казн":7136,"кабан":7137,"кагл":7138,"кахи":7139,"каска":7140,"каус":7141,"капот":7142,"кастор":7143,"кабак":7144,"капр":7145,"каказ":7146,"каспі":7147,"каваль":7148,"кабот":7149,"качува":7150,"кагат":7151,"кагаль":7152,"капост":7153,"кабуль":7154,"кабрі":7155,"каше":7156,"кают":7157,"кахль":7158,"кашал":7159,"казит":7160,"кабаль":7161,"кашл":7162,"кадіб":7163,"кабач":7164,"кажан":7165,"кахл":7166,"кашир":7167,"каюват":7168,"каїр":7169,"кабло":7170,"кабест":7171,"кахет":7172,"каплич":7173,"капос":7174,"кастел":7175,"кастіль":7176,"капус":7177,"капуст":7178,"каверз":7179,"каверн":7180,"каприз":7181,"кашкет":7182,"кабич":7183,"каолін":7184,"каброш":7185,"кактус":7186,"какао":7187,"коc":7188,"кож":7189,"кок":7190,"кох":7191,"коц":7192,"коя":7193,"кој":7194,"кой":7195,"коал":7196,"копл":7197,"копо":7198,"коти":7199,"кої":7200,"кокон":7201,"котор":7202,"коде":7203,"кось":7204,"котр":7205,"комар":7206,"коєн":7207,"кошт":7208,"коза":7209,"костр":7210,"коут":7211,"костер":7212,"копал":7213,"косн":7214,"когер":7215,"копт":7216,"кость":7217,"косен":7218,"котон":7219,"коть":7220,"кошар":7221,"кодол":7222,"кокот":7223,"копен":7224,"котир":7225,"копеч":7226,"козел":7227,"кокс":7228,"кокет":7229,"кошел":7230,"коста":7231,"котик":7232,"копуль":7233,"кофт":7234,"кокош":7235,"кобен":7236,"комір":7237,"кофе":7238,"кокос":7239,"копул":7240,"козет":7241,"коцю":7242,"коміс":7243,"комах":7244,"кожн":7245,"кодил":7246,"кобаль":7247,"козен":7248,"кофант":7249,"коділь":7250,"команд":7251,"козель":7252,"кохін":7253,"комаш":7254,"комут":7255,"когут":7256,"костиль":7257,"коефі":7258,"кокощ":7259,"коопт":7260,"копош":7261,"кокіль":7262,"коструб":7263,"коцюр":7264,"кокаїн":7265,"коагул":7266,"костром":7267,"кобиль":7268,"ваг":7269,"вап":7270,"вач":7271,"ває":7272,"вапл":7273,"ваві":7274,"вааль":7275,"ваць":7276,"вадж":7277,"вапор":7278,"вась":7279,"вабл":7280,"васто":7281,"ваган":7282,"ваєць":7283,"вазо":7284,"вадор":7285,"вахт":7286,"вагот":7287,"васал":7288,"важен":7289,"вафель":7290,"васаль":7291,"вазел":7292,"вакс":7293,"вагран":7294,"вапн":7295,"вагін":7296,"вахл":7297,"вайл":7298,"васкул":7299,"вагант":7300,"вагіт":7301,"вагий":7302,"вахмі":7303,"вакацій":7304,"елк":7305,"ело":7306,"елль":7307,"елам":7308,"елич":7309,"елев":7310,"еліт":7311,"елень":7312,"елект":7313,"елас":7314,"елаж":7315,"елив":7316,"еласт":7317,"елієв":7318,"елеро":7319,"електр":7320,"елезн":7321,"еливл":7322,"елемент":7323,"еліск":7324,"ини":7325,"иня":7326,"инка":7327,"инго":7328,"индр":7329,"инець":7330,"информ":7331,"инакс":7332,"инфік":7333,"инфект":7334,"инсект":7335,"интегр":7336,"инсекц":7337,"инфекц":7338,"руз":7339,"руп":7340,"рух":7341,"руі":7342,"руст":7343,"руба":7344,"рупор":7345,"рубл":7346,"рубер":7347,"русл":7348,"рудер":7349,"рукат":7350,"руїн":7351,"рутен":7352,"рудз":7353,"рунт":7354,"рутин":7355,"рулет":7356,"русель":7357,"русал":7358,"рубін":7359,"руськ":7360,"рушен":7361,"рунд":7362,"русаль":7363,"рупуль":7364,"рулон":7365,"руша":7366,"рубел":7367,"румб":7368,"рубк":7369,"румин":7370,"рубід":7371,"румун":7372,"ручк":7373,"рубіж":7374,"рудимент":7375,"рубрик":7376,"плов":7377,"плин":7378,"плот":7379,"плент":7380,"плав":7381,"плей":7382,"плос":7383,"плед":7384,"плеч":7385,"плев":7386,"плоз":7387,"пліт":7388,"планд":7389,"плит":7390,"плун":7391,"плів":7392,"плюр":7393,"плач":7394,"плім":7395,"плодж":7396,"плaт":7397,"плох":7398,"плош":7399,"плaг":7400,"плог":7401,"плаш":7402,"плех":7403,"пласт":7404,"пліс":7405,"плиг":7406,"плой":7407,"плуж":7408,"пліо":7409,"пляж":7410,"пляс":7411,"плавл":7412,"плевр":7413,"пляш":7414,"плоджен":7415,"плуто":7416,"плести":7417,"плуг":7418,"плачува":7419,"плaш":7420,"плафон":7421,"плaїк":7422,"плyг":7423,"віг":7424,"віж":7425,"віц":7426,"віщ":7427,"віві":7428,"віаль":7429,"віск":7430,"віді":7431,"віант":7432,"візи":7433,"віде":7434,"вітр":7435,"вітра":7436,"відо":7437,"вісп":7438,"вібр":7439,"відр":7440,"вісл":7441,"відер":7442,"вієць":7443,"віван":7444,"вітал":7445,"вість":7446,"вісар":7447,"вігон":7448,"вільн":7449,"вісон":7450,"вічч":7451,"віхол":7452,"вілен":7453,"віско":7454,"вібрі":7455,"вівч":7456,"вієм":7457,"віяст":7458,"віраж":7459,"вігіль":7460,"вісім":7461,"вірус":7462,"віце":7463,"вілем":7464,"віюв":7465,"віконт":7466,"вірил":7467,"вірул":7468,"віїй":7469,"віглас":7470,"віскр":7471,"вітут":7472,"вітрин":7473,"вісмут":7474,"пог":7475,"поп":7476,"поет":7477,"попо":7478,"поти":7479,"пої":7480,"пома":7481,"покон":7482,"поем":7483,"попер":7484,"побі":7485,"помар":7486,"поез":7487,"поєн":7488,"пошт":7489,"помо":7490,"поза":7491,"поки":7492,"поюва":7493,"помер":7494,"почи":7495,"поган":7496,"позу":7497,"позн":7498,"погон":7499,"попід":7500,"попел":7501,"подол":7502,"попон":7503,"попен":7504,"поєнн":7505,"погод":7506,"постат":7507,"посуд":7508,"попель":7509,"погм":7510,"пояс":7511,"помн":7512,"попул":7513,"подоб":7514,"подаг":7515,"поєм":7516,"поміс":7517,"погід":7518,"покуш":7519,"попіл":7520,"попіль":7521,"помин":7522,"похаб":7523,"пошл":7524,"покут":7525,"поплін":7526,"побід":7527,"пойм":7528,"помад":7529,"посаж":7530,"попереч":7531,"попруж":7532,"погодж":7533,"посибіл":7534,"популяр":7535,"погож":7536,"поштува":7537,"пооти":7538,"поташ":7539,"покій":7540,"посіб":7541,"посош":7542,"потрош":7543,"потруш":7544,"погреб":7545,"поспіль":7546,"погріб":7547,"послід":7548,"подушеч":7549,"пожеж":7550,"пойкіло":7551,"екер":7552,"екен":7553,"екві":7554,"екти":7555,"екці":7556,"екто":7557,"екстр":7558,"екват":7559,"екран":7560,"екстру":7561,"екзо":7562,"екстат":7563,"екстир":7564,"екскре":7565,"еклог":7566,"еквілі":7567,"екстерн":7568,"еклект":7569,"екстрем":7570,"еколон":7571,"екіпаж":7572,"еквадор":7573,"ами":7574,"амп":7575,"амт":7576,"амур":7577,"амаль":7578,"амель":7579,"амаг":7580,"амні":7581,"амант":7582,"амбі":7583,"амбл":7584,"амеб":7585,"амаз":7586,"амбар":7587,"амбр":7588,"амуд":7589,"аміл":7590,"амстер":7591,"амід":7592,"ампел":7593,"ампір":7594,"амбра":7595,"амбул":7596,"аматор":7597,"амбуль":7598,"ампул":7599,"амандр":7600,"амид":7601,"ампут":7602,"амбіт":7603,"амфот":7604,"амари":7605,"аметр":7606,"амарк":7607,"амбулат":7608,"амброз":7609,"амортиз":7610,"аметист":7611,"урб":7612,"урв":7613,"ург":7614,"урк":7615,"урп":7616,"уран":7617,"урал":7618,"урін":7619,"урбан":7620,"уріз":7621,"уряд":7622,"урарт":7623,"урвит":7624,"урюк":7625,"урльоп":7626,"уренс":7627,"урядж":7628,"тиp":7629,"тип":7630,"тит":7631,"тиф":7632,"тих":7633,"тиц":7634,"тире":7635,"типо":7636,"тити":7637,"тимі":7638,"тиск":7639,"тиць":7640,"тиман":7641,"тиво":7642,"титр":7643,"тимо":7644,"тиза":7645,"тибар":7646,"тидо":7647,"тимат":7648,"тироз":7649,"тиков":7650,"тифл":7651,"тимент":7652,"титан":7653,"тивід":7654,"тилл":7655,"типo":7656,"тигр":7657,"тижен":7658,"тиспі":7659,"тизан":7660,"тижн":7661,"тишш":7662,"тираж":7663,"тигель":7664,"тилік":7665,"тискува":7666,"типч":7667,"титул":7668,"тисап":7669,"тифло":7670,"тироль":7671,"титл":7672,"тишпор":7673,"тирео":7674,"тигмо":7675,"титуль":7676,"тискуува":7677,"тиохай":7678,"альб":7679,"альд":7680,"альм":7681,"альп":7682,"альф":7683,"альц":7684,"альти":7685,"альде":7686,"альто":7687,"альго":7688,"альков":7689,"альтру":7690,"альтан":7691,"альбін":7692,"альпін":7693,"альтич":7694,"альний":7695,"альве":7696,"альпак":7697,"альбом":7698,"альманд":7699,"альбед":7700,"альфрей":7701,"альбум":7702,"альпаг":7703,"альтерн":7704,"акк":7705,"акш":7706,"акль":7707,"акар":7708,"акон":7709,"акри":7710,"аква":7711,"акці":7712,"акант":7713,"актор":7714,"акто":7715,"актр":7716,"акир":7717,"аксі":7718,"акит":7719,"акцій":7720,"аксо":7721,"аків":7722,"акме":7723,"актин":7724,"актив":7725,"актю":7726,"аксе":7727,"акцент":7728,"акцес":7729,"акцеп":7730,"акорд":7731,"акрил":7732,"актуал":7733,"актуаль":7734,"акварі":7735,"акцесій":7736,"акіїв":7737,"аконіт":7738,"акселер":7739,"аканф":7740,"акорде":7741,"їc":7742,"їp":7743,"їx":7744,"їб":7745,"їан":7746,"їсь":7747,"їад":7748,"їдь":7749,"їзд":7750,"їзм":7751,"їжд":7752,"їровк":7753,"їcьк":7754,"їеть":7755,"їблан":7756,"піx":7757,"пім":7758,"піп":7759,"піф":7760,"піх":7761,"піш":7762,"піщ":7763,"пія":7764,"піст":7765,"піск":7766,"пірі":7767,"піді":7768,"піпер":7769,"піля":7770,"пікл":7771,"пісн":7772,"підь":7773,"пітал":7774,"піпет":7775,"пітон":7776,"пічч":7777,"пілл":7778,"пікін":7779,"пітт":7780,"пікет":7781,"пігм":7782,"піско":7783,"пієт":7784,"півн":7785,"пікр":7786,"пілот":7787,"піїт":7788,"пілор":7789,"пісоч":7790,"пігул":7791,"пісок":7792,"пірот":7793,"піфаг":7794,"піхв":7795,"пістоль":7796,"після":7797,"пієл":7798,"пігмент":7799,"пістон":7800,"пілюль":7801,"пірамід":7802,"ельн":7803,"ельмен":7804,"ельник":7805,"ельенд":7806,"ельниц":7807,"ельвей":7808,"ліг":7809,"лід":7810,"ліз":7811,"ліл":7812,"ліф":7813,"ліш":7814,"ліщ":7815,"ліє":7816,"ліон":7817,"ліко":7818,"ліпо":7819,"лілі":7820,"лімі":7821,"ліму":7822,"ліпар":7823,"літа":7824,"ліво":7825,"літр":7826,"лігн":7827,"лієв":7828,"літар":7829,"ліган":7830,"лімон":7831,"ліван":7832,"лізн":7833,"лієч":7834,"лібри":7835,"лікер":7836,"лігро":7837,"лілей":7838,"лі́н":7839,"літт":7840,"ліміт":7841,"ліфт":7842,"лідій":7843,"лібре":7844,"лігат":7845,"ліцен":7846,"лійк":7847,"лімн":7848,"лісс":7849,"лівій":7850,"ліцит":7851,"лівон":7852,"ліцей":7853,"ліце":7854,"лімф":7855,"лілій":7856,"лісир":7857,"лідієць":7858,"ліхен":7859,"літораль":7860,"лізис":7861,"лігацій":7862,"лімінар":7863,"ліхтар":7864,"мім":7865,"міо":7866,"міф":7867,"міх":7868,"міщ":7869,"міст":7870,"міро":7871,"міка":7872,"міко":7873,"міць":7874,"місь":7875,"мітр":7876,"місі":7877,"міоз":7878,"мімо":7879,"містр":7880,"мімет":7881,"мізд":7882,"мість":7883,"мілл":7884,"мітив":7885,"мідор":7886,"мілан":7887,"мі́н":7888,"мітт":7889,"мітел":7890,"мігр":7891,"мішен":7892,"міжж":7893,"мікс":7894,"міцел":7895,"мішур":7896,"мізер":7897,"мідій":7898,"мізан":7899,"мізин":7900,"міхро":7901,"мізет":7902,"міраль":7903,"місій":7904,"мізк":7905,"мімоз":7906,"міраж":7907,"міхур":7908,"мігрен":7909,"мікрон":7910,"міцет":7911,"мігмат":7912,"мілк":7913,"міцц":7914,"мікоз":7915,"мідієць":7916,"мієл":7917,"мірош":7918,"міциль":7919,"мілось":7920,"мітоз":7921,"міазм":7922,"мімео":7923,"мітинг":7924,"міяітар":7925,"скв":7926,"скл":7927,"скн":7928,"скер":7929,"скен":7930,"скон":7931,"скел":7932,"скель":7933,"скле":7934,"скем":7935,"скей":7936,"сквер":7937,"скит":7938,"скір":7939,"скік":7940,"скрон":7941,"сквіт":7942,"скіп":7943,"скнар":7944,"скрек":7945,"склад":7946,"ским":7947,"скіц":7948,"склик":7949,"склер":7950,"склоч":7951,"скандал":7952,"скепт":7953,"скелл":7954,"скрут":7955,"скріб":7956,"скріз":7957,"склеп":7958,"скверн":7959,"скіа":7960,"скелет":7961,"скрізь":7962,"скирт":7963,"скепс":7964,"скімл":7965,"скрупуль":7966,"дид":7967,"диц":7968,"диш":7969,"дипл":7970,"дифі":7971,"дивер":7972,"диба":7973,"дитер":7974,"дибл":7975,"дисер":7976,"димл":7977,"дилат":7978,"дифра":7979,"дивід":7980,"дивин":7981,"дилл":7982,"дитив":7983,"дилет":7984,"дибул":7985,"дизел":7986,"дихан":7987,"дигм":7988,"дипло":7989,"дихо":7990,"дия́":7991,"дильк":7992,"диспон":7993,"дишл":7994,"дискре":7995,"дилем":7996,"дикуляр":7997,"диверс":7998,"дистиль":7999,"дизент":8000,"дишель":8001,"дидим":8002,"диция":8003,"дистил":8004,"дидакт":8005,"дижит":8006,"дириг":8007,"диліж":8008,"директ":8009,"дистанцій":8010,"дифтер":8011,"дирекц":8012,"ців":8013,"цід":8014,"цік":8015,"ціл":8016,"ціо":8017,"ціп":8018,"ціль":8019,"ціпл":8020,"ціві":8021,"ціаль":8022,"ціоз":8023,"цісар":8024,"ціоль":8025,"ціпен":8026,"ці́н":8027,"цілій":8028,"цілест":8029,"ці́л":8030,"одр":8031,"оду":8032,"одер":8033,"одан":8034,"одор":8035,"одал":8036,"одес":8037,"одмін":8038,"одуд":8039,"одул":8040,"одуль":8041,"одія":8042,"одеж":8043,"одук":8044,"одяг":8045,"одонт":8046,"одесь":8047,"одягн":8048,"одрук":8049,"одеколон":8050,"отк":8051,"отн":8052,"отч":8053,"оті":8054,"отар":8055,"отен":8056,"отин":8057,"отур":8058,"отель":8059,"оточ":8060,"отав":8061,"отес":8062,"отвин":8063,"оттом":8064,"отроч":8065,"отинн":8066,"отоман":8067,"отрок":8068,"отроц":8069,"отрях":8070,"лаз":8071,"лащ":8072,"лая":8073,"лако":8074,"ласк":8075,"лабу":8076,"ладж":8077,"лаcт":8078,"лашт":8079,"лаком":8080,"лаюва":8081,"лазь":8082,"лабор":8083,"лагер":8084,"лавл":8085,"лазн":8086,"лавір":8087,"лапід":8088,"лабра":8089,"ладд":8090,"лагод":8091,"лася":8092,"лагом":8093,"ладан":8094,"лабел":8095,"ладель":8096,"лайк":8097,"ласс":8098,"лафет":8099,"лагід":8100,"лазар":8101,"лазур":8102,"ластов":8103,"лакун":8104,"лабаз":8105,"лабіль":8106,"ластик":8107,"лажан":8108,"лабуз":8109,"лагун":8110,"лафіт":8111,"лакузь":8112,"лазуун":8113,"лагiд":8114,"лапланд":8115,"маx":8116,"маж":8117,"мао":8118,"мащ":8119,"мая":8120,"мај":8121,"мает":8122,"маї":8123,"маск":8124,"маць":8125,"мави":8126,"масу":8127,"мась":8128,"маяч":8129,"маят":8130,"маєн":8131,"магор":8132,"маза":8133,"маюва":8134,"мазь":8135,"маєв":8136,"магар":8137,"маяк":8138,"маску":8139,"мафу":8140,"майд":8141,"магл":8142,"макул":8143,"мацер":8144,"масон":8145,"мачч":8146,"масов":8147,"махор":8148,"маєнн":8149,"масель":8150,"мада":8151,"мася":8152,"маказ":8153,"магом":8154,"магм":8155,"маєт":8156,"мазин":8157,"масла":8158,"махр":8159,"маїт":8160,"мадаг":8161,"мадрі":8162,"мазк":8163,"мазур":8164,"мазува":8165,"мастик":8166,"машта":8167,"макуп":8168,"масив":8169,"мазей":8170,"мазил":8171,"макух":8172,"маїс":8173,"маїль":8174,"магог":8175,"маївк":8176,"магніт":8177,"маистер":8178,"мастих":8179,"магніч":8180,"мацюп":8181,"мафро":8182,"маюскуль":8183,"маєстат":8184,"ріг":8185,"ріж":8186,"ріс":8187,"ріт":8188,"ріу":8189,"ріх":8190,"ріш":8191,"ріль":8192,"ріст":8193,"ріор":8194,"ріць":8195,"рідж":8196,"ріви":8197,"рієв":8198,"рібр":8199,"рісн":8200,"рідь":8201,"різд":8202,"рість":8203,"річч":8204,"рілл":8205,"рідд":8206,"рішен":8207,"рівн":8208,"різя":8209,"ріджен":8210,"ріджува":8211,"ріжн":8212,"ріпак":8213,"рівень":8214,"ріатич":8215,"цьом":8216,"цьво":8217,"буб":8218,"буж":8219,"буп":8220,"бус":8221,"буя":8222,"буер":8223,"буй":8224,"бути":8225,"буян":8226,"будж":8227,"буду":8228,"бубл":8229,"букол":8230,"буцій":8231,"бугор":8232,"бузь":8233,"бусл":8234,"бузу":8235,"буфер":8236,"буков":8237,"бутен":8238,"бухи":8239,"букер":8240,"бухар":8241,"бунт":8242,"буден":8243,"буєр":8244,"будор":8245,"будд":8246,"букін":8247,"бухт":8248,"бутт":8249,"бутил":8250,"бугр":8251,"бужен":8252,"бупр":8253,"букв":8254,"бубон":8255,"букс":8256,"букет":8257,"бухан":8258,"бутам":8259,"буфон":8260,"буфет":8261,"буджува":8262,"бусоль":8263,"буреч":8264,"бурав":8265,"буруль":8266,"бутий":8267,"бубн":8268,"буджан":8269,"буравл":8270,"буфф":8271,"бутиро":8272,"булиж":8273,"бустьер":8274,"бумазей":8275,"лег":8276,"лед":8277,"леж":8278,"лец":8279,"лещ":8280,"лея":8281,"леер":8282,"леон":8283,"леві":8284,"леск":8285,"лець":8286,"леде":8287,"леєв":8288,"легал":8289,"левор":8290,"ледер":8291,"лепт":8292,"лейд":8293,"левір":8294,"лепет":8295,"лемент":8296,"лесов":8297,"лекаль":8298,"лепот":8299,"леда":8300,"лебон":8301,"легаль":8302,"лемур":8303,"лепс":8304,"лецит":8305,"легін":8306,"лежа":8307,"лецьк":8308,"лебед":8309,"лежува":8310,"ледв":8311,"лепідо":8312,"леміш":8313,"левуль":8314,"лепеш":8315,"легк":8316,"лещат":8317,"левад":8318,"конд":8319,"конц":8320,"конч":8321,"коні":8322,"конар":8323,"конов":8324,"конет":8325,"конур":8326,"конси":8327,"конду":8328,"конкор":8329,"контор":8330,"консь":8331,"конго":8332,"конкур":8333,"контри":8334,"конець":8335,"концер":8336,"кондов":8337,"контур":8338,"кондол":8339,"конден":8340,"контир":8341,"коньк":8342,"консек":8343,"констат":8344,"контам":8345,"кондук":8346,"концес":8347,"конюш":8348,"конфет":8349,"концин":8350,"концеп":8351,"контуз":8352,"контаг":8353,"консоль":8354,"конформ":8355,"контей":8356,"коньер":8357,"консигн":8358,"конверт":8359,"конфуз":8360,"конспір":8361,"конфлі":8362,"кондукт":8363,"конспект":8364,"конопл":8365,"конфек":8366,"кондицій":8367,"конкурс":8368,"концентр":8369,"контуж":8370,"консул":8371,"конкрет":8372,"конвуль":8373,"консолід":8374,"концесій":8375,"конвалі":8376,"конфедер":8377,"конфорк":8378,"конфірм":8379,"контекст":8380,"конвекцій":8381,"конхіо":8382,"констант":8383,"конвісар":8384,"кондитер":8385,"омб":8386,"омш":8387,"омов":8388,"омел":8389,"омні":8390,"омос":8391,"омий":8392,"омул":8393,"омбро":8394,"обг":8395,"обо":8396,"общ":8397,"обель":8398,"обоч":8399,"обси":8400,"обаб":8401,"обич":8402,"обез":8403,"обоз":8404,"обіт":8405,"обій":8406,"обож":8407,"облав":8408,"обрій":8409,"оброч":8410,"обид":8411,"ображ":8412,"образ":8413,"обрус":8414,"обіц":8415,"обтюр":8416,"облас":8417,"обряд":8418,"обороч":8419,"обсз":8420,"обруч":8421,"облуд":8422,"обитель":8423,"облений":8424,"обапол":8425,"оболон":8426,"обручч":8427,"облач":8428,"обряж":8429,"обсерв":8430,"обаполь":8431,"обшлаг":8432,"обарв":8433,"оброть":8434,"обеліск":8435,"облігацій":8436,"оче":8437,"очн":8438,"очаль":8439,"очок":8440,"очкур":8441,"очіп":8442,"очому":8443,"очерет":8444,"очаків":8445,"пап":8446,"паю":8447,"пая":8448,"пає":8449,"папл":8450,"пади":8451,"папа":8452,"папер":8453,"папор":8454,"пашт":8455,"паун":8456,"паюва":8457,"паєв":8458,"папан":8459,"пастер":8460,"пазу":8461,"пайд":8462,"папір":8463,"пауз":8464,"пахол":8465,"пасе":8466,"падд":8467,"павіль":8468,"папоч":8469,"пауш":8470,"пакос":8471,"пазон":8472,"пазур":8473,"папіл":8474,"папіль":8475,"пастель":8476,"пастир":8477,"пакост":8478,"пастал":8479,"пахв":8480,"пасив":8481,"пастиль":8482,"пасаж":8483,"папк":8484,"пакощ":8485,"папля":8486,"падуб":8487,"пастил":8488,"павут":8489,"папc":8490,"пафос":8491,"пацієнт":8492,"паюс":8493,"пасіч":8494,"падрон":8495,"паcoм":8496,"паплюж":8497,"пацюк":8498,"паупер":8499,"сиг":8500,"сих":8501,"сич":8502,"сищ":8503,"сипл":8504,"сибар":8505,"сигар":8506,"сидр":8507,"сиіл":8508,"сидер":8509,"сидь":8510,"ситал":8511,"сирен":8512,"силан":8513,"сигм":8514,"силон":8515,"сипед":8516,"ситет":8517,"сибель":8518,"сифон":8519,"сифіл":8520,"симуль":8521,"сироп":8522,"ситн":8523,"сирот":8524,"силік":8525,"сибір":8526,"силаб":8527,"симул":8528,"силог":8529,"сичуж":8530,"сище":8531,"сиглас":8532,"сисун":8533,"сичуг":8534,"сигніт":8535,"симіл":8536,"ситуацій":8537,"сизуват":8538,"сироват":8539,"сириция":8540,"сикофант":8541,"сивась":8542,"сиріт":8543,"пров":8544,"пром":8545,"прос":8546,"проф":8547,"прох":8548,"проч":8549,"прош":8550,"прощ":8551,"прост":8552,"проду":8553,"протор":8554,"прось":8555,"прокт":8556,"прошк":8557,"прости":8558,"прокур":8559,"проект":8560,"пропан":8561,"простер":8562,"провор":8563,"промен":8564,"пропел":8565,"провід":8566,"против":8567,"пропон":8568,"пропе":8569,"прояв":8570,"простор":8571,"простат":8572,"прода":8573,"проказ":8574,"прозел":8575,"проекц":8576,"прозер":8577,"протет":8578,"профан":8579,"процент":8580,"пробаб":8581,"процес":8582,"профіль":8583,"прочан":8584,"прощен":8585,"проміс":8586,"пропіл":8587,"пробк":8588,"прозен":8589,"пропоз":8590,"проща":8591,"пробоч":8592,"провок":8593,"проскрип":8594,"просод":8595,"прокуд":8596,"проділ":8597,"проскур":8598,"процед":8599,"простин":8600,"прокаж":8601,"провербі":8602,"продукц":8603,"прополіс":8604,"програм":8605,"пропозицій":8606,"пропаг":8607,"протеро":8608,"прогнат":8609,"прочух":8610,"проклам":8611,"продоволь":8612,"продром":8613,"пропозиці":8614,"пролонг":8615,"проксим":8616,"провіант":8617,"аби":8618,"абн":8619,"абль":8620,"абар":8621,"абез":8622,"абад":8623,"абіт":8624,"абсол":8625,"аболі":8626,"абдук":8627,"абраз":8628,"аборт":8629,"абрис":8630,"абшит":8631,"абрев":8632,"абора":8633,"аборд":8634,"абсент":8635,"абдомін":8636,"абрт":8637,"абори":8638,"абажур":8639,"абсурд":8640,"абревя":8641,"абразив":8642,"абрикос":8643,"янц":8644,"янов":8645,"янти":8646,"яндж":8647,"янтар":8648,"янгол":8649,"яник":8650,"янсен":8651,"яност":8652,"янсов":8653,"яндра":8654,"янськ":8655,"янголь":8656,"янестез":8657,"джон":8658,"джет":8659,"джент":8660,"джаз":8661,"джут":8662,"джай":8663,"джмел":8664,"джиг":8665,"джим":8666,"джгут":8667,"джуць":8668,"джиндж":8669,"джигіт":8670,"джоу":8671,"джинго":8672,"джамбуль":8673,"виб":8674,"виз":8675,"вии":8676,"вил":8677,"вио":8678,"вип":8679,"вис":8680,"вих":8681,"вич":8682,"виль":8683,"виск":8684,"видж":8685,"виде":8686,"вись":8687,"виса":8688,"видр":8689,"вибор":8690,"видь":8691,"видол":8692,"вихор":8693,"видд":8694,"вигод":8695,"вида":8696,"вишен":8697,"видел":8698,"вилич":8699,"видель":8700,"вихр":8701,"вивч":8702,"визна":8703,"височ":8704,"вихри":8705,"вильк":8706,"вигід":8707,"вижов":8708,"висок":8709,"вишш":8710,"виколи":8711,"вишн":8712,"вираз":8713,"виділь":8714,"видал":8715,"вихл":8716,"вирис":8717,"вилоч":8718,"вилк":8719,"вишенн":8720,"вируб":8721,"випад":8722,"виділ":8723,"вихвал":8724,"вириг":8725,"видивл":8726,"витреб":8727,"виклас":8728,"видрук":8729,"видиция":8730,"емоч":8731,"емфі":8732,"емпір":8733,"ембрі":8734,"ембурзь":8735,"емфат":8736,"емпірі":8737,"туб":8738,"туг":8739,"туф":8740,"туц":8741,"тупл":8742,"туск":8743,"туди":8744,"туні":8745,"туман":8746,"туба":8747,"туоз":8748,"туаз":8749,"тушк":8750,"туєв":8751,"тужи":8752,"туєр":8753,"туфель":8754,"туляр":8755,"тумб":8756,"туреч":8757,"тубіль":8758,"тужур":8759,"тубіл":8760,"тулуб":8761,"турець":8762,"ентер":8763,"ентомо":8764,"сув":8765,"суе":8766,"суп":8767,"сус":8768,"суф":8769,"суш":8770,"сущ":8771,"сує":8772,"суар":8773,"супл":8774,"сукон":8775,"супер":8776,"сувер":8777,"суят":8778,"субер":8779,"судь":8780,"суфл":8781,"супра":8782,"сумл":8783,"сутен":8784,"судин":8785,"суфра":8786,"сухар":8787,"сувен":8788,"сучч":8789,"супон":8790,"суден":8791,"судд":8792,"сутт":8793,"супорт":8794,"сушен":8795,"сунь":8796,"сусаль":8797,"субот":8798,"сусак":8799,"суєт":8800,"сублі":8801,"сукр":8802,"сурем":8803,"сумах":8804,"суджува":8805,"сукен":8806,"сутн":8807,"субіт":8808,"суров":8809,"суплет":8810,"сулем":8811,"сурик":8812,"сукн":8813,"сумр":8814,"сутк":8815,"суконь":8816,"супруж":8817,"суплік":8818,"сугубл":8819,"сусід":8820,"суглоб":8821,"сугак":8822,"сугест":8823,"сугуб":8824,"судорож":8825,"сурогат":8826,"супостат":8827,"лиз":8828,"лиц":8829,"лиш":8830,"лищ":8831,"лия":8832,"лий":8833,"лиск":8834,"лиць":8835,"лиман":8836,"лизь":8837,"лизу":8838,"ливл":8839,"лизн":8840,"лисен":8841,"литов":8842,"лисон":8843,"личч":8844,"лихор":8845,"литт":8846,"лиша":8847,"литоч":8848,"липн":8849,"лизува":8850,"литв":8851,"ливий":8852,"ливець":8853,"лихв":8854,"литк":8855,"лихом":8856,"лизуува":8857,"лишай":8858,"лиштов":8859,"литавр":8860,"ага":8861,"агд":8862,"аги":8863,"агр":8864,"агу":8865,"агро":8866,"агат":8867,"агін":8868,"агри":8869,"агель":8870,"агент":8871,"агав":8872,"агло":8873,"аглю":8874,"агіт":8875,"агop":8876,"агун":8877,"агмат":8878,"агуль":8879,"агрес":8880,"аглом":8881,"агрус":8882,"агамо":8883,"аграр":8884,"агрегат":8885,"окл":8886,"окр":8887,"окль":8888,"окер":8889,"окол":8890,"окси":8891,"окта":8892,"оксер":8893,"оксел":8894,"оксам":8895,"оксан":8896,"оклад":8897,"октав":8898,"октя":8899,"оксил":8900,"окріп":8901,"оклюд":8902,"округ":8903,"оклюз":8904,"окарп":8905,"оковит":8906,"окруж":8907,"оксалат":8908,"оковир":8909,"оклецьк":8910,"діж":8911,"діз":8912,"дім":8913,"дір":8914,"діє":8915,"діі":8916,"діор":8917,"дівер":8918,"діля":8919,"діяч":8920,"діоз":8921,"діоп":8922,"діюва":8923,"дієв":8924,"діяк":8925,"діюч":8926,"дієч":8927,"ділл":8928,"діяльн":8929,"дієт":8930,"діатор":8931,"діюг":8932,"дідич":8933,"дієнт":8934,"діаліз":8935,"діяш":8936,"дігт":8937,"діабет":8938,"діабаз":8939,"дікюр":8940,"діатом":8941,"діазо":8942,"дібров":8943,"діафан":8944,"діурет":8945,"діалект":8946,"діамант":8947,"пера":8948,"перв":8949,"перл":8950,"перу":8951,"перх":8952,"перц":8953,"перш":8954,"пері":8955,"перст":8956,"перон":8957,"перси":8958,"перні":8959,"перес":8960,"перант":8961,"перей":8962,"персь":8963,"перев":8964,"перез":8965,"переб":8966,"перит":8967,"переп":8968,"перун":8969,"персп":8970,"перфор":8971,"персн":8972,"перкал":8973,"персон":8974,"пертур":8975,"перпен":8976,"перил":8977,"перук":8978,"періз":8979,"перист":8980,"першер":8981,"першен":8982,"перфо":8983,"периль":8984,"перліт":8985,"пергіль":8986,"перкут":8987,"пертус":8988,"передж":8989,"перкус":8990,"пермут":8991,"перфект":8992,"персик":8993,"перцип":8994,"перлюстр":8995,"періщ":8996,"перстен":8997,"перманент":8998,"період":8999,"перстк":9000,"перепіл":9001,"фіг":9002,"фіч":9003,"фіол":9004,"фіко":9005,"філе":9006,"філу":9007,"філя":9008,"фіде":9009,"фіто":9010,"фікт":9011,"фібр":9012,"фісто":9013,"фіран":9014,"фідер":9015,"фігл":9016,"філат":9017,"фіть":9018,"фізо":9019,"фікц":9020,"філет":9021,"філов":9022,"фігур":9023,"філак":9024,"фіцит":9025,"фікус":9026,"фіскал":9027,"фіорд":9028,"фіскаль":9029,"фіорит":9030,"фіолет":9031,"фібрил":9032,"фітинг":9033,"фіхте":9034,"філадель":9035,"ніж":9036,"ніз":9037,"ніс":9038,"нія":9039,"ніє":9040,"ніль":9041,"ніоб":9042,"німан":9043,"нітр":9044,"нідер":9045,"нітро":9046,"нісен":9047,"нікул":9048,"нікот":9049,"ні́н":9050,"ністат":9051,"ніпр":9052,"нівел":9053,"ніжж":9054,"нілов":9055,"ніпель":9056,"ніби":9057,"нікет":9058,"нівель":9059,"нісс":9060,"нікел":9061,"ніжин":9062,"нівець":9063,"нігроз":9064,"німф":9065,"нівеч":9066,"нігт":9067,"ніхром":9068,"ніздр":9069,"нігіл":9070,"карб":9071,"кард":9072,"карк":9073,"карн":9074,"карп":9075,"карч":9076,"карі":9077,"карст":9078,"карет":9079,"карел":9080,"карель":9081,"карант":9082,"карман":9083,"картер":9084,"каряч":9085,"карад":9086,"кармат":9087,"кармін":9088,"каряк":9089,"карас":9090,"карбо":9091,"карач":9092,"картон":9093,"карус":9094,"карцер":9095,"картин":9096,"караф":9097,"кармел":9098,"картел":9099,"карук":9100,"карбол":9101,"каріо":9102,"кардан":9103,"кардам":9104,"каркас":9105,"картуз":9106,"карнот":9107,"карюк":9108,"карбун":9109,"карбід":9110,"карфаг":9111,"картуш":9112,"караван":9113,"карнал":9114,"карсет":9115,"карбюр":9116,"каррар":9117,"карамел":9118,"карниз":9119,"карячи":9120,"карачк":9121,"карикатур":9122,"каролінг":9123,"карамель":9124,"кармазин":9125,"авк":9126,"авт":9127,"авар":9128,"авин":9129,"авто":9130,"авул":9131,"автен":9132,"аванс":9133,"авраль":9134,"авелл":9135,"авантаж":9136,"аварій":9137,"австраль":9138,"автомат":9139,"авдитор":9140,"аверро":9141,"есс":9142,"есор":9143,"есель":9144,"еспар":9145,"есят":9146,"еспан":9147,"есанс":9148,"еспон":9149,"еськ":9150,"есеньк":9151,"есечк":9152,"есеенц":9153,"есхато":9154,"есентук":9155,"еспадрон":9156,"есперант":9157,"пум":9158,"пуп":9159,"пуф":9160,"пуч":9161,"пува":9162,"пупл":9163,"пуск":9164,"пуць":9165,"пугу":9166,"пуга":9167,"пубер":9168,"пудр":9169,"пуги":9170,"путь":9171,"пуска":9172,"пудов":9173,"путт":9174,"пупін":9175,"пущен":9176,"пучеч":9177,"пушш":9178,"пушкар":9179,"пулеч":9180,"пурит":9181,"пустува":9182,"пуніч":9183,"пузир":9184,"пускул":9185,"пуцол":9186,"пуантил":9187,"муд":9188,"муз":9189,"мук":9190,"мух":9191,"муц":9192,"муч":9193,"муар":9194,"мумі":9195,"мушк":9196,"мучу":9197,"мудр":9198,"мусл":9199,"муску":9200,"муги":9201,"мусол":9202,"мулат":9203,"мусон":9204,"мухор":9205,"муфель":9206,"мужж":9207,"муляр":9208,"муфт":9209,"мухо":9210,"мускар":9211,"мугй":9212,"мурин":9213,"муліт":9214,"мудря":9215,"мускат":9216,"мусуль":9217,"мугир":9218,"мурав":9219,"мурах":9220,"мусир":9221,"муляж":9222,"музей":9223,"мутуал":9224,"мускул":9225,"мускуль":9226,"муравл":9227,"музич":9228,"мушкет":9229,"мураш":9230,"мустьер":9231,"музеє":9232,"анто":9233,"антй":9234,"антур":9235,"антант":9236,"антас":9237,"антреп":9238,"антроп":9239,"антероз":9240,"антонів":9241,"антропо":9242,"ейк":9243,"ейс":9244,"ейдо":9245,"ейгер":9246,"ейдет":9247,"ейзен":9248,"пард":9249,"парк":9250,"парс":9251,"парф":9252,"парх":9253,"парц":9254,"парч":9255,"парш":9256,"парель":9257,"парот":9258,"паром":9259,"парей":9260,"парна":9261,"партер":9262,"парир":9263,"парич":9264,"парад":9265,"паралі":9266,"паркан":9267,"парас":9268,"парфу":9269,"парап":9270,"партен":9271,"парус":9272,"пароль":9273,"параф":9274,"паркін":9275,"партол":9276,"пардон":9277,"парис":9278,"паркет":9279,"парцел":9280,"партам":9281,"параліз":9282,"параліт":9283,"параван":9284,"паремі":9285,"парокс":9286,"партач":9287,"парфю":9288,"парцель":9289,"парнась":9290,"паритет":9291,"парфорс":9292,"партіє":9293,"парламент":9294,"парієт":9295,"параної":9296,"параметр":9297,"циб":9298,"циз":9299,"цик":9300,"цис":9301,"циц":9302,"цист":9303,"цити":9304,"циск":9305,"циць":9306,"ципер":9307,"цикор":9308,"цитр":9309,"цигар":9310,"ципан":9311,"циган":9312,"цифер":9313,"цилін":9314,"цить":9315,"цикад":9316,"цибул":9317,"цивіль":9318,"цибет":9319,"цигй":9320,"цикль":9321,"циплін":9322,"цивіл":9323,"цигей":9324,"цифр":9325,"цируль":9326,"цибуш":9327,"цидул":9328,"цирул":9329,"цистерн":9330,"цилюр":9331,"цитоз":9332,"цитрус":9333,"лоц":9334,"лощ":9335,"лой":9336,"локо":9337,"лопар":9338,"логі":9339,"лопат":9340,"лоція":9341,"лозо":9342,"локаль":9343,"лопот":9344,"лоїв":9345,"ложж":9346,"ломач":9347,"лозин":9348,"лопіт":9349,"лопач":9350,"лояль":9351,"локаут":9352,"лопуш":9353,"локац":9354,"лоскіт":9355,"лопух":9356,"лоскоч":9357,"ло́б":9358,"лоуренс":9359,"ломачч":9360,"лопушш":9361,"гіp":9362,"гів":9363,"гік":9364,"гіро":9365,"гіет":9366,"гігі":9367,"гібер":9368,"гібр":9369,"гідр":9370,"гітар":9371,"гісто":9372,"гістер":9373,"гієць":9374,"гімен":9375,"гідь":9376,"гігро":9377,"гідро":9378,"гіпот":9379,"гі́н":9380,"гіпост":9381,"гіпн":9382,"гіпс":9383,"гіало":9384,"гігант":9385,"гі́ль":9386,"гібрид":9387,"гіацин":9388,"гіпюр":9389,"гілея":9390,"гілозо":9391,"люж":9392,"люл":9393,"лют":9394,"люф":9395,"люч":9396,"любі":9397,"лютер":9398,"любл":9399,"люстер":9400,"люте":9401,"люмен":9402,"людь":9403,"люцер":9404,"люфт":9405,"лючува":9406,"люльк":9407,"люлеч":9408,"люцiя":9409,"любк":9410,"люпин":9411,"лютн":9412,"люшн":9413,"лютува":9414,"люблін":9415,"люмiн":9416,"люїз":9417,"люпий":9418,"ниж":9419,"нии":9420,"нит":9421,"нищ":9422,"ниль":9423,"ника":9424,"ниий":9425,"нишк":9426,"низа":9427,"низь":9428,"нича":9429,"ними":9430,"ниюч":9431,"ниик":9432,"ниція":9433,"ниськ":9434,"ниця":9435,"низува":9436,"ницьк":9437,"нишпор":9438,"нииця":9439,"манг":9440,"манн":9441,"мано":9442,"манш":9443,"манер":9444,"манат":9445,"мансі":9446,"маняч":9447,"маніт":9448,"маній":9449,"маняк":9450,"манган":9451,"маніл":9452,"манір":9453,"маніль":9454,"мангл":9455,"манік":9456,"манеж":9457,"мандол":9458,"мандра":9459,"мангр":9460,"мантиль":9461,"маневр":9462,"мандар":9463,"маніф":9464,"маньер":9465,"манітт":9466,"манжет":9467,"манатт":9468,"манчест":9469,"маньйон":9470,"манкір":9471,"мансард":9472,"манишк":9473,"манекен":9474,"верб":9475,"верж":9476,"верх":9477,"верч":9478,"верш":9479,"верст":9480,"верон":9481,"верси":9482,"веред":9483,"веріт":9484,"вершк":9485,"вербал":9486,"верть":9487,"вертин":9488,"верстат":9489,"версаль":9490,"вереск":9491,"веріж":9492,"вербен":9493,"верхо":9494,"вергент":9495,"версій":9496,"вербаль":9497,"вередж":9498,"верств":9499,"верстува":9500,"вергенц":9501,"дув":9502,"дуд":9503,"дуо":9504,"дус":9505,"дуро":9506,"дуал":9507,"дует":9508,"дуел":9509,"дупл":9510,"дути":9511,"дуель":9512,"дуць":9513,"дуува":9514,"дубл":9515,"дуїн":9516,"дупел":9517,"дуум":9518,"дужж":9519,"духан":9520,"душш":9521,"дудл":9522,"дунай":9523,"дустря":9524,"дубас":9525,"дублін":9526,"дуплік":9527,"баж":9528,"бая":9529,"баск":9530,"баян":9531,"бась":9532,"бацій":9533,"башт":9534,"бастр":9535,"баєв":9536,"баюр":9537,"бапт":9538,"басин":9539,"баїн":9540,"байд":9541,"баєч":9542,"базо":9543,"басон":9544,"базар":9545,"бакун":9546,"бадил":9547,"бацил":9548,"бахур":9549,"баштан":9550,"басей":9551,"баскет":9552,"бациль":9553,"бахром":9554,"башлич":9555,"баядер":9556,"бабув":9557,"бадьор":9558,"басаман":9559,"башмач":9560,"бакаюват":9561,"бадилл":9562,"баобаб":9563,"корб":9564,"корж":9565,"корк":9566,"корм":9567,"корп":9568,"корт":9569,"корц":9570,"корен":9571,"корон":9572,"корал":9573,"корол":9574,"корін":9575,"кород":9576,"корот":9577,"короб":9578,"короч":9579,"корей":9580,"корпор":9581,"корде":9582,"корич":9583,"коряч":9584,"короз":9585,"корит":9586,"корег":9587,"короп":9588,"корів":9589,"корень":9590,"корект":9591,"коряк":9592,"корте":9593,"корков":9594,"кормл":9595,"корсар":9596,"корія":9597,"корог":9598,"король":9599,"корост":9600,"кориц":9601,"кориг":9602,"кориш":9603,"корист":9604,"корис":9605,"корекц":9606,"кортик":9607,"корчува":9608,"корвет":9609,"коробл":9610,"корзин":9611,"корінн":9612,"корінь":9613,"корабель":9614,"корчем":9615,"корнет":9616,"коряць":9617,"кореєць":9618,"корсет":9619,"корі́н":9620,"коричн":9621,"корсаж":9622,"кордя":9623,"корочен":9624,"кордуб":9625,"корсік":9626,"корінф":9627,"корпій":9628,"корабл":9629,"корпус":9630,"кореянк":9631,"коріандр":9632,"корнілов":9633,"кореспон":9634,"корпускул":9635,"осл":9636,"осм":9637,"осн":9638,"осен":9639,"осін":9640,"осет":9641,"осин":9642,"осот":9643,"особ":9644,"осоч":9645,"осман":9646,"оском":9647,"осмо":9648,"ослін":9649,"осмот":9650,"ослав":9651,"ослов":9652,"осіб":9653,"особл":9654,"осмос":9655,"осцил":9656,"осетр":9657,"осятр":9658,"осоруж":9659,"осокор":9660,"оселед":9661,"осцило":9662,"осавул":9663,"біб":9664,"біг":9665,"біз":9666,"бік":9667,"біч":9668,"бія":9669,"біє":9670,"біот":9671,"бітор":9672,"біяч":9673,"біоз":9674,"бісер":9675,"біяк":9676,"біву":9677,"бієць":9678,"бізн":9679,"бірон":9680,"бічч":9681,"білет":9682,"бібул":9683,"бідон":9684,"білон":9685,"бізан":9686,"бісс":9687,"бізон":9688,"біонт":9689,"бітум":9690,"бімс":9691,"біробі":9692,"бівач":9693,"бісквіт":9694,"білизн":9695,"наж":9696,"нап":9697,"нац":9698,"наш":9699,"наст":9700,"наці":9701,"наць":9702,"надж":9703,"наді":9704,"наци":9705,"напол":9706,"надр":9707,"напал":9708,"науль":9709,"найд":9710,"наїв":9711,"наказ":9712,"наяд":9713,"нафт":9714,"надій":9715,"наджен":9716,"надоб":9717,"нахаб":9718,"настир":9719,"навіс":9720,"назал":9721,"насін":9722,"нахід":9723,"наваж":9724,"находж":9725,"надія":9726,"науто":9727,"нахім":9728,"навид":9729,"насадж":9730,"надт":9731,"назаль":9732,"насінн":9733,"надієн":9734,"напрас":9735,"нашатир":9736,"луг":9737,"луз":9738,"луп":9739,"лут":9740,"луш":9741,"лущ":9742,"луй":9743,"лупл":9744,"луск":9745,"луць":9746,"лудж":9747,"лусь":9748,"луза":9749,"лузь":9750,"луча":9751,"луват":9752,"луган":9753,"лукул":9754,"луска":9755,"лучч":9756,"лушп":9757,"луточ":9758,"лупул":9759,"лусоч":9760,"лущен":9761,"лушпар":9762,"луцц":9763,"лулус":9764,"лужиць":9765,"луїблан":9766,"луципер":9767,"торб":9768,"торг":9769,"торж":9770,"торн":9771,"торс":9772,"торт":9773,"торц":9774,"торч":9775,"торка":9776,"тород":9777,"торць":9778,"торфі":9779,"торос":9780,"торій":9781,"тороп":9782,"торох":9783,"торбан":9784,"торгон":9785,"торпід":9786,"торсон":9787,"торсов":9788,"торгот":9789,"ториг":9790,"торис":9791,"торпед":9792,"торсій":9793,"тормоз":9794,"тормос":9795,"торощ":9796,"торіан":9797,"торакс":9798,"торопл":9799,"тормош":9800,"торкрет":9801,"торако":9802,"торжест":9803,"торгува":9804,"торгаш":9805,"тореад":9806,"торшон":9807,"гуг":9808,"гуж":9809,"гуз":9810,"гук":9811,"гум":9812,"гуо":9813,"гуп":9814,"гух":9815,"гущ":9816,"гумі":9817,"гуск":9818,"гудж":9819,"гутор":9820,"гугу":9821,"гута":9822,"гугн":9823,"губер":9824,"гуват":9825,"гумор":9826,"гусл":9827,"гутал":9828,"гусар":9829,"гуген":9830,"гусен":9831,"гудз":9832,"гулл":9833,"гусель":9834,"гуїв":9835,"гутт":9836,"гунь":9837,"гульк":9838,"гураль":9839,"гумоз":9840,"губк":9841,"гунн":9842,"гумід":9843,"губч":9844,"гуверн":9845,"гудрон":9846,"гурацій":9847,"терб":9848,"терз":9849,"терм":9850,"терп":9851,"терц":9852,"терор":9853,"терен":9854,"терат":9855,"терпл":9856,"терем":9857,"терли":9858,"терез":9859,"тереб":9860,"термо":9861,"термін":9862,"терас":9863,"терап":9864,"терпен":9865,"терпін":9866,"теріо":9867,"терміт":9868,"терато":9869,"термос":9870,"терпент":9871,"теревен":9872,"теребл":9873,"терпуг":9874,"терпуж":9875,"терилен":9876,"теракот":9877,"термідор":9878,"зид":9879,"зиз":9880,"зия":9881,"зиск":9882,"зиго":9883,"зимо":9884,"зикул":9885,"зигот":9886,"зивн":9887,"зигзаг":9888,"iнд":9889,"iнн":9890,"iнкре":9891,"iнio":9892,"iнтро":9893,"iнгa":9894,"iнce":9895,"iнвест":9896,"iндик":9897,"iнcy":9898,"iндич":9899,"iнкp":9900,"iнcпip":9901,"iнвo":9902,"iнкю":9903,"iнтим":9904,"iнcц":9905,"iнтеp":9906,"iнвe":9907,"iндo":9908,"iнсект":9909,"iнcпeкт":9910,"iнкаc":9911,"iнгуш":9912,"iнвентар":9913,"iнвeнтap":9914,"iнoз":9915,"iнфop":9916,"iндустря":9917,"ляв":9918,"ляд":9919,"ляк":9920,"лял":9921,"ляп":9922,"ляс":9923,"лях":9924,"ляч":9925,"ляш":9926,"лящ":9927,"ляль":9928,"ляск":9929,"лясь":9930,"ляцій":9931,"ляска":9932,"лязк":9933,"лясок":9934,"ляпіс":9935,"лялеман":9936,"таp":9937,"таж":9938,"таз":9939,"тао":9940,"тас":9941,"таф":9942,"тац":9943,"тая":9944,"таї":9945,"таск":9946,"тапер":9947,"таци":9948,"таєн":9949,"тацій":9950,"ташк":9951,"таюва":9952,"таска":9953,"таєнн":9954,"табул":9955,"тапоч":9956,"тафт":9957,"таша":9958,"тахо":9959,"тахі":9960,"таїт":9961,"тафо":9962,"таєм":9963,"тачеч":9964,"табун":9965,"таскува":9966,"тахін":9967,"тачк":9968,"тауто":9969,"тасман":9970,"табум":9971,"тапчан":9972,"таємн":9973,"уваж":9974,"увач":9975,"увальн":9976,"увачення":9977,"ряв":9978,"ряг":9979,"рям":9980,"ряс":9981,"ряч":9982,"ряш":9983,"рящ":9984,"ряст":9985,"ряск":9986,"рясн":9987,"ряска":9988,"рятин":9989,"рядд":9990,"ряхт":9991,"рязан":9992,"рясоч":9993,"ряджува":9994,"рясков":9995,"порг":9996,"поро":9997,"порп":9998,"порс":9999,"порх":10000,"порон":10001,"порол":10002,"порпл":10003,"порск":10004,"порці":10005,"пором":10006,"пороч":10007,"порос":10008,"портер":10009,"порсь":10010,"порцій":10011,"порід":10012,"порно":10013,"порох":10014,"портре":10015,"порть":10016,"поріс":10017,"поріч":10018,"поряд":10019,"порцел":10020,"поріж":10021,"порфір":10022,"порчен":10023,"поршн":10024,"порощ":10025,"поршник":10026,"деп":10027,"дея":10028,"деци":10029,"дебо":10030,"десть":10031,"дебат":10032,"дефін":10033,"депон":10034,"декад":10035,"девіз":10036,"депорт":10037,"дезер":10038,"дебел":10039,"деколь":10040,"дебет":10041,"дефо":10042,"дефет":10043,"дефіл":10044,"депрес":10045,"дефіні":10046,"депут":10047,"девон":10048,"депоз":10049,"децил":10050,"дебіль":10051,"дебурзь":10052,"децем":10053,"дескрип":10054,"дефек":10055,"дефект":10056,"дебенд":10057,"деїчн":10058,"дегуст":10059,"деборд":10060,"девальв":10061,"дескрипт":10062,"дебют":10063,"дехкан":10064,"демагог":10065,"дефіцит":10066,"департам":10067,"дебітор":10068,"воз":10069,"вош":10070,"вощ":10071,"воє":10072,"воі":10073,"вој":10074,"вози":10075,"воєн":10076,"воюва":10077,"воїн":10078,"войд":10079,"вокаль":10080,"воєнн":10081,"воїст":10082,"вожж":10083,"вохр":10084,"вогул":10085,"возк":10086,"вояц":10087,"вояць":10088,"воскре":10089,"восков":10090,"вогуль":10091,"воже":10092,"вогк":10093,"вогонь":10094,"вогч":10095,"едб":10096,"едн":10097,"едон":10098,"един":10099,"едем":10100,"едянт":10101,"едельвей":10102,"полк":10103,"полч":10104,"полін":10105,"полко":10106,"полин":10107,"полам":10108,"полом":10109,"полоч":10110,"полем":10111,"полос":10112,"полун":10113,"полков":10114,"полож":10115,"полір":10116,"полох":10117,"полош":10118,"полія":10119,"полог":10120,"полтин":10121,"получ":10122,"поліп":10123,"поліо":10124,"поліж":10125,"полтав":10126,"полощ":10127,"поліц":10128,"полих":10129,"поління":10130,"поломен":10131,"полоска":10132,"полбян":10133,"сьол":10134,"сьом":10135,"сьорб":10136,"сьорба":10137,"ськуий":10138,"тоc":10139,"тощ":10140,"той":10141,"токо":10142,"топл":10143,"топо":10144,"топор":10145,"топт":10146,"тохар":10147,"топір":10148,"токай":10149,"томас":10150,"топир":10151,"топч":10152,"топаз":10153,"томасу":10154,"epг":10155,"epей":10156,"epго":10157,"epeг":10158,"epiо":10159,"epоs":10160,"epцк":10161,"гах":10162,"гач":10163,"гая":10164,"гапл":10165,"гаці":10166,"гааг":10167,"гась":10168,"гаюва":10169,"гастр":10170,"гастер":10171,"гапт":10172,"гаєць":10173,"гадь":10174,"газд":10175,"гастру":10176,"гаєч":10177,"гауб":10178,"гадол":10179,"гадд":10180,"гафель":10181,"газел":10182,"гапло":10183,"гайк":10184,"газон":10185,"газет":10186,"гапур":10187,"гайс":10188,"гашет":10189,"гаплич":10190,"гаспи":10191,"гастрон":10192,"гашиш":10193,"гафні":10194,"трон":10195,"трат":10196,"транд":10197,"трюм":10198,"трюк":10199,"ирс":10200,"ича":10201,"ичи":10202,"ичк":10203,"ичін":10204,"ичка":10205,"иченн":10206,"ичений":10207,"кіc":10208,"кік":10209,"кіп":10210,"кіс":10211,"кіт":10212,"кіє":10213,"кіст":10214,"кіпер":10215,"кімо":10216,"кістр":10217,"кідер":10218,"кіпт":10219,"кілл":10220,"кіпр":10221,"кікс":10222,"кізер":10223,"кімн":10224,"кісс":10225,"кільк":10226,"кітв":10227,"кілеч":10228,"кіров":10229,"кібч":10230,"кігт":10231,"кіоск":10232,"кітл":10233,"кіхот":10234,"кі́ль":10235,"кірас":10236,"блет":10237,"блек":10238,"блоч":10239,"бланк":10240,"бленорей":10241,"блондин":10242,"блакит":10243,"сіл":10244,"сіп":10245,"сір":10246,"сіс":10247,"сіт":10248,"сіш":10249,"сіє":10250,"сіам":10251,"сідж":10252,"сівер":10253,"сієн":10254,"сімо":10255,"сідь":10256,"сімон":10257,"сіть":10258,"сілл":10259,"сірій":10260,"січн":10261,"сілез":10262,"сіртуч":10263,"сілезь":10264,"сізіф":10265,"сіракузь":10266,"сіцілій":10267,"ечн":10268,"ечь":10269,"ий́":10270,"ийц":10271,"ийви":10272,"ийна":10273,"ийвід":10274,"ийбез":10275,"ийканар":10276,"ийдроб":10277,"ийглиб":10278,"ийшлейф":10279,"евт":10280,"евро":10281,"евент":10282,"евфу":10283,"евген":10284,"евкла":10285,"еврей":10286,"евтек":10287,"европ":10288,"евдіо":10289,"евангел":10290,"евдемон":10291,"евфем":10292,"евкаліпт":10293,"маре":10294,"мари":10295,"марл":10296,"марн":10297,"марс":10298,"март":10299,"марц":10300,"марі":10301,"маран":10302,"марен":10303,"марал":10304,"мараль":10305,"марант":10306,"марун":10307,"маруд":10308,"мартен":10309,"марик":10310,"маркер":10311,"мартин":10312,"марсел":10313,"мармел":10314,"марсель":10315,"маркс":10316,"мармур":10317,"маршал":10318,"маріон":10319,"маржин":10320,"марсилі":10321,"мартенс":10322,"мартиро":10323,"марокк":10324,"марокен":10325,"марафон":10326,"маратх":10327,"марказит":10328,"мародер":10329,"марципан":10330,"езо":10331,"езі":10332,"езян":10333,"езоп":10334,"езінк":10335,"езіан":10336,"ячка":10337,"гнй":10338,"гнот":10339,"гном":10340,"гноб":10341,"гноз":10342,"гност":10343,"гной":10344,"гнобл":10345,"гнiв":10346,"гнотт":10347,"гнузд":10348,"гното":10349,"гнейс":10350,"адк":10351,"адь":10352,"адер":10353,"аден":10354,"адрен":10355,"адмір":10356,"аддук":10357,"адвент":10358,"адвок":10359,"адапт":10360,"адопт":10361,"адміністр":10362,"адюль":10363,"адекват":10364,"адміраль":10365,"адріатич":10366,"оза":10367,"озер":10368,"озон":10369,"озот":10370,"озіїщ":10371,"озокер":10372,"колб":10373,"коло":10374,"колі":10375,"колер":10376,"колй":10377,"колон":10378,"колін":10379,"колес":10380,"колій":10381,"колект":10382,"колім":10383,"колір":10384,"колив":10385,"коліс":10386,"колуп":10387,"коляд":10388,"колис":10389,"колекц":10390,"коляс":10391,"колюш":10392,"колінн":10393,"коліє":10394,"колієв":10395,"колезь":10396,"колошк":10397,"колчак":10398,"колочен":10399,"коліш":10400,"коліщ":10401,"колонк":10402,"колектив":10403,"колосс":10404,"колупл":10405,"колчед":10406,"коляск":10407,"коленкор":10408,"коломий":10409,"колобоч":10410,"колабора":10411,"ятл":10412,"ятн":10413,"ятко":10414,"яточ":10415,"ятір":10416,"ятсен":10417,"ятниц":10418,"ітк":10419,"ітан":10420,"італ":10421,"ітет":10422,"ітур":10423,"ітос":10424,"ітект":10425,"ітенці":10426,"ітельмен":10427,"андар":10428,"андро":10429,"андел":10430,"андрій":10431,"андрад":10432,"андрія":10433,"андорр":10434,"гоi":10435,"гоф":10436,"гоц":10437,"гощ":10438,"гоя":10439,"гост":10440,"гой":10441,"гої":10442,"гогі":10443,"гоєн":10444,"гоюва":10445,"гостр":10446,"гогол":10447,"гость":10448,"гойд":10449,"гоєнн":10450,"госуд":10451,"готич":10452,"гоїст":10453,"готик":10454,"гостель":10455,"гофр":10456,"гоїти":10457,"гоцянт":10458,"гомілк":10459,"ебн":10460,"ебень":10461,"ебник":10462,"итм":10463,"италь":10464,"итян":10465,"итос":10466,"итатив":10467,"cтат":10468,"cтем":10469,"cтав":10470,"cтiн":10471,"cтій":10472,"cтap":10473,"cтaт":10474,"cтpi":10475,"cтaн":10476,"cтеp":10477,"cтeгo":10478,"cтyк":10479,"cтyп":10480,"cтеx":10481,"cтpax":10482,"cтанція":10483,"opo":10484,"opx":10485,"opaтоp":10486,"opieнт":10487,"еств":10488,"естро":10489,"естин":10490,"естик":10491,"естаф":10492,"естрад":10493,"естлянд":10494,"естакад":10495,"естрагон":10496,"естамп":10497,"єнот":10498,"єнтал":10499,"єнакіїв":10500,"ійш":10501,"ійне":10502,"азб":10503,"азд":10504,"азн":10505,"азі":10506,"азин":10507,"азур":10508,"азот":10509,"азят":10510,"азій":10511,"азія":10512,"азой":10513,"азеф":10514,"азарт":10515,"азбуч":10516,"азієць":10517,"азбест":10518,"азіат":10519,"азербай":10520,"ктop":10521,"ктатор":10522,"прис":10523,"прих":10524,"приш":10525,"прищ":10526,"прия":10527,"приск":10528,"прием":10529,"притор":10530,"примар":10531,"примат":10532,"приса":10533,"пристрі":10534,"присуд":10535,"привел":10536,"принд":10537,"призм":10538,"притам":10539,"прикр":10540,"придоб":10541,"приют":10542,"природ":10543,"причин":10544,"прискува":10545,"причет":10546,"примус":10547,"причас":10548,"прикаж":10549,"притч":10550,"причіл":10551,"причіль":10552,"прискуува":10553,"притьм":10554,"примітив":10555,"apo":10556,"apн":10557,"apан":10558,"apaп":10559,"apгp":10560,"apco":10561,"apce":10562,"apeo":10563,"apiй":10564,"apтep":10565,"apiy":10566,"apаx":10567,"apбiтр":10568,"епь":10569,"епат":10570,"епюр":10571,"епсель":10572,"епис":10573,"епсом":10574,"епонж":10575,"штат":10576,"штин":10577,"шталь":10578,"штак":10579,"шток":10580,"штатив":10581,"штрек":10582,"штабель":10583,"штрик":10584,"штальт":10585,"штраф":10586,"штрип":10587,"штрих":10588,"штейн":10589,"штрейк":10590,"штриш":10591,"штейгер":10592,"штандар":10593,"штепсель":10594,"комб":10595,"комс":10596,"комон":10597,"комін":10598,"комет":10599,"комин":10600,"комент":10601,"комбі":10602,"компре":10603,"компра":10604,"компон":10605,"компен":10606,"компот":10607,"комбін":10608,"комиш":10609,"компас":10610,"комбай":10611,"комби":10612,"компост":10613,"компрес":10614,"компіл":10615,"компіль":10616,"комиз":10617,"комплекс":10618,"комфорт":10619,"композит":10620,"композиц":10621,"комерц":10622,"комплем":10623,"компромет":10624,"комизи":10625,"комплект":10626,"комерс":10627,"коменсал":10628,"комплім":10629,"компаун":10630,"компроміс":10631,"горб":10632,"горг":10633,"горд":10634,"горл":10635,"горо":10636,"горт":10637,"горш":10638,"горщ":10639,"горь":10640,"горі":10641,"горян":10642,"гордж":10643,"горич":10644,"горбл":10645,"горож":10646,"гормон":10647,"горід":10648,"горно":10649,"горох":10650,"горош":10651,"гортан":10652,"горьк":10653,"горлич":10654,"горнич":10655,"горошк":10656,"городжен":10657,"горжет":10658,"горівч":10659,"горіш":10660,"горіх":10661,"горсточ":10662,"горівк":10663,"горизонт":10664,"моp":10665,"мог":10666,"моп":10667,"мох":10668,"моц":10669,"мощ":10670,"мост":10671,"моди":10672,"моїн":10673,"моція":10674,"мотив":10675,"мотил":10676,"мопр":10677,"мошен":10678,"мотич":10679,"мопс":10680,"мощен":10681,"москат":10682,"москал":10683,"москов":10684,"могут":10685,"моєму":10686,"мотиж":10687,"москіт":10688,"москв":10689,"могік":10690,"могутт":10691,"могорич":10692,"премі":10693,"препар":10694,"претор":10695,"пресі":10696,"прегн":10697,"прести":10698,"превал":10699,"прекос":10700,"превент":10701,"предок":10702,"престол":10703,"прейс":10704,"престоль":10705,"префект":10706,"прелюд":10707,"прецед":10708,"превенц":10709,"прецесій":10710,"пресува":10711,"преюдиці":10712,"прелімінар":10713,"презид":10714,"шкель":10715,"шкaп":10716,"шквал":10717,"шкил":10718,"шкваль":10719,"шкроб":10720,"шкріб":10721,"шкряб":10722,"шкатул":10723,"шкреб":10724,"заж":10725,"зай":10726,"забу":10727,"зась":10728,"заяч":10729,"заєць":10730,"заїн":10731,"завір":10732,"завіз":10733,"запорож":10734,"захід":10735,"застав":10736,"забут":10737,"забудь":10738,"заход":10739,"засік":10740,"запащ":10741,"заятин":10742,"зайв":10743,"запасоч":10744,"киc":10745,"кив":10746,"киг":10747,"кид":10748,"киж":10749,"кис":10750,"ких":10751,"киц":10752,"кипл":10753,"киян":10754,"кишк":10755,"києв":10756,"киса":10757,"кияк":10758,"киюр":10759,"кидь":10760,"кисть":10761,"киги":10762,"кисел":10763,"київ":10764,"кида":10765,"кишин":10766,"кикс":10767,"китай":10768,"кисет":10769,"кирил":10770,"кизил":10771,"кибит":10772,"кизй":10773,"кисень":10774,"кибалоч":10775,"кипарис":10776,"егер":10777,"егов":10778,"егалітар":10779,"пix":10780,"пiм":10781,"пiт":10782,"пiш":10783,"пiop":10784,"пipo":10785,"пiтт":10786,"пipi":10787,"пiєт":10788,"пieл":10789,"пicк":10790,"пiєм":10791,"пiтe":10792,"пicтp":10793,"пiтеp":10794,"пiтy":10795,"унг":10796,"унж":10797,"унк":10798,"унн":10799,"унч":10800,"унь":10801,"унці":10802,"уноч":10803,"унок":10804,"унук":10805,"унанім":10806,"уншвей":10807,"ундецим":10808,"унанган":10809,"ундецил":10810,"барв":10811,"барж":10812,"барк":10813,"баро":10814,"барс":10815,"барі":10816,"баран":10817,"барон":10818,"барет":10819,"барко":10820,"бароч":10821,"барач":10822,"барвл":10823,"бараж":10824,"бареж":10825,"барсел":10826,"барил":10827,"бартол":10828,"бариш":10829,"бархан":10830,"барбот":10831,"баркас":10832,"барлож":10833,"бариль":10834,"баріон":10835,"барбіт":10836,"баранч":10837,"бархат":10838,"барокк":10839,"барбарис":10840,"барнауль":10841,"вари":10842,"варт":10843,"варвар":10844,"варик":10845,"варіо":10846,"варянт":10847,"варсан":10848,"варяц":10849,"варязь":10850,"варняк":10851,"опал":10852,"опел":10853,"опти":10854,"опак":10855,"опир":10856,"опець":10857,"опьк":10858,"опанч":10859,"оптим":10860,"опріч":10861,"берд":10862,"берл":10863,"берт":10864,"берч":10865,"берет":10866,"берек":10867,"берод":10868,"берез":10869,"берест":10870,"берег":10871,"бербер":10872,"берлін":10873,"бергам":10874,"берил":10875,"бертол":10876,"беріз":10877,"бердан":10878,"береск":10879,"берлин":10880,"бердич":10881,"бердя":10882,"беріг":10883,"березн":10884,"беркшир":10885,"берейтор":10886,"беркиць":10887,"бертранд":10888,"черг":10889,"черн":10890,"черп":10891,"черс":10892,"черт":10893,"черч":10894,"черен":10895,"черві":10896,"черес":10897,"черед":10898,"черев":10899,"через":10900,"червл":10901,"черід":10902,"червін":10903,"череж":10904,"черсак":10905,"червн":10906,"червч":10907,"черкас":10908,"червон":10909,"червяк":10910,"черств":10911,"червц":10912,"черкес":10913,"червінь":10914,"черкаси":10915,"черкась":10916,"черевич":10917,"черствл":10918,"aпop":10919,"aпpo":10920,"aпpeг":10921,"aптеp":10922,"aпeгоp":10923,"aпepг":10924,"пиc":10925,"пиx":10926,"пив":10927,"пиж":10928,"пик":10929,"пил":10930,"пих":10931,"пиш":10932,"пия":10933,"писк":10934,"пись":10935,"пияч":10936,"писа":10937,"пияк":10938,"пильн":10939,"писка":10940,"пиія":10941,"пидар":10942,"писан":10943,"писоч":10944,"пирува":10945,"пискат":10946,"пирож":10947,"пирог":10948,"пижм":10949,"пилип":10950,"пирятин":10951,"траг":10952,"трас":10953,"траф":10954,"трач":10955,"трапл":10956,"траур":10957,"тракт":10958,"траул":10959,"трафл":10960,"травл":10961,"трафар":10962,"трапе":10963,"травест":10964,"травн":10965,"трамб":10966,"травень":10967,"траектор":10968,"траверс":10969,"травян":10970,"традиці":10971,"традицій":10972,"траверз":10973,"трайбал":10974,"травертин":10975,"чап":10976,"чах":10977,"чач":10978,"чаш":10979,"чащ":10980,"чая":10981,"чає":10982,"част":10983,"чай":10984,"чаї":10985,"чадж":10986,"чаєн":10987,"чаюва":10988,"чаєч":10989,"часов":10990,"чаїв":10991,"часс":10992,"часту":10993,"частик":10994,"чапаєв":10995,"чуб":10996,"чув":10997,"чум":10998,"чуп":10999,"чут":11000,"чуць":11001,"чупар":11002,"чуман":11003,"чуува":11004,"чушк":11005,"чуки":11006,"чумл":11007,"чукот":11008,"чумак":11009,"чужен":11010,"чупр":11011,"чумач":11012,"чухр":11013,"чужа":11014,"чучел":11015,"чубуч":11016,"чухон":11017,"чумац":11018,"чубук":11019,"чугун":11020,"чумиз":11021,"чумароч":11022,"чучель":11023,"чучвер":11024,"чумарч":11025,"чуфи":11026,"чумаць":11027,"чугуїв":11028,"peo":11029,"pex":11030,"peaг":11031,"peнт":11032,"peвіз":11033,"peгo":11034,"peaл":11035,"peкy":11036,"pecпip":11037,"peдак":11038,"peпap":11039,"peaкц":11040,"peгац":11041,"peaкт":11042,"peдop":11043,"peдакт":11044,"peпpe":11045,"peфep":11046,"peвеp":11047,"peмт":11048,"peплiк":11049,"pecтop":11050,"peпpеc":11051,"peпopт":11052,"pecyp":11053,"peдaкц":11054,"peпіx":11055,"peтаp":11056,"peктop":11057,"стив":11058,"стиг":11059,"стид":11060,"стипл":11061,"стиян":11062,"стидж":11063,"стило":11064,"стипен":11065,"стимуль":11066,"стимул":11067,"стибн":11068,"стипль":11069,"аліо":11070,"алія":11071,"аліє":11072,"алії":11073,"алізар":11074,"алідад":11075,"алілуй":11076,"волг":11077,"волж":11078,"волл":11079,"волен":11080,"волин":11081,"волод":11082,"волот":11083,"волей":11084,"волос":11085,"волзь":11086,"волож":11087,"волох":11088,"волік":11089,"волюн":11090,"волют":11091,"волюм":11092,"волось":11093,"волоц":11094,"волхов":11095,"волотт":11096,"волошк":11097,"волия":11098,"волосс":11099,"воложен":11100,"воловод":11101,"волокон":11102,"волонтер":11103,"канв":11104,"кано":11105,"кану":11106,"кань":11107,"канал":11108,"канат":11109,"каналь":11110,"канав":11111,"канос":11112,"канад":11113,"канкан":11114,"канів":11115,"канюч":11116,"канап":11117,"кантиль":11118,"канцел":11119,"канкр":11120,"канчук":11121,"канальн":11122,"канитель":11123,"каналуп":11124,"канібаль":11125,"канаус":11126,"кандид":11127,"стран":11128,"страто":11129,"страти":11130,"странгул":11131,"стренч":11132,"дож":11133,"доу":11134,"дох":11135,"дош":11136,"дощ":11137,"дост":11138,"дої":11139,"доєн":11140,"доюва":11141,"доган":11142,"дояр":11143,"доєнн":11144,"догм":11145,"доцент":11146,"докуч":11147,"доїти":11148,"достем":11149,"досить":11150,"документ":11151,"доміциль":11152,"мик":11153,"мил":11154,"мищ":11155,"миль":11156,"мист":11157,"миї":11158,"миск":11159,"мимо":11160,"мисл":11161,"мисел":11162,"мизк":11163,"мишл":11164,"микит":11165,"мимр":11166,"мислив":11167,"євпат":11168,"євген":11169,"єврей":11170,"європ":11171,"євангел":11172,"євангель":11173,"еннa":11174,"матк":11175,"матл":11176,"матн":11177,"матч":11178,"матер":11179,"матор":11180,"матод":11181,"маточ":11182,"матні":11183,"матір":11184,"матрос":11185,"матема":11186,"матнiт":11187,"математ":11188,"матрярх":11189,"матрось":11190,"матрац":11191,"саф":11192,"сах":11193,"сай":11194,"саам":11195,"сапро":11196,"сапер":11197,"сахар":11198,"сапін":11199,"сажен":11200,"сачува":11201,"саєт":11202,"сажд":11203,"сафран":11204,"саджува":11205,"сажн":11206,"сафлор":11207,"саїл":11208,"спин":11209,"спаль":11210,"спес":11211,"спич":11212,"справ":11213,"справл":11214,"спектр":11215,"спирт":11216,"спраг":11217,"спряг":11218,"серб":11219,"серд":11220,"сери":11221,"серн":11222,"серп":11223,"серц":11224,"серер":11225,"сердж":11226,"сероз":11227,"серій":11228,"серпан":11229,"сервір":11230,"сереж":11231,"сердол":11232,"сериц":11233,"сервіз":11234,"сервіль":11235,"сервет":11236,"серебр":11237,"серпн":11238,"серпант":11239,"сервіл":11240,"сервіс":11241,"серпент":11242,"сердач":11243,"серйоз":11244,"середжува":11245,"сержант":11246,"сервітут":11247,"утo":11248,"утн":11249,"утол":11250,"утрі":11251,"утір":11252,"утюж":11253,"утяж":11254,"утроб":11255,"утрир":11256,"розе":11257,"розо":11258,"розі":11259,"розор":11260,"розов":11261,"розет":11262,"розбр":11263,"розкош":11264,"розпач":11265,"роздоб":11266,"розрад":11267,"розділь":11268,"розрис":11269,"розрум":11270,"розряд":11271,"розрядж":11272,"розрип":11273,"розруй":11274,"роздивл":11275,"розмарин":11276,"розбиш":11277,"розумл":11278,"розрихл":11279,"розрізн":11280,"розкіш":11281,"розквас":11282,"роздряп":11283,"розгляд":11284,"розучи":11285,"курд":11286,"курк":11287,"курт":11288,"курен":11289,"курін":11290,"курві":11291,"курли":11292,"курлю":11293,"курни":11294,"куркул":11295,"куркуль":11296,"куртин":11297,"курдел":11298,"курсор":11299,"куратор":11300,"куркум":11301,"кургй":11302,"курорт":11303,"курсив":11304,"курлянд":11305,"курдюч":11306,"курлй":11307,"курнй":11308,"курйоз":11309,"курдупель":11310,"куртизан":11311,"куртуаз":11312,"куртаж":11313,"брй":11314,"брян":11315,"бранд":11316,"брень":11317,"брюн":11318,"бронь":11319,"брюз":11320,"братт":11321,"брандер":11322,"брьох":11323,"брюссель":11324,"крев":11325,"крек":11326,"крес":11327,"креш":11328,"креол":11329,"креат":11330,"крект":11331,"кремат":11332,"кресл":11333,"кремен":11334,"кремл":11335,"крейд":11336,"кретон":11337,"кретин":11338,"креоль":11339,"кремаль":11340,"кревет":11341,"кремн":11342,"крепіт":11343,"кредит":11344,"кремез":11345,"кречет":11346,"крейс":11347,"кремац":11348,"креаціон":11349,"кредитив":11350,"креозот":11351,"соф":11352,"сох":11353,"соц":11354,"сопл":11355,"соць":11356,"соєв":11357,"соус":11358,"сокот":11359,"соколь":11360,"сопіл":11361,"сопіль":11362,"сояш":11363,"сойм":11364,"союз":11365,"сойот":11366,"сосис":11367,"соцін":11368,"софій":11369,"соцят":11370,"івн":11371,"івя":11372,"івоч":11373,"івник":11374,"івнич":11375,"івниць":11376,"івуець":11377,"еньян":11378,"балк":11379,"балт":11380,"балер":11381,"балат":11382,"балак":11383,"балот":11384,"балкон":11385,"балок":11386,"балкар":11387,"балич":11388,"балад":11389,"балкан":11390,"балач":11391,"баланс":11392,"балик":11393,"баласт":11394,"балуш":11395,"баляс":11396,"балерин":11397,"балух":11398,"балабон":11399,"балабуш":11400,"балхаш":11401,"балюстрад":11402,"баляндра":11403,"гарб":11404,"гарв":11405,"гари":11406,"гарк":11407,"гарн":11408,"гарт":11409,"гарц":11410,"гаря":11411,"гарць":11412,"гарем":11413,"гарли":11414,"гарант":11415,"гарман":11416,"гаряч":11417,"гармат":11418,"гардер":11419,"гараж":11420,"гардин":11421,"гарус":11422,"гарден":11423,"гарпун":11424,"гарнір":11425,"гарбуз":11426,"гармош":11427,"гарячи":11428,"гарібаль":11429,"гардіяш":11430,"гаразд":11431,"мінг":11432,"мінт":11433,"мінь":11434,"мінор":11435,"мінут":11436,"мінім":11437,"мінтон":11438,"мінус":11439,"міног":11440,"мінатив":11441,"мінускуль":11442,"ватк":11443,"ватр":11444,"ватаг":11445,"ватман":11446,"ватаж":11447,"ватікан":11448,"ватрушк":11449,"ватрушеч":11450,"гpy":11451,"гpо":11452,"гpам":11453,"гpад":11454,"гpiп":11455,"гpiм":11456,"гpаф":11457,"гpac":11458,"гpaм":11459,"гpix":11460,"гpеc":11461,"гpaд":11462,"гpoп":11463,"гpаcн":11464,"дран":11465,"дрен":11466,"драл":11467,"дрант":11468,"дрень":11469,"дрюч":11470,"дрючч":11471,"мерв":11472,"мерз":11473,"мерк":11474,"меро":11475,"мерх":11476,"мерсер":11477,"мерист":11478,"мергел":11479,"мерсмер":11480,"мервон":11481,"мергель":11482,"мерещ":11483,"мерехт":11484,"меркантил":11485,"меркатор":11486,"меркурі":11487,"меркантиль":11488,"гала":11489,"гало":11490,"галт":11491,"галль":11492,"гален":11493,"галон":11494,"галет":11495,"галди":11496,"галтер":11497,"галич":11498,"галеч":11499,"галіт":11500,"галун":11501,"галоп":11502,"галас":11503,"галяв":11504,"галуж":11505,"галакт":11506,"галуш":11507,"галиць":11508,"галерей":11509,"галстук":11510,"галабур":11511,"галуаз":11512,"галюцин":11513,"галамаг":11514,"морж":11515,"морз":11516,"морс":11517,"морф":11518,"морх":11519,"морш":11520,"морщ":11521,"морен":11522,"морал":11523,"морел":11524,"морпо":11525,"мораль":11526,"морск":11527,"мороч":11528,"морок":11529,"морав":11530,"мороз":11531,"морков":11532,"морож":11533,"мормон":11534,"мордов":11535,"морсов":11536,"мортир":11537,"моркв":11538,"моріж":11539,"морків":11540,"морошк":11541,"морозь":11542,"мордв":11543,"морожен":11544,"моршува":11545,"iпj":11546,"iпp":11547,"iпк":11548,"iпн":11549,"iпвк":11550,"iптp":11551,"iпcпip":11552,"iптe":11553,"iпaж":11554,"iпcгp":11555,"iпвeнтap":11556,"iптeл":11557,"аско":11558,"асак":11559,"аспід":11560,"ассам":11561,"асфаль":11562,"аспараг":11563,"асаран":11564,"асеніз":11565,"асмагор":11566,"аспергіль":11567,"асесор":11568,"краб":11569,"крад":11570,"краж":11571,"крас":11572,"крач":11573,"краш":11574,"кращ":11575,"края":11576,"крає":11577,"краі":11578,"край":11579,"крапл":11580,"краян":11581,"краюва":11582,"красн":11583,"краєць":11584,"крадь":11585,"крамол":11586,"крашен":11587,"крафт":11588,"кравч":11589,"краків":11590,"краве":11591,"красоль":11592,"кравець":11593,"крапк":11594,"крашенн":11595,"країй":11596,"кравц":11597,"крамоль":11598,"країсть":11599,"крапіо":11600,"краматор":11601,"краватк":11602,"криг":11603,"криз":11604,"крик":11605,"крил":11606,"крип":11607,"крис":11608,"криф":11609,"крих":11610,"криц":11611,"крич":11612,"криш":11613,"криль":11614,"кригн":11615,"крича":11616,"кримін":11617,"кривл":11618,"крилл":11619,"критич":11620,"крикет":11621,"кризов":11622,"кристал":11623,"кримiн":11624,"крипто":11625,"кристаль":11626,"криштал":11627,"криївк":11628,"кришталь":11629,"уда":11630,"удв":11631,"удн":11632,"удар":11633,"уден":11634,"удал":11635,"удол":11636,"удов":11637,"удаль":11638,"удав":11639,"удму":11640,"удяг":11641,"удмур":11642,"удавл":11643,"удацій":11644,"удруг":11645,"удяган":11646,"удержа":11647,"удесят":11648,"форд":11649,"форел":11650,"форель":11651,"формі":11652,"формат":11653,"формер":11654,"форстер":11655,"форте":11656,"формл":11657,"формал":11658,"фортун":11659,"формуль":11660,"фортей":11661,"формул":11662,"форсаж":11663,"форшпан":11664,"форейтор":11665,"форштадт":11666,"формуляр":11667,"клан":11668,"клор":11669,"клен":11670,"клин":11671,"клек":11672,"клак":11673,"клот":11674,"кланд":11675,"клмат":11676,"клac":11677,"клйк":11678,"клинн":11679,"клочк":11680,"клeї":11681,"клаксон":11682,"клочч":11683,"кларнет":11684,"пань":11685,"пані":11686,"панел":11687,"панам":11688,"панель":11689,"панір":11690,"панцер":11691,"панік":11692,"паніч":11693,"панцир":11694,"панчі":11695,"панегір":11696,"пансіон":11697,"панфілов":11698,"панкреат":11699,"слан":11700,"слон":11701,"слін":11702,"слет":11703,"словл":11704,"слинь":11705,"слобід":11706,"слобод":11707,"сланиц":11708,"слобон":11709,"слалом":11710,"слобож":11711,"тарк":11712,"тарт":11713,"тарган":11714,"тарах":11715,"тартин":11716,"тархан":11717,"тартак":11718,"таратор":11719,"таранк":11720,"тарабан":11721,"тартач":11722,"тарарах":11723,"тарлатан":11724,"тарабар":11725,"тарагун":11726,"тарантас":11727,"чив":11728,"чиг":11729,"чиж":11730,"чип":11731,"чис":11732,"чиц":11733,"чиш":11734,"чищ":11735,"чию":11736,"чиць":11737,"числ":11738,"чисто":11739,"чисть":11740,"чисель":11741,"чизел":11742,"чизель":11743,"чищува":11744,"чикриж":11745,"чисарай":11746,"стоj":11747,"стог":11748,"стож":11749,"стоя":11750,"стой":11751,"стої":11752,"стоць":11753,"стопор":11754,"стояч":11755,"стогн":11756,"стоєн":11757,"стоюва":11758,"стоєв":11759,"стоїн":11760,"стоєч":11761,"стоєнн":11762,"стопоч":11763,"стоящ":11764,"стоїщ":11765,"стохаст":11766,"ioд":11767,"ioпaл":11768,"боц":11769,"боя":11770,"боє":11771,"боль":11772,"боєн":11773,"богар":11774,"боєць":11775,"бояр":11776,"боїн":11777,"боєч":11778,"бокаль":11779,"боїст":11780,"божж":11781,"богат":11782,"бойк":11783,"богем":11784,"боящ":11785,"боже":11786,"боїщ":11787,"боскет":11788,"богаз":11789,"бостон":11790,"вуз":11791,"вус":11792,"вух":11793,"вуш":11794,"вуст":11795,"вуар":11796,"вуй":11797,"вуал":11798,"вуаль":11799,"вудж":11800,"вуаз":11801,"вузь":11802,"вузд":11803,"вугл":11804,"вуєч":11805,"вугр":11806,"вужен":11807,"вугли":11808,"вузол":11809,"вуджен":11810,"вугіль":11811,"вузл":11812,"вугілл":11813,"вудиль":11814,"вусище":11815,"гано":11816,"гань":11817,"ганоч":11818,"гандж":11819,"ганок":11820,"ганус":11821,"ганглі":11822,"гангрен":11823,"ганчір":11824,"юрб":11825,"юрк":11826,"юрл":11827,"юрм":11828,"юрт":11829,"юрбл":11830,"юрмл":11831,"юрморт":11832,"ілк":11833,"ілл":11834,"іллір":11835,"стере":11836,"стереб":11837,"стерег":11838,"стереж":11839,"стерео":11840,"стерил":11841,"стернь":11842,"стержн":11843,"стериль":11844,"стерляж":11845,"стерлінг":11846,"стеріг":11847,"стеріор":11848,"стержнь":11849,"борг":11850,"борж":11851,"борз":11852,"борк":11853,"борм":11854,"борн":11855,"боро":11856,"борс":11857,"борт":11858,"борщ":11859,"борон":11860,"борін":11861,"бордо":11862,"борть":11863,"бордюр":11864,"борушк":11865,"борсук":11866,"борсуч":11867,"борозн":11868,"боржом":11869,"борідь":11870,"ранг":11871,"ранн":11872,"ранет":11873,"рантух":11874,"ранжир":11875,"рангоут":11876,"ворк":11877,"ворс":11878,"ворот":11879,"вороч":11880,"воріт":11881,"ворож":11882,"ворог":11883,"воркот":11884,"воронь":11885,"воркува":11886,"воротт":11887,"ворітт":11888,"вороши":11889,"дерг":11890,"дерз":11891,"дерм":11892,"дерн":11893,"дерен":11894,"дерма":11895,"дерез":11896,"дерень":11897,"дерив":11898,"дереш":11899,"держа":11900,"держува":11901,"зуб":11902,"зум":11903,"зути":11904,"зудж":11905,"зубл":11906,"зубр":11907,"зугар":11908,"зубат":11909,"зупин":11910,"зулус":11911,"зухвал":11912,"зухваль":11913,"зулусь":11914,"кати":11915,"катер":11916,"катар":11917,"катран":11918,"катех":11919,"католі":11920,"катаф":11921,"каталіз":11922,"каталіт":11923,"катедер":11924,"катерн":11925,"катерин":11926,"каталон":11927,"каталек":11928,"теc":11929,"теo":11930,"теx":11931,"тео":11932,"тех":11933,"теш":11934,"теор":11935,"тепл":11936,"теск":11937,"тепер":11938,"тефі":11939,"теop":11940,"тефл":11941,"тепло":11942,"теpaп":11943,"теaгp":11944,"теоp":11945,"техн":11946,"теплич":11947,"теxн":11948,"теодо":11949,"тепірч":11950,"театр":11951,"теомос":11952,"тебаїн":11953,"фера":11954,"ферз":11955,"ферм":11956,"феро":11957,"фербер":11958,"фермер":11959,"ферган":11960,"феруль":11961,"фермент":11962,"ференц":11963,"фертиль":11964,"фершал":11965,"феронь":11966,"фернам":11967,"poc":11968,"pox":11969,"poг":11970,"poз":11971,"poт":11972,"poї":11973,"pocт":11974,"poпo":11975,"poїcт":11976,"poвiз":11977,"ачений":11978,"ачетит":11979,"кров":11980,"крок":11981,"крол":11982,"кром":11983,"кроп":11984,"крос":11985,"кроу":11986,"кроч":11987,"крой":11988,"кроат":11989,"кропл":11990,"крої":11991,"крокі":11992,"кроєн":11993,"кроюва":11994,"кровл":11995,"кросен":11996,"кротон":11997,"кровин":11998,"кроєнн":11999,"крокв":12000,"крокет":12001,"кропіт":12002,"кроків":12003,"кровян":12004,"кроміш":12005,"кромс":12006,"крокодил":12007,"кроманьйон":12008,"метp":12009,"мета":12010,"метл":12011,"метро":12012,"метол":12013,"метель":12014,"метод":12015,"метем":12016,"метик":12017,"метео":12018,"метил":12019,"метуп":12020,"метис":12021,"метуш":12022,"метебр":12023,"метоц":12024,"метиз":12025,"метеор":12026,"пале":12027,"палін":12028,"палет":12029,"палам":12030,"палом":12031,"палад":12032,"палас":12033,"палах":12034,"палуб":12035,"палех":12036,"палео":12037,"палац":12038,"палеш":12039,"паланк":12040,"палтус":12041,"палянич":12042,"палаталь":12043,"паляниц":12044,"паліно":12045,"палятур":12046,"палигор":12047,"палітур":12048,"палестин":12049,"снн":12050,"сно":12051,"сну":12052,"сноб":12053,"снаг":12054,"сноз":12055,"сноп":12056,"снох":12057,"сньк":12058,"сняд":12059,"герб":12060,"герг":12061,"герк":12062,"геран":12063,"герман":12064,"гербі":12065,"гермо":12066,"гербар":12067,"гермет":12068,"герпет":12069,"герой":12070,"гердан":12071,"гергеп":12072,"геронто":12073,"гертог":12074,"геркулес":12075,"геральд":12076,"гермафро":12077,"гермінатив":12078,"голк":12079,"голо":12080,"голч":12081,"голан":12082,"голов":12083,"голод":12084,"голоч":12085,"голеч":12086,"голів":12087,"голодж":12088,"голош":12089,"голенд":12090,"головл":12091,"голланд":12092,"голінк":12093,"голубл":12094,"головн":12095,"голодь":12096,"голосс":12097,"голомш":12098,"голобель":12099,"граб":12100,"грав":12101,"грак":12102,"грас":12103,"грач":12104,"грай":12105,"граві":12106,"граці":12107,"граба":12108,"грабл":12109,"грацій":12110,"грамо":12111,"градо":12112,"грамат":12113,"графл":12114,"гравіт":12115,"градд":12116,"грамот":12117,"грабель":12118,"гравій":12119,"гравіє":12120,"граждан":12121,"градієнт":12122,"градус":12123,"птом":12124,"скуб":12125,"скуг":12126,"скуд":12127,"скуч":12128,"скубл":12129,"скуват":12130,"скуги":12131,"скудель":12132,"скуфій":12133,"скунс":12134,"скумбрі":12135,"трог":12136,"троп":12137,"трос":12138,"троф":12139,"трощ":12140,"троі":12141,"трост":12142,"трой":12143,"тропо":12144,"трої":12145,"троєн":12146,"тролей":12147,"трохо":12148,"тромб":12149,"тропік":12150,"трофей":12151,"троцьк":12152,"трогло":12153,"тростин":12154,"тропіч":12155,"тротуар":12156,"тромбон":12157,"імб":12158,"імж":12159,"імпон":12160,"імбе":12161,"імбир":12162,"імпровіз":12163,"імпульс":12164,"імпозант":12165,"імпров":12166,"бурж":12167,"бурк":12168,"бурл":12169,"бурм":12170,"бурт":12171,"бурх":12172,"бурян":12173,"буряч":12174,"буряк":12175,"буржу":12176,"бурмос":12177,"бурдюч":12178,"бурнон":12179,"буржець":12180,"бургунд":12181,"бурлеск":12182,"бурштин":12183,"калi":12184,"калор":12185,"калат":12186,"калит":12187,"калій":12188,"калган":12189,"калач":12190,"калош":12191,"календ":12192,"калюж":12193,"каландр":12194,"каланч":12195,"калмич":12196,"калузь":12197,"калорій":12198,"калори":12199,"калачик":12200,"калінін":12201,"калейдо":12202,"менж":12203,"мендж":12204,"менстру":12205,"менаж":12206,"мендел":12207,"менінг":12208,"меніє":12209,"мензур":12210,"менедж":12211,"мензуль":12212,"меноніт":12213,"менует":12214,"мендея":12215,"шиб":12216,"шии":12217,"шик":12218,"ших":12219,"шиц":12220,"шия":12221,"шиль":12222,"шива":12223,"шивер":12224,"шибл":12225,"шибер":12226,"шияк":12227,"шифер":12228,"шиуль":12229,"шиме":12230,"шилін":12231,"шигл":12232,"шизо":12233,"шихт":12234,"шифо":12235,"шишир":12236,"шифр":12237,"шиїй":12238,"шихтува":12239,"шиїcьк":12240,"експози":12241,"ексцит":12242,"екскав":12243,"експери":12244,"екскурс":12245,"експозит":12246,"експозиц":12247,"експлу":12248,"валл":12249,"вало":12250,"валор":12251,"валент":12252,"валанд":12253,"валаш":12254,"валлон":12255,"валюш":12256,"валют":12257,"валений":12258,"валлій":12259,"валенг":12260,"валліє":12261,"валторн":12262,"кow":12263,"кox":12264,"кoв":12265,"кoз":12266,"кoк":12267,"кoт":12268,"кoш":12269,"кoпт":12270,"кoнт":12271,"кoпp":12272,"кoліт":12273,"кoшл":12274,"кoмід":12275,"кoмiт":12276,"кoмic":12277,"кooпт":12278,"кова":12279,"ковз":12280,"ковт":12281,"ковш":12282,"ковель":12283,"ковир":12284,"ковий":12285,"ковдр":12286,"ковил":12287,"ковтун":12288,"ковзан":12289,"ковпач":12290,"ковиль":12291,"ковнір":12292,"ковбоч":12293,"ковбас":12294,"ковбой":12295,"ожи":12296,"ожелед":12297,"ожеред":12298,"улак":12299,"уловл":12300,"флат":12301,"флет":12302,"фланг":12303,"фланк":12304,"флокен":12305,"флакон":12306,"ірж":12307,"ірон":12308,"ірланд":12309,"іркут":12310,"ірбіс":12311,"aтк":12312,"aтт":12313,"aтecт":12314,"iтp":12315,"iтт":12316,"iтал":12317,"iтет":12318,"iталь":12319,"iтap":12320,"iтект":12321,"айв":12322,"айк":12323,"айх":12324,"айстр":12325,"аймак":12326,"айкін":12327,"айсор":12328,"аймач":12329,"айдач":12330,"зда":12331,"зден":12332,"здоб":12333,"здви":12334,"здобл":12335,"здрав":12336,"моне":12337,"монт":12338,"монет":12339,"монак":12340,"монад":12341,"монстр":12342,"монгол":12343,"монах":12344,"монтан":12345,"монаш":12346,"монаст":12347,"монац":12348,"монголь":12349,"моніаль":12350,"монумент":12351,"праг":12352,"праж":12353,"прац":12354,"пращ":12355,"праць":12356,"прапор":12357,"практ":12358,"празь":12359,"прасол":12360,"прашур":12361,"правн":12362,"правед":12363,"прасоль":12364,"пражан":12365,"праце":12366,"прагмат":12367,"пращур":12368,"пракрит":12369,"праксе":12370,"триб":12371,"трив":12372,"трик":12373,"трип":12374,"трит":12375,"трипл":12376,"трипер":12377,"трибал":12378,"трипан":12379,"трибо":12380,"тригер":12381,"трикот":12382,"тринь":12383,"трихо":12384,"трипс":12385,"триплет":12386,"трихін":12387,"триплекс":12388,"тридим":12389,"тривож":12390,"трильйон":12391,"тривіаль":12392,"тривоже":12393,"ульк":12394,"ульч":12395,"ульш":12396,"ультимат":12397,"ульянов":12398,"ючк":12399,"ючок":12400,"ючий":12401,"ільм":12402,"ільн":12403,"ільмен":12404,"ільник":12405,"ільниц":12406,"строг":12407,"строк":12408,"строп":12409,"строт":12410,"строч":12411,"строй":12412,"строї":12413,"строюва":12414,"строєв":12415,"строчи":12416,"стробо":12417,"стромл":12418,"строєнн":12419,"строчува":12420,"строфант":12421,"стробіл":12422,"строчення":12423,"стропиль":12424,"струг":12425,"струж":12426,"струк":12427,"струм":12428,"струн":12429,"струп":12430,"струс":12431,"струч":12432,"струш":12433,"струпл":12434,"структ":12435,"струмен":12436,"струкц":12437,"стручч":12438,"струже":12439,"ванн":12440,"ванад":12441,"ваніл":12442,"ваніль":12443,"ваньк":12444,"меко":12445,"мега":12446,"мебл":12447,"мешк":12448,"межж":12449,"меха":12450,"медій":12451,"мецен":12452,"меандр":12453,"мещер":12454,"медун":12455,"меистер":12456,"мефісто":12457,"млин":12458,"синн":12459,"сино":12460,"синел":12461,"синель":12462,"синод":12463,"синем":12464,"синич":12465,"синоп":12466,"синус":12467,"синой":12468,"синтет":12469,"синкоп":12470,"синдик":12471,"сингул":12472,"синтаг":12473,"синапт":12474,"синерг":12475,"синопт":12476,"синтез":12477,"синкрет":12478,"синема":12479,"синагог":12480,"синопто":12481,"синові":12482,"талон":12483,"талди":12484,"талій":12485,"талас":12486,"таляр":12487,"талап":12488,"таллін":12489,"талиш":12490,"талянк":12491,"таланн":12492,"талабан":12493,"талась":12494,"таляноч":12495,"таласо":12496,"талала":12497,"талмуд":12498,"ярн":12499,"ярде":12500,"ярмл":12501,"ярник":12502,"ярлич":12503,"ярлик":12504,"ярмарк":12505,"ярмарч":12506,"стьон":12507,"стьоб":12508,"страб":12509,"страв":12510,"страж":12511,"страм":12512,"страх":12513,"страч":12514,"страш":12515,"стращ":12516,"страст":12517,"страсть":12518,"страус":12519,"стражд":12520,"страйк":12521,"страшш":12522,"їнн":12523,"знa":12524,"зне":12525,"знс":12526,"знь":12527,"знат":12528,"знак":12529,"зноб":12530,"знуш":12531,"знобл":12532,"знущ":12533,"знамен":12534,"молн":12535,"моло":12536,"молод":12537,"молок":12538,"молос":12539,"молоз":12540,"молож":12541,"молост":12542,"молеск":12543,"молдав":12544,"молоть":12545,"молодь":12546,"молюск":12547,"молекул":12548,"молдув":12549,"пax":12550,"пaг":12551,"пaк":12552,"пaм":12553,"пaя":12554,"пaль":12555,"пaгep":12556,"пaxв":12557,"пaгiн":12558,"пaпаx":12559,"пacтop":12560,"пayпep":12561,"пacтеp":12562,"фуг":12563,"фук":12564,"футер":12565,"фухт":12566,"фуфа":12567,"фужер":12568,"фуляр":12569,"фукс":12570,"фузар":12571,"фураж":12572,"фурун":12573,"фукус":12574,"фудул":12575,"фудуль":12576,"фуфай":12577,"фуміг":12578,"фугас":12579,"фуганк":12580,"фурацил":12581,"фунікул":12582,"ідол":12583,"ідент":12584,"ідей":12585,"йдл":12586,"апь":12587,"апат":12588,"апел":12589,"апекс":12590,"аппозит":12591,"аппозиц":12592,"апешт":12593,"апетит":12594,"апріор":12595,"ецьк":12596,"нее":12597,"неон":12598,"невід":12599,"непот":12600,"нехт":12601,"небул":12602,"неділь":12603,"нефр":12604,"неділ":12605,"неxт":12606,"невіст":12607,"недуг":12608,"небіж":12609,"неапол":12610,"неаполь":12611,"невіглас":12612,"негоцянт":12613,"тенз":12614,"тенор":12615,"тенет":12616,"тенант":12617,"тензо":12618,"теніс":12619,"тенард":12620,"тенсіо":12621,"тендіт":12622,"тенденцій":12623,"ансамбл":12624,"coc":12625,"cox":12626,"coв":12627,"coт":12628,"coч":12629,"coвіт":12630,"coпop":12631,"coціал":12632,"coпaп":12633,"coпiп":12634,"coльв":12635,"coлoв":12636,"icтер":12637,"icгep":12638,"icланд":12639,"icгop":12640,"icкp":12641,"icпaп":12642,"icпит":12643,"icтоp":12644,"icпaн":12645,"icгеp":12646,"iciпвк":12647,"гиг":12648,"гик":12649,"гил":12650,"гиль":12651,"гидж":12652,"гиба":12653,"гиги":12654,"гигй":12655,"лінз":12656,"ліно":12657,"лінч":12658,"лінь":12659,"лінга":12660,"ліній":12661,"лінія":12662,"лінiя":12663,"ноc":12664,"ноо":12665,"нош":12666,"нощ":12667,"ногот":12668,"номад":12669,"ношенн":12670,"ногай":12671,"носталь":12672,"нокаут":12673,"ноумен":12674,"ностник":12675,"ногаєць":12676,"охр":12677,"охро":12678,"охот":12679,"охло":12680,"охвіт":12681,"охров":12682,"охваць":12683,"пате":12684,"патл":12685,"патр":12686,"патер":12687,"патет":12688,"патин":12689,"патрі":12690,"патент":12691,"паток":12692,"патич":12693,"патяк":12694,"патрон":12695,"патрій":12696,"патагон":12697,"патруль":12698,"патрул":12699,"патрич":12700,"патичч":12701,"патетич":12702,"патрярх":12703,"сарж":12704,"сарк":12705,"сарн":12706,"сарп":12707,"саран":12708,"сарко":12709,"сараб":12710,"сармат":12711,"сарган":12712,"сардин":12713,"сардон":12714,"сардель":12715,"сарепт":12716,"сардач":12717,"саркод":12718,"сарафан":12719,"сарацин":12720,"саратов":12721,"труб":12722,"трун":12723,"труп":12724,"трут":12725,"трух":12726,"труч":12727,"труй":12728,"трува":12729,"труї":12730,"трудж":12731,"трусь":12732,"трубл":12733,"труєн":12734,"труюва":12735,"труча":12736,"трухи":12737,"труска":12738,"труєнн":12739,"трушен":12740,"тружд":12741,"труджен":12742,"вірл":12743,"вірч":12744,"вірш":12745,"вірмен":12746,"вірчува":12747,"віртуаль":12748,"віртуоз":12749,"ipx":12750,"ipж":12751,"ipaп":12752,"ipиз":12753,"ipигац":12754,"iмж":12755,"iмпo":12756,"iмбир":12757,"iмeд":12758,"iмeпт":12759,"iмyп":12760,"iмпеp":12761,"iмпозант":12762,"iмyн":12763,"iмpoвiз":12764,"банг":12765,"банк":12766,"банн":12767,"бань":12768,"банан":12769,"баналь":12770,"баноч":12771,"баняч":12772,"баніт":12773,"баньк":12774,"банкет":12775,"банний":12776,"бандун":12777,"банкрут":12778,"банкрот":12779,"банкаброш":12780,"глин":12781,"глек":12782,"глод":12783,"глот":12784,"глянс":12785,"глетчер":12786,"гломер":12787,"гландул":12788,"глйбл":12789,"глянц":12790,"гено":12791,"генс":12792,"генез":12793,"генео":12794,"геняльн":12795,"гентиль":12796,"генеp":12797,"гендл":12798,"генеа":12799,"гоно":12800,"гонт":12801,"гонч":12802,"гоні":12803,"гоноб":12804,"гонгор":12805,"гонія":12806,"гоніо":12807,"гондоль":12808,"икс":12809,"пети":12810,"петл":12811,"петр":12812,"петль":12813,"петер":12814,"петро":12815,"петел":12816,"петель":12817,"петит":12818,"петров":12819,"петард":12820,"петицій":12821,"петрушк":12822,"петлюр":12823,"петрушеч":12824,"сенат":12825,"сенсор":12826,"сенсит":12827,"сенсибіл":12828,"сенбернар":12829,"сенсацій":12830,"сентимент":12831,"сенсибель":12832,"соле":12833,"соло":12834,"солан":12835,"солен":12836,"солон":12837,"солов":12838,"солод":12839,"солоп":12840,"солім":12841,"соляр":12842,"соліп":12843,"солда":12844,"солдат":12845,"солоджен":12846,"солец":12847,"солопл":12848,"тонн":12849,"тоно":12850,"тонт":12851,"тонко":12852,"тонзил":12853,"тред":12854,"трек":12855,"трел":12856,"треп":12857,"треф":12858,"трель":12859,"трест":12860,"треба":12861,"требл":12862,"тредер":12863,"трегер":12864,"тремол":12865,"трепет":12866,"треть":12867,"трепе":12868,"третир":12869,"трепель":12870,"трестува":12871,"треляж":12872,"трематод":12873,"хиб":12874,"хиз":12875,"хил":12876,"хиль":12877,"хист":12878,"хитр":12879,"хибл":12880,"химер":12881,"хихи":12882,"хизуува":12883,"хилит":12884,"льнн":12885,"вінд":12886,"вінш":12887,"віні":12888,"вінич":12889,"вініл":12890,"віннич":12891,"вінієв":12892,"вінниць":12893,"віничч":12894,"клем":12895,"клеп":12896,"клеч":12897,"клеі":12898,"клепл":12899,"клеї":12900,"клевер":12901,"клеєн":12902,"клеюва":12903,"клеєнн":12904,"клепоч":12905,"клеїт":12906,"клейм":12907,"клеюват":12908,"клепк":12909,"клепто":12910,"клепува":12911,"латент":12912,"латува":12913,"латун":12914,"латгал":12915,"латекс":12916,"латук":12917,"латиш":12918,"латгаль":12919,"латвій":12920,"лататт":12921,"латись":12922,"латенс":12923,"латвіє":12924,"латрія":12925,"латифунд":12926,"нуp":12927,"нуж":12928,"нути":12929,"нудж":12930,"нутр":12931,"нуий":12932,"нуват":12933,"нумер":12934,"нузд":12935,"нужд":12936,"нуєм":12937,"нуміз":12938,"нубій":12939,"нумуліт":12940,"нубієць":12941,"нутацій":12942,"ошат":12943,"ошеч":12944,"ошая":12945,"тьок":12946,"тьоп":12947,"тьох":12948,"тьху":12949,"кулон":12950,"кулак":12951,"iнтpo":12952,"iнтeн":12953,"iнтeп":12954,"iнтoн":12955,"iнтaкт":12956,"iнтегр":12957,"iнтpиг":12958,"iнтyїт":12959,"iнтцм":12960,"aгп":12961,"aгент":12962,"aгio":12963,"aгiт":12964,"aггeп":12965,"aгpeгац":12966,"ментор":12967,"ментол":12968,"підл":12969,"підбор":12970,"підмет":12971,"підвал":12972,"підваль":12973,"підвод":12974,"підпіль":12975,"підлог":12976,"підкомор":12977,"підпадь":12978,"підприєм":12979,"підшип":12980,"підпідь":12981,"підприем":12982,"ажюст":12983,"бати":12984,"бато":12985,"бать":12986,"батор":12987,"батон":12988,"батро":12989,"батал":12990,"батум":12991,"батист":12992,"батрак":12993,"батіаль":12994,"гeo":12995,"гeг":12996,"гeм":12997,"гeо":12998,"гeop":12999,"гeгe":13000,"гeпep":13001,"гeнт":13002,"гeге":13003,"гeкc":13004,"гeгepo":13005,"гeкто":13006,"гeлio":13007,"гeпio":13008,"дино":13009,"динь":13010,"динам":13011,"динас":13012,"династ":13013,"диньер":13014,"зо6":13015,"зоp":13016,"зоо":13017,"зой":13018,"зої":13019,"зоїль":13020,"ивн":13021,"ивян":13022,"пелен":13023,"пелаг":13024,"пелех":13025,"пелюш":13026,"пелерин":13027,"пелюст":13028,"пеленг":13029,"пелюшк":13030,"пелікан":13031,"пелeнг":13032,"пеліко":13033,"скаб":13034,"скав":13035,"скаж":13036,"скак":13037,"скау":13038,"скач":13039,"скапол":13040,"скаут":13041,"скаву":13042,"скабрез":13043,"товi":13044,"тови":13045,"товк":13046,"товм":13047,"товп":13048,"товч":13049,"товш":13050,"товщ":13051,"товст":13052,"товка":13053,"товпл":13054,"товил":13055,"товща":13056,"товщи":13057,"товари":13058,"усел":13059,"усоб":13060,"усад":13061,"усвід":13062,"уссур":13063,"услав":13064,"усіньк":13065,"услуж":13066,"усюди":13067,"уславл":13068,"церк":13069,"церм":13070,"церат":13071,"церко":13072,"церкл":13073,"церков":13074,"церус":13075,"церкв":13076,"церебр":13077,"церків":13078,"цервік":13079,"церемон":13080,"ікр":13081,"ікін":13082,"іяць":13083,"paз":13084,"paн":13085,"paя":13086,"paї":13087,"paдя":13088,"брив":13089,"бриг":13090,"бриж":13091,"бриз":13092,"брин":13093,"брис":13094,"бридж":13095,"бришк":13096,"британ":13097,"бринь":13098,"брикет":13099,"бризк":13100,"бричк":13101,"бризант":13102,"бригад":13103,"довб":13104,"довг":13105,"довж":13106,"довз":13107,"довол":13108,"довба":13109,"довго":13110,"довіль":13111,"довжи":13112,"довжува":13113,"довжез":13114,"довбува":13115,"довгуват":13116,"довбанний":13117,"кера":13118,"керм":13119,"керн":13120,"керч":13121,"керен":13122,"керат":13123,"керів":13124,"кертон":13125,"керсет":13126,"керосин":13127,"няя":13128,"няшк":13129,"ня́н":13130,"пepi":13131,"пepе":13132,"пepiз":13133,"пepцеп":13134,"пepдop":13135,"пepyк":13136,"пepеи":13137,"пepіод":13138,"пepcoп":13139,"пepioд":13140,"сонм":13141,"сонн":13142,"сонь":13143,"сонор":13144,"сонат":13145,"сонет":13146,"сонант":13147,"соняч":13148,"сонвал":13149,"сонанс":13150,"танцій":13151,"танкер":13152,"тангір":13153,"тангент":13154,"танато":13155,"тандит":13156,"тангут":13157,"тангенц":13158,"танагр":13159,"тангенс":13160,"фарм":13161,"фарс":13162,"фарт":13163,"фарш":13164,"фарбл":13165,"фарад":13166,"фарфор":13167,"фарис":13168,"фартуш":13169,"фармац":13170,"фартух":13171,"фаринг":13172,"фарино":13173,"фармако":13174,"фарватер":13175,"фараон":13176,"фарабн":13177,"фінн":13178,"фінт":13179,"фінал":13180,"фіналь":13181,"фінанс":13182,"фінік":13183,"фініч":13184,"фінлянд":13185,"фраз":13186,"фрам":13187,"фрас":13188,"фрач":13189,"фракт":13190,"фрахт":13191,"фразов":13192,"фрахтува":13193,"фразист":13194,"фрагмент":13195,"фрамуж":13196,"фракій":13197,"фракіє":13198,"хард":13199,"харк":13200,"харл":13201,"харп":13202,"харч":13203,"хараст":13204,"харбін":13205,"хартій":13206,"харамар":13207,"харалуж":13208,"харамарк":13209,"харциз":13210,"шарж":13211,"шарк":13212,"шарм":13213,"шарп":13214,"шарф":13215,"шарх":13216,"шарш":13217,"шарі":13218,"шарман":13219,"шаруд":13220,"шарах":13221,"шарлот":13222,"шарабан":13223,"шарнір":13224,"шарошк":13225,"шарлах":13226,"шаржува":13227,"шаровар":13228,"шарварк":13229,"шарлатан":13230,"шарошеч":13231,"відд":13232,"віден":13233,"відмін":13234,"відверт":13235,"відлиг":13236,"пірат":13237,"піррон":13238,"пірприєм":13239,"піреней":13240,"венер":13241,"венес":13242,"венгер":13243,"венець":13244,"вентил":13245,"вентиль":13246,"вензел":13247,"венец":13248,"венецій":13249,"дзор":13250,"дзен":13251,"дзин":13252,"дзень":13253,"дзюр":13254,"дзбан":13255,"дзвен":13256,"дзвин":13257,"дзяв":13258,"дзвон":13259,"дзвень":13260,"дзвяк":13261,"дзюба":13262,"дзелен":13263,"дзюб":13264,"дзявол":13265,"дзелень":13266,"ежект":13267,"ежекц":13268,"ронгаліт":13269,"уби":13270,"убоз":13271,"убзн":13272,"убина":13273,"кульг":13274,"кульш":13275,"кульмін":13276,"культив":13277,"культет":13278,"кульбаб":13279,"кульбач":13280,"кульмич":13281,"вітт":13282,"вітц":13283,"вітч":13284,"вітел":13285,"віталь":13286,"вітеб":13287,"вітій":13288,"вітамін":13289,"вина":13290,"винн":13291,"винят":13292,"гроб":13293,"грож":13294,"гром":13295,"грос":13296,"грох":13297,"грош":13298,"гробл":13299,"грозь":13300,"громл":13301,"грошев":13302,"гробач":13303,"громад":13304,"гродн":13305,"громізд":13306,"гротеск":13307,"жиг":13308,"жид":13309,"жил":13310,"жим":13311,"жиль":13312,"жиро":13313,"жира":13314,"жити":13315,"жилл":13316,"жилет":13317,"жигул":13318,"жимолост":13319,"огряд":13320,"оглаш":13321,"пeo":13322,"пeг":13323,"пeд":13324,"пeч":13325,"пeре":13326,"пecт":13327,"пeпт":13328,"пeлен":13329,"пeдo":13330,"пeгpo":13331,"пeрe":13332,"пeпeг":13333,"пова":13334,"повз":13335,"пови":13336,"повст":13337,"повин":13338,"повез":13339,"повит":13340,"повій":13341,"повно":13342,"повнот":13343,"повітр":13344,"повзуун":13345,"повняв":13346,"повороз":13347,"тіж":13348,"тіо":13349,"тіс":13350,"тіх":13351,"тіч":13352,"тіш":13353,"тіст":13354,"тілі":13355,"тісн":13356,"тібет":13357,"тілеч":13358,"тіроль":13359,"тірол":13360,"тісува":13361,"тинн":13362,"тинто":13363,"тинкт":13364,"тинія":13365,"тиньк":13366,"турб":13367,"тург":13368,"турс":13369,"турч":13370,"турмал":13371,"турнір":13372,"турчин":13373,"турнік":13374,"турнеп":13375,"турнікет":13376,"умк":13377,"умф":13378,"умбр":13379,"умформер":13380,"шпен":13381,"шпон":13382,"шпаль":13383,"шпир":13384,"шпич":13385,"шпyp":13386,"шпинь":13387,"шпальт":13388,"шпінгал":13389,"шпінел":13390,"шпандел":13391,"шпиталь":13392,"тивкар":13393,"ашхаб":13394,"брав":13395,"браж":13396,"брак":13397,"бради":13398,"брамін":13399,"брауль":13400,"брахі":13401,"брайл":13402,"бразіл":13403,"браконьер":13404,"брауншвей":13405,"браслет":13406,"вis":13407,"вiк":13408,"вiр":13409,"вiч":13410,"вiгp":13411,"вiгep":13412,"вiїcт":13413,"гамм":13414,"гаман":13415,"гамар":13416,"гамет":13417,"гамма":13418,"гамач":13419,"гамір":13420,"гамсел":13421,"гамуз":13422,"гамлет":13423,"гамбіт":13424,"гамбурзь":13425,"гамамел":13426,"гамалик":13427,"дола":13428,"долл":13429,"долар":13430,"долон":13431,"долот":13432,"долом":13433,"долоб":13434,"доліт":13435,"долош":13436,"долуб":13437,"долонь":13438,"ехон":13439,"клад":13440,"клаж":13441,"клац":13442,"клащ":13443,"класт":13444,"клаві":13445,"класти":13446,"клапан":13447,"клапт":13448,"клавір":13449,"клада":13450,"клавес":13451,"кладень":13452,"клавіш":13453,"клавят":13454,"ольфакт":13455,"осте":13456,"остяч":13457,"остеб":13458,"остео":13459,"остяць":13460,"остзей":13461,"острів":13462,"остзеє":13463,"остовп":13464,"совг":13465,"совен":13466,"совий":13467,"совіт":13468,"совков":13469,"совіс":13470,"совіст":13471,"совіщ":13472,"хорд":13473,"хорк":13474,"хоро":13475,"хорт":13476,"хорі":13477,"хорон":13478,"хораль":13479,"хором":13480,"хорей":13481,"хорват":13482,"хорош":13483,"хорія":13484,"хорео":13485,"хоробр":13486,"хореїчн":13487,"хорунж":13488,"котл":13489,"котел":13490,"котель":13491,"котлет":13492,"астм":13493,"астен":13494,"астек":13495,"астаз":13496,"брод":13497,"бром":13498,"брост":13499,"брої":13500,"бродж":13501,"брошур":13502,"брокк":13503,"грек":13504,"грес":13505,"грец":13506,"греч":13507,"грець":13508,"гребін":13509,"гребен":13510,"гребел":13511,"гребель":13512,"грезет":13513,"гречан":13514,"ицт":13515,"макт":13516,"макро":13517,"макет":13518,"максим":13519,"маккарт":13520,"макрель":13521,"маклер":13522,"макітр":13523,"макрел":13524,"макарон":13525,"македон":13526,"пoг":13527,"пoп":13528,"пoт":13529,"пoї":13530,"пoез":13531,"пoпo":13532,"пoкc":13533,"пoлiт":13534,"пoсес":13535,"пoпepeч":13536,"пoкiй":13537,"понт":13538,"поня":13539,"поном":13540,"понад":13541,"понтон":13542,"пониц":13543,"понсир":13544,"пруг":13545,"пруд":13546,"прут":13547,"пруч":13548,"пруст":13549,"прудж":13550,"пруден":13551,"прутт":13552,"пружен":13553,"прудон":13554,"прусс":13555,"пружа":13556,"пружин":13557,"ренет":13558,"ренег":13559,"реник":13560,"ренесанс":13561,"селект":13562,"селітр":13563,"селекцій":13564,"селекці":13565,"селезінк":13566,"тюб":13567,"тюж":13568,"тюк":13569,"тюл":13570,"тюп":13571,"тюел":13572,"тювар":13573,"тюмен":13574,"тюхт":13575,"тюлен":13576,"тюфт":13577,"тюбет":13578,"тюльк":13579,"тюхтий":13580,"тюльпан":13581,"узл":13582,"узя":13583,"узор":13584,"узбеч":13585,"узурп":13586,"холе":13587,"холм":13588,"холо":13589,"холер":13590,"холод":13591,"холоп":13592,"холош":13593,"холост":13594,"холощ":13595,"холуй":13596,"холоджен":13597,"холодь":13598,"холерич":13599,"камк":13600,"камс":13601,"камян":13602,"камед":13603,"камбал":13604,"камфор":13605,"камволь":13606,"камбуз":13607,"камбій":13608,"камзоль":13609,"камчат":13610,"кампеш":13611,"кальк":13612,"кальц":13613,"кальвін":13614,"калькул":13615,"калькуль":13616,"калькутт":13617,"лейб":13618,"лейк":13619,"лейт":13620,"лейц":13621,"лейбор":13622,"лейпціг":13623,"лейшман":13624,"лейтенант":13625,"eктр":13626,"eкзо":13627,"eкpaп":13628,"eкcк":13629,"eкiпip":13630,"eквaгop":13631,"eкiпaж":13632,"гiв":13633,"гiг":13634,"гiл":13635,"гiтар":13636,"гipo":13637,"гiбель":13638,"гicтo":13639,"гiгpo":13640,"гiгpо":13641,"гриб":13642,"грив":13643,"грид":13644,"гриж":13645,"гриз":13646,"грип":13647,"гриф":13648,"гриза":13649,"гризь":13650,"гримл":13651,"грифель":13652,"гризет":13653,"гримас":13654,"гриндж":13655,"григорян":13656,"гривуаз":13657,"денси":13658,"дендр":13659,"денцяльн":13660,"денонс":13661,"денудацій":13662,"денікін":13663,"дрог":13664,"дроп":13665,"дрот":13666,"дроч":13667,"дробл":13668,"дрочи":13669,"дросел":13670,"дросель":13671,"дроби":13672,"дрочен":13673,"дрохв":13674,"дрогоб":13675,"дромео":13676,"пещ":13677,"пеон":13678,"певи":13679,"пебл":13680,"песим":13681,"пещен":13682,"педікюр":13683,"пенз":13684,"пенсі":13685,"пенсій":13686,"пензель":13687,"пензл":13688,"пенсільван":13689,"пеніцил":13690,"пенетро":13691,"пенітенці":13692,"семі":13693,"сема":13694,"сепар":13695,"сеуль":13696,"сеанс":13697,"семіт":13698,"севіль":13699,"секуляр":13700,"сеинер":13701,"седимент":13702,"сепарат":13703,"севасто":13704,"сурдо":13705,"сурган":13706,"сурмл":13707,"суріп":13708,"суряд":13709,"сурхан":13710,"сурмач":13711,"сурдут":13712,"сургуч":13713,"суржик":13714,"цiaп":13715,"цiлiє":13716,"іслав":13717,"ісеньк":13718,"іссик":13719,"ісіньк":13720,"іссімо":13721,"плюв":13722,"плюг":13723,"плюс":13724,"плюх":13725,"плюш":13726,"плющ":13727,"плюй":13728,"плюск":13729,"плюсн":13730,"плюска":13731,"плюнд":13732,"плюраль":13733,"плющува":13734,"плюскот":13735,"плюндр":13736,"тирл":13737,"тирс":13738,"тирч":13739,"тирли":13740,"тиратрон":13741,"вaв":13742,"вaл":13743,"вaxт":13744,"груб":13745,"груд":13746,"груж":13747,"грун":13748,"груп":13749,"груш":13750,"грува":13751,"грудж":13752,"грузь":13753,"грузд":13754,"грунт":13755,"грудд":13756,"грунд":13757,"грушш":13758,"грудн":13759,"дорф":13760,"дорич":13761,"дорій":13762,"дорог":13763,"дорсаль":13764,"доріж":13765,"доранж":13766,"доріжж":13767,"илк":13768,"илн":13769,"круг":13770,"круж":13771,"крук":13772,"крум":13773,"круч":13774,"круш":13775,"круть":13776,"кручч":13777,"кружен":13778,"кружел":13779,"крупян":13780,"крумк":13781,"ланк":13782,"ланол":13783,"ланланд":13784,"ланцю":13785,"лантуш":13786,"ланцет":13787,"лантух":13788,"ланцюж":13789,"ланкастер":13790,"тoy":13791,"тoк":13792,"тoн":13793,"тoп":13794,"тoч":13795,"тoпо":13796,"тoвар":13797,"тoпo":13798,"тoвк":13799,"тoвч":13800,"тoвap":13801,"тoкc":13802,"тoдоч":13803,"тoваp":13804,"тoдx":13805,"оліг":13806,"оліф":13807,"оліє":13808,"олії":13809,"оліво":13810,"оліго":13811,"олієн":13812,"оліюва":13813,"олієв":13814,"оліїст":13815,"резед":13816,"резект":13817,"резекц":13818,"резюм":13819,"резолю":13820,"резорб":13821,"резорция":13822,"резолют":13823,"потом":13824,"потент":13825,"потвор":13826,"потамо":13827,"потівл":13828,"потсдам":13829,"потебень":13830,"афр":13831,"афот":13832,"афект":13833,"афган":13834,"афаталь":13835,"ацтек":13836,"бруд":13837,"брук":13838,"брун":13839,"брус":13840,"бруш":13841,"брущ":13842,"брудж":13843,"брусл":13844,"брудер":13845,"брусн":13846,"брухт":13847,"брукв":13848,"брунь":13849,"брусс":13850,"бруталь":13851,"бруцель":13852,"брутто":13853,"багн":13854,"багр":13855,"багер":13856,"багор":13857,"багет":13858,"багач":13859,"багаж":13860,"багато":13861,"багаць":13862,"багнет":13863,"багров":13864,"багніт":13865,"багатт":13866,"багдад":13867,"багачува":13868,"глав":13869,"глад":13870,"глаш":13871,"гладж":13872,"главл":13873,"гладжен":13874,"глаголь":13875,"глазет":13876,"глазур":13877,"гладженн":13878,"глаукон":13879,"гладіатор":13880,"кіно":13881,"кінц":13882,"кінч":13883,"кінь":13884,"кінць":13885,"кінеч":13886,"кіназ":13887,"кінець":13888,"кіновар":13889,"кіноо":13890,"квап":13891,"квац":13892,"квач":13893,"кваш":13894,"квапл":13895,"кваць":13896,"квась":13897,"квасол":13898,"квакер":13899,"квашен":13900,"кваця":13901,"квасоль":13902,"квадрат":13903,"квазі":13904,"квадрант":13905,"крів":13906,"кріз":13907,"кріл":13908,"крім":13909,"кріо":13910,"кріп":13911,"кріс":13912,"кріт":13913,"кріль":13914,"крій":13915,"кріпл":13916,"крісл":13917,"крівл":13918,"крісел":13919,"крісель":13920,"крівель":13921,"кріпос":13922,"кріїл":13923,"летон":13924,"леталь":13925,"летарг":13926,"лама":13927,"ламл":13928,"ламп":13929,"ламін":13930,"ламут":13931,"лампач":13932,"ламарк":13933,"мела":13934,"мело":13935,"мелін":13936,"мелод":13937,"меліо":13938,"меляс":13939,"меланж":13940,"меліор":13941,"мелізм":13942,"мелітополь":13943,"сельфак":13944,"селькуп":13945,"сельджуць":13946,"толк":13947,"толу":13948,"толст":13949,"толок":13950,"толев":13951,"толкува":13952,"толубл":13953,"толкуува":13954,"учк":13955,"учин":13956,"учува":13957,"учень":13958,"учора":13959,"явк":13960,"явнич":13961,"явлия":13962,"ічк":13963,"ічн":13964,"сторн":13965,"сторон":13966,"сторін":13967,"стороч":13968,"сторож":13969,"сторош":13970,"сторог":13971,"сторонь":13972,"сторі́н":13973,"кадет":13974,"кадель":13975,"кадрува":13976,"кадастр":13977,"кадарін":13978,"кадриль":13979,"візант":13980,"візйр":13981,"ciд":13982,"ciк":13983,"ciч":13984,"ciш":13985,"ciя":13986,"ciам":13987,"ciєн":13988,"ciлл":13989,"ciaм":13990,"ciцiлiє":13991,"́нк":13992,"гai":13993,"гas":13994,"гax":13995,"гaд":13996,"гaм":13997,"гaга":13998,"гaзет":13999,"гaювa":14000,"гaгаp":14001,"годо":14002,"году":14003,"годен":14004,"годов":14005,"годів":14006,"годіб":14007,"годівл":14008,"годув":14009,"годівель":14010,"готу":14011,"готов":14012,"готель":14013,"готів":14014,"готовл":14015,"готівл":14016,"готув":14017,"готівель":14018,"готтент":14019,"драб":14020,"драг":14021,"драж":14022,"драз":14023,"драм":14024,"драп":14025,"драї":14026,"дракон":14027,"драпер":14028,"драєн":14029,"драюва":14030,"драгом":14031,"драгун":14032,"дракой":14033,"мотл":14034,"мотет":14035,"мотель":14036,"мотрош":14037,"мотлох":14038,"мотлош":14039,"салоп":14040,"салфет":14041,"салют":14042,"саламандр":14043,"секст":14044,"секці":14045,"сектор":14046,"секцій":14047,"секса":14048,"секанс":14049,"секція":14050,"секрет":14051,"секвест":14052,"секреч":14053,"секвой":14054,"телe":14055,"теле":14056,"тело":14057,"телур":14058,"телеп":14059,"телень":14060,"телео":14061,"теляльн":14062,"теліп":14063,"теліж":14064,"телющ":14065,"телімб":14066,"тріб":14067,"тріп":14068,"тріс":14069,"тріш":14070,"тріщ":14071,"тріер":14072,"трій":14073,"тріск":14074,"тріест":14075,"тріас":14076,"трієр":14077,"трісоч":14078,"тріща":14079,"тріангул":14080,"трічмф":14081,"тріумф":14082,"ізол":14083,"ізбл":14084,"ізатор":14085,"ізюм":14086,"ізомер":14087,"ізюбр":14088,"ізраїль":14089,"ізмаїль":14090,"ангя":14091,"ангін":14092,"англез":14093,"стрік":14094,"стріл":14095,"стрім":14096,"стріп":14097,"стріх":14098,"стріш":14099,"стрія":14100,"стріль":14101,"стрій":14102,"стрічеч":14103,"стрішш":14104,"стрічк":14105,"ендем":14106,"позиція":14107,"позитив":14108,"лавк":14109,"лавр":14110,"лавоч":14111,"лаванд":14112,"лавсан":14113,"pis":14114,"piг":14115,"piд":14116,"piз":14117,"piк":14118,"piс":14119,"бінар":14120,"біном":14121,"бінокуляр":14122,"бінокль":14123,"геx":14124,"геи":14125,"гец":14126,"геє":14127,"гемі":14128,"гепар":14129,"геaг":14130,"гештальт":14131,"ешелон":14132,"ешафот":14133,"ише":14134,"ишн":14135,"ишль":14136,"истк":14137,"истан":14138,"истич":14139,"истий":14140,"истськ":14141,"истичн":14142,"истпарод":14143,"кліп":14144,"кліт":14145,"кліш":14146,"кліщ":14147,"кліпл":14148,"кліент":14149,"клімат":14150,"кліть":14151,"клітич":14152,"клітик":14153,"кліше":14154,"клірин":14155,"клієнт":14156,"клішн":14157,"клістир":14158,"клімакт":14159,"калік":14160,"каліф":14161,"каліц":14162,"каліч":14163,"каліць":14164,"калібер":14165,"калієв":14166,"калібр":14167,"калічч":14168,"каліпс":14169,"медал":14170,"медаль":14171,"медян":14172,"медят":14173,"медянт":14174,"медвед":14175,"медяц":14176,"медяль":14177,"медiя":14178,"медвеж":14179,"меделян":14180,"ойой":14181,"ойкос":14182,"ойрот":14183,"пінг":14184,"пінк":14185,"пінет":14186,"пінцир":14187,"пінезь":14188,"пінгвін":14189,"піньйон":14190,"пінако":14191,"пінкертон":14192,"пряг":14193,"пряд":14194,"прям":14195,"пряс":14196,"прясл":14197,"прямл":14198,"прясель":14199,"пряда":14200,"ужгород":14201,"шерб":14202,"шерл":14203,"шерш":14204,"шерст":14205,"шерег":14206,"шерех":14207,"шершн":14208,"шеренг":14209,"шерехт":14210,"юнь":14211,"юнел":14212,"юноч":14213,"юнок":14214,"юндер":14215,"юнкц":14216,"юнкер":14217,"юнктив":14218,"стато":14219,"стату":14220,"статар":14221,"статор":14222,"статей":14223,"статут":14224,"статист":14225,"рейс":14226,"рейтар":14227,"рейсму":14228,"рейхс":14229,"тилант":14230,"булоч":14231,"судн":14232,"судан":14233,"судак":14234,"судом":14235,"судач":14236,"судно":14237,"суднов":14238,"судомл":14239,"порталь":14240,"портфель":14241,"портатив":14242,"портянк":14243,"портланд":14244,"портфел":14245,"портмоне":14246,"ський":14247,"боло":14248,"болт":14249,"болч":14250,"болон":14251,"болот":14252,"болоч":14253,"боліт":14254,"болгар":14255,"болван":14256,"болби":14257,"болонь":14258,"бакан":14259,"бакен":14260,"бакел":14261,"бактер":14262,"баклаг":14263,"бакалій":14264,"баклаж":14265,"бакалавр":14266,"баклажан":14267,"гoвip":14268,"гoтy":14269,"грат":14270,"грюк":14271,"гратул":14272,"грюндер":14273,"даs":14274,"дао":14275,"дази":14276,"дафрагм":14277,"женев":14278,"мoн":14279,"мoт":14280,"мoц":14281,"мoч":14282,"мoш":14283,"мoщ":14284,"мoнт":14285,"мoвк":14286,"мoвч":14287,"мoлоч":14288,"мoвy":14289,"мoзоч":14290,"норк":14291,"норм":14292,"норов":14293,"норман":14294,"нормо":14295,"нориц":14296,"нормаль":14297,"норовл":14298,"норманд":14299,"норвеж":14300,"норвезь":14301,"прο":14302,"прян":14303,"проріш":14304,"прюнел":14305,"сяг":14306,"сяд":14307,"сяж":14308,"сяя":14309,"сяй":14310,"ся́к":14311,"фако":14312,"фаун":14313,"фаут":14314,"фабул":14315,"фабуль":14316,"фауст":14317,"фаял":14318,"фаянс":14319,"факульт":14320,"фазис":14321,"фаетон":14322,"фаянсов":14323,"факультет":14324,"фельз":14325,"стриб":14326,"стрив":14327,"стриг":14328,"стриж":14329,"стрим":14330,"стрипер":14331,"стрикт":14332,"стрикц":14333,"стрижн":14334,"стрихн":14335,"стрикіз":14336,"енцеф":14337,"казе":14338,"казан":14339,"казен":14340,"казува":14341,"казарм":14342,"казбець":14343,"казнач":14344,"каземат":14345,"тильг":14346,"їстськ":14347,"їстичн":14348,"скорб":14349,"скорс":14350,"скорин":14351,"скород":14352,"скором":14353,"скорбл":14354,"скородж":14355,"скоруб":14356,"скоромл":14357,"скорпіон":14358,"пасм":14359,"пасх":14360,"пасат":14361,"пасом":14362,"пасем":14363,"пасман":14364,"паспорт":14365,"пасльон":14366,"вольтер":14367,"вольта":14368,"вольтин":14369,"вольтиж":14370,"вольфарт":14371,"вольфрам":14372,"aнo":14373,"aнтен":14374,"aнiм":14375,"aнгаж":14376,"aнгio":14377,"cпiв":14378,"cпiл":14379,"cпiп":14380,"cпipo":14381,"cпipaп":14382,"cпiпв":14383,"iдей":14384,"iдeo":14385,"iдeнт":14386,"iдiот":14387,"iдiом":14388,"iзм":14389,"iзол":14390,"iзoл":14391,"iзaція":14392,"вело":14393,"велен":14394,"велеб":14395,"велюр":14396,"веляр":14397,"велінгтон":14398,"гepaп":14399,"гepої":14400,"донт":14401,"донь":14402,"донжу":14403,"донощ":14404,"донкіхот":14405,"ефес":14406,"ефект":14407,"ефедр":14408,"жерд":14409,"жерст":14410,"жерей":14411,"жертов":14412,"жертв":14413,"квоч":14414,"квок":14415,"квант":14416,"квест":14417,"квалі":14418,"квiт":14419,"ловк":14420,"ловл":14421,"ловч":14422,"ловча":14423,"ловелас":14424,"мix":14425,"мiж":14426,"мiо":14427,"мiц":14428,"мiч":14429,"мiш":14430,"мicт":14431,"мiгр":14432,"мieп":14433,"мiгеп":14434,"мi̇м":14435,"малич":14436,"малах":14437,"малай":14438,"маляр":14439,"малаєць":14440,"малеїн":14441,"малявоч":14442,"малсїн":14443,"малакк":14444,"ндaнт":14445,"ньо":14446,"ньйи":14447,"нард":14448,"нарко":14449,"нароч":14450,"нарок":14451,"наркот":14452,"нарзан":14453,"наркоз":14454,"нарцис":14455,"пельмен":14456,"печер":14457,"печор":14458,"печал":14459,"печат":14460,"печаль":14461,"печінк":14462,"печерич":14463,"печіноч":14464,"свят":14465,"сврей":14466,"свящ":14467,"свроп":14468,"светр":14469,"свобід":14470,"свобод":14471,"святт":14472,"самб":14473,"самар":14474,"самура":14475,"самшит":14476,"самоїд":14477,"самарит":14478,"самодій":14479,"сальд":14480,"сальварсан":14481,"сальвінієв":14482,"сальпінг":14483,"спі́":14484,"спів":14485,"спіл":14486,"спіч":14487,"спіш":14488,"спіро":14489,"спідо":14490,"спіраль":14491,"спірит":14492,"шинк":14493,"шинель":14494,"шиноч":14495,"шинкар":14496,"шиньйон":14497,"шиншил":14498,"язв":14499,"язан":14500,"ретяз":14501,"ретязь":14502,"вальс":14503,"міткал":14504,"скрив":14505,"скрин":14506,"скрит":14507,"скрипл":14508,"скринь":14509,"майн":14510,"майор":14511,"майстр":14512,"майбр":14513,"майстер":14514,"майтал":14515,"майзер":14516,"майкоп":14517,"майбут":14518,"майоран":14519,"майолік":14520,"майбутт":14521,"байстр":14522,"байрон":14523,"байкаль":14524,"байбак":14525,"байдик":14526,"байрам":14527,"байбач":14528,"байдуж":14529,"байрач":14530,"байбарис":14531,"байрачч":14532,"гноє":14533,"гної":14534,"гноян":14535,"гнояч":14536,"гноєн":14537,"гноюва":14538,"гнояк":14539,"гноїн":14540,"гноєнн":14541,"гноїв":14542,"гноїщ":14543,"гноївн":14544,"гноярк":14545,"ceo":14546,"ceм":14547,"ceп":14548,"ceпт":14549,"ceпep":14550,"ceпap":14551,"ceмiт":14552,"ceмa":14553,"ceгpe":14554,"ceгpeг":14555,"апофе":14556,"аподик":14557,"апостоль":14558,"апоплекс":14559,"апокрин":14560,"апоплект":14561,"апокаліпт":14562,"апокриф":14563,"апостеріор":14564,"апокаліпс":14565,"бира":14566,"бистр":14567,"билл":14568,"бироч":14569,"бидл":14570,"бонд":14571,"бонн":14572,"боніт":14573,"бонбон":14574,"бонапарт":14575,"бонвіван":14576,"весл":14577,"весн":14578,"весін":14579,"весель":14580,"весіль":14581,"веслов":14582,"весінь":14583,"гомо":14584,"гомер":14585,"гомон":14586,"гомель":14587,"гомоз":14588,"гомео":14589,"гомінн":14590,"гомінь":14591,"данціг":14592,"данаїд":14593,"данелль":14594,"делег":14595,"делюв":14596,"ескіз":14597,"ескарп":14598,"ескалатор":14599,"зелен":14600,"зелін":14601,"зеланд":14602,"зеленн":14603,"зелень":14604,"зеляж":14605,"исмент":14606,"кетон":14607,"клоп":14608,"клоң":14609,"клоак":14610,"клоун":14611,"клоач":14612,"клопот":14613,"клопіт":14614,"клозет":14615,"клобуч":14616,"клопітт":14617,"мальв":14618,"мальт":14619,"мальць":14620,"мальтуз":14621,"мальгась":14622,"сорб":14623,"сорт":14624,"сорок":14625,"соромл":14626,"табл":14627,"табан":14628,"табор":14629,"табат":14630,"табет":14631,"табак":14632,"табач":14633,"табір":14634,"табасаран":14635,"хуг":14636,"хух":14637,"хуст":14638,"худж":14639,"хутор":14640,"хутр":14641,"хузь":14642,"худіб":14643,"хуліган":14644,"худож":14645,"ханж":14646,"ханюч":14647,"ханой":14648,"целе":14649,"цело":14650,"целэ":14651,"целон":14652,"целест":14653,"целул":14654,"шелел":14655,"шелак":14656,"шелес":14657,"шелест":14658,"шелеп":14659,"шелех":14660,"шелеш":14661,"шеляг":14662,"шелюж":14663,"шелюг":14664,"шеллінг":14665,"шурк":14666,"шурп":14667,"шурф":14668,"шурх":14669,"шурч":14670,"шурш":14671,"шурст":14672,"шурча":14673,"стаді":14674,"стаєн":14675,"стачу":14676,"стаєв":14677,"стадій":14678,"стафіл":14679,"стаціон":14680,"стадіон":14681,"стафіло":14682,"вільг":14683,"вільж":14684,"вільх":14685,"вільш":14686,"почт":14687,"почй":14688,"починк":14689,"починоч":14690,"починок":14691,"початк":14692,"початок":14693,"тиксо":14694,"личк":14695,"личко":14696,"личинк":14697,"пульк":14698,"пульп":14699,"пульман":14700,"пульвер":14701,"пульмон":14702,"цирк":14703,"циркон":14704,"циркул":14705,"циркуль":14706,"циркад":14707,"циркуляр":14708,"гірд":14709,"гірк":14710,"гірш":14711,"гірст":14712,"гірлянд":14713,"гірсут":14714,"трансль":14715,"трансфер":14716,"транспір":14717,"транссуд":14718,"транспорт":14719,"трансформ":14720,"трансфуз":14721,"трансферт":14722,"трансценд":14723,"трансвааль":14724,"трансмісій":14725,"транспорг":14726,"icтв":14727,"icтк":14728,"icть":14729,"icтот":14730,"icтop":14731,"icтеp":14732,"icтoр":14733,"ботв":14734,"ботан":14735,"ботул":14736,"ботинк":14737,"ботинок":14738,"ботріо":14739,"ближ":14740,"близ":14741,"блик":14742,"блим":14743,"блис":14744,"блиш":14745,"блищ":14746,"блист":14747,"блиск":14748,"близь":14749,"блища":14750,"блискува":14751,"вестал":14752,"гурк":14753,"гурт":14754,"гурі":14755,"гурман":14756,"гурій":14757,"глік":14758,"гліс":14759,"гліц":14760,"гліко":14761,"гліпт":14762,"гліцер":14763,"домн":14764,"домр":14765,"домен":14766,"домонт":14767,"домовин":14768,"домкрат":14769,"доместик":14770,"епіч":14771,"епікур":14772,"епігон":14773,"епістол":14774,"епізод":14775,"епідемі":14776,"епідидим":14777,"епітеляльн":14778,"зерн":14779,"зерен":14780,"зерени":14781,"ленін":14782,"лонгі":14783,"лондон":14784,"лонгет":14785,"педал":14786,"педаль":14787,"педант":14788,"педагог":14789,"педaгог":14790,"педераст":14791,"скоб":14792,"скок":14793,"скопл":14794,"скобл":14795,"скобот":14796,"сакс":14797,"саков":14798,"сакман":14799,"саксон":14800,"сакраль":14801,"сакрамент":14802,"саквояж":14803,"тетp":14804,"тетр":14805,"тетер":14806,"тетан":14807,"тетен":14808,"тетра":14809,"тетерев":14810,"тамбур":14811,"таміль":14812,"тампон":14813,"тамбов":14814,"тамари":14815,"тамарик":14816,"тамаринд":14817,"ушеч":14818,"ушник":14819,"ушкуй":14820,"унік":14821,"уніон":14822,"уніат":14823,"унітар":14824,"універс":14825,"фанз":14826,"фанер":14827,"фанал":14828,"фанат":14829,"фанарі":14830,"фанабер":14831,"хащ":14832,"хая":14833,"хаот":14834,"хаюва":14835,"хаєць":14836,"хаюч":14837,"хасид":14838,"хакась":14839,"хавав":14840,"халв":14841,"халд":14842,"халт":14843,"халат":14844,"халун":14845,"халяв":14846,"халуп":14847,"халяс":14848,"халцед":14849,"халдей":14850,"халабуд":14851,"халамид":14852,"чуваш":14853,"чувась":14854,"шапар":14855,"шашк":14856,"шаєч":14857,"шаплат":14858,"шаплич":14859,"шапіро":14860,"штуф":14861,"штуль":14862,"штуцер":14863,"штунд":14864,"штукатур":14865,"ягель":14866,"єтнам":14867,"іждж":14868,"іжев":14869,"істк":14870,"істі":14871,"істин":14872,"істот":14873,"істоч":14874,"істок":14875,"істич":14876,"істськ":14877,"істичн":14878,"станн":14879,"стань":14880,"станція":14881,"стантив":14882,"станціі":14883,"станіол":14884,"артем":14885,"артіл":14886,"артіль":14887,"артезіан":14888,"інтерв":14889,"інтерн":14890,"інтерес":14891,"інтерпол":14892,"інтерпел":14893,"інтермед":14894,"інтерміт":14895,"інтерполь":14896,"інтервент":14897,"інтерпрет":14898,"інтервенц":14899,"кошл":14900,"кошм":14901,"кошон":14902,"кошла":14903,"кошмар":14904,"кошул":14905,"кошторис":14906,"площ":14907,"плоє":14908,"плої":14909,"плоєн":14910,"площува":14911,"площад":14912,"плоїнн":14913,"дійсн":14914,"фірн":14915,"фірман":14916,"фірмац":14917,"трансл":14918,"транше":14919,"транспон":14920,"транзит":14921,"транскрип":14922,"траншей":14923,"трансільван":14924,"acpo":14925,"acеc":14926,"acигн":14927,"iкp":14928,"xipo":14929,"xixi":14930,"xipoм":14931,"бенз":14932,"бенет":14933,"бенгал":14934,"бенкет":14935,"бенгаль":14936,"бенедикт":14937,"брес":14938,"брех":14939,"брест":14940,"бремен":14941,"брейд":14942,"бретон":14943,"брелк":14944,"брехер":14945,"белен":14946,"белетр":14947,"белемн":14948,"бельк":14949,"бельгій":14950,"бельетаж":14951,"бельгієць":14952,"блід":14953,"бліц":14954,"бліш":14955,"внутрі":14956,"ветх":14957,"ветерин":14958,"ветеран":14959,"ветлузь":14960,"водд":14961,"водь":14962,"водда":14963,"водруж":14964,"водруз":14965,"воднииця":14966,"гател":14967,"гальк":14968,"гальм":14969,"гальор":14970,"гальван":14971,"гальміро":14972,"гнів":14973,"гнід":14974,"гній":14975,"гнізд":14976,"гнівл":14977,"гніждж":14978,"декан":14979,"декант":14980,"декстр":14981,"деклін":14982,"деклам":14983,"декрет":14984,"деклар":14985,"декатир":14986,"дельт":14987,"дельфін":14988,"дельберзь":14989,"десм":14990,"десн":14991,"десант":14992,"десмо":14993,"деспот":14994,"десять":14995,"десерт":14996,"деселеро":14997,"завр":14998,"завш":14999,"завет":15000,"завтр":15001,"завжд":15002,"завтрь":15003,"крю":15004,"крал":15005,"крюч":15006,"крюк":15007,"крючч":15008,"лакон":15009,"лакей":15010,"лакто":15011,"лакмус":15012,"лотк":15013,"лотр":15014,"лоточ":15015,"лотос":15016,"лотерей":15017,"лотарінг":15018,"мeгp":15019,"мeгa":15020,"мeтp":15021,"мexaп":15022,"мexaн":15023,"мeпiop":15024,"мeтеop":15025,"мeгeop":15026,"мурз":15027,"мурм":15028,"мурли":15029,"мурмот":15030,"мурмос":15031,"нерв":15032,"нерол":15033,"нерит":15034,"нерест":15035,"нагл":15036,"наган":15037,"нагаль":15038,"нагель":15039,"нагай":15040,"нагаєч":15041,"нагаєв":15042,"нагасак":15043,"слиз":15044,"слизь":15045,"слимак":15046,"слимач":15047,"слизуват":15048,"сливина":15049,"тата":15050,"татар":15051,"татах":15052,"татуй":15053,"татуюва":15054,"такс":15055,"такир":15056,"таксов":15057,"тактиль":15058,"такелаж":15059,"фонд":15060,"фоно":15061,"хоан":15062,"хопл":15063,"цуг":15064,"цуц":15065,"цупл":15066,"цукор":15067,"цукат":15068,"цукер":15069,"цуцу":15070,"цуприк":15071,"цям":15072,"цяп":15073,"цяц":15074,"цяць":15075,"цябр":15076,"цяція":15077,"цямр":15078,"ця́п":15079,"ценз":15080,"центи":15081,"цензур":15082,"цензов":15083,"центурі":15084,"ясний":15085,"ректи":15086,"ректор":15087,"ректо":15088,"реквіз":15089,"реквієм":15090,"кольз":15091,"кольор":15092,"кольчуж":15093,"кольчуг":15094,"постіл":15095,"постул":15096,"постуль":15097,"постіль":15098,"постепен":15099,"екзот":15100,"екзег":15101,"екзарх":15102,"екзальт":15103,"екзамен":15104,"екзеку":15105,"екзекут":15106,"мірк":15107,"мірр":15108,"мірков":15109,"мірмеко":15110,"мачен":15111,"бульк":15112,"бульвар":15113,"бульйон":15114,"бульдоз":15115,"обломов":15116,"протей":15117,"протез":15118,"протест":15119,"протект":15120,"протекц":15121,"протагон":15122,"протокол":15123,"тунг":15124,"тунц":15125,"тунел":15126,"тунель":15127,"тундр":15128,"тунгус":15129,"тунгусь":15130,"філір":15131,"філіт":15132,"філіаль":15133,"філістер":15134,"філігран":15135,"караск":15136,"караул":15137,"карауль":15138,"каракул":15139,"каракуль":15140,"каракум":15141,"караїм":15142,"карапуз":15143,"караїб":15144,"карачаїв":15145,"нийй":15146,"дуктил":15147,"лунк":15148,"лунн":15149,"луноч":15150,"тайг":15151,"тайж":15152,"тайп":15153,"тайпо":15154,"таймо":15155,"тайстр":15156,"тайван":15157,"таймир":15158,"cнep":15159,"cнiп":15160,"cнiд":15161,"cнiз":15162,"cнiг":15163,"cнox":15164,"cнoп":15165,"cнoд":15166,"cнiж":15167,"eлiт":15168,"eлeв":15169,"eлектр":15170,"eлeктр":15171,"paпт":15172,"paпcод":15173,"бовт":15174,"бовий":15175,"бовван":15176,"бовдур":15177,"бета":15178,"бетон":15179,"бетби":15180,"бетонь":15181,"брів":15182,"брід":15183,"бріо":15184,"бріх":15185,"брідж":15186,"брістоль":15187,"бабл":15188,"бабр":15189,"бабак":15190,"бабяч":15191,"бабач":15192,"бабах":15193,"бабезі":15194,"безв":15195,"безо":15196,"безмат":15197,"безпеч":15198,"безлад":15199,"безпек":15200,"безодн":15201,"безпечен":15202,"вовн":15203,"вовц":15204,"вовнов":15205,"вовтуз":15206,"вовтуж":15207,"вельц":15208,"вельми":15209,"вельвет":15210,"вельвіч":15211,"вельбуч":15212,"вельмож":15213,"гелг":15214,"гелк":15215,"гелант":15216,"гелік":15217,"геліо":15218,"геліб":15219,"гелертер":15220,"глиз":15221,"глип":15222,"глис":15223,"глит":15224,"глист":15225,"глибл":15226,"дарг":15227,"дарвін":15228,"дарсонвал":15229,"дарданелль":15230,"друз":15231,"дружж":15232,"друїд":15233,"дружин":15234,"демот":15235,"демпф":15236,"зяп":15237,"зяя":15238,"зяпл":15239,"зябл":15240,"зябр":15241,"зяюч":15242,"зявл":15243,"зябль":15244,"заня":15245,"заноз":15246,"золет":15247,"золоч":15248,"золоть":15249,"золочен":15250,"золотий":15251,"множ":15252,"мнемо":15253,"мнемон":15254,"множен":15255,"санти":15256,"санатор":15257,"санато":15258,"санкці":15259,"санскрит":15260,"слаб":15261,"слас":15262,"слащ":15263,"сласт":15264,"слабл":15265,"славл":15266,"слабий":15267,"сластьон":15268,"своє":15269,"свої":15270,"свояч":15271,"своєн":15272,"своюва":15273,"свояк":15274,"своєнн":15275,"свояц":15276,"своєму":15277,"томл":15278,"томо":15279,"томпак":15280,"точк":15281,"точн":15282,"точен":15283,"точува":15284,"точеч":15285,"точий":15286,"устар":15287,"устав":15288,"уступ":15289,"ураг":15290,"урад":15291,"ураж":15292,"ураз":15293,"ураль":15294,"ураган":15295,"феер":15296,"феод":15297,"фекаль":15298,"фриз":15299,"фриш":15300,"фризь":15301,"фрикат":15302,"фриволь":15303,"фритредер":15304,"фрикадель":15305,"фурм":15306,"фурт":15307,"фурман":15308,"фургон":15309,"фурдел":15310,"фурфур":15311,"фурніт":15312,"флюс":15313,"флюор":15314,"флюкт":15315,"флюгар":15316,"флюгер":15317,"флюсов":15318,"флюкс":15319,"флюїд":15320,"флюорит":15321,"флютбет":15322,"хрю":15323,"хрін":15324,"хрьоп":15325,"хрэн":15326,"хіор":15327,"хіро":15328,"хісн":15329,"хідь":15330,"хіромант":15331,"хірур":15332,"хроп":15333,"хромл":15334,"хробак":15335,"хробач":15336,"хробац":15337,"хреб":15338,"хрес":15339,"хреш":15340,"хрещ":15341,"хрещен":15342,"хрестик":15343,"хрещат":15344,"хрестомат":15345,"хазмо":15346,"цесар":15347,"цесят":15348,"цесяй":15349,"шепл":15350,"шевер":15351,"шепот":15352,"шеєл":15353,"шемізет":15354,"юшн":15355,"юшч":15356,"ступл":15357,"студж":15358,"стугон":15359,"студій":15360,"студія":15361,"рочен":15362,"ремес":15363,"ремез":15364,"ремств":15365,"іньер":15366,"капч":15367,"капкан":15368,"капрон":15369,"капсуль":15370,"капсул":15371,"капцан":15372,"капшуч":15373,"капшук":15374,"кайл":15375,"кайм":15376,"кайт":15377,"кайом":15378,"кайстр":15379,"кайенн":15380,"кайно":15381,"кайзер":15382,"косм":15383,"космет":15384,"польщ":15385,"польов":15386,"польдвіль":15387,"покој":15388,"покой":15389,"покої":15390,"покоєн":15391,"покоюва":15392,"покоєнн":15393,"покоююч":15394,"покоїк":15395,"покоївк":15396,"пітек":15397,"піталь":15398,"ладозь":15399,"левко":15400,"левант":15401,"левяч":15402,"леврет":15403,"левкас":15404,"левконі":15405,"контраст":15406,"контракт":15407,"контрабанд":15408,"контрасигн":15409,"контрамарк":15410,"контрадикт":15411,"контрамароч":15412,"контрадикц":15413,"контрапункт":15414,"пачк":15415,"пачеч":15416,"симпл":15417,"символ":15418,"симбір":15419,"симптом":15420,"джендж":15421,"витій":15422,"фільм":15423,"фільон":15424,"фільварк":15425,"фільтрува":15426,"пулков":15427,"ництв":15428,"ничк":15429,"гольд":15430,"гольм":15431,"гольдер":15432,"гольтіп":15433,"aмпут":15434,"aмдi":15435,"aмaтop":15436,"aмepцк":15437,"aгpеc":15438,"aгpаp":15439,"cиc":15440,"cиp":15441,"cим":15442,"cип":15443,"cиcтем":15444,"cкн":15445,"cкop":15446,"cкiп":15447,"cкпep":15448,"cкiк":15449,"cкpeг":15450,"cкia":15451,"eнн":15452,"eньк":15453,"eпп":15454,"eпег":15455,"eпцcкoп":15456,"бещ":15457,"бешт":15458,"бекас":15459,"бешкет":15460,"бецман":15461,"бедуїн":15462,"беших":15463,"вчора":15464,"вейсман":15465,"гова":15466,"говк":15467,"говт":15468,"говор":15469,"говір":15470,"говip":15471,"гріз":15472,"грім":15473,"гріх":15474,"гріш":15475,"грізь":15476,"грішш":15477,"гемз":15478,"гемо":15479,"гемя":15480,"гемон":15481,"гембл":15482,"гемело":15483,"гемянестез":15484,"гряз":15485,"гряк":15486,"гряс":15487,"грязь":15488,"гряділь":15489,"грядоч":15490,"гранат":15491,"гранул":15492,"грануль":15493,"грандіоз":15494,"детон":15495,"детал":15496,"деталь":15497,"детект":15498,"детектор":15499,"детандер":15500,"детектив":15501,"детермін":15502,"дамент":15503,"дамні":15504,"дамась":15505,"дамокл":15506,"добр":15507,"доблес":15508,"добрящ":15509,"дагер":15510,"дагестан":15511,"зонд":15512,"знах":15513,"знач":15514,"знаком":15515,"зброє":15516,"зброй":15517,"зброї":15518,"зброєн":15519,"зброюва":15520,"зброяр":15521,"зброєнн":15522,"зброївн":15523,"клюк":15524,"ключ":15525,"клюкв":15526,"ключеч":15527,"ключар":15528,"лoг":15529,"лoк":15530,"лoм":15531,"лoт":15532,"лoпaт":15533,"лoпoт":15534,"лорет":15535,"лорієв":15536,"лорнет":15537,"ландшаф":15538,"нова":15539,"новел":15540,"новенн":15541,"номо":15542,"ному":15543,"номер":15544,"номус":15545,"номенкл":15546,"офіцій":15547,"офіціал":15548,"офізик":15549,"офіцяльн":15550,"пpо":15551,"пpі":15552,"пpic":15553,"пpicн":15554,"сюд":15555,"сюди":15556,"сюдж":15557,"сюїт":15558,"сюсю":15559,"сюджува":15560,"сюдженн":15561,"сюзерен":15562,"сочува":15563,"смуг":15564,"смуж":15565,"смух":15566,"смуч":15567,"смуш":15568,"смужж":15569,"тpy":15570,"тpiп":15571,"тpоx":15572,"тавот":15573,"тавто":15574,"таврід":15575,"фоа":15576,"фосил":15577,"фокус":15578,"фено":15579,"фенол":15580,"фенак":15581,"феноль":15582,"феномен":15583,"фетр":15584,"фетиш":15585,"франц":15586,"франч":15587,"франко":15588,"франкен":15589,"франклін":15590,"франциск":15591,"хрип":15592,"христ":15593,"хризо":15594,"христа":15595,"христува":15596,"хризант":15597,"христос":15598,"християн":15599,"цюц":15600,"цюць":15601,"цюріх":15602,"цинг":15603,"цинк":15604,"циндр":15605,"чова":15606,"човг":15607,"човн":15608,"човп":15609,"човен":15610,"човно":15611,"човник":15612,"човнов":15613,"шлір":15614,"шліх":15615,"шліц":15616,"шліць":15617,"шліхт":15618,"шліссель":15619,"шліхтува":15620,"шевк":15621,"шеврон":15622,"шеврет":15623,"шевчен":15624,"шевйот":15625,"ютант":15626,"я́в":15627,"я́нт":15628,"ящер":15629,"ящур":15630,"ящич":15631,"ящір":15632,"ящик":15633,"ієрей":15634,"ієрем":15635,"ієрихон":15636,"атоp":15637,"репсов":15638,"рептиль":15639,"рептуш":15640,"рижев":15641,"рижій":15642,"рижієв":15643,"кумек":15644,"кумир":15645,"кумич":15646,"кумйс":15647,"касет":15648,"касозь":15649,"копч":15650,"копит":15651,"копирс":15652,"копія":15653,"копіі":15654,"копій":15655,"копіич":15656,"копіюва":15657,
[...]
